<unk>	0
<s>	0
</s>	0
s	-3.23829
▁the	-4.14168
▁and	-4.36028
e	-4.37777
▁of	-4.53345
▁a	-4.53361
ed	-4.55365
y	-4.59997
ing	-4.63764
▁in	-4.69121
▁s	-4.77401
▁to	-4.80914
ly	-4.86613
d	-4.96279
▁one	-5.02576
n	-5.06403
er	-5.17485
t	-5.21226
▁is	-5.34255
▁of▁the	-5.47866
▁two	-5.55272
o	-5.5667
a	-5.64206
al	-5.70845
▁for	-5.71676
▁or	-5.75959
▁was	-5.7966
m	-5.80025
or	-5.84621
▁that	-5.86781
l	-5.87451
▁in▁the	-5.87979
r	-5.88047
es	-5.91795
i	-5.91945
c	-5.92121
s▁of	-5.96509
p	-5.98508
s▁and	-6.04035
k	-6.06337
ic	-6.0675
▁an	-6.07665
▁three	-6.08727
in	-6.1062
▁b	-6.12576
▁with	-6.13806
▁c	-6.13989
▁on	-6.14952
▁by	-6.15034
h	-6.15088
f	-6.16067
▁five	-6.17508
▁this	-6.18733
▁nine	-6.19228
ion	-6.21895
g	-6.22556
▁also	-6.22829
▁e	-6.25604
b	-6.25952
▁d	-6.26034
▁he	-6.26094
▁as	-6.27856
en	-6.29001
▁it	-6.29053
u	-6.29219
ive	-6.29862
le	-6.31707
on	-6.33702
▁k	-6.39033
an	-6.39462
▁p	-6.39982
s▁the	-6.40975
▁from	-6.41557
us	-6.42039
▁f	-6.43857
▁r	-6.44612
ation	-6.45224
▁be	-6.46802
▁i	-6.48144
▁	-6.4821
▁l	-6.50284
▁co	-6.54639
s▁are	-6.56284
▁re	-6.56748
▁g	-6.57512
▁at	-6.58291
ed▁by	-6.59193
▁are	-6.59352
▁which	-6.59601
▁four	-6.60169
▁six	-6.61028
▁but	-6.62121
▁t	-6.62728
el	-6.63132
▁has	-6.63322
▁m	-6.63386
▁n	-6.63611
re	-6.65214
▁his	-6.65355
ch	-6.6577
ies	-6.66135
ar	-6.66279
▁h	-6.70224
▁w	-6.7073
▁to▁the	-6.70781
▁some	-6.724
it	-6.72985
ist	-6.73645
st	-6.7365
▁one▁eight	-6.73916
▁other	-6.74285
ism	-6.74494
ed▁the	-6.74782
il	-6.76426
▁and▁the	-6.79002
▁de	-6.80714
ia	-6.81029
te	-6.81422
▁eight	-6.81494
▁all	-6.82522
▁time	-6.83913
ed▁to	-6.84265
ol	-6.84419
s▁in	-6.84935
z	-6.86792
▁more	-6.87531
at	-6.87598
▁not	-6.87652
ian	-6.87806
is	-6.89444
ra	-6.8985
▁zero	-6.89877
▁can	-6.91104
w	-6.91374
ur	-6.91866
ir	-6.92084
▁their	-6.92272
▁o	-6.92582
v	-6.9478
▁no	-6.96416
um	-6.96464
▁see	-6.96845
ent	-6.9941
▁many	-7.00167
ing▁the	-7.00516
▁on▁the	-7.01805
et	-7.02074
▁most	-7.0209
▁her	-7.021
▁un	-7.02425
▁only	-7.02671
▁year	-7.03393
▁of▁a	-7.03897
ity	-7.04232
x	-7.06694
li	-7.06899
s▁to	-7.0784
▁v	-7.08029
id	-7.08112
s▁a	-7.08132
ut	-7.08169
▁is▁a	-7.08193
ne	-7.09776
▁system	-7.10726
▁al	-7.10973
▁so	-7.11221
ce	-7.13568
▁have	-7.14231
▁were	-7.15089
▁for▁the	-7.15536
th	-7.15825
s▁of▁the	-7.17757
ta	-7.18246
▁had	-7.19489
▁di	-7.19597
ul	-7.2025
▁who	-7.20968
▁been	-7.20971
▁it▁is	-7.2098
▁two▁zero	-7.21187
la	-7.21599
able	-7.22004
▁when	-7.22094
ed▁in	-7.23338
▁first	-7.23364
▁its	-7.23782
ro	-7.23837
ant	-7.2418
▁po	-7.26444
▁new	-7.26747
ate	-7.27151
▁over	-7.27316
▁car	-7.28345
ers	-7.28575
▁people	-7.28971
▁with▁the	-7.29184
s▁were	-7.29623
▁le	-7.29698
ma	-7.29718
na	-7.30483
▁x	-7.30728
ry	-7.31246
▁how	-7.31585
▁name	-7.31757
▁st	-7.31841
est	-7.32246
▁from▁the	-7.3243
▁la	-7.32505
▁ma	-7.32517
▁one▁ni	-7.3273
ri	-7.3285
lo	-7.32931
▁state	-7.33382
ca	-7.33439
our	-7.33919
to	-7.34085
▁do	-7.34122
▁may	-7.34324
▁zero▁zero	-7.34371
▁american	-7.34487
▁general	-7.34578
ot	-7.34918
▁war	-7.35381
▁anarch	-7.36413
▁up	-7.36451
▁seven	-7.37027
▁call	-7.37462
▁as▁a	-7.37538
man	-7.3784
▁after	-7.37951
▁play	-7.38073
▁is▁the	-7.38492
▁con	-7.38812
ment	-7.3923
▁to▁be	-7.39518
ke	-7.39551
▁one▁seven	-7.39624
▁per	-7.40352
▁in▁one	-7.4056
▁bo	-7.40672
▁language	-7.41101
s▁that	-7.41351
ine	-7.41699
ang	-7.41701
im	-7.42287
▁th	-7.4377
▁j	-7.43798
▁nine▁seven	-7.44189
▁made	-7.44787
▁out	-7.45003
▁one▁zero	-7.4597
as	-7.46028
▁zero▁zero▁zero	-7.46414
▁use	-7.46569
am	-7.46666
ton	-7.47567
▁the▁first	-7.47706
▁at▁the	-7.47873
▁often	-7.48646
▁if	-7.4892
▁done	-7.48985
▁work	-7.49152
s▁in▁the	-7.49706
▁being	-7.50364
ell	-7.50485
▁bi	-7.50653
▁man	-7.51013
ad	-7.51097
ever	-7.51944
ed▁by▁the	-7.52026
▁both	-7.52425
▁high	-7.52729
▁common	-7.52844
ed▁a	-7.53043
▁ca	-7.53461
ig	-7.53879
▁these	-7.53897
▁we	-7.53965
ph	-7.54026
▁one▁six	-7.54254
j	-7.54528
▁she	-7.54737
▁will	-7.55932
▁pre	-7.57433
▁where	-7.5751
▁me	-7.5799
▁about	-7.58042
om	-7.58289
ard	-7.59341
▁show	-7.59603
▁used	-7.59818
▁point	-7.60118
land	-7.60302
▁form	-7.60524
▁u	-7.60916
ie	-7.61422
wo	-7.61556
▁english	-7.61665
op	-7.61929
hree	-7.62087
age	-7.62311
▁under	-7.6267
▁z	-7.63157
▁ta	-7.6352
▁end	-7.63907
▁different	-7.64671
ba	-7.64768
ter	-7.64914
ne▁eight	-7.65724
di	-7.66089
▁en	-7.66302
ed▁with	-7.66537
ous	-7.66602
▁they	-7.66638
▁sp	-7.66704
▁in▁a	-7.67011
ary	-7.67362
▁later	-7.67531
▁one▁nine▁ni	-7.67737
em	-7.67886
▁national	-7.68045
▁long	-7.68862
▁that▁the	-7.69565
▁pro	-7.70263
▁can▁be	-7.70394
▁would	-7.71031
co	-7.71133
od	-7.71171
▁world	-7.71235
ag	-7.71365
son	-7.71501
▁list▁of	-7.7209
s▁for	-7.72128
▁any	-7.72626
ac	-7.72741
▁ha	-7.72836
▁mo	-7.73505
▁ne	-7.7388
▁than	-7.73939
s▁with	-7.7406
▁each	-7.74207
▁ba	-7.74383
▁by▁the	-7.74479
ge	-7.75227
▁whil	-7.75279
▁early	-7.75734
ha	-7.76077
ga	-7.76349
de	-7.77277
ck	-7.7732
▁with▁a	-7.77574
ish	-7.77689
▁even	-7.77716
▁several	-7.77806
ness	-7.77922
▁area	-7.78176
▁na	-7.78301
▁it▁was	-7.78434
▁place	-7.78508
▁human	-7.78729
▁sa	-7.78769
▁popular	-7.78772
▁same	-7.79123
▁very	-7.79276
▁blue	-7.79398
▁cl	-7.79405
▁ar	-7.7946
▁ch	-7.79548
▁taste	-7.79689
▁life	-7.7999
s▁such▁as	-7.80255
ance	-7.80498
▁two▁zero▁zero▁f	-7.80591
▁open	-7.81074
ial	-7.81617
▁as▁the	-7.81636
▁day	-7.81822
▁united▁states	-7.8205
▁five▁zero	-7.82239
un	-7.82315
▁che	-7.831
▁go	-7.83118
und	-7.83125
▁dr	-7.83149
▁way	-7.83224
ing▁a	-7.83257
▁ka	-7.83381
▁sub	-7.83395
▁film	-7.83466
▁law	-7.8357
ese	-7.83898
ve	-7.83973
▁ex	-7.84179
▁like	-7.84318
▁government	-7.84402
▁bear	-7.85057
ath	-7.85193
ci	-7.85366
▁him	-7.85374
▁mar	-7.85704
▁da	-7.85839
va	-7.85998
ric	-7.8605
▁bar	-7.86284
▁book	-7.86332
▁vi	-7.86766
▁for▁a	-7.86766
▁power	-7.86979
▁great	-7.87129
ti	-7.87338
▁nine▁six	-7.87487
▁modern	-7.87491
ip	-7.87536
▁john	-7.87609
▁game	-7.87645
▁line	-7.87701
▁although	-7.87772
▁am	-7.87792
▁design	-7.87862
▁large	-7.88088
go	-7.88167
▁between	-7.88175
pp	-7.88624
▁player	-7.8872
▁lo	-7.88919
▁through	-7.89373
out	-7.89543
▁into	-7.89569
▁cap	-7.89971
ow	-7.90229
▁during▁the	-7.90416
▁consider	-7.90572
▁com	-7.908
ical	-7.90894
▁music	-7.91307
▁li	-7.91364
▁free	-7.91695
▁known	-7.91877
nother	-7.92049
▁number▁of	-7.92064
▁and▁a	-7.92192
▁history	-7.92504
▁right	-7.9251
▁much	-7.92546
▁one▁of▁the	-7.9257
up	-7.92603
▁there▁are	-7.92629
▁he▁was	-7.92694
▁two▁zero▁zero▁t	-7.92722
▁what	-7.92791
ap	-7.92979
os	-7.93001
▁have▁been	-7.93238
s▁have	-7.93274
▁again	-7.93409
▁since	-7.93435
▁king	-7.93716
▁one▁one	-7.93924
▁gu	-7.93927
ence	-7.93944
▁hand	-7.94158
me	-7.94686
▁home	-7.94738
do	-7.94802
▁dis	-7.94806
ex	-7.95002
▁three▁zero	-7.95383
▁fa	-7.95648
▁include	-7.96206
▁set	-7.96327
ka	-7.96586
▁old	-7.96631
▁group	-7.9683
▁part	-7.96853
▁computer	-7.97031
▁still	-7.97089
▁german	-7.9744
▁bit	-7.9752
▁major	-7.97847
▁force	-7.9795
▁usual	-7.98089
▁such	-7.98168
sh	-7.98326
▁french	-7.98489
▁present	-7.98634
▁support	-7.98972
▁mean	-7.99085
ed▁in▁the	-7.99173
no	-7.99333
▁us	-7.99473
ast	-7.99644
▁ab	-7.99964
▁gra	-8.00213
▁non	-8.00279
ated	-8.00389
▁god	-8.01069
ud	-8.01172
ed▁and	-8.01574
▁pe	-8.01702
ver	-8.01726
▁small	-8.01912
▁one▁four	-8.02495
▁to▁a	-8.02621
ach	-8.02993
▁allow	-8.03172
▁ki	-8.03263
▁mi	-8.03329
▁external▁link	-8.03523
der	-8.03528
▁real	-8.04135
▁water	-8.04461
▁du	-8.04563
▁ban	-8.04836
▁down	-8.05478
▁el	-8.05564
▁back	-8.05707
▁found	-8.05742
▁side	-8.05777
ium	-8.06063
▁you	-8.0638
▁now	-8.06443
ite	-8.06491
per	-8.0663
▁inter	-8.0669
▁international	-8.06934
tic	-8.07254
ill	-8.07267
▁british	-8.07332
da	-8.07561
▁y	-8.07586
▁two▁one	-8.07709
▁there	-8.07732
▁pa	-8.07963
▁information	-8.08062
pe	-8.08176
▁fi	-8.08226
be	-8.08364
day	-8.08916
ni	-8.09005
▁team	-8.10286
▁land	-8.10299
▁public	-8.103
▁air	-8.10665
ed▁as	-8.10869
▁art	-8.1112
▁left	-8.11343
▁service	-8.11405
jo	-8.11445
▁south	-8.11884
▁japan	-8.11936
▁near	-8.12507
▁ga	-8.12562
▁field	-8.12729
▁list	-8.12782
▁standard	-8.1281
▁short	-8.13007
▁west	-8.13082
▁one▁nine▁t	-8.13122
▁har	-8.13145
▁sometime	-8.1356
▁ko	-8.13642
▁ri	-8.13705
▁president	-8.13829
ed▁for	-8.14015
vi	-8.14079
▁ro	-8.1429
tra	-8.14394
▁tra	-8.14398
▁act	-8.14429
▁rule	-8.14432
▁case	-8.1449
▁period	-8.14607
ber	-8.14845
▁of▁his	-8.14959
▁tri	-8.14996
▁develop	-8.15154
▁effect	-8.1525
▁pi	-8.15335
ct	-8.15395
▁se	-8.15448
au	-8.15679
▁for▁example	-8.15719
▁final	-8.15755
▁view	-8.16187
▁function	-8.16244
▁record	-8.16251
▁anti	-8.16273
▁food	-8.16354
ide	-8.16765
▁wide	-8.16821
ster	-8.17067
▁nine▁zero	-8.17077
▁sea	-8.17282
▁school	-8.17376
▁source	-8.17628
▁compani	-8.17877
▁creat	-8.17994
▁space	-8.18071
con	-8.18158
▁character	-8.18207
s▁on	-8.18411
▁contain	-8.18664
▁run	-8.18772
▁article	-8.19057
bi	-8.19196
▁military	-8.19281
ron	-8.19401
▁family	-8.19414
ak	-8.19577
▁fe	-8.19676
▁wa	-8.19718
si	-8.19786
▁add	-8.1989
s▁from	-8.19946
▁political	-8.20226
▁ra	-8.20606
po	-8.20695
▁was▁a	-8.20815
che	-8.20867
ick	-8.209
ner	-8.20983
▁ni	-8.21024
ling	-8.21083
ists	-8.21101
▁bre	-8.21158
▁ad	-8.21201
▁process	-8.21371
▁off	-8.2144
pa	-8.21455
▁before	-8.21511
▁given	-8.2191
ized	-8.21954
▁men	-8.21999
▁light	-8.2205
▁read	-8.22234
▁order	-8.22501
▁te	-8.22552
▁change	-8.22727
▁thus	-8.22904
▁second	-8.22945
▁follow	-8.23005
▁two▁four	-8.23029
mit	-8.23079
▁claim	-8.23411
mon	-8.23624
ho	-8.23672
▁east	-8.2376
▁research	-8.24095
▁pass	-8.24118
▁less	-8.2414
▁battle	-8.24261
▁appear	-8.24346
ed▁that	-8.24389
▁value	-8.2469
▁company	-8.24805
▁th▁century	-8.25185
bo	-8.25235
▁every	-8.25319
▁fl	-8.25697
▁christian	-8.25773
▁though	-8.25869
ty	-8.25976
▁term	-8.26016
s▁or	-8.2623
▁zero▁four	-8.26461
ru	-8.26776
▁super	-8.27096
ion▁of	-8.27143
▁ti	-8.27156
▁star	-8.27293
ator	-8.27356
▁start	-8.27459
▁north	-8.27463
he	-8.27654
▁unit	-8.27683
ger	-8.27836
▁ten	-8.2787
▁person	-8.27881
▁style	-8.28096
▁black	-8.2815
▁original	-8.28258
pl	-8.28511
▁few	-8.28563
▁direct	-8.28567
▁good	-8.2863
▁image	-8.28881
▁then	-8.28914
▁individual	-8.29086
min	-8.29099
▁economic	-8.29156
▁is▁not	-8.2918
▁nine▁four	-8.29503
ed▁on	-8.29574
▁full	-8.29639
▁level	-8.29646
▁type	-8.2974
▁head	-8.29744
▁various	-8.3006
ah	-8.30127
hi	-8.30346
▁until	-8.30359
▁imp	-8.30389
▁remain	-8.30392
ne▁nine	-8.30775
▁social	-8.30991
▁text	-8.31227
mo	-8.31229
▁red	-8.31238
ction	-8.31268
▁such▁as	-8.31311
less	-8.31402
one	-8.31449
▁house	-8.31507
▁two▁five	-8.31686
▁problem	-8.31754
▁just	-8.31819
▁well	-8.31881
▁program	-8.31927
ley	-8.3197
▁theory	-8.32268
▁bank	-8.32413
▁which▁is	-8.32439
▁recent	-8.32532
by	-8.32566
ure	-8.32641
▁could	-8.32881
▁western	-8.32929
▁includ	-8.32995
▁exist	-8.33023
bb	-8.33112
▁kill	-8.33193
▁may▁be	-8.3377
▁model	-8.3392
▁countr	-8.34398
▁ball	-8.34465
av	-8.34659
▁em	-8.34702
▁using	-8.34702
▁city	-8.3472
▁bc	-8.35112
▁attack	-8.35321
▁color	-8.35388
▁official	-8.35407
▁main	-8.35489
▁bra	-8.35537
▁body	-8.35629
▁they▁are	-8.35695
either	-8.35758
unt	-8.3588
▁central	-8.35933
▁death	-8.35943
▁four▁zero	-8.36046
▁currenc	-8.36049
▁similar	-8.36238
▁earth	-8.36423
▁series	-8.36513
▁element	-8.36658
way	-8.36672
▁european	-8.3675
▁this▁is	-8.36771
▁further	-8.37066
▁greek	-8.37152
▁feature	-8.37239
▁them	-8.37501
▁zero▁one	-8.3778
if	-8.37809
▁party	-8.37813
▁code	-8.37815
▁as▁well▁as	-8.37824
▁low	-8.37969
▁on▁a	-8.38066
▁word	-8.38092
▁data	-8.38319
ab	-8.3844
▁population	-8.38502
▁certain	-8.38521
ress	-8.38624
low	-8.38734
▁product	-8.38743
s▁which	-8.388
▁white	-8.39243
▁important	-8.39665
ll	-8.3972
end	-8.39739
▁number	-8.40171
▁island	-8.40271
▁post	-8.40509
▁roman	-8.40511
eg	-8.40823
gg	-8.40823
▁control	-8.40966
▁came	-8.40982
ful	-8.41184
▁event	-8.41266
ven	-8.4138
mp	-8.41543
▁live	-8.41551
▁bu	-8.41733
▁rec	-8.41971
y▁of	-8.42079
▁version	-8.42082
▁ho	-8.42293
▁base	-8.42298
▁sign	-8.42592
istic	-8.42689
▁river	-8.42908
▁market	-8.42934
▁range	-8.42967
▁complete	-8.42971
▁country	-8.43107
ement	-8.43113
ed▁to▁the	-8.43201
▁link	-8.43347
▁method	-8.43367
▁thos	-8.43509
▁publish	-8.43803
▁eight▁eight	-8.43857
▁object	-8.43884
▁typical	-8.43898
iv	-8.43901
▁season	-8.43904
▁three▁one	-8.44006
ler	-8.44029
cc	-8.44192
▁used▁to	-8.44458
ola	-8.44626
bu	-8.44654
▁when▁the	-8.44717
▁said	-8.44792
▁interest	-8.45283
▁energy	-8.455
▁arm	-8.45597
ub	-8.45605
ally	-8.46083
mer	-8.46143
▁two▁three	-8.46328
s▁but	-8.46661
ise	-8.4668
▁band	-8.46686
▁turn	-8.46769
ship	-8.46791
ham	-8.46892
▁position	-8.46924
▁becam	-8.46983
▁movement	-8.47129
▁among	-8.47252
ft	-8.47324
▁green	-8.47402
ff	-8.47472
▁project	-8.47702
▁far	-8.47742
▁after▁the	-8.47894
▁mark	-8.47931
s▁as	-8.47953
▁rock	-8.47959
▁traditional	-8.48436
▁ver	-8.48448
▁close	-8.48557
▁region	-8.48611
▁page	-8.48683
▁species	-8.48693
▁actual	-8.4874
▁site	-8.48769
ight	-8.48838
y▁and	-8.48965
▁capital	-8.49079
▁file	-8.49188
ual	-8.49207
▁jo	-8.49582
iz	-8.49585
▁natural	-8.49643
self	-8.49671
▁dur	-8.49789
▁age	-8.49858
▁condition	-8.49886
ose	-8.4994
▁author	-8.50062
ug	-8.50173
▁er	-8.50218
▁five▁six	-8.50285
▁idea	-8.50685
ing▁to	-8.50764
▁ru	-8.5094
▁children	-8.51032
▁cha	-8.51177
▁science	-8.51328
▁say	-8.51348
ible	-8.51366
▁issue	-8.51609
▁cell	-8.51752
▁basic	-8.51787
▁animal	-8.51806
▁culture	-8.5208
▁test	-8.52107
▁example	-8.52205
▁come	-8.52307
▁from▁a	-8.52387
▁local	-8.52443
oc	-8.52612
▁one▁nine▁nine▁f	-8.52731
▁union	-8.52788
log	-8.52983
s▁who	-8.53029
▁two▁six	-8.53065
tro	-8.53144
▁meaning	-8.5318
ward	-8.53585
▁u▁s	-8.53807
▁make	-8.53969
ed▁by▁a	-8.5401
▁hold	-8.54121
▁get	-8.54154
▁lu	-8.54159
ec	-8.54249
▁new▁york	-8.54289
ile	-8.54583
▁around	-8.54641
▁action	-8.54741
▁total	-8.54949
▁isbn	-8.54986
▁represent	-8.55238
▁web	-8.55336
ten	-8.55361
▁between▁the	-8.5542
▁note	-8.55451
▁university	-8.55619
▁strong	-8.55709
ative	-8.55717
aw	-8.5574
gu	-8.55855
int	-8.55869
ating	-8.5602
wi	-8.56159
ull	-8.5617
▁did	-8.562
▁material	-8.56224
▁port	-8.5631
▁my	-8.56393
▁center	-8.56607
▁concept	-8.56724
ami	-8.56807
▁fact	-8.56812
q	-8.57112
▁lead	-8.57141
▁in▁his	-8.57177
ier	-8.57203
lin	-8.57386
▁love	-8.57534
▁trade	-8.5755
▁produc	-8.57554
▁france	-8.57621
▁become	-8.57724
▁gl	-8.57792
▁references	-8.57796
▁cause	-8.57823
▁the▁most	-8.57825
▁reason	-8.57957
▁particular	-8.58078
▁sc	-8.58082
▁above	-8.5814
▁possible	-8.58153
▁development	-8.58163
▁fire	-8.58285
▁special	-8.58363
▁string	-8.58431
▁into▁the	-8.58492
▁three▁six	-8.58546
▁structure	-8.58593
tt	-8.5869
▁used▁in	-8.5871
▁two▁eight	-8.58814
▁help	-8.58829
▁nor	-8.58885
io	-8.58946
▁never	-8.58955
▁increase	-8.59089
▁brown	-8.59303
▁associat	-8.59698
ization	-8.59724
▁thought	-8.59821
▁ja	-8.59942
men	-8.59982
▁mil	-8.6003
▁former	-8.60216
▁ed	-8.60258
▁plant	-8.60342
▁hav	-8.60746
▁last	-8.60788
es▁the	-8.60831
▁album	-8.60852
▁temperature	-8.60891
▁im	-8.60908
▁court	-8.61188
gen	-8.61355
ki	-8.61391
car	-8.61403
les	-8.61582
▁fish	-8.61731
▁held	-8.62003
▁ph	-8.62078
▁subject	-8.62094
▁sl	-8.62108
s▁and▁the	-8.62118
▁women	-8.62225
▁influence	-8.62239
▁fall	-8.62366
▁and▁other	-8.62471
▁once	-8.62503
▁stand	-8.6265
▁under▁the	-8.62656
▁sun	-8.62731
ran	-8.62732
hr	-8.62912
▁key	-8.63022
▁chemical	-8.63049
▁title	-8.63194
▁england	-8.63206
▁use▁of	-8.63241
▁seven▁zero	-8.63349
▁class	-8.63363
▁cor	-8.63449
▁games	-8.63463
com	-8.63583
▁simpl	-8.63587
ting	-8.63755
▁has▁a	-8.63782
▁society	-8.638
▁to▁have	-8.64011
▁top	-8.64033
line	-8.64107
▁cat	-8.64248
▁august	-8.64278
own	-8.6438
▁instrument	-8.64456
act	-8.64475
▁town	-8.64551
▁william	-8.64762
▁little	-8.64797
▁practice	-8.64817
▁ge	-8.64835
▁fr	-8.64862
mb	-8.64879
▁specific	-8.64886
▁cross	-8.64907
fo	-8.64938
mar	-8.64943
▁brother	-8.64948
▁took	-8.65097
tal	-8.6511
▁limit	-8.65119
▁historical	-8.65155
ther	-8.6517
▁hit	-8.65249
ze	-8.65371
▁the▁name	-8.65395
cr	-8.65433
▁sh	-8.65448
▁establish	-8.65591
▁million	-8.65629
gi	-8.65852
▁replac	-8.6593
▁within	-8.65969
▁ii	-8.66033
▁bur	-8.66075
▁big	-8.66205
▁fo	-8.66249
han	-8.66329
▁young	-8.66332
▁latin	-8.6635
ana	-8.66527
▁need	-8.66528
▁communit	-8.66705
▁machine	-8.66748
▁must	-8.66811
▁born	-8.66847
▁was▁the	-8.66854
ps	-8.66936
▁one▁nine▁nine▁t	-8.66998
▁perform	-8.67073
▁three▁five	-8.67174
ius	-8.67177
▁availabl	-8.67336
▁germany	-8.6763
▁does▁not	-8.67722
s▁includ	-8.67756
▁hard	-8.67759
ology	-8.67901
▁provide	-8.67945
▁cover	-8.68142
▁sense	-8.6815
▁according	-8.68397
▁due	-8.68448
▁refer	-8.68539
▁himself	-8.68615
▁tu	-8.68635
ix	-8.68637
▁win	-8.6867
▁five▁eight	-8.68866
▁nine▁one	-8.68873
able▁to	-8.68926
▁dec	-8.68932
za	-8.68979
▁eight▁four	-8.69083
▁produce	-8.6909
▁ancient	-8.69097
kin	-8.69226
pi	-8.69351
▁access	-8.69387
gue	-8.69569
▁built	-8.69601
▁nine▁nine	-8.69667
▁hu	-8.70047
▁london	-8.70084
▁normal	-8.70106
▁ju	-8.70393
▁consist	-8.70401
▁origin	-8.70452
▁symbol	-8.70459
▁army	-8.70506
▁software	-8.70548
gan	-8.70566
n▁t	-8.70602
s▁by	-8.7066
▁the▁term	-8.70918
▁church	-8.70976
▁late	-8.71032
▁rate	-8.7105
▁sha	-8.71073
mi	-8.71084
▁network	-8.71096
wa	-8.71134
ious	-8.71203
▁of▁an	-8.71421
▁upon	-8.71421
▁pl	-8.71524
▁return	-8.7158
lan	-8.71586
▁sound	-8.71636
▁find	-8.71688
▁more▁than	-8.71848
▁cur	-8.71849
▁two▁seven	-8.71883
net	-8.71918
▁television	-8.71942
▁accept	-8.71973
val	-8.72033
▁suggest	-8.72068
▁australia	-8.72148
▁chinese	-8.72698
▁half	-8.72716
▁give	-8.72952
▁movie	-8.73053
▁trans	-8.73199
▁of▁these	-8.7325
▁indian	-8.73338
ov	-8.73421
▁living	-8.73486
▁however▁the	-8.73624
mm	-8.73713
pt	-8.73771
▁part▁of▁the	-8.73789
▁there▁is	-8.73849
▁would▁be	-8.73919
▁building	-8.7393
▁double	-8.73944
▁is▁an	-8.74026
▁cr	-8.74055
▁report	-8.74058
▁gold	-8.741
▁attempt	-8.74111
▁richard	-8.74125
▁books	-8.74271
lar	-8.74434
▁director	-8.74465
▁do▁not	-8.74692
▁female	-8.74702
nes	-8.74773
lmost	-8.74778
▁ber	-8.74912
▁famous	-8.7505
▁extend	-8.7512
▁song	-8.75121
▁pr	-8.75152
tr	-8.75339
▁novel	-8.75427
▁va	-8.75646
▁den	-8.75861
▁america	-8.7589
▁mis	-8.76136
es▁and	-8.76201
▁take	-8.76298
ue	-8.76327
ves	-8.76424
▁ben	-8.76516
▁zero▁zero▁one	-8.7652
▁the▁city	-8.76612
▁e▁g	-8.76634
▁china	-8.76801
▁form▁of	-8.77049
s▁at	-8.77079
▁reach	-8.77101
▁q	-8.77108
s▁from▁the	-8.7715
▁two▁nine	-8.77154
▁fla	-8.77212
▁henry	-8.77363
▁move	-8.77392
▁sch	-8.77407
▁wood	-8.7747
▁gar	-8.77517
ing▁and	-8.77523
▁organization	-8.77714
▁production	-8.77777
▁success	-8.77871
▁best	-8.78021
▁micro	-8.78172
▁islands	-8.78253
▁making	-8.78316
▁of▁this	-8.78355
▁david	-8.7845
▁dollar	-8.78554
▁spec	-8.78601
s▁on▁the	-8.7861
▁windows	-8.78701
ation▁of	-8.78806
fa	-8.78852
▁memory	-8.78888
▁single	-8.79067
ought	-8.79184
▁complex	-8.79228
ed▁to▁be	-8.79298
ny	-8.79541
▁user	-8.79768
▁release	-8.79772
▁writer	-8.79871
lav	-8.80016
▁es	-8.80059
▁did▁not	-8.80301
▁experience	-8.80314
▁bl	-8.80556
▁eight▁one	-8.80596
▁past	-8.80665
ong	-8.80855
▁ke	-8.80863
▁called▁the	-8.80903
▁eu	-8.80928
▁four▁eight	-8.80946
▁mor	-8.80986
que	-8.81019
▁known▁as	-8.81275
▁based	-8.81393
▁role	-8.81452
▁especial	-8.81453
▁met	-8.81462
▁league	-8.81462
▁but▁the	-8.81877
▁flo	-8.82317
▁metal	-8.82444
▁india	-8.82496
▁and▁his	-8.82575
▁fre	-8.82697
vo	-8.82704
ability	-8.82713
▁writing	-8.82886
ed▁with▁the	-8.82978
▁rep	-8.82994
▁lower	-8.83047
▁tr	-8.83085
itie	-8.83152
ung	-8.83209
▁as▁an	-8.83277
ed▁his	-8.83316
ed▁as▁a	-8.83317
▁mountain	-8.8333
tur	-8.83548
▁pen	-8.83659
▁foreign	-8.83711
▁draw	-8.83899
▁baseball	-8.83923
▁award	-8.84007
▁wall	-8.84025
▁uk	-8.84055
▁gr	-8.84133
▁taken	-8.84165
▁health	-8.84382
▁mu	-8.84384
ture	-8.84461
▁part▁of	-8.84517
▁third	-8.84532
▁clinton	-8.84551
▁authorit	-8.84592
▁bill	-8.84636
▁because▁of	-8.84647
and	-8.84706
s▁like	-8.84709
▁europe	-8.84727
▁defin	-8.85002
ept	-8.85117
▁ship	-8.85211
ala	-8.85215
▁ur	-8.85282
field	-8.85308
▁application	-8.85323
▁flow	-8.85334
sp	-8.85355
▁friend	-8.85565
▁bri	-8.85573
▁look	-8.85885
▁have▁a	-8.85887
▁james	-8.85958
▁introduc	-8.861
▁enter	-8.86116
▁size	-8.8629
den	-8.86329
▁where▁the	-8.86333
▁over▁the	-8.86484
ari	-8.86507
nd	-8.86527
yl	-8.86578
▁three▁four	-8.86625
▁five▁nine	-8.86732
▁hi	-8.86736
▁month	-8.86794
▁account	-8.86993
cl	-8.87001
▁personal	-8.87059
▁mother	-8.87108
▁disc	-8.87281
▁relative	-8.87315
ed▁at	-8.87577
▁gi	-8.87602
▁face	-8.87713
▁receiv	-8.88085
▁emperor	-8.88118
ed▁into	-8.88183
▁ve	-8.88185
▁charles	-8.88435
▁ground	-8.88563
▁gene	-8.88662
▁seem	-8.8872
fi	-8.88873
▁radio	-8.88948
all	-8.89001
▁zero▁six	-8.89103
▁largest	-8.89182
▁leader	-8.89333
▁par	-8.89334
qui	-8.89435
▁min	-8.89473
▁groups	-8.89544
gon	-8.89595
▁believe	-8.89631
▁pan	-8.89717
▁in▁order	-8.8986
▁thing	-8.89925
we	-8.89975
amb	-8.90091
du	-8.90095
▁zero▁eight	-8.90108
▁gre	-8.90123
▁carbon	-8.90149
▁march	-8.90321
▁won	-8.90341
▁works	-8.90425
gr	-8.9049
▁independent	-8.90561
uff	-8.90616
▁bomb	-8.90742
▁university▁of	-8.90781
▁press	-8.90809
▁mid	-8.90822
▁story	-8.90881
▁paper	-8.90967
▁that▁is	-8.90989
▁robert	-8.91
▁religious	-8.91013
▁factor	-8.91162
berg	-8.91336
▁mel	-8.91391
▁based▁on	-8.91437
▁about▁the	-8.91452
▁is▁often	-8.91494
ize	-8.9162
▁cambodia	-8.91716
▁the▁following	-8.91795
▁territor	-8.91798
▁george	-8.9187
tor	-8.92109
▁race	-8.92179
dr	-8.92292
▁if▁the	-8.92295
▁ec	-8.92378
▁self	-8.9241
▁sexual	-8.92415
▁should	-8.92465
▁in▁which	-8.92505
▁put	-8.92552
▁always	-8.92576
▁remov	-8.92647
qu	-8.92666
▁technology	-8.92701
▁speak	-8.92708
▁video	-8.92774
▁discover	-8.92786
▁fast	-8.92827
▁bass	-8.92865
cu	-8.92866
can	-8.92976
tu	-8.93054
▁male	-8.93135
▁cru	-8.93172
▁northern	-8.93183
▁nature	-8.93198
▁pitch	-8.93248
▁by▁a	-8.93335
▁clear	-8.93337
ib	-8.9338
▁technique	-8.93466
▁study	-8.93469
▁del	-8.93525
her	-8.93561
iff	-8.93664
▁evidence	-8.93676
er▁s	-8.93694
▁son	-8.93703
cause	-8.93725
▁here	-8.9375
▁shoot	-8.93757
▁artist	-8.93831
▁occur	-8.93875
▁child	-8.94026
▁mass	-8.94065
af	-8.94302
▁difficult	-8.94314
ne▁seven	-8.94316
▁five▁seven	-8.94346
▁royal	-8.94691
▁true	-8.94697
▁december	-8.94782
▁park	-8.95056
▁words	-8.95099
▁activit	-8.95149
▁ski	-8.95185
▁physical	-8.95203
▁fat	-8.95209
▁therefore	-8.95224
oxide	-8.95411
▁history▁of	-8.95431
▁southern	-8.95448
▁programm	-8.95456
▁since▁the	-8.95638
▁it▁has	-8.95705
▁college	-8.95774
▁eastern	-8.95781
▁against▁the	-8.95812
panish	-8.96141
▁three▁seven	-8.96238
ik	-8.96387
▁education	-8.96389
▁three▁eight	-8.9645
▁caus	-8.96489
▁media	-8.96535
uck	-8.96556
▁gen	-8.96611
▁target	-8.96611
▁letter	-8.9662
▁a▁new	-8.96757
▁ye	-8.96804
▁toward	-8.96851
▁sweet	-8.96915
▁aircraft	-8.96949
ological	-8.96994
▁temple	-8.97102
▁hot	-8.97132
▁together	-8.97192
▁eventual	-8.97269
▁paul	-8.97321
▁business	-8.97403
ity▁of	-8.97403
▁bat	-8.97433
▁hill	-8.97567
▁week	-8.97601
▁san	-8.97652
▁future	-8.97673
▁communication	-8.97713
▁drink	-8.97852
▁november	-8.97856
▁frequent	-8.98072
▁studie	-8.9813
▁numbers	-8.98137
▁night	-8.98284
▁tur	-8.98306
▁require	-8.98374
▁difference	-8.98384
▁connect	-8.98441
▁previous	-8.98502
▁electron	-8.98615
▁cho	-8.98629
▁current	-8.98643
▁actor	-8.98693
▁degree	-8.98708
tan	-8.98713
▁because▁the	-8.98714
▁reference	-8.98771
▁question	-8.98814
▁front	-8.98815
▁dan	-8.98921
▁emb	-8.98966
▁money	-8.99002
ies▁and	-8.99027
▁higher	-8.99107
▁tree	-8.99152
▁episode	-8.99186
ritten	-8.99223
▁significant	-8.99298
▁experiment	-8.99306
▁football	-8.99357
▁je	-8.99397
▁express	-8.99412
▁electronic	-8.99484
▁through▁the	-8.99509
▁mexico	-8.9962
▁tradition	-8.99707
▁exchange	-8.99752
▁club	-8.99783
zo	-8.99846
▁continu	-9.00124
▁offer	-9.00344
▁empire	-9.00348
▁address	-9.00352
▁definition	-9.00352
▁cost	-9.00594
▁wor	-9.00596
▁father	-9.00618
▁while▁the	-9.00791
tri	-9.0081
s▁see	-9.00883
▁provid	-9.00902
▁performance	-9.01045
▁kh	-9.01046
▁prov	-9.01052
▁table	-9.01092
▁regard	-9.01131
▁successful	-9.01215
har	-9.01262
▁they▁were	-9.01308
▁australian	-9.01497
s▁include	-9.01532
lu	-9.01554
▁at▁a	-9.01631
▁initial	-9.01657
ign	-9.01673
▁grow	-9.01691
s▁he	-9.01719
ara	-9.01749
▁gri	-9.01767
▁seven▁seven	-9.01835
▁the▁last	-9.01959
▁host	-9.01978
ion▁of▁the	-9.01978
▁para	-9.0199
▁compar	-9.02076
▁figure	-9.02083
▁probabl	-9.02277
▁vol	-9.02604
▁legal	-9.02805
▁due▁to▁the	-9.02883
▁edition	-9.02921
▁station	-9.02922
▁relationship	-9.02973
s▁it	-9.02979
▁ven	-9.03006
▁the▁word	-9.03064
▁russian	-9.03101
▁which▁was	-9.0329
▁lord	-9.03295
not	-9.033
▁section	-9.03303
▁scientific	-9.0332
▁travel	-9.03346
▁mac	-9.03406
▁office	-9.03445
▁italian	-9.03519
▁out▁of	-9.0363
▁purpose	-9.03636
▁describe	-9.03712
▁kn	-9.03757
▁era	-9.03825
▁outside	-9.03885
▁found▁in	-9.03923
▁the▁new	-9.03951
▁member	-9.03966
stead	-9.04
▁prevent	-9.04018
▁no▁import	-9.041
▁states	-9.0428
▁equal	-9.04284
ttle	-9.04347
ina	-9.04386
ja	-9.04394
▁salt	-9.04524
▁command	-9.04575
ep	-9.04596
▁philosophy	-9.04642
▁hol	-9.04797
▁are▁not	-9.04847
▁engine	-9.05168
▁went	-9.0528
atic	-9.05364
▁five▁four	-9.05365
ically	-9.05516
▁or▁a	-9.0562
▁card	-9.0575
▁related	-9.0577
fl	-9.05835
▁jewish	-9.05849
▁gain	-9.0592
▁track	-9.06029
▁van	-9.06056
br	-9.06181
▁relation	-9.06248
▁break	-9.06436
▁chi	-9.0648
▁wi	-9.06552
form	-9.06558
▁might	-9.06582
▁exp	-9.0663
▁canada	-9.06645
▁charge	-9.06679
ify	-9.06688
▁channel	-9.06765
ble	-9.07174
▁length	-9.07176
▁june	-9.07201
ew	-9.07222
▁concern	-9.07268
▁matter	-9.07344
▁cold	-9.0739
az	-9.07423
▁april	-9.07529
▁belief	-9.07559
▁continue	-9.07567
ified	-9.07577
▁july	-9.0765
s▁to▁the	-9.0769
▁sal	-9.07736
▁qua	-9.07893
▁in▁some	-9.07995
rate	-9.08066
▁separate	-9.08072
▁of▁their	-9.08076
▁blood	-9.0819
▁grand	-9.08246
art	-9.08253
▁members	-9.08275
▁campaign	-9.08292
▁middle	-9.08315
tter	-9.08377
let	-9.08383
▁detail	-9.08388
uc	-9.08395
▁lost	-9.08453
▁fu	-9.08642
▁of▁its	-9.08687
▁before▁the	-9.08732
▁gas	-9.08751
bit	-9.08862
▁was▁not	-9.08876
▁away	-9.08882
▁extreme	-9.08898
▁within▁the	-9.08936
row	-9.09014
ough	-9.0909
▁deal	-9.092
ulat	-9.09202
▁shi	-9.09204
▁receptor	-9.09232
ed▁in▁one	-9.09236
▁used▁for	-9.09253
▁the▁second	-9.09331
▁manufactur	-9.09343
▁sin	-9.09463
▁mind	-9.09473
▁val	-9.09565
▁own	-9.09668
▁statistic	-9.09723
gl	-9.09797
ed▁from▁the	-9.09907
▁document	-9.09907
▁date	-9.09978
onic	-9.10089
▁simple	-9.10167
▁mal	-9.1019
▁map	-9.10297
▁in▁an	-9.10322
▁multi	-9.10381
▁prince	-9.10391
pro	-9.10438
▁display	-9.10627
▁to▁make	-9.10657
▁in▁one▁ni	-9.10676
rit	-9.10727
▁comp	-9.10836
▁the▁great	-9.10884
ok	-9.1089
▁chief	-9.10925
▁ever	-9.10974
▁round	-9.10976
▁that▁he	-9.11019
ino	-9.11061
ed▁on▁the	-9.1113
s▁of▁a	-9.11189
▁approach	-9.11209
▁speed	-9.11337
cent	-9.11369
▁elect	-9.11626
▁create	-9.11697
dic	-9.11728
ama	-9.11845
▁cal	-9.11943
▁federal	-9.11946
mann	-9.12005
▁write	-9.12027
▁lack	-9.12171
▁poet	-9.12176
▁association	-9.12182
▁mc	-9.1222
▁reform	-9.12375
▁a▁single	-9.12418
▁of▁all	-9.12464
ification	-9.12501
▁policy	-9.12629
▁situation	-9.12766
▁know	-9.12866
▁died	-9.1289
▁architecture	-9.12914
ude	-9.12914
▁should▁be	-9.13027
▁adopt	-9.13039
▁your	-9.13044
▁leg	-9.131
▁arc	-9.1312
▁device	-9.13215
▁serv	-9.13225
ili	-9.13234
▁hero	-9.1324
▁result	-9.13266
▁commercial	-9.13268
▁translation	-9.13272
uch	-9.13276
▁comput	-9.13326
▁there▁is▁a	-9.13359
▁coast	-9.13379
▁dead	-9.13402
▁keep	-9.13505
▁classical	-9.13562
▁franc	-9.13637
▁legend	-9.13719
▁search	-9.13756
▁and▁was	-9.1377
▁reaction	-9.13797
▁california	-9.13822
▁plan	-9.13856
▁up▁to	-9.13871
▁maintain	-9.13939
uk	-9.14094
▁screen	-9.14213
▁peter	-9.14286
▁he▁had	-9.14332
▁visit	-9.14349
cal	-9.14442
▁virtual	-9.14464
▁pla	-9.14469
▁ir	-9.14595
zi	-9.14661
▁ce	-9.14717
▁surface	-9.14831
▁want	-9.14836
▁four▁seven	-9.14865
duct	-9.14926
▁nine▁eight▁nine	-9.1504
s▁this	-9.15082
▁easi	-9.1515
▁protein	-9.15176
▁ob	-9.15177
▁describ	-9.1522
hether	-9.15238
▁rank	-9.15395
ox	-9.15474
▁behavior	-9.15707
▁fri	-9.1574
▁km	-9.15787
▁wave	-9.15811
arian	-9.15839
▁bal	-9.15863
▁sta	-9.15967
▁and▁is	-9.16002
▁char	-9.16011
▁likely	-9.16113
hu	-9.16181
▁division	-9.16185
▁heat	-9.16321
▁will▁be	-9.16332
ition	-9.16638
▁gun	-9.16899
▁collect	-9.16906
▁adapt	-9.16937
▁pattern	-9.17026
▁rare	-9.17047
rac	-9.17216
▁stage	-9.17286
▁ham	-9.17307
▁advance	-9.17337
▁appearance	-9.17351
▁content	-9.17379
▁voice	-9.17443
the	-9.17628
▁su	-9.17656
ram	-9.1782
▁active	-9.17827
▁drive	-9.17862
▁centre	-9.179
▁recogniz	-9.17901
▁additional	-9.18118
▁career	-9.18145
▁into▁a	-9.18169
▁sum	-9.18242
▁brought	-9.18325
▁one▁nine▁six▁f	-9.18338
▁operation	-9.18415
▁frac	-9.18434
▁fair	-9.18466
ford	-9.18502
cy	-9.18541
▁store	-9.18607
▁counter	-9.18744
▁wind	-9.18768
ne▁six	-9.18862
▁had▁a	-9.18864
▁birth	-9.19094
▁hum	-9.19126
▁join	-9.1914
▁eye	-9.1915
▁religion	-9.19166
ris	-9.19174
▁industry	-9.19223
ack	-9.19289
s▁had	-9.19326
▁council	-9.1935
▁etc	-9.194
▁native	-9.19433
▁earli	-9.19484
▁attract	-9.19488
▁drum	-9.19496
rian	-9.19501
pr	-9.19539
▁wild	-9.19563
ash	-9.19645
▁ion	-9.19806
▁in▁two▁zero	-9.19817
▁observ	-9.19919
▁combin	-9.19946
▁our	-9.19971
▁internet	-9.20007
▁pra	-9.20017
ock	-9.20044
▁soon	-9.20046
▁county	-9.20052
over	-9.20062
▁branch	-9.20122
▁stan	-9.20177
▁four▁four	-9.20232
▁zero▁seven	-9.20317
▁rather	-9.20429
▁currently	-9.2048
▁tun	-9.20539
side	-9.20546
▁inc	-9.20559
▁must▁be	-9.20612
es▁a	-9.20646
▁average	-9.20648
▁fra	-9.20664
▁whom	-9.20688
ney	-9.20714
▁skill	-9.20747
▁and▁its	-9.20788
umb	-9.20793
▁quant	-9.20902
▁too	-9.20915
▁one▁eight▁seven	-9.20999
▁detect	-9.21079
▁irish	-9.21108
ev	-9.21304
▁convention	-9.21362
▁bor	-9.21383
▁regular	-9.21391
▁a▁large	-9.21542
▁spain	-9.21617
▁arch	-9.21737
don	-9.21737
▁walk	-9.21783
bil	-9.21801
▁news	-9.21868
▁boy	-9.21932
▁fight	-9.22012
▁mod	-9.22068
burg	-9.22179
▁formal	-9.22341
▁longer	-9.22387
▁mention	-9.22458
▁analysi	-9.22469
▁conduct	-9.22522
▁substance	-9.22526
ular	-9.2259
ade	-9.22638
▁citie	-9.22642
vis	-9.22733
▁han	-9.22822
▁br	-9.22835
▁think	-9.2286
s▁for▁the	-9.22891
▁nine▁nine▁zero	-9.2296
▁the▁original	-9.23144
▁institute	-9.23281
▁sport	-9.2329
ware	-9.23349
▁hor	-9.23401
▁working	-9.23444
▁location	-9.23649
▁course	-9.23744
wise	-9.23761
▁nine▁nine▁one	-9.23848
▁competition	-9.23857
▁sur	-9.23857
▁themsel	-9.23876
▁disease	-9.24018
▁series▁of	-9.24065
▁environment	-9.2408
▁that▁it	-9.24169
▁cra	-9.24188
▁dog	-9.2428
▁increasing	-9.24284
▁six▁six	-9.24293
▁surviv	-9.24369
bert	-9.24419
s▁an	-9.24482
ed▁him	-9.24519
▁alternative	-9.24541
▁private	-9.24542
▁victor	-9.24556
▁hydrogen	-9.24559
▁semi	-9.24571
script	-9.24589
▁could▁be	-9.24602
set	-9.2462
▁cut	-9.24792
ko	-9.24793
▁institution	-9.2482
▁fort	-9.24967
▁brand	-9.24987
aught	-9.25009
▁five▁three	-9.25057
▁leave	-9.25065
▁vote	-9.25213
▁cup	-9.25272
▁similar▁to	-9.25322
▁entire	-9.25386
vin	-9.25444
▁global	-9.25459
d▁from	-9.25496
par	-9.25501
▁effort	-9.25542
▁among▁the	-9.25567
ised	-9.25571
▁referred▁to▁a	-9.25639
▁constellation	-9.25809
▁sav	-9.25898
▁pal	-9.25946
ific	-9.26008
▁achiev	-9.26056
▁mon	-9.26096
▁derive	-9.26137
▁categor	-9.2619
▁resource	-9.26229
▁combination	-9.26297
▁professional	-9.26305
▁master	-9.26339
ready	-9.26358
▁economy	-9.26411
▁running	-9.26529
▁online	-9.26558
▁guide	-9.26594
▁affect	-9.26717
▁better	-9.26741
▁cultural	-9.26824
▁letters	-9.26829
▁nam	-9.2686
▁engineering	-9.26885
▁woman	-9.26926
▁street	-9.2697
▁gall	-9.26971
▁along▁with	-9.27028
ase	-9.27047
▁distinct	-9.27086
▁improv	-9.27124
▁divid	-9.27139
▁flu	-9.27207
ai	-9.27356
▁the▁other	-9.27431
word	-9.27574
▁larger	-9.27593
▁behind	-9.27647
▁queen	-9.27649
▁picture	-9.27695
▁paris	-9.27849
▁effective	-9.27909
▁prop	-9.28031
▁dark	-9.28035
▁singer	-9.28127
▁dispute	-9.28221
▁destroy	-9.28266
▁board	-9.2835
▁road	-9.28386
well	-9.28388
▁guitar	-9.28454
▁asia	-9.28464
▁ze	-9.28466
▁museum	-9.28495
▁focus	-9.28595
▁compound	-9.2873
▁organ	-9.28975
▁qualit	-9.29016
▁peace	-9.29039
▁magazine	-9.29045
▁planet	-9.29047
▁bird	-9.29084
▁quick	-9.2915
ode	-9.29187
▁thomas	-9.29391
▁the▁world	-9.2943
▁saint	-9.29601
▁rac	-9.29613
▁louis	-9.29627
▁step	-9.29627
▁for▁his	-9.29629
ulation	-9.29659
og	-9.29672
ably	-9.29721
▁knowledge	-9.29759
▁days	-9.29845
▁damage	-9.29882
▁hall	-9.29889
▁count	-9.29935
▁syn	-9.30019
pho	-9.3005
▁conflict	-9.30061
▁the▁main	-9.30063
▁graphic	-9.30065
cus	-9.30069
fer	-9.30149
▁dance	-9.30166
▁description	-9.30194
▁tax	-9.30209
▁hell	-9.30224
▁sam	-9.30357
▁electric	-9.30422
▁poem	-9.30444
▁acid	-9.3047
▁seven▁four	-9.30623
▁rather▁tha	-9.30696
ed▁it	-9.30729
▁one▁nine▁five▁f	-9.30778
▁ya	-9.30789
▁following	-9.30946
▁drug	-9.30981
▁seven▁eight	-9.30985
▁all▁the	-9.3102
▁shape	-9.31023
s▁it▁is	-9.31033
▁yet	-9.31101
▁heart	-9.31151
▁this▁was	-9.31248
▁pun	-9.31255
▁invent	-9.31261
h▁century	-9.31265
▁marri	-9.31289
hood	-9.31394
▁terr	-9.31425
▁fund	-9.31439
▁horse	-9.31509
▁explain	-9.31532
▁genetic	-9.31534
▁principle	-9.31584
▁deb	-9.31703
▁goal	-9.31759
▁burn	-9.31797
▁that▁a	-9.31843
▁tim	-9.31852
▁deep	-9.31945
▁piece	-9.31989
▁lake	-9.31993
ies▁of	-9.32017
▁iii	-9.32096
▁bible	-9.32203
pping	-9.32214
▁israel	-9.32222
time	-9.32312
▁cast	-9.32361
▁believ	-9.32413
▁known▁as▁the	-9.32423
▁measure	-9.32432
▁four▁six	-9.32434
▁involve	-9.32502
▁defeat	-9.32606
▁does	-9.32675
▁some▁of▁the	-9.32696
ed▁in▁a	-9.32764
▁euro	-9.32923
▁wife	-9.32977
▁rich	-9.32977
▁format	-9.33009
▁most▁of▁the	-9.33021
▁algebra	-9.33067
▁print	-9.33082
▁receive	-9.33137
▁from▁one	-9.33173
▁property	-9.33189
▁at▁lea	-9.33201
▁os	-9.3321
▁rest	-9.33265
▁tro	-9.33298
▁bridge	-9.33375
▁square	-9.334
s▁about	-9.33436
▁eth	-9.33477
▁tour	-9.33493
▁et	-9.33654
▁century	-9.33655
▁protect	-9.33679
ata	-9.33695
▁russia	-9.33731
▁renam	-9.3374
▁minister	-9.33742
▁pay	-9.33779
▁colon	-9.33782
▁journal	-9.33783
▁distance	-9.33839
s▁that▁are	-9.33907
▁slow	-9.33928
▁cases	-9.33968
▁don	-9.34012
▁republic	-9.34017
▁fail	-9.34023
▁cook	-9.3404
▁foundation	-9.34085
▁births	-9.34296
▁cd	-9.34311
▁weight	-9.34508
▁die	-9.34606
▁including▁the	-9.34608
▁share	-9.34656
er▁than	-9.34683
▁fer	-9.34924
▁tv	-9.35036
▁brain	-9.35081
▁extensive	-9.35086
▁he▁is	-9.35123
ed▁that▁the	-9.35227
ich	-9.35229
ax	-9.35263
▁bega	-9.35268
▁begin	-9.35292
▁treat	-9.35689
▁fifth	-9.35736
▁dev	-9.35826
▁ice	-9.35874
s▁can▁be	-9.3601
▁nation	-9.36017
▁camp	-9.36017
▁michael	-9.36109
ati	-9.36141
ump	-9.36146
▁although▁the	-9.36155
▁rais	-9.36159
▁minor	-9.36172
▁winter	-9.36203
▁extra	-9.36205
▁stra	-9.36211
▁ken	-9.36244
▁verb	-9.36265
▁numerous	-9.36365
▁hour	-9.36401
▁rob	-9.36478
▁pair	-9.36513
▁particle	-9.36558
▁occurr	-9.36565
▁stock	-9.36599
▁sho	-9.36702
s▁in▁a	-9.3672
▁african	-9.36843
▁eight▁nine	-9.36899
▁such▁a	-9.36925
▁gave	-9.3693
▁preserv	-9.37047
▁gnu	-9.37105
▁gro	-9.37106
▁became▁a	-9.37156
▁eat	-9.37216
▁orthodox	-9.37279
▁pack	-9.37307
▁characters	-9.37325
s▁can	-9.37368
▁chang	-9.37383
▁extinct	-9.37383
▁iron	-9.374
▁the▁british	-9.37477
▁agent	-9.37527
▁britain	-9.37542
▁evolution	-9.3755
ing▁that	-9.37573
▁basis	-9.37619
▁tre	-9.37648
▁nuclear	-9.37673
▁decade	-9.37832
▁primar	-9.37863
s▁these	-9.37882
▁generat	-9.37899
▁as▁well	-9.37935
▁flag	-9.37964
itz	-9.37975
▁scientist	-9.38026
▁his▁own	-9.38111
▁sex	-9.38133
▁temp	-9.38188
rm	-9.38195
▁commission	-9.38231
▁construction	-9.38271
▁subsequent	-9.3828
▁pat	-9.38304
▁stone	-9.38371
▁roll	-9.3844
▁stop	-9.38463
▁kit	-9.38488
meter	-9.38503
▁correspond	-9.38597
▁border	-9.38634
▁zero▁nine	-9.38669
▁quite	-9.38673
▁depend	-9.38679
▁saw	-9.3875
▁qu	-9.38769
▁amount▁of	-9.38773
ed▁an	-9.38801
▁constant	-9.38846
▁forward	-9.38852
illa	-9.38856
▁cit	-9.38862
▁canadian	-9.38977
▁assist	-9.39033
▁volume	-9.39057
▁formula	-9.39125
▁champion	-9.39177
ception	-9.39213
ult	-9.39229
▁indicat	-9.39257
▁website	-9.39264
▁critical	-9.39265
▁pressure	-9.39354
▁i▁e	-9.39365
▁conc	-9.39383
▁myth	-9.39456
▁treatment	-9.39485
▁next	-9.39583
▁coin	-9.39614
ada	-9.39649
s▁may	-9.39651
▁broad	-9.39687
▁releas	-9.39719
▁str	-9.39812
▁pick	-9.39898
ivity	-9.39966
▁musical	-9.40073
▁mari	-9.40099
▁eight▁seven	-9.4014
▁generation	-9.40343
▁united▁kingdom	-9.40364
▁congress	-9.40426
▁correct	-9.40429
▁der	-9.40443
▁election	-9.40453
ison	-9.4049
amp	-9.40493
▁kingdom	-9.40545
▁let	-9.40644
▁flight	-9.40647
▁avoid	-9.40716
▁perfect	-9.40764
▁photo	-9.40803
ean	-9.40836
unk	-9.40939
lam	-9.40973
tin	-9.40986
▁ill	-9.41057
ne▁eight▁zero▁s	-9.41101
ion▁and	-9.41198
▁direction	-9.41199
▁bro	-9.41322
▁pop	-9.41386
▁epi	-9.4142
▁broadcast	-9.41445
▁cu	-9.4146
▁set▁of	-9.41554
▁revolution	-9.41585
▁bio	-9.41673
▁www	-9.41724
▁one▁nine▁five▁t	-9.41729
▁became▁the	-9.41911
cro	-9.41923
▁match	-9.42053
▁world▁war▁ii	-9.42129
▁unique	-9.42172
▁affair	-9.42227
ing▁it	-9.42245
▁medical	-9.42254
▁library	-9.42263
▁fan	-9.42276
▁ocean	-9.42366
▁decision	-9.42383
▁taking	-9.42521
▁digital	-9.42533
▁films	-9.42534
▁disorder	-9.42542
ed▁with▁a	-9.42593
▁expression	-9.42684
▁solid	-9.42802
▁scale	-9.42821
▁creation	-9.42975
s▁with▁the	-9.4307
▁ask	-9.43084
▁dy	-9.43112
ett	-9.43161
▁at▁the▁time	-9.43193
▁catholic	-9.4321
▁defense	-9.43214
▁translat	-9.43237
off	-9.43323
ome	-9.43357
▁cro	-9.43373
▁alexander	-9.43426
▁bond	-9.43429
▁reported	-9.43452
▁unlike	-9.43467
▁announc	-9.43496
▁seven▁six	-9.43522
▁price	-9.4353
▁op	-9.43541
▁review	-9.43561
▁led▁to	-9.43595
▁weapon	-9.43646
spite	-9.43654
▁context	-9.43671
▁four▁nine	-9.43748
▁potential	-9.43797
▁block	-9.43866
s▁some	-9.43929
ette	-9.43932
▁mission	-9.43975
▁serve	-9.44009
▁miles	-9.44068
▁universal	-9.441
▁prior	-9.44113
▁http	-9.44118
▁tell	-9.4417
▁homosexual	-9.44217
kh	-9.44255
▁app	-9.44267
▁pet	-9.44321
▁secret	-9.44357
▁of▁which	-9.44399
▁mix	-9.44419
▁bru	-9.44433
▁remained	-9.44461
lect	-9.44461
▁throughout▁the	-9.44463
▁binary	-9.44464
ji	-9.44471
ott	-9.44489
gar	-9.44512
▁box	-9.44597
▁feel	-9.44658
gh	-9.44679
▁argue	-9.44784
▁reduce	-9.449
▁mont	-9.44934
▁a▁small	-9.44948
▁mode	-9.4504
▁parliament	-9.45063
▁custom	-9.4507
▁bob	-9.45191
▁summer	-9.45231
▁until▁the	-9.45277
back	-9.45489
▁one▁nine▁four▁f	-9.45508
▁contribut	-9.45542
rid	-9.45562
port	-9.45669
▁talk	-9.45726
▁tele	-9.45729
▁couple	-9.45759
tar	-9.45809
▁ireland	-9.45848
▁status	-9.45848
▁sold	-9.45861
▁compil	-9.45884
▁six▁seven	-9.45967
▁shot	-9.45984
▁col	-9.46088
▁error	-9.46121
▁corn	-9.4617
▁frank	-9.46203
▁ut	-9.46256
▁industrial	-9.46272
▁corporation	-9.46281
▁suffer	-9.46285
▁bel	-9.46302
▁orient	-9.46331
▁introduction	-9.46477
ith	-9.46497
▁signal	-9.4657
▁described▁a	-9.46578
▁contrast	-9.46625
▁highest	-9.4679
▁whos	-9.46844
▁and▁then	-9.46899
▁happen	-9.46995
▁apparent	-9.47094
▁notable	-9.47105
▁judge	-9.47156
ne▁eight▁seven	-9.47173
▁convert	-9.47188
▁daughter	-9.47227
▁than▁the	-9.47553
▁progress	-9.47587
ica	-9.47591
ez	-9.47662
▁demand	-9.47697
▁root	-9.47774
▁alphabet	-9.47827
s▁between	-9.47879
▁promot	-9.47886
▁vary	-9.47906
▁execut	-9.47971
▁jews	-9.48031
▁poly	-9.48038
▁thr	-9.48059
▁reflect	-9.48259
bra	-9.48271
▁type▁of	-9.4833
▁takes	-9.48332
▁arab	-9.48347
▁employ	-9.48391
▁ul	-9.48434
▁sell	-9.48436
s▁that▁the	-9.48449
house	-9.48454
▁defend	-9.48559
▁iv	-9.48572
▁there▁is▁no	-9.48607
▁who▁was	-9.48784
▁distribution	-9.48823
▁mat	-9.48849
▁called▁a	-9.48858
▁seat	-9.49015
▁independenc	-9.49082
▁makes	-9.49139
▁barr	-9.49143
▁deaths	-9.49176
▁minute	-9.49178
▁est	-9.49224
▁the▁same▁time	-9.49258
▁bring	-9.49276
▁those▁who	-9.49278
▁sky	-9.49281
▁algorithm	-9.49302
▁interface	-9.49318
▁these▁are	-9.49325
▁joseph	-9.49427
win	-9.49454
▁restrict	-9.49548
▁apple	-9.49648
▁politics	-9.49704
▁was▁an	-9.49709
▁weak	-9.49734
▁wrot	-9.49797
▁criticism	-9.49801
▁domain	-9.49815
cious	-9.49821
▁something	-9.49847
▁soft	-9.4997
▁officer	-9.49974
▁holy	-9.50117
▁prepar	-9.50119
▁sports	-9.50157
▁determin	-9.50176
▁foot	-9.50196
▁it▁is▁not	-9.5024
▁automat	-9.50241
▁domestic	-9.50297
▁job	-9.50307
▁forest	-9.5034
▁in▁many	-9.50349
▁declar	-9.50354
▁group▁of	-9.5039
s▁and▁other	-9.5049
ula	-9.505
▁communist	-9.50506
▁new▁zealand	-9.50606
▁grant	-9.50658
▁rome	-9.50662
▁or▁the	-9.50908
▁their▁own	-9.50953
▁separat	-9.50976
s▁to▁be	-9.50977
▁along▁the	-9.51031
▁scene	-9.51216
▁blade	-9.51258
tom	-9.5126
▁multiple	-9.51324
▁exact	-9.51329
▁variant	-9.51363
▁civil▁war	-9.51443
▁identifi	-9.51501
▁fuel	-9.51526
▁loss	-9.51537
▁argument	-9.51558
head	-9.51702
▁characteristic	-9.5172
▁technical	-9.51909
ed▁out	-9.51912
▁mono	-9.51913
ano	-9.51947
oth	-9.52013
▁philosopher	-9.52043
▁inspir	-9.52048
▁in▁its	-9.52083
▁confus	-9.52252
▁score	-9.52332
▁approximate	-9.52395
▁transfer	-9.52488
▁literature	-9.52535
▁steel	-9.52592
▁variation	-9.52623
▁engineer	-9.52658
▁in▁fact	-9.52719
▁interaction	-9.52788
▁heavy	-9.52796
▁treaty	-9.52801
▁hyper	-9.52882
ville	-9.52902
▁sequence	-9.52955
ity▁and	-9.52961
▁financial	-9.53
▁back▁to	-9.53097
▁dynamic	-9.53126
▁cuisine	-9.53141
▁transform	-9.5329
▁frame	-9.533
▁who▁had	-9.53349
▁the▁result	-9.53391
▁carry	-9.534
▁appoint	-9.53423
▁solution	-9.53452
▁animat	-9.53601
▁civil	-9.53701
▁philip	-9.53723
▁scot	-9.53725
king	-9.53781
▁pur	-9.53909
▁aspect	-9.53947
▁smith	-9.54051
▁older	-9.54107
ball	-9.54238
s▁such▁as▁the	-9.54301
▁farm	-9.54335
▁possibl	-9.54465
▁upper	-9.54467
▁finish	-9.54494
stone	-9.54504
▁committee	-9.54517
▁in▁other	-9.54653
▁exception	-9.54741
▁controll	-9.54757
▁room	-9.54795
▁percent	-9.54805
▁to▁be▁a	-9.54824
▁scott	-9.54828
▁mail	-9.54967
▁owner	-9.54971
▁favor	-9.54977
▁featur	-9.5511
▁terms	-9.5512
▁for▁its	-9.55156
▁continuous	-9.55162
▁carri	-9.5526
▁airport	-9.55286
▁fur	-9.55314
▁province	-9.55373
▁debate	-9.556
rich	-9.55603
▁whi	-9.55629
▁equation	-9.55691
▁internal	-9.55783
▁based▁on▁the	-9.55884
▁sweden	-9.55897
▁spring	-9.55898
▁the▁u▁s	-9.55947
▁requir	-9.56153
▁serious	-9.56272
▁historian	-9.56298
▁contest	-9.56344
▁obtain	-9.56455
rom	-9.56501
▁motion	-9.56553
▁dutch	-9.56596
▁thousand	-9.56707
▁age▁of	-9.56746
▁spread	-9.56767
▁captur	-9.56813
▁don▁t	-9.56857
▁protocol	-9.56871
▁composer	-9.56919
tz	-9.56941
ers▁and	-9.56983
▁formed	-9.57043
▁credit	-9.57053
▁what▁is	-9.57141
▁got	-9.57175
▁parties	-9.57248
▁or▁other	-9.57272
▁diagnos	-9.57288
▁christ	-9.57315
▁refers▁to	-9.57365
▁contemporar	-9.57453
▁africa	-9.57521
▁republic▁of	-9.57567
▁select	-9.57609
▁gal	-9.57616
matic	-9.57626
ura	-9.57678
sky	-9.577
▁except	-9.5777
▁fiction	-9.57779
▁results	-9.5782
▁began▁to	-9.57917
qua	-9.57989
ini	-9.5799
▁classic	-9.58026
▁sent	-9.58042
stru	-9.58066
ski	-9.58114
▁domin	-9.58114
▁differ	-9.58119
otic	-9.5814
▁respect	-9.58177
▁wing	-9.58281
▁lie	-9.58399
▁propertie	-9.584
▁route	-9.58425
▁north▁america	-9.58461
▁message	-9.58495
▁is▁usual	-9.58553
▁settl	-9.58569
▁div	-9.58601
▁occasional	-9.58857
▁appli	-9.58869
▁the▁country	-9.58869
▁soviet	-9.5895
▁forms▁of	-9.58998
▁why	-9.5907
sis	-9.59107
▁immediate	-9.59108
▁a▁major	-9.59133
▁lisp	-9.59237
▁locat	-9.59264
▁publication	-9.5931
▁server	-9.5941
▁security	-9.59446
▁many▁of▁the	-9.59475
▁mount	-9.59541
point	-9.59608
▁script	-9.59613
▁honey	-9.59675
▁distinguish	-9.59679
▁label	-9.59685
▁carrier	-9.59725
▁bla	-9.59756
▁usa	-9.59811
▁governor	-9.59851
▁architect	-9.59904
▁logic	-9.59912
▁quot	-9.59959
▁ku	-9.60013
▁soldier	-9.60047
▁vari	-9.60138
▁muslim	-9.60174
▁guard	-9.60251
▁beginning	-9.60329
▁poor	-9.60369
▁constitution	-9.60413
▁id	-9.60447
▁around▁the	-9.6061
▁indicate	-9.60638
▁diet	-9.60758
▁assum	-9.60798
▁inde	-9.60802
▁there▁were	-9.60868
ne▁seven▁zero▁s	-9.60884
▁management	-9.60888
▁duke	-9.60906
ing▁his	-9.60954
▁primari	-9.60985
▁a▁variety▁o	-9.60997
▁train	-9.6105
▁hydro	-9.61104
▁meeting	-9.61136
▁going	-9.61167
▁fun	-9.61171
graph	-9.61175
▁concentration	-9.61231
▁essential	-9.61347
▁broke	-9.61349
▁strength	-9.61434
▁annual	-9.61453
▁jack	-9.61511
what	-9.61592
▁to▁use	-9.61605
▁rapid	-9.61633
▁nine▁eight▁zer	-9.61638
▁repeat	-9.61652
▁adult	-9.61678
▁fixed	-9.61683
▁becomes	-9.61758
worth	-9.61812
shire	-9.6188
▁executive	-9.61905
▁integrat	-9.62063
▁stat	-9.62069
▁tower	-9.62097
▁his▁father	-9.62113
more	-9.62183
▁estimat	-9.62301
ender	-9.62358
▁strip	-9.62391
▁finite	-9.62395
▁fruit	-9.62446
▁compact	-9.6249
▁gate	-9.62515
▁powerful	-9.62519
▁involv	-9.62546
▁ital	-9.62551
tory	-9.6257
▁in▁which▁the	-9.62644
▁fine	-9.62743
▁consciousness	-9.6282
▁moving	-9.62878
▁parent	-9.62899
▁theorem	-9.62939
▁becoming	-9.62947
ed▁at▁the	-9.62951
▁after▁a	-9.62987
▁attempt▁to	-9.63087
▁contact	-9.63106
▁lim	-9.63135
▁growth	-9.63152
▁speech	-9.63167
▁tribes	-9.63207
▁coll	-9.63286
▁navy	-9.63403
▁dictionary	-9.63415
▁folk	-9.63537
▁edge	-9.63554
▁fill	-9.63558
▁harmonic	-9.63582
▁linear	-9.63585
▁qui	-9.63649
▁depict	-9.63857
▁bad	-9.63872
▁when▁he	-9.63884
▁girl	-9.63975
▁encyclopedia	-9.64052
▁prime▁minister	-9.64058
▁existence	-9.64076
▁ag	-9.64133
▁expand	-9.64153
▁instead▁of	-9.64268
▁transport	-9.64277
▁rise	-9.64277
▁theories	-9.64298
▁plate	-9.64305
part	-9.64311
▁biograph	-9.64322
▁accident	-9.64367
▁operations	-9.64443
▁clock	-9.64497
▁honor	-9.64577
uit	-9.64614
▁ol	-9.64645
▁sir	-9.64646
▁or▁more	-9.64652
▁faith	-9.64691
▁adventure	-9.64695
▁senate	-9.6474
▁troops	-9.6477
▁genu	-9.64853
ation▁of▁the	-9.64879
omorph	-9.64902
▁washington	-9.65007
▁spirit	-9.65031
▁learn	-9.65176
▁department	-9.6525
▁hal	-9.65253
▁prominent	-9.65271
▁advocate	-9.65321
▁manag	-9.65385
▁nine▁seven▁six	-9.65388
▁liberal	-9.65444
▁members▁of▁the	-9.65445
▁explor	-9.65503
▁one▁nine▁f	-9.65504
mic	-9.65529
▁operating	-9.65544
▁also▁known▁as	-9.65641
▁rub	-9.65661
▁estimate	-9.65715
▁dia	-9.65758
▁molecule	-9.6577
cker	-9.65849
▁attribut	-9.65872
▁plann	-9.66064
▁equivalent	-9.66103
▁and▁so	-9.66206
▁crown	-9.66255
▁jud	-9.66317
rus	-9.66415
▁enem	-9.66466
▁inside	-9.66547
▁spoke	-9.66576
▁functional	-9.66618
▁parallel	-9.66668
▁mechanism	-9.66669
▁reject	-9.66737
▁mathematic	-9.66774
anda	-9.66828
▁agreement	-9.66836
▁advantage	-9.66895
▁manager	-9.66917
▁with▁his	-9.66948
▁centuri	-9.66979
▁guinea	-9.67051
▁bus	-9.67155
▁watch	-9.67164
mun	-9.67208
▁is▁that	-9.67299
▁define	-9.67352
▁flat	-9.67359
▁to▁his	-9.67423
▁presence	-9.67432
▁across▁the	-9.67492
▁oil	-9.67535
▁height	-9.67593
▁for▁instance	-9.67626
▁extension	-9.67663
▁via	-9.67667
▁equ	-9.67745
▁pin	-9.67759
▁cooper	-9.67774
▁engag	-9.67782
▁phase	-9.67794
rick	-9.67828
▁years▁of	-9.67865
▁brief	-9.67978
▁chart	-9.68069
▁is▁now	-9.6812
▁she▁was	-9.68178
▁orbit	-9.68195
▁useful	-9.68219
▁operator	-9.68381
▁unknown	-9.68391
▁marriage	-9.68486
▁the▁best	-9.68541
▁the▁next	-9.6855
▁development▁of	-9.68588
▁boston	-9.68668
▁heavi	-9.68678
▁benefit	-9.68697
▁attend	-9.68707
▁connection	-9.6876
▁hundred	-9.68796
▁mit	-9.68834
▁each▁other	-9.68852
▁path	-9.68864
▁aid	-9.6888
▁canon	-9.68911
ux	-9.69006
▁in▁the▁world	-9.69032
▁winner	-9.69051
▁dialect	-9.69068
▁build	-9.69082
▁compos	-9.69134
▁zero▁zero▁six	-9.69221
▁succeed	-9.69232
▁student	-9.69289
▁ran	-9.69293
▁ability▁to	-9.69373
▁lit	-9.69378
▁conv	-9.6942
▁which▁he	-9.69461
▁visual	-9.69495
ies▁in	-9.6952
▁il	-9.69591
▁silver	-9.69639
▁olympic	-9.69674
▁response	-9.69679
haps	-9.69685
▁reveal	-9.69713
cut	-9.69721
ker	-9.69901
▁clar	-9.69909
▁lived	-9.6992
▁hebrew	-9.69923
▁reserve	-9.69944
▁founded	-9.69948
▁launch	-9.69979
▁rough	-9.70046
▁impact	-9.70094
▁calculat	-9.70125
▁oppos	-9.70145
▁along	-9.70185
▁with▁an	-9.70238
▁producer	-9.70245
▁doctor	-9.70325
▁atmospher	-9.70347
▁imperial	-9.70373
of	-9.70532
▁archive	-9.7055
och	-9.70552
▁reign	-9.70581
▁pacific	-9.70605
ography	-9.70632
erson	-9.70693
▁martin	-9.70841
▁participat	-9.70852
▁abbreviat	-9.70914
▁considered▁a	-9.70919
▁restor	-9.70932
ken	-9.71
▁giv	-9.71106
▁climate	-9.71118
▁collection	-9.71237
▁rose	-9.71253
▁nazi	-9.71542
▁golden	-9.71585
▁edward	-9.7161
▁swa	-9.71628
▁assembly	-9.71644
▁celebrat	-9.71719
bro	-9.71809
▁reduc	-9.71815
▁yu	-9.71907
▁mur	-9.72011
▁kar	-9.72026
▁negative	-9.72205
▁trial	-9.72297
▁senator	-9.7239
▁usage	-9.72398
▁combat	-9.72426
▁jean	-9.7248
▁bbc	-9.72502
ogen	-9.72507
▁hear	-9.7257
▁cycle	-9.72643
▁icon	-9.7271
▁used▁as▁a	-9.72759
▁netherland	-9.7276
▁in▁one▁nine▁t	-9.72761
▁colour	-9.72781
▁dun	-9.72869
▁notes	-9.72899
▁storie	-9.7295
▁spin	-9.72979
▁referred▁to	-9.73025
▁dedicat	-9.73049
▁fans	-9.73192
▁egypt	-9.73228
▁positive	-9.7324
dom	-9.73263
▁chain	-9.73356
▁bay	-9.73399
▁bound	-9.73438
▁published▁in	-9.73464
▁which▁has	-9.73565
▁a▁great	-9.7363
▁students	-9.737
▁its▁own	-9.73752
▁phrase	-9.73762
▁smok	-9.73772
▁physics	-9.73793
▁glass	-9.73811
▁component	-9.73969
▁nine▁six▁six	-9.74015
▁instruction	-9.7403
▁variet	-9.74095
▁pain	-9.7415
▁proper	-9.74155
book	-9.74166
▁astrolog	-9.74194
▁construct	-9.74195
▁nine▁five▁seven	-9.7421
▁render	-9.74283
▁patient	-9.74382
▁district	-9.74415
▁unusual	-9.7445
▁opinion	-9.74491
▁genre	-9.7456
▁one▁nine▁six▁t	-9.74614
s▁which▁are	-9.74633
▁accus	-9.74645
▁tan	-9.74655
▁contract	-9.74656
▁albert	-9.74662
tus	-9.74676
▁vector	-9.74682
▁pure	-9.74733
▁probabilit	-9.74786
▁amount	-9.74789
▁statement	-9.74793
▁the▁latter	-9.74885
▁the▁end▁of▁the	-9.74978
▁bell	-9.75048
wood	-9.7505
wo▁zero	-9.75101
▁distribut	-9.75113
▁disk	-9.75154
▁item	-9.75168
▁families	-9.7522
▁police	-9.75246
▁science▁fiction	-9.75264
etic	-9.75285
▁meet	-9.75328
▁using▁the	-9.75334
▁musician	-9.75342
▁alone	-9.75379
▁random	-9.75403
▁proposed	-9.75479
▁confirm	-9.75492
▁ger	-9.756
▁plain	-9.75638
▁beat	-9.75639
ccording▁to▁the	-9.75664
▁tend▁to	-9.75766
▁opponent	-9.75817
▁compet	-9.7583
▁moment	-9.75857
▁supply	-9.75873
▁wire	-9.75883
print	-9.75949
▁carl	-9.75983
gra	-9.75989
▁risk	-9.76012
▁beyond	-9.76069
▁solo	-9.76078
▁chapter	-9.76211
▁desert	-9.76222
▁theory▁of	-9.76319
▁pursu	-9.76361
▁feet	-9.76375
▁februar	-9.76379
▁discussion	-9.76425
▁critics	-9.76516
▁split	-9.76537
▁partner	-9.76571
▁von	-9.76592
ient	-9.76627
▁choice	-9.76714
▁expansion	-9.76728
▁examples▁of	-9.76756
▁facilit	-9.76825
▁adam	-9.76847
▁reg	-9.7686
aya	-9.76871
mod	-9.76882
▁nine▁six▁seven	-9.77007
▁understand	-9.77067
▁refus	-9.77156
▁in▁addition	-9.77237
▁priest	-9.77259
▁vietnam	-9.77352
▁medicine	-9.77484
▁request	-9.77492
▁bush	-9.77569
▁village	-9.77656
▁fundamental	-9.7768
▁license	-9.77699
▁many▁other	-9.77714
▁freedom	-9.7781
van	-9.77828
▁atoms	-9.77907
▁moral	-9.77911
▁attach	-9.77954
▁slight	-9.77984
▁attention	-9.78019
▁dimension	-9.78026
▁organiz	-9.78039
▁suit	-9.78113
▁setting	-9.78155
▁jesu	-9.78177
▁ram	-9.78194
▁as▁it	-9.78216
war	-9.78292
▁in▁europe	-9.78399
▁universe	-9.78475
▁comment	-9.78516
▁controvers	-9.78581
▁hair	-9.78641
▁determine	-9.78666
▁mental	-9.78678
▁danish	-9.78684
▁related▁to	-9.78716
▁south▁africa	-9.78761
▁dream	-9.78882
▁mythology	-9.78884
▁layer	-9.78965
▁warm	-9.78979
▁late▁one▁ni	-9.79032
▁entr	-9.79045
▁shar	-9.7923
▁catch	-9.79247
▁composition	-9.7925
▁kind▁of	-9.79386
▁predict	-9.79431
▁jim	-9.79453
ject	-9.79533
▁ultimate	-9.7954
▁finger	-9.79568
▁main▁article	-9.79619
▁chicago	-9.79674
▁crystal	-9.79687
▁regarded▁as	-9.79707
▁arthur	-9.79755
▁batter	-9.79763
▁sand	-9.79817
▁fear	-9.79847
▁lar	-9.79877
▁valley	-9.79903
▁output	-9.80029
▁murder	-9.80044
▁mere	-9.80089
▁audience	-9.80148
▁airline	-9.80164
▁nine▁six▁zero▁s	-9.80165
▁fit	-9.802
light	-9.80231
▁administration	-9.80236
▁babylon	-9.80279
▁yo	-9.80289
mission	-9.80305
▁hop	-9.80307
▁assign	-9.80337
▁net	-9.80366
▁the▁soviet	-9.80447
▁rain	-9.80491
▁apply	-9.80509
▁nu	-9.8057
▁environmental	-9.8061
▁mala	-9.80693
▁history▁of▁the	-9.80698
▁supposed	-9.8073
▁stay	-9.80764
▁the▁island	-9.80767
▁moon	-9.80785
▁ray	-9.80875
▁continued▁to	-9.80885
▁conservative	-9.80924
▁equipment	-9.80972
▁democratic	-9.81034
▁variable	-9.81047
▁giant	-9.81093
▁quarter	-9.811
▁portugues	-9.81109
▁protestant	-9.81243
▁essay	-9.81249
▁processes	-9.8133
▁in▁particular	-9.8134
▁importance	-9.81436
ancy	-9.81478
▁strategy	-9.81504
▁violenc	-9.816
▁apart	-9.81647
▁purchas	-9.81653
▁cool	-9.81659
▁the▁book▁of	-9.81662
▁slave	-9.81695
▁org	-9.8181
cular	-9.8187
▁incorporat	-9.81883
▁earn	-9.81984
met	-9.81995
ibilit	-9.82077
▁database	-9.82113
▁opposite	-9.82115
▁principal	-9.82156
▁resistance	-9.82192
▁teaching	-9.82509
▁demonstrat	-9.8252
▁distinction	-9.82542
▁editor	-9.82547
▁cave	-9.82601
▁retir	-9.82619
▁evolv	-9.82638
▁merc	-9.82799
▁false	-9.82802
▁fictional	-9.82908
▁jazz	-9.8292
▁originat	-9.82942
▁turkis	-9.82962
▁tru	-9.8303
▁gla	-9.83055
▁depending▁on	-9.83086
▁but▁not	-9.83094
omb	-9.83162
▁afghanistan	-9.83184
▁cancer	-9.83263
▁specifical	-9.83288
▁championship	-9.83319
▁brazil	-9.83321
▁to▁take	-9.83359
▁transition	-9.83434
▁academ	-9.83549
▁node	-9.8357
▁encounter	-9.83613
▁alpha	-9.83696
▁songs	-9.83731
▁justice	-9.83815
▁psycho	-9.83934
▁external	-9.83939
▁closed	-9.8398
▁lady	-9.8407
▁astronom	-9.84106
ologist	-9.84159
▁representation	-9.84232
▁of▁god	-9.84294
▁denmark	-9.84336
▁urban	-9.84488
▁identit	-9.84618
▁revis	-9.84681
▁because▁it	-9.84762
▁austria	-9.84797
▁injur	-9.84818
oid	-9.84818
▁solv	-9.84818
▁fell	-9.84906
▁unre	-9.84909
▁desire	-9.85009
▁firm	-9.85028
▁consul	-9.85092
y▁of▁the	-9.85144
▁dna	-9.85179
▁decided	-9.85222
▁throw	-9.85229
▁literal	-9.85276
ou	-9.85289
▁january▁o	-9.85331
▁advertis	-9.8534
▁buddhis	-9.85351
▁marx	-9.85363
▁alfred	-9.85403
▁harm	-9.855
▁edit	-9.85525
▁interpret	-9.85723
▁strict	-9.85773
▁discuss	-9.85792
▁habit	-9.85803
▁polish	-9.85834
▁kind	-9.85845
▁sil	-9.85949
▁trip	-9.85957
▁alcohol	-9.86254
gun	-9.8628
▁dynasty	-9.86351
▁prime	-9.86401
▁son▁of	-9.86528
▁des	-9.86568
▁concert	-9.86577
▁respective	-9.86608
ella	-9.86765
▁bishop	-9.86769
work	-9.86784
▁sugar	-9.8683
▁expos	-9.86951
bul	-9.86951
▁lock	-9.87006
▁comedy	-9.87078
▁commander	-9.87133
▁boundar	-9.87207
▁oxford	-9.87208
▁crime	-9.87257
▁athen	-9.87291
▁medium	-9.87297
▁labour	-9.87372
▁enjoy	-9.87401
▁monetar	-9.87426
▁sharp	-9.87552
▁export	-9.87578
▁balance	-9.87625
▁opposition	-9.87646
▁nominat	-9.87668
▁together▁with	-9.87776
▁korea	-9.87784
▁festival	-9.87785
▁lot	-9.87859
▁switch	-9.87871
▁francis	-9.87952
▁motor	-9.87958
▁escape	-9.88032
▁polic	-9.88042
▁partial	-9.88045
bol	-9.8806
▁hence	-9.88079
▁intelligence	-9.8824
ily	-9.88328
▁austrian	-9.88336
▁nothing	-9.88481
▁belong	-9.88518
▁the▁battle▁of	-9.88558
▁they▁have	-9.88633
▁for▁all	-9.88803
ing▁them	-9.88931
▁respond	-9.88964
▁truth	-9.88982
▁severe	-9.88992
▁where▁he	-9.89034
▁the▁current	-9.89048
▁bak	-9.8907
▁enhanc	-9.89088
▁def	-9.89095
▁resist	-9.89125
▁exhibit	-9.89336
▁evaluat	-9.89383
▁mary	-9.8939
▁columbia	-9.89481
▁formation	-9.89492
▁jerusalem	-9.89503
▁auto	-9.89534
ne▁nine▁zero▁s	-9.89579
▁mathematical	-9.89611
▁conference	-9.89615
▁reli	-9.89646
vert	-9.8965
▁strange	-9.89654
▁vegetable	-9.89745
▁labor	-9.89754
▁wish	-9.89814
▁failure	-9.89841
ane	-9.89934
▁fleet	-9.8997
▁digit	-9.89986
ed▁its	-9.89997
▁vowel	-9.9
▁check	-9.90035
▁interpretation	-9.90101
▁manner	-9.90114
▁tar	-9.90143
▁yellow	-9.90152
▁however▁a	-9.90184
▁republican	-9.90259
▁fantasy	-9.90261
▁nucle	-9.90347
▁leav	-9.90531
▁radical	-9.90565
▁hom	-9.9061
▁argu	-9.9062
ive▁one	-9.9065
▁spot	-9.90668
▁monster	-9.90826
▁reality	-9.90872
▁cent	-9.90961
▁vocal	-9.90963
hen	-9.90972
▁coalition	-9.91012
▁ethnic	-9.91096
▁rom	-9.91156
▁imagin	-9.91235
▁circuit	-9.91241
poli	-9.91255
▁terms▁of	-9.91288
▁spent	-9.91343
▁one▁nine▁one▁f	-9.91347
▁prison	-9.91387
▁answer	-9.91398
▁agree	-9.91537
▁version▁of▁the	-9.91555
▁the▁church	-9.91557
chi	-9.91576
ne▁seven▁eight	-9.91708
▁scholars	-9.9181
▁govern	-9.91811
▁infect	-9.91862
position	-9.91878
▁manifest	-9.91883
▁recover	-9.91977
▁liquid	-9.92008
▁shift	-9.92013
▁criminal	-9.92017
▁register	-9.92052
▁air▁force	-9.92146
▁bigg	-9.92221
▁penalt	-9.92355
▁fusion	-9.92381
▁berlin	-9.92535
▁the▁third	-9.92548
▁meta	-9.92558
▁addition	-9.92601
▁controversial	-9.92623
▁analog	-9.92683
take	-9.92707
▁earl	-9.92729
▁swed	-9.92734
▁zone	-9.92735
▁regime	-9.92747
scrib	-9.92777
▁iran	-9.92801
▁jpg	-9.92887
▁goddess	-9.92888
▁wikipedia	-9.92899
▁bind	-9.92978
▁task	-9.93004
▁recording	-9.93125
▁israeli	-9.93135
▁favour	-9.93166
▁ideal	-9.93176
▁luc	-9.93193
▁discovery	-9.93239
▁electro	-9.93466
▁october▁o	-9.93513
▁sort	-9.93725
fort	-9.93801
▁wheel	-9.93827
▁surrounding	-9.93909
ook	-9.93911
▁would▁have	-9.9394
▁shell	-9.94007
▁blind	-9.94041
ugg	-9.94117
▁politician	-9.94119
▁candidate	-9.94172
soft	-9.94228
▁jump	-9.94252
▁studio	-9.94254
▁strike	-9.94327
▁vehicle	-9.94404
▁alter	-9.94428
▁chamber	-9.94477
▁react	-9.94551
▁wolf	-9.94671
▁would▁not	-9.94698
▁initiat	-9.94741
mond	-9.94767
▁plot	-9.94851
▁his▁death	-9.94876
▁volunteer	-9.94983
assi	-9.94983
▁founder	-9.95008
▁staff	-9.95016
▁considerabl	-9.95172
▁hardware	-9.95218
▁denote	-9.95247
▁sister	-9.9526
▁hospital	-9.9526
▁saxon	-9.95337
hree▁one	-9.95338
▁resolution	-9.95375
▁mr	-9.95406
code	-9.9543
▁extent	-9.95434
▁encourag	-9.95498
▁an▁un	-9.9556
▁oct	-9.95612
▁islamic	-9.95659
▁organism	-9.9568
▁fox	-9.95888
▁mill	-9.95932
▁so▁call	-9.96063
▁role▁in	-9.96177
▁appeal	-9.96194
▁absolute	-9.96277
▁practical	-9.963
▁bol	-9.96314
▁entry	-9.96412
▁pho	-9.96431
▁prophet	-9.96439
▁located▁in	-9.96536
▁newspaper	-9.96611
ed▁into▁the	-9.96634
▁occupi	-9.96684
▁one▁nine▁two▁f	-9.96796
▁sample	-9.96825
▁math	-9.96831
chlor	-9.9691
▁pope	-9.96992
▁safe	-9.96993
▁gor	-9.97021
▁complet	-9.97043
▁husband	-9.97069
▁nine▁four▁six	-9.97141
▁background	-9.97181
▁ignor	-9.97204
▁deliver	-9.97296
▁one▁nine▁two▁t	-9.97345
▁garden	-9.97346
▁cuba	-9.97418
▁sponsor	-9.97442
astic	-9.97473
▁storage	-9.97585
▁requirement	-9.97595
▁settlement	-9.97612
▁drop	-9.97647
▁daily	-9.97841
▁frequency	-9.97844
▁procedure	-9.97847
▁decline	-9.97864
▁macedonia	-9.97903
▁iraq	-9.98046
stein	-9.9807
▁integral	-9.98071
▁jan	-9.98098
▁hindu	-9.98103
▁rifle	-9.98133
▁elections	-9.98144
▁the▁government	-9.98184
▁professor	-9.9823
▁touch	-9.98237
▁emerg	-9.98455
▁clark	-9.98703
▁killing	-9.98733
▁retain	-9.98787
▁might▁be	-9.98802
▁januar	-9.98834
▁winning	-9.98856
▁acquir	-9.98865
▁one▁nine▁o	-9.98869
▁the▁world▁s	-9.98882
▁examin	-9.98926
▁three▁rd	-9.98996
▁in▁addition▁to	-9.99088
▁implement	-9.99096
▁persian	-9.99125
box	-9.99236
▁this▁time	-9.99332
▁copy	-9.99392
▁comes	-9.99438
▁returned▁to	-9.99498
▁magic	-9.99499
▁regional	-9.99501
▁billion	-9.99502
▁parts▁of▁the	-9.99548
▁zero▁km	-9.99585
maker	-9.99859
▁seek	-9.99898
▁graph	-10.0015
▁atlantic	-10.0017
▁evil	-10.003
▁steve	-10.0031
▁baltic	-10.0033
▁cardinal	-10.0034
ubstantial	-10.0035
▁photograph	-10.0039
▁creature	-10.0039
ctor	-10.004
▁proceed	-10.0041
▁possibilit	-10.006
▁permanent	-10.0063
▁nations	-10.0065
▁shall	-10.0069
▁workers	-10.0073
▁much▁of▁the	-10.008
▁cluster	-10.0081
▁prefer	-10.0086
▁chile	-10.0095
▁ratio	-10.0101
▁column	-10.0104
▁protection	-10.0105
▁residence	-10.0107
▁ip	-10.0118
▁knight	-10.012
comp	-10.0121
▁interview	-10.0124
▁moved▁to	-10.0134
▁wealth	-10.0147
▁uniform	-10.0147
▁preferr	-10.0172
▁premier	-10.0184
▁invasion	-10.0189
▁spectrum	-10.019
▁bacteria	-10.0193
▁someone	-10.0196
▁gradual	-10.0203
▁ow	-10.0205
▁ell	-10.0205
▁following▁the	-10.0205
▁peak	-10.0206
▁nine▁three▁nin	-10.0206
ency	-10.0234
▁scholar	-10.0245
▁academic	-10.0251
▁arabic	-10.0253
▁pronounced	-10.0263
▁however▁in	-10.0275
▁narrat	-10.0278
▁verse	-10.028
▁classification	-10.0294
▁mammal	-10.0294
ique	-10.0298
▁expert	-10.0303
▁plane	-10.0314
▁gh	-10.0315
▁possess	-10.0316
board	-10.0328
▁abstract	-10.0332
▁castle	-10.0336
▁capacit	-10.0352
▁soul	-10.0366
▁extract	-10.037
▁piano	-10.0374
quarter▁finalist	-10.0378
▁poll	-10.0382
▁throne	-10.0383
▁artificial	-10.0386
▁threaten	-10.0411
▁option	-10.0412
▁household	-10.0414
▁daniel	-10.0418
▁philosophical	-10.0427
▁involved▁in	-10.044
▁understanding	-10.0443
▁import	-10.0445
▁none	-10.0452
▁dvd	-10.0452
▁expedition	-10.0454
▁mad	-10.046
▁otto	-10.0461
▁at▁least▁t	-10.0464
▁calvin	-10.0465
▁training	-10.0467
▁satellite	-10.0473
▁painting	-10.0474
▁obvious	-10.0474
ies▁are	-10.0479
▁prose	-10.0479
▁twenty	-10.0485
▁beethoven	-10.0489
ic▁acid	-10.049
▁reverse	-10.049
▁mm	-10.0497
▁has▁become	-10.05
▁told	-10.0504
uth	-10.0513
▁fluid	-10.0515
▁oxygen	-10.0521
▁at▁the▁end▁of	-10.0521
ne▁five▁zero▁s	-10.0528
▁chemistry	-10.0533
▁actress	-10.0537
▁consistent	-10.0548
▁andrew	-10.0559
▁phone	-10.0566
▁load	-10.0566
▁tube	-10.0574
▁grew	-10.0584
▁korean	-10.0584
▁angel	-10.0585
▁geo	-10.0588
▁captain	-10.0596
▁clean	-10.06
bury	-10.0608
▁the▁earlie	-10.0617
▁abandon	-10.0621
▁copyright	-10.0637
▁passage	-10.0637
▁dangerous	-10.0642
spir	-10.0643
type	-10.0645
▁isolat	-10.0653
▁circle	-10.0653
▁palace	-10.0658
▁crisi	-10.067
▁atomic	-10.0673
▁johann	-10.0674
▁which▁had	-10.0675
▁islam	-10.0677
▁critic	-10.069
▁crusade	-10.0708
▁expected	-10.0721
▁the▁whole	-10.0721
▁valid	-10.073
▁douglas	-10.0734
▁straight	-10.0735
▁prize	-10.0749
▁illinois	-10.075
▁worship	-10.0751
▁cult	-10.0757
▁sufficient	-10.076
▁easy	-10.0763
▁a▁particular	-10.0763
▁lithuania	-10.0767
▁delay	-10.0769
▁pilot	-10.0778
▁income	-10.078
▁array	-10.078
▁jones	-10.0788
lain	-10.0792
▁syria	-10.0795
▁most▁important	-10.0807
▁integer	-10.0814
▁collection▁of	-10.0817
▁fighting	-10.0825
▁prussia	-10.0827
▁destruction	-10.0831
▁approv	-10.085
▁decorat	-10.0851
▁encod	-10.0856
▁colorado	-10.0856
amine	-10.0868
▁without▁a	-10.087
▁the▁roman	-10.0872
▁density	-10.0879
▁felt	-10.0879
▁compress	-10.0883
▁phil	-10.0885
▁prayer	-10.0898
▁schedul	-10.0912
▁monarch	-10.0917
▁rat	-10.0917
▁google	-10.0921
reece	-10.0923
▁presidential	-10.0942
▁dragon	-10.0953
▁fashion	-10.0953
▁his▁work	-10.0959
▁telephone	-10.0964
▁proof	-10.0973
▁crew	-10.0977
▁could▁not	-10.0978
▁proto	-10.098
▁medal	-10.0986
iah	-10.0987
▁one▁nine▁six▁on	-10.0996
spread	-10.0998
▁neuro	-10.1002
▁september▁o	-10.1005
▁electrical	-10.1005
▁ruler	-10.1007
▁his▁life	-10.1011
▁responsible▁f	-10.102
▁financ	-10.1023
▁meant	-10.1024
▁texas	-10.103
▁michigan	-10.1033
▁neighbor	-10.1036
▁learning	-10.1049
▁most▁famous	-10.1052
ference	-10.1052
▁starr	-10.1055
▁resign	-10.1058
▁especially▁in	-10.1058
ming▁language	-10.1061
▁influential	-10.1064
▁cloth	-10.1069
ything	-10.1072
▁activat	-10.1078
▁taiwan	-10.1082
▁house▁of	-10.1084
▁bright	-10.109
▁que	-10.1093
▁geography	-10.1108
▁cambridge	-10.1126
▁secretary	-10.1128
▁plus	-10.1131
▁fresh	-10.114
▁medieval	-10.1142
▁protest	-10.1144
▁consumer	-10.1157
▁his▁first	-10.116
▁january▁t	-10.1161
▁resident	-10.1162
▁caesar	-10.117
▁row	-10.1173
▁railway	-10.1173
▁massive	-10.1177
▁input	-10.1179
▁summar	-10.1179
▁exclusive	-10.118
▁suppli	-10.1184
▁necessar	-10.1188
▁rap	-10.1193
▁ruth	-10.1195
▁operate	-10.1206
▁measur	-10.1212
▁laborator	-10.1222
▁profit	-10.1222
▁radiation	-10.1235
▁orange	-10.1237
hold	-10.125
▁vii	-10.1259
▁kick	-10.1261
▁bottom	-10.1262
▁alternate	-10.1265
▁stadium	-10.1271
▁incident	-10.1278
▁hope	-10.1278
▁september▁t	-10.1281
▁mouth	-10.1281
▁teacher	-10.129
▁cinema	-10.1292
▁prohibit	-10.1302
▁appropriate	-10.1307
▁five▁year	-10.132
▁worldwide	-10.1322
▁identify	-10.1344
▁aim	-10.1359
▁see▁also▁list	-10.1376
▁observation	-10.138
▁recommend	-10.1383
▁portray	-10.1384
▁snow	-10.1392
▁pakistan	-10.1398
▁chord	-10.14
▁celebrit	-10.1407
▁send	-10.1426
▁hole	-10.1429
▁wales	-10.1431
▁ensure	-10.1442
▁rabbi	-10.1442
▁however▁it	-10.1445
▁bureau	-10.1446
▁challenge	-10.146
▁the▁entire	-10.1461
▁symptom	-10.1465
▁mexican	-10.1471
▁dam	-10.1483
▁spiritual	-10.1496
▁elizabeth	-10.1504
▁roman▁catholic	-10.1504
▁decimal	-10.1506
▁commonly▁us	-10.1516
▁neo	-10.1516
▁wiki	-10.1521
▁wear	-10.1525
▁exile	-10.1538
▁magn	-10.1539
isation	-10.1574
▁doctrine	-10.1576
▁graduat	-10.1577
theles	-10.1578
▁detroit	-10.1581
▁trust	-10.1585
▁one▁nine▁four▁t	-10.1587
▁bah	-10.1597
▁hollywood	-10.1606
▁tissue	-10.1611
▁remark	-10.1613
▁written▁in	-10.162
▁audio	-10.1622
▁antarctic	-10.1622
▁precise	-10.1627
▁maximum	-10.1628
spect	-10.1633
▁geographic	-10.1634
▁bodie	-10.1638
▁capable▁of	-10.1646
▁representative	-10.1658
▁tape	-10.1674
▁joint	-10.1677
▁ordinar	-10.1678
▁leadership	-10.1682
junct	-10.1695
▁linguistic	-10.1698
▁is▁also▁a	-10.1702
▁wound	-10.1704
▁mobile	-10.171
▁trouble	-10.1723
chester	-10.1727
▁rival	-10.1738
▁alliance	-10.1749
▁chance	-10.1752
▁filter	-10.176
▁monitor	-10.1761
▁during▁thi	-10.1765
▁sentence	-10.1766
▁doubt	-10.1772
▁eliminat	-10.1778
▁was▁born▁in	-10.1779
▁dylan	-10.1796
▁biblical	-10.1803
▁mutual	-10.1803
▁esoteric	-10.1809
acea	-10.1818
▁old▁testament	-10.1822
▁argentina	-10.1823
▁jackson	-10.1828
▁accurate	-10.1829
▁hawaii	-10.1835
▁one▁nine▁one▁t	-10.1839
▁assert	-10.1859
▁divine	-10.1864
▁literar	-10.1869
▁perceiv	-10.1872
▁conquer	-10.1876
▁naval	-10.1882
▁proportion	-10.1888
▁uncle	-10.1888
wo▁eight	-10.1891
▁turkey	-10.1891
▁infinite	-10.1899
▁diagram	-10.1901
▁regulation	-10.1904
▁safety	-10.1907
▁voting	-10.1921
▁can▁also▁be	-10.1922
▁push	-10.1926
▁implementation	-10.1928
▁alleged	-10.1935
▁coup	-10.1936
▁hat	-10.1938
▁homo	-10.1941
▁symphon	-10.1946
▁seen▁as	-10.1948
▁manuscript	-10.1952
▁rational	-10.1954
▁classe	-10.1959
▁entertainment	-10.1966
ddle	-10.1968
▁impossibl	-10.1973
where	-10.1973
▁autonom	-10.1979
▁october▁t	-10.1984
▁infant	-10.1984
▁promis	-10.1985
▁dropp	-10.1986
▁overall	-10.1988
▁substitut	-10.1999
▁armed▁force	-10.2003
▁inhibit	-10.2016
▁conclud	-10.2026
▁without▁the	-10.2034
▁transmission	-10.2035
▁topics	-10.2038
▁ministr	-10.2039
▁advanc	-10.204
▁agenc	-10.2041
▁concentrat	-10.2044
▁georgia	-10.2046
▁criticiz	-10.205
▁recognition	-10.2055
▁below▁the	-10.2058
▁everything	-10.2066
▁angle	-10.2067
▁those▁of	-10.2072
▁elevat	-10.2072
▁twic	-10.2077
▁forced▁to	-10.2078
▁repli	-10.2089
▁chosen	-10.2091
▁scheme	-10.2103
▁goe	-10.2111
▁orchestra	-10.2133
craft	-10.2139
▁virus	-10.2142
▁appeared▁in	-10.2153
▁calcul	-10.2167
▁agricultural	-10.2176
▁copie	-10.2179
▁kid	-10.2181
▁iceland	-10.2186
▁fellow	-10.2199
▁bulgaria	-10.2217
▁wrong	-10.2219
▁southwest	-10.2228
▁were▁not	-10.2232
ground	-10.224
▁explicit	-10.2249
▁possession	-10.2251
▁new▁york▁cit	-10.2255
▁merg	-10.2263
▁hitchcock	-10.2266
▁pp	-10.2269
▁patent	-10.2277
▁february▁o	-10.2282
▁terminal	-10.2292
▁gather	-10.2292
▁crash	-10.2292
▁depression	-10.2317
▁ideolog	-10.2325
▁opera	-10.2338
▁any▁other	-10.2347
▁noun	-10.2348
▁tank	-10.2352
▁tall	-10.2357
▁loyal	-10.2371
▁opposed▁to	-10.2372
▁enough▁to	-10.2373
▁excess	-10.2381
▁emotion	-10.2386
▁install	-10.2392
play	-10.2397
▁necessari	-10.2404
▁comics	-10.2405
▁mag	-10.241
gram	-10.2413
▁anglo	-10.2416
▁entit	-10.2417
▁logo	-10.2421
▁lind	-10.2423
▁cannot▁be	-10.2424
▁stress	-10.2424
▁huge	-10.2429
▁resulted▁in	-10.2451
▁oswald	-10.2452
▁colombia	-10.246
▁census	-10.2461
▁universit	-10.2468
▁has▁been▁a	-10.2493
▁norwa	-10.2496
▁opportunit	-10.2499
▁reduction	-10.2502
grad	-10.2513
▁mongol	-10.2515
▁democrat	-10.2522
▁gender	-10.2529
▁nickname	-10.2532
▁roger	-10.2533
▁vision	-10.2543
▁regulat	-10.256
▁across	-10.2568
▁storm	-10.2572
▁membership	-10.2598
▁people▁who	-10.2599
▁restaurant	-10.2601
▁written▁b	-10.2606
▁audi	-10.2613
▁intention	-10.2614
▁grammar	-10.2614
▁warrior	-10.2618
▁twelve	-10.2634
▁constitutional	-10.2635
▁meter	-10.2638
▁apollo	-10.264
▁vienna	-10.2645
▁mainstream	-10.2651
frican▁american	-10.2664
▁ibm	-10.2675
▁boot	-10.2675
▁portrait	-10.2679
▁one▁nine▁zero▁f	-10.2681
▁molecul	-10.2685
▁jacob	-10.2685
▁lyn	-10.2693
▁historic	-10.2705
▁assassination	-10.2706
ne▁four▁seven	-10.2709
▁intended▁to	-10.2711
▁tactic	-10.2718
▁conversion	-10.2725
▁metallic	-10.2725
▁democrac	-10.2727
▁establishment	-10.2728
▁abuse	-10.273
▁reproduc	-10.2733
▁understo	-10.2734
▁struggle	-10.2736
▁mineral	-10.2741
▁hong▁kong	-10.2744
▁java	-10.2748
▁dominat	-10.275
quantum▁mechanic	-10.2752
▁harvard	-10.2763
▁during▁a	-10.2763
▁eli	-10.2769
▁hungary	-10.2771
▁voltage	-10.2776
▁strategic	-10.2778
▁fascist	-10.2781
▁celtic	-10.2788
▁ferr	-10.279
cess	-10.2792
▁liberty	-10.2794
▁narrow	-10.2801
▁solar	-10.281
▁revolutionar	-10.2811
wo▁seven	-10.2813
▁sleep	-10.2816
▁impos	-10.2828
▁dominant	-10.2828
▁as▁a▁result▁of	-10.2832
▁lincoln	-10.2833
▁octob	-10.2843
▁they▁had	-10.2844
▁cri	-10.2853
▁stream	-10.2857
▁biological	-10.2858
▁calendar	-10.2862
▁visibl	-10.2862
▁spend	-10.2867
▁american▁actor	-10.2871
▁organisation	-10.288
▁mathbf	-10.2882
▁censor	-10.2893
▁baptism	-10.291
body	-10.2919
idae	-10.2923
▁choose	-10.2927
▁statue	-10.2938
▁consequence	-10.2942
▁high▁school	-10.2951
▁flying	-10.2952
▁rail	-10.2958
▁judaism	-10.2964
▁citizen	-10.2965
▁enabl	-10.298
▁commentar	-10.2988
▁youth	-10.3003
▁marine	-10.3013
▁curve	-10.3014
▁negotiat	-10.3016
▁vast	-10.3027
▁dramatic	-10.3029
▁despite▁the	-10.3033
▁profile	-10.3033
▁the▁other▁hand	-10.3033
▁mut	-10.3034
▁northwest	-10.3038
▁monk	-10.3039
▁therap	-10.3049
▁expect	-10.3051
▁syndrome	-10.3055
▁to▁do	-10.3058
▁sector	-10.3063
▁preced	-10.3073
▁scandinavia	-10.3077
▁tendenc	-10.3078
sphere	-10.3084
▁heaven	-10.3095
▁the▁end▁of	-10.3097
▁disambiguati	-10.3106
awa	-10.3106
▁abraham	-10.3107
▁impli	-10.311
elecommunication	-10.311
▁samuel	-10.311
▁discipline	-10.313
▁axiom	-10.3131
▁alien	-10.3132
▁surround	-10.3132
▁a▁member▁of▁the	-10.3133
▁arrest	-10.3137
▁leading▁to	-10.314
▁investigat	-10.3151
▁disappear	-10.3161
▁circulat	-10.3166
▁worth	-10.3167
▁resembl	-10.3173
▁the▁study▁of	-10.3182
▁mathematician	-10.3182
▁gift	-10.3189
s▁agains	-10.3191
▁sometimes▁call	-10.3193
▁while▁a	-10.3199
▁illustrate	-10.3204
▁accompani	-10.3204
▁ethics	-10.3204
▁davis	-10.3208
▁successor	-10.3209
▁absorb	-10.321
▁classified	-10.3221
▁phenomena	-10.3227
▁occasion	-10.3231
▁indirect	-10.3235
heim	-10.3244
▁paid	-10.3245
▁ceremon	-10.3249
▁traffic	-10.325
▁most▁notabl	-10.3262
▁bernard	-10.3272
▁madagascar	-10.3272
▁intend	-10.3281
▁compris	-10.3289
▁craft	-10.3291
hree▁four	-10.3307
▁attain	-10.3308
▁reputation	-10.332
▁platform	-10.3324
▁theatre	-10.3325
▁entitl	-10.3332
▁collapse	-10.3343
▁occupation	-10.3345
▁enforc	-10.335
▁climb	-10.3351
▁stephen	-10.3364
▁treasur	-10.3369
▁enterprise	-10.3372
▁expensive	-10.3372
▁innovat	-10.3376
▁survey	-10.3376
▁including▁a	-10.338
▁societ	-10.3384
▁superior	-10.3391
▁fragment	-10.3393
▁violin	-10.3402
▁mun	-10.3404
▁simon	-10.3407
s▁a▁result	-10.3409
▁indonesia	-10.3413
▁diplomat	-10.3424
▁massachusetts	-10.3425
▁rhythm	-10.3428
▁sovereign	-10.3431
▁coach	-10.3443
▁hungarian	-10.3447
▁html	-10.3449
▁tale	-10.3455
ophy	-10.3468
▁batman	-10.347
▁beginning▁of	-10.3481
▁theoretical	-10.3489
▁los▁angeles	-10.3498
group	-10.3502
▁kennedy	-10.3504
▁peninsula	-10.3507
▁served▁a	-10.3509
▁remember	-10.352
▁highway	-10.3523
▁catalan	-10.3529
▁threat	-10.3531
▁temporar	-10.3532
▁coordinat	-10.3539
▁york	-10.3541
▁christmas	-10.3543
▁transportation	-10.3552
▁victim	-10.3553
▁intermediate	-10.3567
▁emphasis	-10.3568
▁physiolog	-10.3572
▁frederick	-10.3578
▁morning	-10.3586
▁rotat	-10.3603
▁video▁game	-10.3606
▁ingredient	-10.3607
▁log	-10.3632
▁magnetic	-10.3641
▁february▁t	-10.365
▁drama	-10.3656
▁during▁his	-10.3662
▁dismiss	-10.3674
▁operat	-10.3676
▁even▁though	-10.3678
▁optim	-10.3681
▁characteriz	-10.3683
▁investigation	-10.37
▁convict	-10.3701
▁tunnel	-10.3701
▁collaborat	-10.3702
▁employee	-10.3705
▁intel	-10.3707
▁suspect	-10.3711
▁interior	-10.3713
▁agricultur	-10.3725
▁authoritie	-10.3726
▁accomplish	-10.3732
▁corporate	-10.3743
▁cartoon	-10.3744
▁pioneer	-10.3744
▁portugal	-10.375
▁elsewhe	-10.3755
▁consonant	-10.3755
▁his▁son	-10.3771
▁infinit	-10.3771
▁updat	-10.3799
▁intellectual	-10.38
▁ring	-10.3834
▁victoria	-10.3836
▁index	-10.384
titut	-10.384
▁alaska	-10.3859
▁inventor	-10.3874
▁intense	-10.3887
▁kentuck	-10.3904
▁activist	-10.391
▁declaration	-10.3929
▁world▁war▁i	-10.393
▁nobel▁prize	-10.3942
▁synthetic	-10.3942
▁southeast	-10.3957
lock	-10.3957
▁florida	-10.396
▁perspective	-10.3962
▁themselves▁a	-10.3981
▁biology	-10.3984
▁missile	-10.3985
▁grave	-10.3988
▁journey	-10.3996
▁weather	-10.4008
▁defence	-10.401
▁navig	-10.4011
▁speakers	-10.4011
▁mini	-10.402
▁almost▁al	-10.4021
▁hir	-10.4022
▁client	-10.4027
▁draft	-10.4032
▁new▁testament	-10.4041
▁exploit	-10.4044
▁jordan	-10.4048
▁johnson	-10.4053
▁diamond	-10.4055
▁width	-10.4065
▁pronunciation	-10.4068
▁arrangement	-10.4091
▁vertical	-10.4101
▁finland	-10.4104
▁bicycle	-10.4105
▁hetero	-10.4109
aire	-10.4113
▁hierarch	-10.4117
▁twin	-10.412
▁municipal	-10.4134
▁smooth	-10.4143
▁chronicle	-10.4154
▁joke	-10.416
▁violent	-10.4161
▁trigger	-10.4162
▁efficient	-10.4166
▁franchise	-10.4181
▁logical	-10.4183
▁bowl	-10.4191
▁the▁rest▁of▁the	-10.4198
▁simulat	-10.4222
▁mixture	-10.4233
ne▁three▁zero▁s	-10.4235
▁demon	-10.4237
▁written▁a	-10.4242
▁bubble	-10.4246
▁welsh	-10.4249
▁ethiopia	-10.4252
▁tropical	-10.4254
▁palestinian	-10.4266
hree▁eight	-10.4271
▁at▁least▁on	-10.4281
▁familiar	-10.4282
▁electricit	-10.4283
▁benjamin	-10.4291
▁chip	-10.4292
▁minorit	-10.4293
▁nelson	-10.4299
▁reconstruct	-10.4307
▁applied▁to	-10.4319
▁budget	-10.4346
▁measurement	-10.435
▁nine▁two▁zero▁s	-10.4363
▁disagree	-10.4364
▁continental	-10.4365
▁mechanical	-10.4367
▁explanation	-10.4394
▁provision	-10.4394
▁passenger	-10.4404
▁fossil	-10.4406
▁napoleon	-10.4417
▁gamma	-10.4421
▁headquarter	-10.4422
▁belgium	-10.4434
▁christopher	-10.4439
▁vessel	-10.4442
▁dictat	-10.4445
▁radi	-10.4452
▁years▁after	-10.447
▁proposal	-10.4474
▁absence	-10.4486
▁archaeolog	-10.449
▁hockey	-10.4502
▁bow	-10.4502
▁fertil	-10.4509
▁socialist	-10.4519
▁withdraw	-10.453
▁rebellion	-10.4548
▁latvia	-10.4551
▁refuge	-10.4558
▁inherit	-10.456
▁adjust	-10.4566
▁accelerat	-10.4569
▁behaviour	-10.4576
▁whether▁the	-10.4577
▁inflation	-10.4591
▁arithmetic	-10.4608
▁the▁story▁of	-10.4618
▁png	-10.4619
▁educat	-10.4625
▁modified	-10.4631
▁isbn▁zero▁t	-10.4637
▁descendant	-10.4665
▁arrang	-10.4669
▁hilbert	-10.4674
▁significan	-10.4683
▁hugh	-10.4694
▁insert	-10.4696
osis	-10.4697
▁circumstance	-10.4698
▁newton	-10.4701
▁exclud	-10.4709
▁egyptian	-10.4713
▁singapore	-10.4713
▁supreme▁court	-10.4713
▁colonial	-10.4717
▁psychological	-10.4726
▁committ	-10.4733
▁indiana	-10.4735
▁conclusion	-10.4736
▁pc	-10.4739
▁minimum	-10.4742
place	-10.4747
▁steam	-10.4749
▁illegal	-10.475
▁invad	-10.4753
▁conservation	-10.4757
▁linux	-10.4759
▁twentieth	-10.4762
▁gdp	-10.4766
▁seiz	-10.477
▁identical	-10.4779
▁amateur	-10.4788
▁defensive	-10.479
▁university▁pres	-10.4791
▁suicide	-10.4813
▁cycl	-10.4816
▁citizens	-10.4822
▁released▁in	-10.4828
▁empty	-10.4829
▁conspirac	-10.4836
▁cabinet	-10.4838
▁ancestor	-10.4839
▁contributions	-10.4842
▁federation	-10.4843
▁legislation	-10.4849
▁pseudo	-10.4855
▁holiday	-10.4862
ne▁nine▁nine▁est	-10.4867
▁comparison	-10.4868
hree▁seven	-10.4872
▁induc	-10.4875
▁wright	-10.4877
▁emergenc	-10.4893
▁neutral	-10.491
▁rising	-10.4916
▁civilian	-10.4933
▁palestin	-10.4938
▁painter	-10.4941
▁horizon	-10.4943
▁violat	-10.4944
▁depth	-10.4946
▁middle▁age	-10.4952
▁gospel	-10.4954
▁suppress	-10.4955
▁recipient	-10.4958
▁valuable	-10.4967
▁cricket	-10.4993
▁donald	-10.4996
▁euclid	-10.4997
▁estonia	-10.4999
▁accumulat	-10.5002
▁simultaneous	-10.5027
▁libya	-10.503
▁trivia	-10.5036
▁triangle	-10.5055
▁virginia	-10.506
▁czech	-10.5061
▁plural	-10.5066
▁yield	-10.5067
power	-10.5077
▁manipulat	-10.5081
▁gulf	-10.5087
▁ludwig	-10.5105
▁mistake	-10.511
▁united▁nation	-10.5114
▁stretch	-10.5123
▁offensive	-10.513
water	-10.5136
▁uncertain	-10.5142
▁efficienc	-10.5146
▁shock	-10.5157
▁align	-10.5174
▁civilization	-10.5178
▁synonym	-10.5213
▁swiss	-10.5227
▁arbitrar	-10.5227
▁notice	-10.5231
▁switzerland	-10.5234
▁lecture	-10.5242
▁striking	-10.5247
▁serbia	-10.5262
▁ritual	-10.5265
▁karl	-10.5276
▁monument	-10.5295
standing	-10.5297
▁specializ	-10.5298
▁configuration	-10.5302
▁continent	-10.5314
▁diversit	-10.5327
▁insect	-10.5331
▁warfar	-10.5339
ne▁four▁zero▁s	-10.5351
▁basket	-10.5352
▁capabilit	-10.5358
▁roman▁empire	-10.5365
▁amiga	-10.5367
▁armenia	-10.5373
▁sail	-10.5379
▁corrupt	-10.5405
wo▁zero▁zero▁f	-10.5406
▁psychology	-10.5419
▁conversation	-10.5423
▁jeff	-10.543
▁ukrain	-10.5433
▁structural	-10.5435
▁lyrics	-10.5445
▁walter	-10.5446
▁cognitive	-10.5465
▁accent	-10.5482
▁consum	-10.5486
▁commodore	-10.5491
▁instance	-10.5509
▁lawrence	-10.551
▁ghost	-10.5518
▁compatible	-10.5526
hree▁zero	-10.5531
▁finnish	-10.5533
▁noble	-10.5537
▁either▁a	-10.5539
▁wimbledon	-10.5567
▁synthesis	-10.559
▁pierre	-10.5601
▁resolv	-10.5601
▁terminolog	-10.5608
▁else	-10.563
▁automobile	-10.5635
▁facult	-10.5638
▁colonie	-10.5645
▁pocket	-10.5676
▁plastic	-10.5682
▁jersey	-10.5688
▁etymolog	-10.5696
▁cloud	-10.5701
▁browser	-10.5704
▁conquest	-10.5704
▁rural	-10.571
▁leban	-10.572
▁witness	-10.5723
▁baroque	-10.5724
▁albania	-10.5741
▁liberat	-10.575
▁human▁rights	-10.5753
▁one▁nine▁one▁on	-10.5758
▁memorial	-10.5769
round▁the▁world	-10.5774
▁phenomenon	-10.5778
▁kryptoni	-10.5782
▁corps	-10.5784
▁relating▁to	-10.5784
▁enormous	-10.5784
▁one▁eight▁six▁f	-10.5784
▁responsibilit	-10.5792
▁exceed	-10.5793
▁discharg	-10.5797
▁punishment	-10.5798
▁investment	-10.5817
▁technologie	-10.5821
▁seen▁in	-10.5828
▁hondura	-10.5828
▁ecuador	-10.583
▁sudden	-10.5848
▁physicist	-10.585
▁sultan	-10.585
▁an▁example▁of	-10.5851
▁axis	-10.5854
▁economist	-10.5858
licit	-10.5861
▁invit	-10.587
▁mirror	-10.5873
▁perhaps▁the	-10.588
▁chairman	-10.5886
▁revenue	-10.5888
▁rather▁than▁a	-10.59
▁boat	-10.5902
▁consumpti	-10.5908
▁moore	-10.5915
▁immune	-10.5918
▁stereo	-10.5928
▁phoenix	-10.5935
▁jurisdiction	-10.5948
▁alexandria	-10.5966
▁churche	-10.597
▁against▁a	-10.5972
▁neighbour	-10.5992
▁selection	-10.5997
▁merchant	-10.6009
▁inhabitant	-10.6011
▁decay	-10.6019
▁zoo	-10.6022
▁trying▁to	-10.6025
▁norwegian	-10.6029
▁improvement	-10.6042
▁moderate	-10.6045
▁deposit	-10.6065
▁virgin	-10.6071
▁influenced▁b	-10.6075
▁however▁thi	-10.6077
▁hybrid	-10.6083
▁muscle	-10.6092
▁cyber	-10.6118
nough	-10.6125
▁tourism	-10.6139
world	-10.6146
▁bibliograph	-10.6165
▁septem	-10.6166
▁commonwealth	-10.6172
▁surrender	-10.6181
▁zero▁five▁the	-10.6186
▁necessary▁to	-10.6187
magne	-10.6196
▁nfl	-10.6197
▁honour	-10.6212
▁driver	-10.6216
ophil	-10.6221
▁barbar	-10.6268
▁communicat	-10.627
▁cartridge	-10.6277
▁infantry	-10.6294
▁accord	-10.6295
▁derivative	-10.63
symmetr	-10.6302
▁descend	-10.6318
▁utilit	-10.6324
▁bruce	-10.634
▁convinc	-10.6355
▁talent	-10.6361
born	-10.6364
▁situat	-10.6367
▁shortly▁after	-10.6378
▁supplement	-10.6387
▁imprison	-10.6401
▁composed▁o	-10.6405
▁sympath	-10.641
▁heritage	-10.6415
▁guatemala	-10.6451
▁bolivia	-10.646
▁kuwait	-10.6467
▁venezuela	-10.6471
▁bronze	-10.6475
▁ohio	-10.6484
▁relief	-10.6487
▁complicated	-10.6525
▁assembl	-10.6548
▁criteria	-10.6559
▁crowd	-10.6582
▁bengal	-10.6582
▁morris	-10.6582
▁chancellor	-10.6608
▁agnostic	-10.661
▁crypt	-10.6614
▁berkeley	-10.6624
▁sustain	-10.6629
▁sacred	-10.6653
▁comprehensive	-10.6656
▁fortune	-10.6657
▁itself▁a	-10.6658
▁retriev	-10.6658
▁minimal	-10.6658
▁comedian	-10.6674
▁bann	-10.6701
▁jamaica	-10.6712
▁feminist	-10.6718
▁whale	-10.6731
▁salvador	-10.6731
▁carried▁out	-10.6739
▁unfortunate	-10.6746
▁zero▁zero▁bc	-10.6766
▁rebel	-10.677
▁decrease	-10.6778
normal	-10.678
▁having▁be	-10.6785
▁diverse	-10.6794
▁muhammad	-10.6796
naissance	-10.6798
▁constitute	-10.6799
▁wavelength	-10.6821
▁mystery	-10.6821
▁emphasiz	-10.6822
▁descent	-10.6827
▁maxim	-10.683
▁commerce	-10.6847
▁resulting▁in	-10.6865
▁flood	-10.6882
▁terrorist	-10.6888
▁tension	-10.6888
▁indigenous	-10.6891
kov	-10.6891
▁trend	-10.6895
▁afghan	-10.6913
▁signature	-10.6946
▁session	-10.6956
▁nobel	-10.6958
▁prefix	-10.6998
▁jacque	-10.7
▁excellent	-10.7009
▁legacy	-10.7019
▁agre	-10.7019
▁secondar	-10.7022
▁framework	-10.7024
▁luci	-10.7035
▁semiconductor	-10.7036
▁competitor	-10.7041
▁pdf	-10.7061
▁nicaragua	-10.7066
▁clinical	-10.707
▁divorce	-10.7077
▁predominant	-10.7084
▁franz	-10.709
▁priva	-10.7093
▁catholic▁church	-10.7103
▁membrane	-10.7112
▁stalin	-10.7114
▁please	-10.7114
▁patric	-10.7118
▁specifi	-10.712
▁mandat	-10.7122
▁derived▁from▁th	-10.7142
▁hamilton	-10.7165
▁hypothesis	-10.7165
▁knew	-10.7177
▁denomination	-10.7183
▁recruit	-10.72
▁critique	-10.7208
▁scandal	-10.7211
▁demographic	-10.7231
▁hidde	-10.7239
▁industrie	-10.7251
▁administrative	-10.7255
▁gauge	-10.7273
▁dominican	-10.7288
▁byzantine	-10.7294
▁beaut	-10.7303
▁interrupt	-10.7305
▁amplifi	-10.7321
▁imperfect	-10.7329
▁pennsylvania	-10.7331
▁identification	-10.7336
▁anthropolog	-10.7352
▁instant	-10.7376
▁thirty	-10.7378
▁deni	-10.7383
▁annex	-10.739
▁transmitt	-10.7393
▁hip▁hop	-10.7394
▁keyboard	-10.7409
▁contradict	-10.7416
▁authentic	-10.742
▁revelation	-10.7421
▁dissolv	-10.7431
▁module	-10.7435
▁attitude	-10.7442
▁geometry	-10.7463
▁discrete	-10.7463
▁confederate	-10.7468
▁enzyme	-10.747
▁lewis	-10.7476
▁dozen	-10.7476
▁judicial	-10.7479
▁argentine	-10.748
▁assumption	-10.7494
▁railroad	-10.7502
▁proponent	-10.7506
▁legislative	-10.751
▁beautiful	-10.751
▁laser	-10.7527
▁explosive	-10.7529
▁ecolog	-10.7534
▁disaster	-10.7547
▁hitler	-10.7549
▁franklin	-10.7557
employment	-10.7571
▁recognis	-10.7595
▁relevant	-10.7607
▁asteroid	-10.7608
▁condemn	-10.7621
▁darwin	-10.7622
▁atheist	-10.7629
▁autobiograph	-10.7634
▁estate	-10.7652
▁suitabl	-10.7657
▁deliberate	-10.7674
▁puerto▁ric	-10.7674
▁conjugat	-10.769
▁archbishop	-10.7691
▁columbus	-10.7709
▁short▁stor	-10.7722
▁presidenc	-10.773
▁anchor	-10.7733
▁baltimore	-10.7734
▁in▁one▁nine▁f	-10.7741
system	-10.7742
▁nineteen	-10.7746
bourne	-10.7751
▁anthon	-10.7778
▁jur	-10.7786
▁acronym	-10.779
pproximately▁one	-10.7796
▁unsuccessful	-10.7797
▁malaysia	-10.7801
▁overwhelm	-10.7804
▁singular	-10.7823
▁communism	-10.7825
▁belarus	-10.7825
▁stewart	-10.783
▁velocit	-10.7836
▁costa▁rica	-10.7838
▁russell	-10.7845
▁tribute	-10.7846
▁obsolete	-10.7868
▁magnitude	-10.787
▁mouse	-10.7877
▁primitive	-10.7892
▁one▁st▁centur	-10.7894
▁circum	-10.79
▁monopol	-10.793
▁moscow	-10.7947
▁complement	-10.7952
▁gravit	-10.7963
▁surprise	-10.7971
▁extraordinar	-10.7989
▁buddha	-10.799
▁judgment	-10.7993
▁sensitive	-10.8
▁harbor	-10.8005
ern▁hemisphere	-10.8006
▁consequent	-10.8015
▁chemist	-10.8015
▁algeria	-10.8019
▁console	-10.8021
▁gregor	-10.8023
▁cryptograph	-10.8023
▁eleven	-10.8061
▁croatia	-10.8065
merican▁actress	-10.8097
▁exhaust	-10.8102
▁became▁known▁a	-10.8111
▁chocolate	-10.8122
▁harpsichord	-10.8149
▁disadvantage	-10.8155
▁cpu	-10.8158
▁fifteen	-10.8194
▁comic▁book	-10.8214
▁adjacent	-10.8214
▁confidence	-10.8222
▁circular	-10.8225
▁inhabit	-10.8228
▁hawk	-10.8243
▁shadow	-10.8262
▁mississippi	-10.8263
▁wisdom	-10.8265
▁kernel	-10.8273
▁tends▁to	-10.8277
▁personnel	-10.8283
▁immigrant	-10.831
▁pregnan	-10.8323
▁massacre	-10.8329
▁motivat	-10.8342
▁segment	-10.8358
merican▁football	-10.8369
▁economie	-10.8376
▁assault	-10.8381
▁induct	-10.8384
▁contrary▁t	-10.8426
▁participant	-10.8429
▁haiti	-10.8444
▁skeptic	-10.8468
▁matrix	-10.8473
▁catalog	-10.8489
▁galaxy	-10.8494
▁physician	-10.85
▁accurac	-10.8512
▁semantic	-10.855
▁librarie	-10.8555
▁friedrich	-10.8575
▁analytic	-10.858
▁acknowledg	-10.8583
▁retreat	-10.8586
▁reliabl	-10.8586
▁stroke	-10.8587
▁outcome	-10.8622
▁isotope	-10.8642
▁shield	-10.8661
▁immigration	-10.8669
▁athletic	-10.8674
▁regardless▁o	-10.8688
▁widely▁use	-10.8707
▁divided▁into▁t	-10.8756
▁saturday	-10.8758
▁sketch	-10.8759
▁northeast	-10.876
▁devoted	-10.8802
▁mystic	-10.8805
▁uprising	-10.8816
▁wrote▁a	-10.8818
▁taylor	-10.8827
▁atlanta	-10.8829
▁commitment	-10.8835
▁constantinop	-10.8843
▁clause	-10.885
▁isaac	-10.8866
▁remote	-10.8867
▁studi	-10.8904
▁allocat	-10.8908
▁arrival	-10.8926
▁millenni	-10.894
▁intelligent	-10.8944
▁interchange	-10.8947
▁nasa	-10.895
▁amazon	-10.8957
▁adjective	-10.8966
▁infrastructure	-10.897
piece	-10.8974
▁shakespeare	-10.8975
▁anthem	-10.8991
▁voyage	-10.9024
▁began▁a	-10.9031
▁satir	-10.9041
▁cathedral	-10.9041
▁rescue	-10.9085
▁dalek	-10.9085
▁baptist	-10.9113
▁predecessor	-10.9127
▁memoir	-10.9143
▁should▁not▁be	-10.9148
▁occupy	-10.9155
▁topolog	-10.9174
▁the▁middle▁east	-10.9189
▁resort	-10.9212
▁wisconsin	-10.9236
▁artillery	-10.9242
▁transaction	-10.9261
▁gnostic	-10.9269
▁sydney	-10.9287
▁proclaim	-10.9302
▁arkansa	-10.9306
▁antiquit	-10.9313
▁revolt	-10.9323
▁siege	-10.9358
▁cyprus	-10.9363
▁belgian	-10.9388
▁yankee	-10.9423
▁suburb	-10.9429
▁advisor	-10.9432
▁abbot	-10.9434
▁michel	-10.9434
▁optical	-10.9443
▁elephant	-10.9451
▁houston	-10.9454
▁athlete	-10.9477
▁robinson	-10.9494
▁paradox	-10.95
▁philadelphia	-10.9509
ographic	-10.9511
▁displac	-10.9529
▁excavat	-10.9549
▁dialogue	-10.9556
▁senior	-10.9589
▁tournament	-10.959
▁aesthetic	-10.9593
▁defect	-10.9595
anthrop	-10.9598
▁hall▁of▁fame	-10.9619
▁wilson	-10.962
▁amendment	-10.9624
▁borrow	-10.9628
▁guilty	-10.963
▁mediterrane	-10.9632
▁cleveland	-10.9642
▁because▁he	-10.9652
▁indo▁european	-10.9675
▁administer	-10.968
▁explosion	-10.9686
