<unk>	0
<s>	0
</s>	0
s	-2.92718
▁the	-3.23123
▁of	-3.84738
ed	-4.06443
▁a	-4.07213
▁in	-4.15322
▁and	-4.19878
▁one	-4.22451
e	-4.28973
▁to	-4.38148
ing	-4.53088
y	-4.60287
▁s	-4.64816
d	-4.65784
▁zero	-4.66806
▁nine	-4.7193
t	-4.75655
▁two	-4.98575
n	-4.98818
▁is	-4.99058
er	-5.029
ly	-5.04266
al	-5.26168
a	-5.35211
▁for	-5.35912
▁as	-5.38251
o	-5.39172
▁eight	-5.40946
r	-5.45874
▁five	-5.49407
▁three	-5.50288
▁was	-5.50742
▁by	-5.51418
▁be	-5.53907
▁that	-5.53918
▁four	-5.54262
i	-5.57846
in	-5.59075
▁with	-5.60783
▁six	-5.61406
es	-5.62174
c	-5.63084
▁seven	-5.63181
▁on	-5.65158
or	-5.65758
p	-5.70511
g	-5.71518
▁c	-5.73104
▁it	-5.78749
▁an	-5.79846
ion	-5.80782
ation	-5.81855
▁or	-5.82131
ic	-5.85153
m	-5.85208
le	-5.87822
▁b	-5.89171
▁are	-5.90048
▁e	-5.90337
▁he	-5.91512
en	-5.9411
k	-5.94765
▁from	-5.9498
h	-5.95827
▁	-5.9934
▁f	-6.0004
it	-6.0063
l	-6.00806
on	-6.00858
b	-6.01494
an	-6.0354
f	-6.03674
ar	-6.04225
▁his	-6.07112
▁d	-6.07478
u	-6.07525
▁at	-6.14275
▁re	-6.15661
▁this	-6.16428
re	-6.16536
▁w	-6.19636
▁de	-6.20415
▁not	-6.21794
▁which	-6.23409
w	-6.2628
us	-6.2744
el	-6.27487
▁k	-6.29199
▁g	-6.29575
il	-6.3099
ies	-6.31722
▁t	-6.35172
▁p	-6.35228
ch	-6.3553
ent	-6.39101
▁i	-6.40825
ol	-6.41877
ur	-6.43522
th	-6.43621
ra	-6.44741
▁also	-6.44919
ri	-6.44968
v	-6.49141
at	-6.49315
ver	-6.49794
ia	-6.50315
▁n	-6.52956
▁m	-6.53215
▁have	-6.55169
▁were	-6.57711
▁has	-6.5792
▁other	-6.58044
ian	-6.58736
▁r	-6.60569
ro	-6.62863
la	-6.63096
▁but	-6.63188
z	-6.63306
▁th	-6.63628
is	-6.64394
et	-6.64628
▁st	-6.66495
▁h	-6.66646
▁can	-6.67413
ir	-6.69702
ist	-6.69997
ers	-6.70676
li	-6.7128
▁all	-6.7256
id	-6.74102
ant	-6.74237
▁con	-6.75539
▁co	-6.76366
ul	-6.77633
ity	-6.77796
▁who	-6.78794
ate	-6.79583
▁some	-6.80266
ter	-6.82459
▁their	-6.82886
▁le	-6.83732
ta	-6.84626
▁new	-6.84779
ive	-6.85482
ad	-6.86501
um	-6.8714
▁first	-6.87896
▁had	-6.88502
lo	-6.88769
ment	-6.89335
▁v	-6.89511
▁bo	-6.90892
▁most	-6.91552
est	-6.91853
tic	-6.92307
able	-6.93169
▁no	-6.94578
▁more	-6.95028
▁o	-6.95095
▁so	-6.95776
▁ra	-6.95831
▁un	-6.95889
ry	-6.96079
te	-6.97389
ce	-6.98016
ut	-6.98586
om	-6.98911
ot	-6.99218
im	-6.99845
▁l	-7.0051
na	-7.00781
▁ma	-7.00962
x	-7.01051
am	-7.01348
▁year	-7.01976
▁its	-7.01994
▁been	-7.0204
ne	-7.02129
▁la	-7.02816
▁such	-7.04662
▁do	-7.06306
▁many	-7.06358
ism	-7.06487
ck	-7.06905
ell	-7.07864
st	-7.08239
▁ba	-7.11188
tion	-7.12056
▁mar	-7.12217
▁mo	-7.12458
▁after	-7.12639
▁war	-7.12902
▁time	-7.13035
▁see	-7.1354
▁over	-7.14223
▁used	-7.14271
ance	-7.15902
▁ho	-7.16243
▁there	-7.16335
▁pa	-7.16563
▁american	-7.17228
▁part	-7.17339
▁form	-7.18135
▁pre	-7.18282
▁pro	-7.19347
▁when	-7.1937
▁al	-7.19678
▁may	-7.20076
vi	-7.20244
ine	-7.20304
▁ro	-7.21438
▁di	-7.21856
▁work	-7.22488
▁into	-7.22577
ary	-7.22836
me	-7.2343
ma	-7.23503
▁her	-7.23982
ated	-7.2577
▁ch	-7.26894
▁world	-7.26983
▁than	-7.27242
to	-7.27587
▁com	-7.28376
▁these	-7.28679
ish	-7.28877
▁sp	-7.29409
ke	-7.29511
▁system	-7.3012
co	-7.30443
▁only	-7.30552
▁use	-7.3138
un	-7.31556
▁u	-7.32345
ton	-7.32802
age	-7.32894
em	-7.33125
▁name	-7.33374
ide	-7.34368
▁go	-7.34652
▁out	-7.34741
ard	-7.34795
▁lo	-7.34996
op	-7.34997
▁call	-7.35912
▁they	-7.36338
▁per	-7.36675
▁j	-7.36798
▁would	-7.38349
▁up	-7.38471
▁en	-7.38983
▁man	-7.39186
▁state	-7.39716
ose	-7.39909
▁under	-7.40572
▁high	-7.40678
ph	-7.41032
▁vi	-7.41336
▁car	-7.41629
▁we	-7.42333
man	-7.43216
ence	-7.43713
▁ex	-7.44135
ial	-7.44434
mp	-7.45641
▁gu	-7.45824
ous	-7.46581
and	-7.46684
▁howe	-7.47022
▁between	-7.47721
▁people	-7.4798
ical	-7.48314
▁po	-7.48668
▁about	-7.49172
▁dur	-7.50006
▁number	-7.50053
▁ha	-7.50088
ti	-7.50514
j	-7.52101
▁me	-7.52229
tor	-7.52518
ct	-7.5255
min	-7.52763
▁ta	-7.5294
ff	-7.52943
▁y	-7.53582
▁ca	-7.5361
▁if	-7.53632
▁x	-7.53937
▁li	-7.54029
mo	-7.54213
▁sa	-7.54252
ron	-7.54444
land	-7.54829
▁mi	-7.55317
▁language	-7.55337
▁general	-7.55686
▁ar	-7.5573
ha	-7.55878
ci	-7.5602
ac	-7.56116
▁states	-7.56588
son	-7.56834
di	-7.56995
▁united	-7.57186
▁known	-7.57437
ge	-7.57855
ll	-7.58822
one	-7.59995
▁will	-7.60161
ni	-7.6029
▁where	-7.60742
no	-7.60949
ud	-7.61128
▁ab	-7.61453
ip	-7.61547
▁comp	-7.61917
▁dis	-7.61948
▁day	-7.62353
ho	-7.62612
▁qu	-7.63297
ang	-7.64262
▁z	-7.65077
▁through	-7.6535
▁any	-7.65396
▁ri	-7.654
ber	-7.65448
▁cl	-7.66229
ag	-7.6688
ast	-7.66913
▁found	-7.67198
iv	-7.67727
▁term	-7.68007
▁government	-7.68023
▁whil	-7.68887
▁often	-7.69024
▁tr	-7.69384
▁history	-7.69767
ally	-7.69972
▁like	-7.70062
ba	-7.7008
▁fa	-7.70208
▁end	-7.70319
▁te	-7.70692
▁sh	-7.70975
▁game	-7.7104
▁great	-7.71066
ak	-7.71804
pp	-7.71953
bo	-7.72199
ow	-7.72589
va	-7.73337
▁dr	-7.73513
▁includ	-7.73523
▁well	-7.74356
▁na	-7.7476
▁large	-7.74837
ill	-7.74965
▁city	-7.75108
gan	-7.75239
pe	-7.7572
▁english	-7.75762
▁example	-7.75876
ab	-7.75946
▁made	-7.7612
▁both	-7.76396
mi	-7.76538
he	-7.76684
▁play	-7.76705
mb	-7.77
go	-7.77597
▁tri	-7.77802
▁ne	-7.78005
▁music	-7.78066
hi	-7.78117
▁law	-7.7831
up	-7.78572
▁exp	-7.7871
▁book	-7.7886
▁ph	-7.78948
▁mon	-7.79009
▁ga	-7.79015
▁power	-7.79065
po	-7.8001
ty	-7.80207
▁fe	-7.80376
▁being	-7.80806
▁long	-7.80947
ec	-7.81512
▁film	-7.81755
▁str	-7.81786
▁inter	-7.8192
▁life	-7.8207
if	-7.82204
out	-7.82752
▁later	-7.82938
▁national	-7.82978
ite	-7.83678
▁common	-7.83906
▁su	-7.83952
▁him	-7.84496
▁creat	-7.84747
und	-7.85121
▁since	-7.8542
▁list	-7.85996
▁she	-7.8607
ure	-7.86082
gen	-7.8644
▁john	-7.8663
tt	-7.86667
ster	-7.86677
▁gra	-7.8684
od	-7.87022
▁us	-7.8704
▁century	-7.87732
ap	-7.88967
▁set	-7.89076
ve	-7.89096
ven	-7.89321
▁jo	-7.89576
▁force	-7.89589
▁dec	-7.89839
cause	-7.90107
act	-7.90705
ave	-7.9116
▁university	-7.91286
▁sub	-7.91414
bi	-7.91666
▁british	-7.91685
do	-7.92285
ise	-7.92525
▁early	-7.92618
▁major	-7.92878
▁even	-7.93519
uc	-7.93544
▁fi	-7.93661
ner	-7.93795
▁fl	-7.94008
▁right	-7.9452
da	-7.94524
ie	-7.94639
▁you	-7.9514
ga	-7.95202
▁area	-7.95338
ement	-7.95425
▁same	-7.95509
ig	-7.95688
au	-7.95712
ology	-7.95827
▁own	-7.95887
ight	-7.96069
▁har	-7.96364
▁ja	-7.96367
▁el	-7.96731
eg	-7.96969
▁include	-7.973
▁south	-7.97363
▁point	-7.97537
▁character	-7.97578
▁second	-7.97709
ger	-7.97778
▁becam	-7.98219
▁word	-7.98465
▁german	-7.98543
▁act	-7.98576
ship	-7.9858
ca	-7.98804
▁each	-7.9884
▁du	-7.98879
▁show	-7.98975
▁line	-7.99463
line	-7.9952
oc	-7.9987
mon	-7.99895
▁pi	-7.99966
▁god	-8.00229
io	-8.00231
▁island	-8.0028
▁north	-8.0034
▁min	-8.00415
ach	-8.00562
▁main	-8.00836
▁death	-8.01044
▁although	-8.01163
▁human	-8.0163
▁air	-8.01708
que	-8.01708
ium	-8.02127
▁ge	-8.0218
▁what	-8.02373
▁order	-8.02931
▁different	-8.02958
▁consider	-8.03
▁several	-8.0304
lin	-8.03589
▁cor	-8.0376
▁ju	-8.03768
▁lu	-8.04182
ick	-8.04331
ex	-8.04792
▁place	-8.04848
▁bar	-8.05064
▁small	-8.05535
▁them	-8.05665
gr	-8.05671
▁french	-8.05851
tra	-8.06081
▁much	-8.06097
▁ka	-8.06345
▁hu	-8.066
be	-8.06665
▁result	-8.06782
low	-8.068
▁very	-8.06918
▁win	-8.07068
▁before	-8.07214
▁roman	-8.07996
▁va	-8.08069
▁trans	-8.08382
ative	-8.08473
com	-8.08565
▁public	-8.08597
▁president	-8.08633
▁king	-8.08683
lu	-8.08707
▁way	-8.08919
▁da	-8.09201
ward	-8.09206
▁church	-8.09407
▁ii	-8.09705
▁imp	-8.09792
▁land	-8.10137
▁design	-8.10344
▁now	-8.10359
ru	-8.1045
way	-8.10538
▁support	-8.10595
▁non	-8.10601
▁bi	-8.10652
▁modern	-8.10735
cu	-8.1101
ft	-8.11051
▁back	-8.11197
ub	-8.11199
▁old	-8.11241
ized	-8.11259
▁group	-8.11475
▁produc	-8.1158
▁could	-8.11651
ough	-8.12016
our	-8.12537
par	-8.13126
▁case	-8.13164
▁class	-8.13254
▁sea	-8.13271
▁make	-8.13406
ness	-8.13485
tr	-8.13682
ok	-8.13898
▁links	-8.14098
▁pe	-8.14098
ka	-8.14197
ful	-8.14517
▁cri	-8.14696
av	-8.14969
▁based	-8.14985
▁my	-8.1501
port	-8.15271
mer	-8.15402
ating	-8.15445
▁free	-8.15525
ator	-8.16146
▁player	-8.16514
▁external	-8.16654
▁continu	-8.16681
nother	-8.16858
▁record	-8.17587
int	-8.17751
▁hand	-8.17824
▁ten	-8.17998
all	-8.18249
▁country	-8.18464
▁bu	-8.1852
▁agains	-8.18695
▁international	-8.18741
cc	-8.1879
lic	-8.18915
▁sw	-8.19195
▁appear	-8.19231
ile	-8.1928
▁remain	-8.19625
▁change	-8.19931
▁direct	-8.20156
che	-8.20286
per	-8.20478
▁sc	-8.20554
qu	-8.20611
▁popular	-8.21019
▁original	-8.2107
▁mu	-8.21162
▁rule	-8.21365
▁am	-8.2181
▁cha	-8.22155
day	-8.22375
▁mean	-8.22539
ual	-8.22677
▁series	-8.22741
▁political	-8.22964
▁still	-8.23093
▁usual	-8.23384
▁pol	-8.23399
mit	-8.23879
the	-8.24343
▁ru	-8.24448
▁control	-8.24514
▁count	-8.24521
▁computer	-8.24543
▁until	-8.24548
▁become	-8.24557
ture	-8.24596
▁christian	-8.24638
con	-8.24957
▁plan	-8.25094
ah	-8.25222
cl	-8.25459
▁home	-8.25465
ign	-8.25687
▁elect	-8.25807
▁sign	-8.25843
ock	-8.25923
▁mor	-8.26109
▁real	-8.26131
▁art	-8.26806
▁exist	-8.27127
▁open	-8.27305
▁pl	-8.27529
▁port	-8.27818
ling	-8.28318
pl	-8.28359
ea	-8.28646
▁population	-8.28709
▁did	-8.28734
▁mil	-8.28839
▁pass	-8.28873
row	-8.29079
▁school	-8.29113
ug	-8.2933
▁short	-8.29339
ler	-8.2951
▁west	-8.2972
ress	-8.3056
bb	-8.30602
▁process	-8.3073
ade	-8.30744
▁age	-8.30929
▁article	-8.31082
val	-8.311
ley	-8.31178
bu	-8.31494
▁party	-8.31553
▁develop	-8.31608
▁allow	-8.31628
▁service	-8.31752
▁tru	-8.31899
▁conf	-8.31931
▁op	-8.32244
▁region	-8.32382
▁among	-8.32428
▁east	-8.32631
ari	-8.32652
ric	-8.32948
▁near	-8.33052
▁down	-8.33072
▁live	-8.33361
▁anti	-8.33556
▁bra	-8.33846
ki	-8.33942
▁water	-8.34253
▁ve	-8.34981
less	-8.35047
▁official	-8.35089
▁every	-8.35553
▁view	-8.35847
▁ti	-8.35886
▁period	-8.3597
▁last	-8.35996
▁around	-8.36375
mm	-8.36557
▁function	-8.3658
▁represent	-8.36742
▁publish	-8.36936
▁theory	-8.37271
wa	-8.37313
▁claim	-8.37475
▁left	-8.37546
▁current	-8.37701
▁far	-8.38042
▁house	-8.38043
▁though	-8.38146
ten	-8.38166
▁military	-8.38275
den	-8.38301
▁app	-8.3865
▁je	-8.38834
ath	-8.38849
▁similar	-8.38851
ov	-8.38987
▁men	-8.39034
▁particular	-8.39182
ists	-8.3926
▁ver	-8.39314
▁type	-8.3937
lan	-8.39743
▁ni	-8.39819
▁european	-8.39875
ace	-8.40025
▁pr	-8.40026
ible	-8.40066
▁following	-8.40463
▁japan	-8.40485
▁science	-8.40519
ize	-8.40625
ox	-8.40638
qui	-8.40769
ves	-8.40841
▁using	-8.40895
▁star	-8.40951
▁space	-8.41072
▁wide	-8.4159
▁take	-8.41841
▁serv	-8.4192
ix	-8.42157
▁present	-8.42244
▁due	-8.42625
▁reference	-8.42767
tan	-8.42824
▁provide	-8.42934
▁important	-8.43496
▁social	-8.43506
▁light	-8.43701
▁releas	-8.43739
▁prop	-8.43768
▁pla	-8.44064
▁cap	-8.44336
▁standard	-8.44438
▁che	-8.4454
▁bur	-8.45177
istic	-8.45244
▁arm	-8.45346
han	-8.45396
▁fact	-8.45479
▁version	-8.4571
▁sometime	-8.45843
form	-8.45922
tu	-8.4616
▁final	-8.46171
▁information	-8.46209
▁simpl	-8.46214
wi	-8.46262
▁field	-8.4634
▁disc	-8.4634
ction	-8.46377
▁within	-8.46691
▁economic	-8.46721
▁family	-8.47134
▁less	-8.4723
▁met	-8.4732
▁close	-8.4773
ris	-8.4782
▁follow	-8.47841
gg	-8.47903
▁union	-8.47939
▁treat	-8.48182
▁start	-8.48327
▁source	-8.48346
unt	-8.48359
▁contain	-8.48364
log	-8.48711
▁civil	-8.48837
her	-8.49227
▁fu	-8.49412
▁republic	-8.4966
▁cause	-8.49853
▁court	-8.49864
▁person	-8.50114
▁super	-8.50191
▁black	-8.50327
▁mod	-8.50363
▁does	-8.50422
▁require	-8.50457
▁pat	-8.5063
▁just	-8.50747
▁er	-8.50826
ze	-8.50943
▁problem	-8.50959
▁given	-8.51355
▁head	-8.5137
▁establish	-8.51819
▁read	-8.52174
▁born	-8.52262
ash	-8.5244
▁good	-8.52699
▁mer	-8.52725
ified	-8.52897
▁level	-8.53281
▁york	-8.53376
▁central	-8.53412
▁wi	-8.53437
▁battle	-8.53585
▁few	-8.53653
tro	-8.53656
▁idea	-8.53751
▁should	-8.53929
▁describ	-8.53968
▁believe	-8.54027
▁came	-8.54213
▁off	-8.54246
▁addition	-8.54277
tive	-8.54465
br	-8.54532
▁members	-8.54605
▁team	-8.54728
▁full	-8.54816
ological	-8.55031
▁run	-8.55519
▁den	-8.55766
ular	-8.55912
▁rec	-8.55979
▁fre	-8.56209
▁dan	-8.56343
▁don	-8.56412
▁single	-8.56426
▁australia	-8.56459
▁development	-8.5651
▁greek	-8.56617
▁lead	-8.56664
▁earth	-8.56701
▁how	-8.56741
▁various	-8.56815
ization	-8.56877
▁object	-8.57032
▁countr	-8.5723
▁program	-8.57469
▁complete	-8.57592
▁thus	-8.57666
▁side	-8.57724
▁effect	-8.57983
ius	-8.57984
▁nor	-8.58093
either	-8.58116
mor	-8.58171
iz	-8.58333
nder	-8.58428
ham	-8.58558
cent	-8.58571
▁western	-8.58839
▁sch	-8.58859
▁must	-8.58959
ev	-8.59116
▁text	-8.59417
▁isbn	-8.59581
ax	-8.59591
men	-8.59671
▁eu	-8.59763
▁europe	-8.59772
▁according	-8.59805
▁ill	-8.59817
▁river	-8.59856
ritten	-8.60014
▁feature	-8.60112
▁return	-8.60316
▁ber	-8.60486
▁late	-8.60681
▁france	-8.60805
ther	-8.60864
▁element	-8.6091
▁natural	-8.61077
▁special	-8.61221
rop	-8.61265
ese	-8.61483
▁hi	-8.61728
▁gen	-8.62089
▁never	-8.623
▁image	-8.62318
▁est	-8.62493
tal	-8.62512
lf	-8.62614
▁mag	-8.62682
▁receiv	-8.62787
▁post	-8.62871
rate	-8.62963
▁million	-8.6306
▁prov	-8.63323
▁leader	-8.63546
▁best	-8.63838
▁report	-8.63866
▁song	-8.63923
rew	-8.63936
▁culture	-8.64009
▁college	-8.6401
▁influence	-8.64264
▁test	-8.64851
▁add	-8.64858
nes	-8.64994
▁rep	-8.65054
▁birth	-8.6506
▁further	-8.65314
▁method	-8.65724
▁author	-8.6576
▁model	-8.65802
▁conc	-8.65911
gu	-8.66011
▁attempt	-8.66178
▁turn	-8.66198
▁introduc	-8.66222
▁kill	-8.66281
▁recent	-8.6629
▁communit	-8.66614
▁value	-8.66627
▁sur	-8.66812
self	-8.67024
▁defin	-8.67067
▁individual	-8.67292
▁former	-8.67336
▁son	-8.67414
not	-8.67444
▁cat	-8.67612
ase	-8.67661
▁low	-8.67759
▁gi	-8.68095
rac	-8.68242
▁local	-8.68367
▁need	-8.68575
▁kingdom	-8.68776
gue	-8.6892
▁red	-8.69124
▁body	-8.69217
▁site	-8.69301
▁member	-8.69334
▁km	-8.69423
▁band	-8.69484
▁data	-8.69503
▁gene	-8.69582
▁project	-8.69828
▁bill	-8.69878
▁capital	-8.69919
vo	-8.70039
▁office	-8.7012
▁total	-8.70173
▁mass	-8.70275
▁along	-8.70328
▁auto	-8.70386
▁england	-8.70416
ious	-8.70714
▁led	-8.70804
▁rather	-8.70915
led	-8.70926
▁code	-8.70935
▁position	-8.70977
▁empire	-8.71371
▁locat	-8.71418
▁issue	-8.71576
by	-8.71641
▁movement	-8.71677
▁fla	-8.7195
▁rock	-8.71964
▁key	-8.71972
▁come	-8.71977
▁america	-8.7227
▁london	-8.72406
mu	-8.72762
▁cell	-8.72839
▁mathematic	-8.72869
▁letter	-8.72975
▁minister	-8.73059
▁unit	-8.73154
▁occur	-8.73265
script	-8.73429
▁val	-8.7346
▁times	-8.73569
ification	-8.73732
▁germany	-8.73741
▁center	-8.73747
▁ob	-8.73778
▁move	-8.74177
▁said	-8.7432
▁attack	-8.74864
▁mac	-8.74946
▁involv	-8.74958
▁strong	-8.75085
▁limit	-8.75411
▁traditional	-8.75491
▁certain	-8.75552
light	-8.75842
▁research	-8.75863
▁success	-8.76097
▁company	-8.76134
▁third	-8.76256
▁say	-8.76448
▁christ	-8.76521
▁origin	-8.76528
▁white	-8.76561
▁actor	-8.76698
▁interest	-8.76714
▁mark	-8.76784
▁refer	-8.76806
▁event	-8.7681
▁army	-8.76831
▁gl	-8.77025
▁writer	-8.77351
▁bre	-8.77408
▁sha	-8.77445
▁role	-8.77528
▁increase	-8.77649
▁shar	-8.77806
▁top	-8.7803
▁election	-8.78038
▁style	-8.78153
▁trade	-8.78217
▁groups	-8.78252
ja	-8.78288
▁micro	-8.78321
▁connect	-8.79143
▁syn	-8.79166
▁structure	-8.79245
▁bl	-8.79268
▁hav	-8.79282
▁again	-8.79319
▁press	-8.79393
▁fire	-8.79417
▁product	-8.79655
ier	-8.79841
▁title	-8.79964
▁israel	-8.80063
▁soviet	-8.80091
▁held	-8.80147
▁specific	-8.80217
▁william	-8.80368
▁reason	-8.80445
▁san	-8.80468
▁father	-8.80529
▁ball	-8.80647
pi	-8.80717
rm	-8.80922
▁tu	-8.81017
▁especial	-8.81068
▁young	-8.81341
▁august	-8.81346
▁speak	-8.8135
▁hard	-8.81364
▁pal	-8.81444
▁vol	-8.8147
▁market	-8.81492
war	-8.8151
▁hold	-8.81579
ica	-8.8174
▁bri	-8.81813
▁material	-8.81878
▁society	-8.81954
▁enter	-8.8229
▁subject	-8.82362
▁rest	-8.82419
▁concept	-8.82428
▁tur	-8.82702
▁hit	-8.82802
▁novel	-8.8286
▁town	-8.83582
▁consist	-8.83621
▁compos	-8.83665
fa	-8.83823
▁sound	-8.84021
▁council	-8.84243
▁possible	-8.84325
▁rate	-8.84837
▁famous	-8.85055
▁regard	-8.85188
▁im	-8.8528
▁help	-8.85313
position	-8.85426
▁arch	-8.85469
▁children	-8.85528
▁actual	-8.85673
ney	-8.85896
▁meaning	-8.86128
▁himself	-8.86501
▁observ	-8.86668
▁story	-8.86773
▁manag	-8.87136
▁took	-8.87137
▁char	-8.87334
▁production	-8.87597
▁pen	-8.87697
fl	-8.87744
▁love	-8.87855
▁gal	-8.87903
▁practice	-8.88143
▁cover	-8.88157
▁range	-8.88527
▁ship	-8.88662
stead	-8.88912
▁little	-8.88931
car	-8.89293
▁fall	-8.89406
▁engine	-8.89472
▁color	-8.89516
▁discover	-8.89534
▁ko	-8.89534
arian	-8.89548
▁express	-8.89556
▁circ	-8.89571
▁march	-8.89597
▁uk	-8.89639
▁accept	-8.89757
matic	-8.89921
▁radio	-8.89937
▁arab	-8.89993
▁above	-8.90032
▁emperor	-8.90083
▁foreign	-8.90371
▁find	-8.90447
▁cross	-8.90506
▁operation	-8.90662
▁historical	-8.90692
▁catholic	-8.9083
ography	-8.91005
▁action	-8.91089
▁organization	-8.91172
▁gold	-8.9149
▁para	-8.91512
▁territor	-8.91639
▁largest	-8.91838
▁upon	-8.92164
▁network	-8.92258
▁primar	-8.92268
▁jewish	-8.92342
q	-8.92497
almost	-8.92679
▁pur	-8.92732
▁james	-8.92782
▁lib	-8.93049
▁league	-8.93051
▁blue	-8.93171
▁typical	-8.93334
▁religious	-8.93363
▁sun	-8.9337
▁cur	-8.93426
▁base	-8.9372
▁software	-8.93791
▁album	-8.93994
▁januar	-8.94136
▁command	-8.94172
▁study	-8.94227
▁fiction	-8.94232
▁indian	-8.94345
▁sal	-8.94354
▁div	-8.94409
▁colon	-8.94534
▁perform	-8.94565
▁seen	-8.94665
▁latin	-8.94713
▁green	-8.94807
▁opera	-8.95084
▁month	-8.95408
▁card	-8.9547
▁compar	-8.95552
▁replac	-8.95559
▁living	-8.95563
▁once	-8.95801
▁pop	-8.96082
▁ancient	-8.96139
graph	-8.9615
▁david	-8.96199
kin	-8.96284
▁translat	-8.96336
▁constitution	-8.9635
▁writing	-8.96696
burg	-8.96773
▁george	-8.96785
mar	-8.96886
▁northern	-8.97003
▁measure	-8.97139
▁related	-8.97262
▁thought	-8.97381
▁education	-8.97405
▁page	-8.97429
ung	-8.97558
▁get	-8.97644
▁building	-8.97664
▁electric	-8.97666
▁bank	-8.97788
▁energy	-8.97792
▁gar	-8.97918
▁television	-8.9815
▁give	-8.98261
ama	-8.98296
▁protect	-8.98349
uck	-8.98428
▁parliament	-8.98479
▁award	-8.98528
▁middle	-8.98662
▁director	-8.98741
▁cost	-8.98835
▁chinese	-8.98902
▁december	-8.98991
▁china	-8.99032
▁q	-8.99092
▁join	-8.99247
▁reduc	-8.9935
▁movie	-8.99353
▁male	-8.99395
ability	-8.99613
▁women	-8.99753
▁cru	-8.99977
▁making	-9.00078
▁cop	-9.00179
▁execut	-9.00205
▁animal	-9.00217
▁construct	-9.0022
▁reach	-9.00266
▁complex	-9.00481
▁canada	-9.00517
▁referr	-9.00551
▁india	-9.00567
▁prime	-9.00694
▁combin	-9.00781
▁generat	-9.0087
▁argu	-9.00887
▁charles	-9.00958
▁won	-9.00964
▁next	-9.00976
▁might	-9.01268
can	-9.01485
▁earli	-9.01532
▁depend	-9.01773
▁eastern	-9.01782
▁availabl	-9.01836
▁half	-9.02469
▁relation	-9.02507
▁female	-9.02521
▁deriv	-9.02764
▁revolution	-9.02833
▁season	-9.02934
▁machine	-9.03023
▁symbol	-9.03036
▁relative	-9.03118
▁personal	-9.03207
ull	-9.03334
▁significant	-9.03335
▁secret	-9.03525
▁pra	-9.03952
▁studie	-9.04428
▁suggest	-9.04667
▁account	-9.04731
▁paul	-9.04782
▁except	-9.04813
▁together	-9.04828
▁condition	-9.04859
▁july	-9.05355
▁ham	-9.05376
▁football	-9.05468
zz	-9.05501
▁programm	-9.05501
▁built	-9.06052
▁business	-9.06178
▁hyp	-9.06249
▁separate	-9.06406
▁russian	-9.06427
▁mid	-9.06632
▁economy	-9.06633
▁associat	-9.06688
har	-9.06777
▁religion	-9.06861
▁independent	-9.07024
▁import	-9.07115
▁question	-9.07223
▁multi	-9.07332
▁june	-9.07338
▁fail	-9.07538
▁bit	-9.07562
▁constant	-9.07583
▁italian	-9.07634
▁cra	-9.07645
▁coast	-9.07876
▁mc	-9.08035
▁map	-9.08095
▁robert	-9.08245
▁scot	-9.08397
qua	-9.0854
▁friend	-9.08541
▁train	-9.08633
▁legal	-9.08914
ju	-9.09089
▁always	-9.09216
▁frank	-9.09395
mark	-9.09627
▁psych	-9.09809
▁park	-9.09937
▁environment	-9.10009
▁entire	-9.1001
▁fan	-9.10163
▁food	-9.10215
▁november	-9.10245
▁determin	-9.10314
▁nature	-9.1032
▁student	-9.10584
▁coll	-9.10606
▁royal	-9.10651
▁fight	-9.10669
▁fri	-9.10739
▁put	-9.11051
▁step	-9.11056
▁drive	-9.11158
▁southern	-9.11379
▁settl	-9.11453
▁self	-9.11661
▁media	-9.11732
▁tradition	-9.11828
▁cast	-9.11936
▁document	-9.1205
▁vote	-9.12064
▁april	-9.12256
▁camp	-9.12487
panish	-9.12651
▁octob	-9.1267
▁user	-9.12717
▁previous	-9.12774
▁bru	-9.12891
▁big	-9.12933
▁taken	-9.12972
▁metal	-9.1299
▁africa	-9.13301
▁access	-9.13678
▁septem	-9.13713
▁lost	-9.13759
▁evidence	-9.13852
▁grand	-9.13917
▁past	-9.13947
▁reform	-9.14234
struc	-9.14316
▁offer	-9.14353
▁lower	-9.14433
▁saint	-9.14443
bility	-9.14721
▁lord	-9.14783
▁technology	-9.14801
▁clear	-9.14944
▁eventual	-9.14976
▁wrot	-9.15114
▁look	-9.15299
▁oppos	-9.15385
▁carri	-9.15502
▁plant	-9.15535
▁lake	-9.15543
▁artist	-9.15857
▁epi	-9.15994
▁our	-9.16041
▁authorit	-9.16127
▁chi	-9.1683
▁experience	-9.1716
▁difficult	-9.17196
▁distribut	-9.17196
▁distinct	-9.17305
▁prince	-9.17305
▁poet	-9.1735
▁victor	-9.17381
▁respect	-9.17595
▁web	-9.17706
▁file	-9.17896
▁basic	-9.18188
▁normal	-9.18235
▁stand	-9.18273
▁seem	-9.18472
▁entr	-9.18547
▁die	-9.18567
▁application	-9.18765
▁themsel	-9.18944
▁physical	-9.19095
▁adopt	-9.19101
▁african	-9.19124
▁minor	-9.19139
▁liberal	-9.19396
▁philosophy	-9.19464
amp	-9.19631
spite	-9.1967
▁degree	-9.19873
▁technique	-9.20021
▁definition	-9.20097
berg	-9.20229
▁democrat	-9.20244
▁video	-9.20628
▁brother	-9.20656
▁factor	-9.20682
▁matter	-9.20709
▁therefore	-9.20843
▁fran	-9.20849
▁egypt	-9.2088
▁species	-9.20918
▁semi	-9.21142
▁host	-9.2118
▁indicat	-9.21213
▁spirit	-9.21371
cept	-9.21374
▁division	-9.21634
▁februar	-9.21747
▁amount	-9.21749
▁peace	-9.21788
▁travel	-9.21791
▁irish	-9.21907
▁declar	-9.21987
▁concern	-9.2202
▁chief	-9.22093
▁eth	-9.22156
▁ground	-9.22251
hether	-9.22448
▁advanc	-9.2274
▁citie	-9.22789
▁jack	-9.2284
▁convention	-9.22851
▁internet	-9.22858
▁activit	-9.22861
▁figure	-9.23044
▁gain	-9.2321
▁draw	-9.23476
▁night	-9.23635
▁photo	-9.23792
▁improv	-9.23934
▁outside	-9.24119
▁grow	-9.24373
▁emb	-9.24623
▁successful	-9.24636
▁discuss	-9.2469
▁jews	-9.2473
▁break	-9.24862
▁divid	-9.25001
▁speed	-9.25349
▁instrument	-9.25371
▁sense	-9.25455
▁canadian	-9.25726
▁week	-9.25907
▁beginning	-9.26086
▁equal	-9.26369
▁front	-9.26616
▁employ	-9.26674
▁learn	-9.26896
▁maintain	-9.27194
▁hall	-9.27295
▁belief	-9.27433
▁extreme	-9.27553
▁hop	-9.2763
▁contribut	-9.28076
▁meet	-9.28135
▁difference	-9.28197
▁mother	-9.2829
▁charge	-9.28513
▁frac	-9.28554
▁louis	-9.28931
▁flow	-9.28943
▁scientific	-9.29049
▁purpose	-9.29049
▁link	-9.29104
▁remov	-9.29156
▁initial	-9.29163
▁transport	-9.29184
▁interpret	-9.29212
▁hydro	-9.29258
▁collect	-9.29405
ept	-9.29667
▁compani	-9.29834
▁blood	-9.30074
▁section	-9.30149
▁frequent	-9.30155
▁independenc	-9.30361
uff	-9.3041
ford	-9.30552
▁extra	-9.30909
▁relationship	-9.30985
▁select	-9.31207
▁controvers	-9.31231
▁mountain	-9.31272
▁child	-9.31871
▁face	-9.3188
▁future	-9.31882
▁academ	-9.31899
▁double	-9.31942
▁henry	-9.32049
▁detail	-9.32576
▁wall	-9.32736
▁know	-9.32923
▁association	-9.33049
▁logic	-9.33065
▁aircraft	-9.33231
stein	-9.3332
▁chemical	-9.3359
▁border	-9.33634
▁industry	-9.3376
time	-9.33856
▁principle	-9.33974
▁club	-9.34019
▁increasing	-9.34188
▁visit	-9.3425
▁defeat	-9.34275
▁federal	-9.34276
▁surface	-9.34359
▁edition	-9.3449
▁wood	-9.34543
▁singer	-9.3465
▁paper	-9.34733
▁commercial	-9.34876
▁peter	-9.34955
▁surviv	-9.34971
▁stage	-9.35043
▁assembl	-9.35093
▁experiment	-9.35179
▁britain	-9.35266
▁health	-9.35292
ference	-9.35514
▁austria	-9.35614
▁california	-9.35743
▁scholar	-9.35831
▁classical	-9.35988
▁knowledge	-9.36398
▁appli	-9.36464
▁native	-9.36547
▁ireland	-9.36576
▁angel	-9.36599
▁architect	-9.36662
▁website	-9.36709
▁understand	-9.37191
▁extend	-9.37192
▁tree	-9.37206
▁bomb	-9.37487
▁probabl	-9.37514
▁achiev	-9.37767
▁begin	-9.37953
▁policy	-9.38
▁private	-9.38123
▁temperature	-9.38167
▁length	-9.38212
▁street	-9.38314
▁labor	-9.38449
▁appoint	-9.3848
▁road	-9.38557
▁variet	-9.38616
▁manufactur	-9.38794
▁inde	-9.39026
▁course	-9.39158
▁resource	-9.39199
▁congress	-9.392
▁yet	-9.3933
▁queen	-9.39449
▁collection	-9.39851
▁cultural	-9.39877
▁branch	-9.40019
▁assum	-9.40022
▁mix	-9.40086
▁champion	-9.40287
▁prevent	-9.40302
▁kind	-9.40429
▁career	-9.40515
▁effort	-9.40789
▁russia	-9.40944
▁province	-9.41019
▁necessar	-9.41202
▁richard	-9.41249
▁thomas	-9.41387
▁citizen	-9.41617
▁prize	-9.41865
▁jesu	-9.41881
▁journal	-9.4194
▁approach	-9.42172
▁brought	-9.42219
▁channel	-9.42358
▁performance	-9.4253
▁quick	-9.4266
▁device	-9.42734
▁evolution	-9.43012
▁growth	-9.43349
assi	-9.43915
▁destroy	-9.44142
field	-9.44169
▁across	-9.44664
▁keep	-9.4481
▁print	-9.45018
hood	-9.45129
▁address	-9.45151
▁weapon	-9.45382
▁etc	-9.4552
▁acid	-9.45644
▁mission	-9.46123
▁paris	-9.46471
▁security	-9.46587
▁storie	-9.46937
▁money	-9.46975
mission	-9.47095
▁round	-9.47101
▁disease	-9.47173
▁effective	-9.47477
haps	-9.47506
▁communication	-9.47611
▁politics	-9.4771
▁alternative	-9.47758
▁focus	-9.47761
▁drug	-9.47808
▁expect	-9.47817
▁average	-9.47831
▁better	-9.48075
ground	-9.48144
▁museum	-9.48152
▁notabl	-9.48486
▁spain	-9.48613
▁volume	-9.48814
▁estimat	-9.49012
▁graph	-9.49256
▁muslim	-9.49342
▁centre	-9.49413
▁categor	-9.49493
▁dutch	-9.49553
wood	-9.49614
▁ocean	-9.49896
▁library	-9.50094
already	-9.50606
▁think	-9.50817
▁wife	-9.50823
▁voice	-9.51059
▁bond	-9.51214
▁actress	-9.51225
▁grant	-9.51312
▁communist	-9.51358
▁implement	-9.5141
▁professional	-9.5146
▁subsequent	-9.51613
▁argument	-9.5168
▁mention	-9.51797
▁occasion	-9.51971
▁recogniz	-9.51971
▁institute	-9.52125
▁track	-9.52184
▁sexual	-9.52229
▁status	-9.52336
▁latter	-9.52502
▁agreement	-9.52784
▁agricultur	-9.52949
▁guitar	-9.53109
▁episode	-9.53208
▁literature	-9.53311
▁district	-9.53415
▁digital	-9.53467
▁heart	-9.5368
▁instance	-9.53854
▁brown	-9.53893
▁analysi	-9.53901
▁pressure	-9.53941
▁orthodox	-9.53988
▁picture	-9.54148
▁faith	-9.54153
▁horse	-9.54271
▁campaign	-9.54355
▁commission	-9.54481
▁rank	-9.54557
▁regular	-9.54883
▁broad	-9.54886
▁alexander	-9.54933
▁square	-9.55097
▁carbon	-9.551
▁scale	-9.55249
▁content	-9.55286
▁basis	-9.55504
▁conflict	-9.55517
▁magazine	-9.55888
▁electronic	-9.55942
aught	-9.5612
▁dark	-9.56235
▁deep	-9.56304
▁joseph	-9.56744
▁property	-9.56852
▁industrial	-9.57174
▁price	-9.57822
▁memory	-9.57826
▁michael	-9.57987
▁piece	-9.58061
▁smith	-9.58118
▁write	-9.5818
▁medical	-9.58395
▁launch	-9.58479
▁bridge	-9.58589
▁approximate	-9.58751
▁promot	-9.58918
▁progress	-9.58972
morph	-9.5923
▁dispute	-9.59578
▁decision	-9.5969
▁washington	-9.59909
▁freedom	-9.60307
▁correspond	-9.60353
▁agree	-9.60438
▁custom	-9.60744
▁review	-9.60968
▁broadcast	-9.61137
▁affect	-9.61194
▁easi	-9.61568
ologist	-9.61864
▁explain	-9.6193
▁thousand	-9.61982
▁spoke	-9.62262
▁universal	-9.62322
▁reflect	-9.62379
▁institution	-9.62493
▁dialect	-9.62493
▁formula	-9.62658
▁defense	-9.62892
▁daughter	-9.62894
▁heavy	-9.63019
▁conduct	-9.63121
▁judge	-9.63128
▁bbc	-9.63294
▁explor	-9.63543
▁korea	-9.63572
▁shape	-9.63877
▁universe	-9.63983
▁announc	-9.63983
▁solution	-9.63983
▁foot	-9.64289
▁block	-9.64347
▁committee	-9.64388
▁reaction	-9.64455
▁philosopher	-9.64504
▁speech	-9.64679
▁display	-9.64911
▁prior	-9.64934
▁francis	-9.65092
▁response	-9.65262
▁scientist	-9.65262
▁store	-9.65329
▁baseball	-9.6579
▁ethnic	-9.66265
▁reject	-9.66498
▁irr	-9.66508
▁suffer	-9.66512
▁legend	-9.66682
▁biograph	-9.66718
▁algorithm	-9.66854
▁woman	-9.67107
▁summer	-9.67158
▁bishop	-9.67213
▁immediate	-9.6733
▁situation	-9.6739
▁distance	-9.674
▁taking	-9.67608
▁http	-9.67632
▁monarch	-9.67752
▁numerous	-9.67809
▁hebrew	-9.67871
▁behind	-9.6793
▁unlike	-9.68051
▁correct	-9.68244
ville	-9.68333
▁historian	-9.68354
▁wild	-9.68536
▁internal	-9.68765
▁potential	-9.69077
craft	-9.69288
▁aspect	-9.69506
▁search	-9.69753
▁troops	-9.69933
▁something	-9.70025
▁concentrat	-9.70058
▁calculat	-9.70177
▁demand	-9.70265
▁context	-9.703
▁department	-9.70547
▁climate	-9.70547
▁favor	-9.70555
▁engineering	-9.70624
▁windows	-9.7067
▁scene	-9.70777
▁technical	-9.70855
▁intend	-9.70859
▁debate	-9.70902
▁contract	-9.7117
▁match	-9.71207
▁essential	-9.71227
▁police	-9.7132
▁honor	-9.71342
▁pattern	-9.71541
▁running	-9.72124
▁critical	-9.72234
▁exchange	-9.72289
▁target	-9.72351
▁calendar	-9.72414
▁serious	-9.7281
▁continent	-9.72918
▁transfer	-9.73003
▁operating	-9.73066
▁attract	-9.73393
▁attend	-9.73752
▁extensive	-9.7387
▁labour	-9.73872
▁rapid	-9.73881
▁threat	-9.73948
▁propertie	-9.7419
▁nobel	-9.74198
▁avoid	-9.74324
▁algebra	-9.74445
▁damage	-9.74452
▁doctor	-9.74452
▁navy	-9.74464
▁screen	-9.74577
▁contemporar	-9.74638
▁multiple	-9.74642
▁slave	-9.74658
▁albert	-9.74817
▁captur	-9.75285
▁possess	-9.75348
▁adapt	-9.75353
▁obtain	-9.75413
▁centuri	-9.75678
▁proposed	-9.76066
▁fundamental	-9.76126
▁politician	-9.76126
▁surround	-9.76192
▁soldier	-9.76257
work	-9.76426
▁orbit	-9.76597
▁entit	-9.76634
▁sequence	-9.7665
▁particle	-9.76989
▁spring	-9.77034
▁convert	-9.77171
▁unique	-9.77178
▁apparent	-9.77375
▁hundred	-9.77439
▁chicago	-9.7777
▁murder	-9.77903
▁quarter	-9.78238
worth	-9.78255
▁distinguish	-9.78302
▁restrict	-9.78859
▁dimension	-9.79038
▁broke	-9.79252
▁administration	-9.79441
▁medicine	-9.79441
▁component	-9.79647
▁www	-9.79656
▁regulat	-9.79991
▁frame	-9.80269
▁minute	-9.80628
▁defend	-9.80731
▁affair	-9.81004
▁maxim	-9.81486
▁imperial	-9.81487
▁walk	-9.8154
▁attribut	-9.81553
▁nazi	-9.81591
▁edward	-9.81799
▁behavior	-9.81898
▁iran	-9.82255
▁participat	-9.82453
▁refus	-9.82679
▁demonstrat	-9.828
metric	-9.82938
▁contrast	-9.83011
▁intelligence	-9.83079
▁global	-9.83149
▁celebrat	-9.8343
▁organiz	-9.83515
▁iraq	-9.83571
▁alphabet	-9.8371
▁infinit	-9.83932
reece	-9.84172
▁preserv	-9.84352
▁alcohol	-9.84487
▁beyond	-9.84489
▁pacific	-9.84776
▁credit	-9.84844
▁message	-9.84916
where	-9.84944
▁prison	-9.85064
mouth	-9.85109
▁skill	-9.85294
▁ultimate	-9.85557
▁justice	-9.85579
▁brief	-9.85638
▁corporation	-9.85772
▁physics	-9.85915
▁brazil	-9.86205
▁criticism	-9.86421
▁virgin	-9.86493
▁choice	-9.87001
▁astronom	-9.87218
▁arrang	-9.87221
▁description	-9.87366
▁route	-9.87489
▁vehicle	-9.87656
▁folk	-9.88341
▁repeat	-9.88375
▁perfect	-9.88539
▁cycle	-9.88836
▁dominat	-9.89185
▁equivalent	-9.89205
▁newspaper	-9.89205
▁identit	-9.89287
▁priest	-9.89294
▁encyclopedia	-9.89503
▁integrat	-9.89508
▁protein	-9.89509
▁quality	-9.89882
▁detect	-9.9016
▁investigat	-9.90251
▁knight	-9.90485
▁annual	-9.90641
▁domestic	-9.90778
▁strength	-9.91081
▁chapter	-9.91463
▁license	-9.91537
▁heavi	-9.91708
▁domain	-9.9177
▁teaching	-9.91844
▁descend	-9.91917
▁molecule	-9.91994
▁crown	-9.92082
▁virtual	-9.92147
▁negative	-9.92301
▁happen	-9.92378
▁oxford	-9.92453
▁positive	-9.9253
▁contact	-9.92693
▁cambridge	-9.92761
▁candidate	-9.92992
▁facilit	-9.92992
substantial	-9.93147
▁netherland	-9.93456
▁competition	-9.93767
▁urban	-9.93845
▁purchas	-9.94237
▁protocol	-9.94313
▁supreme	-9.94391
▁islamic	-9.94705
▁compound	-9.94785
▁responsibl	-9.95019
▁permanent	-9.951
▁build	-9.95212
▁regime	-9.95527
▁mexico	-9.9581
▁incorporat	-9.9589
▁advantage	-9.96049
▁arthur	-9.96134
▁village	-9.96289
▁possibl	-9.96358
▁doctrine	-9.96447
▁prominent	-9.96529
▁reveal	-9.96777
▁scottis	-9.96925
▁opponent	-9.9725
▁principal	-9.9733
▁combat	-9.97532
▁adult	-9.9758
▁approv	-9.9767
▁circuit	-9.97817
▁families	-9.97896
▁railway	-9.9806
▁engag	-9.98127
▁identifie	-9.98466
▁challeng	-9.98629
▁succeed	-9.99038
▁terror	-10.0003
▁vowel	-10.0028
▁equipment	-10.0044
▁sector	-10.0053
▁apollo	-10.0061
▁invasion	-10.0103
▁reserve	-10.0136
▁substance	-10.0161
▁answer	-10.0162
▁girl	-10.0203
▁encourag	-10.0237
▁resident	-10.0246
▁belong	-10.028
▁depict	-10.0281
▁holiday	-10.0322
▁phrase	-10.0323
▁lincoln	-10.0331
▁capacit	-10.0342
▁severe	-10.035
▁currenc	-10.0365
▁request	-10.0366
▁boundar	-10.0386
▁benefit	-10.0391
▁predict	-10.0428
▁professor	-10.0434
▁portugues	-10.0443
▁instruction	-10.0469
▁copyright	-10.0495
▁practical	-10.0521
▁hindu	-10.053
▁parallel	-10.0547
▁democrac	-10.0574
▁judaism	-10.0582
