{
  "version": "1.0",
  "truncation": null,
  "padding": null,
  "added_tokens": [],
  "normalizer": null,
  "pre_tokenizer": {
    "type": "Metaspace",
    "replacement": "▁",
    "add_prefix_space": true
  },
  "post_processor": null,
  "decoder": null,
  "model": {
    "type": "WordPiece",
    "unk_token": "[UNK]",
    "continuing_subword_prefix": "##",
    "max_input_chars_per_word": 500,
    "vocab": {
      "a": 0,
      "b": 1,
      "c": 2,
      "d": 3,
      "e": 4,
      "f": 5,
      "g": 6,
      "h": 7,
      "i": 8,
      "j": 9,
      "k": 10,
      "l": 11,
      "m": 12,
      "n": 13,
      "o": 14,
      "p": 15,
      "q": 16,
      "r": 17,
      "s": 18,
      "t": 19,
      "u": 20,
      "v": 21,
      "w": 22,
      "x": 23,
      "y": 24,
      "z": 25,
      "▁": 26,
      "##y": 27,
      "##a": 28,
      "##k": 29,
      "##s": 30,
      "##i": 31,
      "##f": 32,
      "##e": 33,
      "##r": 34,
      "##d": 35,
      "##o": 36,
      "##l": 37,
      "##t": 38,
      "##c": 39,
      "##h": 40,
      "##u": 41,
      "##n": 42,
      "##g": 43,
      "##m": 44,
      "##v": 45,
      "##z": 46,
      "##j": 47,
      "##p": 48,
      "##b": 49,
      "##w": 50,
      "##x": 51,
      "##q": 52,
      "▁t": 53,
      "▁a": 54,
      "##in": 55,
      "##he": 56,
      "▁o": 57,
      "##er": 58,
      "▁s": 59,
      "▁the": 60,
      "##re": 61,
      "▁c": 62,
      "##on": 63,
      "▁f": 64,
      "##en": 65,
      "##is": 66,
      "##at": 67,
      "##an": 68,
      "▁b": 69,
      "▁w": 70,
      "▁p": 71,
      "##it": 72,
      "▁m": 73,
      "##ed": 74,
      "▁of": 75,
      "##es": 76,
      "##or": 77,
      "##al": 78,
      "▁in": 79,
      "▁n": 80,
      "##ar": 81,
      "▁an": 82,
      "▁on": 83,
      "##ic": 84,
      "▁d": 85,
      "▁e": 86,
      "##ou": 87,
      "▁and": 88,
      "▁h": 89,
      "##ion": 90,
      "▁l": 91,
      "▁one": 92,
      "##ing": 93,
      "##as": 94,
      "▁th": 95,
      "▁to": 96,
      "##ro": 97,
      "##ine": 98,
      "##le": 99,
      "##ve": 100,
      "▁g": 101,
      "##ent": 102,
      "▁z": 103,
      "##ig": 104,
      "▁re": 105,
      "##ero": 106,
      "▁zero": 107,
      "##om": 108,
      "▁nine": 109,
      "##ly": 110,
      "##us": 111,
      "##ct": 112,
      "##il": 113,
      "▁se": 114,
      "▁is": 115,
      "▁be": 116,
      "##ol": 117,
      "##am": 118,
      "▁tw": 119,
      "##st": 120,
      "▁two": 121,
      "##ht": 122,
      "##un": 123,
      "##im": 124,
      "##ive": 125,
      "##ation": 126,
      "##ce": 127,
      "##ra": 128,
      "▁st": 129,
      "##ight": 130,
      "▁for": 131,
      "##ch": 132,
      "##id": 133,
      "##ver": 134,
      "▁as": 135,
      "##ot": 136,
      "##ut": 137,
      "##ur": 138,
      "##et": 139,
      "##our": 140,
      "▁al": 141,
      "##ir": 142,
      "##ist": 143,
      "##el": 144,
      "##ow": 145,
      "##ree": 146,
      "▁con": 147,
      "##ad": 148,
      "##ul": 149,
      "##ven": 150,
      "▁eight": 151,
      "▁he": 152,
      "##ter": 153,
      "##ith": 154,
      "▁k": 155,
      "▁wh": 156,
      "▁was": 157,
      "▁de": 158,
      "▁j": 159,
      "▁five": 160,
      "▁r": 161,
      "▁three": 162,
      "▁it": 163,
      "▁by": 164,
      "##ix": 165,
      "##ay": 166,
      "▁or": 167,
      "##os": 168,
      "▁four": 169,
      "▁that": 170,
      "▁com": 171,
      "▁with": 172,
      "##her": 173,
      "▁pro": 174,
      "▁v": 175,
      "▁six": 176,
      "▁ch": 177,
      "##and": 178,
      "##um": 179,
      "▁mo": 180,
      "▁seven": 181,
      "▁un": 182,
      "##ers": 183,
      "##ge": 184,
      "##if": 185,
      "##op": 186,
      "▁ex": 187,
      "##ri": 188,
      "##rom": 189,
      "##em": 190,
      "▁are": 191,
      "##th": 192,
      "▁su": 193,
      "##est": 194,
      "##oun": 195,
      "▁at": 196,
      "##res": 197,
      "##ac": 198,
      "##ain": 199,
      "##ate": 200,
      "##ab": 201,
      "##ity": 202,
      "##qu": 203,
      "##ian": 204,
      "##ies": 205,
      "##pe": 206,
      "##od": 207,
      "▁from": 208,
      "##se": 209,
      "▁us": 210,
      "▁ne": 211,
      "##ment": 212,
      "##ich": 213,
      "##ld": 214,
      "▁ar": 215,
      "##oc": 216,
      "##ess": 217,
      "##ical": 218,
      "▁en": 219,
      "##iv": 220,
      "##art": 221,
      "##ill": 222,
      "##ant": 223,
      "▁his": 224,
      "##ia": 225,
      "▁y": 226,
      "##ort": 227,
      "##ial": 228,
      "##ud": 229,
      "▁le": 230,
      "##all": 231,
      "##og": 232,
      "▁not": 233,
      "▁this": 234,
      "##ap": 235,
      "##ard": 236,
      "▁which": 237,
      "##ish": 238,
      "##ak": 239,
      "##ag": 240,
      "▁wor": 241,
      "##ther": 242,
      "##pp": 243,
      "##ber": 244,
      "##der": 245,
      "▁sh": 246,
      "▁pl": 247,
      "▁ha": 248,
      "▁comp": 249,
      "▁am": 250,
      "##ction": 251,
      "##ure": 252,
      "##ated": 253,
      "##so": 254,
      "##ary": 255,
      "##ie": 256,
      "##pt": 257,
      "##ame": 258,
      "##ip": 259,
      "▁man": 260,
      "##ome": 261,
      "##ous": 262,
      "##ast": 263,
      "▁cl": 264,
      "▁also": 265,
      "##oug": 266,
      "▁ad": 267,
      "##rit": 268,
      "##ere": 269,
      "▁cont": 270,
      "##cl": 271,
      "▁ab": 272,
      "##ire": 273,
      "##per": 274,
      "##ong": 275,
      "##age": 276,
      "##ust": 277,
      "▁can": 278,
      "##ran": 279,
      "▁int": 280,
      "##ell": 281,
      "▁sp": 282,
      "▁have": 283,
      "##ect": 284,
      "##cc": 285,
      "##ks": 286,
      "▁has": 287,
      "▁were": 288,
      "▁whe": 289,
      "▁other": 290,
      "##ition": 291,
      "▁all": 292,
      "##ore": 293,
      "##ally": 294,
      "##end": 295,
      "##iz": 296,
      "▁im": 297,
      "##ound": 298,
      "##ence": 299,
      "##ib": 300,
      "▁af": 301,
      "▁part": 302,
      "▁u": 303,
      "##ations": 304,
      "##ry": 305,
      "▁ro": 306,
      "▁but": 307,
      "▁comm": 308,
      "##ory": 309,
      "##ide": 310,
      "##fer": 311,
      "##tern": 312,
      "##ult": 313,
      "##erm": 314,
      "##du": 315,
      "▁sc": 316,
      "##ub": 317,
      "##ass": 318,
      "##ough": 319,
      "▁te": 320,
      "##ren": 321,
      "##ign": 322,
      "▁its": 323,
      "▁dis": 324,
      "##ang": 325,
      "##av": 326,
      "▁ind": 327,
      "##ru": 328,
      "##ph": 329,
      "##act": 330,
      "▁sy": 331,
      "▁i": 332,
      "##pl": 333,
      "##ould": 334,
      "##ars": 335,
      "##vers": 336,
      "▁their": 337,
      "▁res": 338,
      "▁new": 339,
      "▁some": 340,
      "▁go": 341,
      "##ke": 342,
      "▁ra": 343,
      "▁fir": 344,
      "▁me": 345,
      "##ord": 346,
      "##out": 347,
      "##land": 348,
      "▁no": 349,
      "▁bec": 350,
      "▁mar": 351,
      "▁col": 352,
      "##ime": 353,
      "##ican": 354,
      "##ount": 355,
      "▁had": 356,
      "##ates": 357,
      "▁co": 358,
      "▁first": 359,
      "##vel": 360,
      "▁so": 361,
      "##orm": 362,
      "▁form": 363,
      "▁they": 364,
      "##ism": 365,
      "▁gen": 366,
      "▁ph": 367,
      "▁most": 368,
      "##are": 369,
      "##ces": 370,
      "▁ag": 371,
      "##own": 372,
      "▁bo": 373,
      "##ue": 374,
      "##ice": 375,
      "##ress": 376,
      "##able": 377,
      "##ater": 378,
      "▁po": 379,
      "##ack": 380,
      "▁more": 381,
      "▁per": 382,
      "▁there": 383,
      "▁pr": 384,
      "▁amer": 385,
      "##ions": 386,
      "▁tra": 387,
      "▁who": 388,
      "▁des": 389,
      "##ose": 390,
      "▁gr": 391,
      "##ach": 392,
      "##ict": 393,
      "▁we": 394,
      "▁ye": 395,
      "##ics": 396,
      "##con": 397,
      "▁cent": 398,
      "▁cons": 399,
      "▁spe": 400,
      "▁been": 401,
      "▁ser": 402,
      "##ite": 403,
      "##ile": 404,
      "▁rel": 405,
      "##ff": 406,
      "##ens": 407,
      "##ace": 408,
      "▁em": 409,
      "▁ele": 410,
      "▁pe": 411,
      "▁such": 412,
      "▁qu": 413,
      "##olog": 414,
      "▁pre": 415,
      "▁eng": 416,
      "##ok": 417,
      "▁many": 418,
      "▁kn": 419,
      "##clud": 420,
      "▁rec": 421,
      "##ors": 422,
      "##ath": 423,
      "▁act": 424,
      "##ance": 425,
      "##ational": 426,
      "##te": 427,
      "▁fe": 428,
      "##ited": 429,
      "▁pol": 430,
      "▁used": 431,
      "▁after": 432,
      "##ase": 433,
      "##one": 434,
      "##les": 435,
      "##ular": 436,
      "##ts": 437,
      "##port": 438,
      "▁includ": 439,
      "▁bl": 440,
      "▁how": 441,
      "##hed": 442,
      "▁over": 443,
      "▁american": 444,
      "##ubl": 445,
      "▁li": 446,
      "▁inf": 447,
      "##we": 448,
      "▁ear": 449,
      "▁see": 450,
      "▁may": 451,
      "▁app": 452,
      "▁ma": 453,
      "##ced": 454,
      "▁when": 455,
      "▁do": 456,
      "▁la": 457,
      "##amp": 458,
      "▁out": 459,
      "##ten": 460,
      "##wn": 461,
      "▁time": 462,
      "##low": 463,
      "▁into": 464,
      "##reat": 465,
      "##ans": 466,
      "▁pres": 467,
      "##ual": 468,
      "##ious": 469,
      "▁play": 470,
      "▁these": 471,
      "##ft": 472,
      "##ind": 473,
      "▁hist": 474,
      "##stem": 475,
      "##ents": 476,
      "▁jo": 477,
      "▁war": 478,
      "▁inter": 479,
      "▁up": 480,
      "▁world": 481,
      "▁only": 482,
      "▁than": 483,
      "##aus": 484,
      "##ied": 485,
      "▁bet": 486,
      "##ug": 487,
      "##ved": 488,
      "▁mus": 489,
      "▁acc": 490,
      "▁system": 491,
      "▁under": 492,
      "▁reg": 493,
      "##ings": 494,
      "▁off": 495,
      "▁char": 496,
      "▁pop": 497,
      "▁gener": 498,
      "##ative": 499,
      "▁sub": 500,
      "▁ass": 501,
      "▁att": 502,
      "▁num": 503,
      "##int": 504,
      "▁ap": 505,
      "▁ev": 506,
      "##very": 507,
      "▁will": 508,
      "▁count": 509,
      "▁call": 510,
      "##uring": 511,
      "▁ed": 512,
      "▁mon": 513,
      "▁ac": 514,
      "▁would": 515,
      "▁car": 516,
      "▁def": 517,
      "##rib": 518,
      "##ys": 519,
      "▁fl": 520,
      "##rans": 521,
      "▁bas": 522,
      "▁uni": 523,
      "▁hig": 524,
      "##ll": 525,
      "▁rep": 526,
      "▁lar": 527,
      "##ific": 528,
      "##vern": 529,
      "▁trans": 530,
      "##ons": 531,
      "▁met": 532,
      "##dition": 533,
      "▁min": 534,
      "▁dif": 535,
      "▁produ": 536,
      "##ds": 537,
      "##ade": 538,
      "##ever": 539,
      "##ck": 540,
      "##ution": 541,
      "##ject": 542,
      "##oth": 543,
      "▁her": 544,
      "▁art": 545,
      "▁lin": 546,
      "▁govern": 547,
      "##ric": 548,
      "##ists": 549,
      "▁par": 550,
      "▁them": 551,
      "##iet": 552,
      "▁however": 553,
      "▁inst": 554,
      "##ween": 555,
      "▁lo": 556,
      "▁between": 557,
      "##iss": 558,
      "▁peop": 559,
      "##ident": 560,
      "##gr": 561,
      "##ep": 562,
      "##red": 563,
      "▁about": 564,
      "##gan": 565,
      "▁ob": 566,
      "▁use": 567,
      "▁states": 568,
      "▁inc": 569,
      "▁work": 570,
      "##ake": 571,
      "▁x": 572,
      "▁sim": 573,
      "▁lang": 574,
      "##erman": 575,
      "▁mem": 576,
      "▁publ": 577,
      "##ays": 578,
      "▁if": 579,
      "##ron": 580,
      "##oup": 581,
      "▁years": 582,
      "▁eu": 583,
      "##orn": 584,
      "##ient": 585,
      "▁him": 586,
      "▁writ": 587,
      "▁thr": 588,
      "##ood": 589,
      "▁people": 590,
      "▁pos": 591,
      "##cial": 592,
      "##io": 593,
      "##ail": 594,
      "▁during": 595,
      "##ince": 596,
      "▁langu": 597,
      "##als": 598,
      "##ild": 599,
      "##ities": 600,
      "##ually": 601,
      "▁united": 602,
      "##ily": 603,
      "▁known": 604,
      "▁rem": 605,
      "▁fol": 606,
      "##lish": 607,
      "▁inv": 608,
      "▁called": 609,
      "▁any": 610,
      "##cept": 611,
      "##ower": 612,
      "▁fil": 613,
      "##cy": 614,
      "▁where": 615,
      "##ral": 616,
      "##ert": 617,
      "▁sm": 618,
      "##urn": 619,
      "##ury": 620,
      "##old": 621,
      "▁fin": 622,
      "▁aut": 623,
      "##hes": 624,
      "▁univers": 625,
      "##ife": 626,
      "▁gu": 627,
      "##ond": 628,
      "▁br": 629,
      "▁bel": 630,
      "##ology": 631,
      "▁brit": 632,
      "▁german": 633,
      "▁sch": 634,
      "▁var": 635,
      "##ause": 636,
      "▁sa": 637,
      "▁supp": 638,
      "▁through": 639,
      "##ating": 640,
      "##ne": 641,
      "▁state": 642,
      "##ward": 643,
      "▁dist": 644,
      "▁sou": 645,
      "▁ent": 646,
      "##ures": 647,
      "▁often": 648,
      "▁pers": 649,
      "▁cap": 650,
      "##li": 651,
      "▁ext": 652,
      "##ible": 653,
      "▁term": 654,
      "▁est": 655,
      "##hem": 656,
      "##ments": 657,
      "##ale": 658,
      "▁const": 659,
      "▁fran": 660,
      "▁main": 661,
      "##ames": 662,
      "▁fam": 663,
      "▁group": 664,
      "▁history": 665,
      "##velop": 666,
      "▁mat": 667,
      "##cess": 668,
      "##raph": 669,
      "▁bro": 670,
      "##ick": 671,
      "##imes": 672,
      "##ise": 673,
      "##ically": 674,
      "##uc": 675,
      "▁ge": 676,
      "▁differ": 677,
      "▁elect": 678,
      "▁euro": 679,
      "##rist": 680,
      "##form": 681,
      "▁king": 682,
      "##ins": 683,
      "▁intern": 684,
      "▁soc": 685,
      "▁while": 686,
      "▁city": 687,
      "▁set": 688,
      "▁develop": 689,
      "▁high": 690,
      "▁nor": 691,
      "▁well": 692,
      "▁like": 693,
      "▁refer": 694,
      "▁med": 695,
      "▁orig": 696,
      "▁follow": 697,
      "▁again": 698,
      "▁found": 699,
      "▁fun": 700,
      "##ah": 701,
      "▁exp": 702,
      "▁english": 703,
      "▁she": 704,
      "▁being": 705,
      "▁then": 706,
      "▁number": 707,
      "##tle": 708,
      "▁ty": 709,
      "##ages": 710,
      "▁made": 711,
      "##man": 712,
      "▁end": 713,
      "▁both": 714,
      "##ost": 715,
      "##ble": 716,
      "##ished": 717,
      "##uss": 718,
      "▁imp": 719,
      "▁air": 720,
      "##hip": 721,
      "##fore": 722,
      "##ctions": 723,
      "##ider": 724,
      "▁joh": 725,
      "▁bu": 726,
      "▁disc": 727,
      "▁mil": 728,
      "▁government": 729,
      "##iel": 730,
      "▁rom": 731,
      "▁hum": 732,
      "##ines": 733,
      "▁christ": 734,
      "▁law": 735,
      "##ians": 736,
      "##ather": 737,
      "▁stud": 738,
      "▁common": 739,
      "##ted": 740,
      "▁prov": 741,
      "▁europe": 742,
      "▁polit": 743,
      "▁long": 744,
      "▁eff": 745,
      "▁later": 746,
      "##its": 747,
      "##ract": 748,
      "▁film": 749,
      "▁dire": 750,
      "##ature": 751,
      "▁cur": 752,
      "▁sur": 753,
      "▁dep": 754,
      "##other": 755,
      "##ton": 756,
      "▁mu": 757,
      "▁loc": 758,
      "##bers": 759,
      "##ized": 760,
      "▁cre": 761,
      "▁name": 762,
      "##ural": 763,
      "▁origin": 764,
      "▁arm": 765,
      "▁national": 766,
      "##omet": 767,
      "▁sign": 768,
      "▁commun": 769,
      "▁john": 770,
      "▁since": 771,
      "▁class": 772,
      "▁sever": 773,
      "▁dec": 774,
      "▁str": 775,
      "##ful": 776,
      "▁maj": 777,
      "▁je": 778,
      "▁century": 779,
      "##iew": 780,
      "▁cor": 781,
      "▁ret": 782,
      "##ty": 783,
      "▁dem": 784,
      "▁cal": 785,
      "▁because": 786,
      "▁music": 787,
      "##ving": 788,
      "▁lead": 789,
      "##az": 790,
      "▁colle": 791,
      "##rent": 792,
      "##ision": 793,
      "▁ke": 794,
      "▁leg": 795,
      "▁life": 796,
      "▁great": 797,
      "▁university": 798,
      "▁early": 799,
      "##row": 800,
      "##ork": 801,
      "##ined": 802,
      "##ann": 803,
      "##conom": 804,
      "▁contro": 805,
      "##ample": 806,
      "▁british": 807,
      "▁major": 808,
      "▁year": 809,
      "▁partic": 810,
      "▁mod": 811,
      "▁day": 812,
      "▁large": 813,
      "##arch": 814,
      "▁even": 815,
      "▁sing": 816,
      "##led": 817,
      "▁right": 818,
      "▁power": 819,
      "▁econom": 820,
      "▁consider": 821,
      "▁own": 822,
      "▁same": 823,
      "##chn": 824,
      "▁list": 825,
      "##ros": 826,
      "▁lit": 827,
      "##ograph": 828,
      "##ility": 829,
      "##ues": 830,
      "▁comple": 831,
      "▁secon": 832,
      "▁including": 833,
      "##gram": 834,
      "##ger": 835,
      "▁charact": 836,
      "##xt": 837,
      "▁equ": 838,
      "▁became": 839,
      "▁ir": 840,
      "▁contin": 841,
      "▁gre": 842,
      "▁op": 843,
      "▁example": 844,
      "▁es": 845,
      "▁each": 846,
      "▁val": 847,
      "▁el": 848,
      "▁comput": 849,
      "▁god": 850,
      "##ium": 851,
      "▁oper": 852,
      "▁language": 853,
      "▁desc": 854,
      "▁occ": 855,
      "##ulation": 856,
      "##ier": 857,
      "▁alth": 858,
      "##elf": 859,
      "▁death": 860,
      "##ves": 861,
      "##ives": 862,
      "##ences": 863,
      "▁general": 864,
      "▁although": 865,
      "##ik": 866,
      "▁sl": 867,
      "▁island": 868,
      "▁spec": 869,
      "▁direct": 870,
      "▁moder": 871,
      "▁several": 872,
      "▁pri": 873,
      "▁import": 874,
      "▁second": 875,
      "##ters": 876,
      "▁different": 877,
      "▁det": 878,
      "##ange": 879,
      "##pect": 880,
      "▁fre": 881,
      "▁appe": 882,
      "##ning": 883,
      "▁stand": 884,
      "▁techn": 885,
      "##rench": 886,
      "▁organ": 887,
      "▁ant": 888,
      "▁small": 889,
      "▁very": 890,
      "▁bat": 891,
      "▁phil": 892,
      "▁much": 893,
      "▁har": 894,
      "▁french": 895,
      "▁sw": 896,
      "▁before": 897,
      "▁result": 898,
      "▁south": 899,
      "▁ins": 900,
      "▁offic": 901,
      "▁program": 902,
      "##ience": 903,
      "##urch": 904,
      "▁what": 905,
      "▁now": 906,
      "##atic": 907,
      "▁conf": 908,
      "▁gl": 909,
      "##gy": 910,
      "##ock": 911,
      "▁north": 912,
      "▁ii": 913,
      "▁design": 914,
      "▁er": 915,
      "##ool": 916,
      "##hen": 917,
      "##vent": 918,
      "▁aust": 919,
      "▁public": 920,
      "▁cult": 921,
      "##de": 922,
      "▁old": 923,
      "▁pa": 924,
      "##els": 925,
      "##ought": 926,
      "##ica": 927,
      "▁could": 928,
      "▁land": 929,
      "▁rev": 930,
      "▁against": 931,
      "##ants": 932,
      "▁modern": 933,
      "##ital": 934,
      "▁my": 935,
      "##ternal": 936,
      "▁dr": 937,
      "▁gra": 938,
      "▁links": 939,
      "▁fact": 940,
      "##rop": 941,
      "##ruct": 942,
      "##ains": 943,
      "▁belie": 944,
      "▁cour": 945,
      "▁bar": 946,
      "▁based": 947,
      "##ional": 948,
      "▁those": 949,
      "##gest": 950,
      "▁back": 951,
      "##ouse": 952,
      "▁port": 953,
      "▁order": 954,
      "##aim": 955,
      "▁person": 956,
      "##ained": 957,
      "##ov": 958,
      "##ob": 959,
      "▁mark": 960,
      "##ute": 961,
      "##ina": 962,
      "##aking": 963,
      "▁cr": 964,
      "▁unt": 965,
      "##ave": 966,
      "##osed": 967,
      "▁president": 968,
      "▁div": 969,
      "▁hand": 970,
      "##up": 971,
      "▁another": 972,
      "##ived": 973,
      "##olution": 974,
      "▁external": 975,
      "##ries": 976,
      "▁poss": 977,
      "##way": 978,
      "##ull": 979,
      "▁record": 980,
      "▁lat": 981,
      "##ting": 982,
      "▁game": 983,
      "▁show": 984,
      "▁human": 985,
      "▁auth": 986,
      "▁non": 987,
      "▁popular": 988,
      "▁country": 989,
      "▁somet": 990,
      "##oy": 991,
      "##ode": 992,
      "▁ref": 993,
      "##ccess": 994,
      "▁pat": 995,
      "##get": 996,
      "▁series": 997,
      "▁hy": 998,
      "▁mag": 999,
      "▁you": 1000,
      "##ield": 1001,
      "▁expl": 1002,
      "▁free": 1003,
      "▁av": 1004,
      "▁support": 1005,
      "▁still": 1006,
      "##ament": 1007,
      "▁requ": 1008,
      "▁book": 1009,
      "▁tradition": 1010,
      "##ared": 1011,
      "▁effect": 1012,
      "▁international": 1013,
      "▁until": 1014,
      "▁conc": 1015,
      "##ged": 1016,
      "▁ter": 1017,
      "##enn": 1018,
      "▁milit": 1019,
      "▁vers": 1020,
      "▁prot": 1021,
      "▁did": 1022,
      "##ased": 1023,
      "▁serv": 1024,
      "##bert": 1025,
      "▁run": 1026,
      "▁sec": 1027,
      "##ense": 1028,
      "▁mid": 1029,
      "##oph": 1030,
      "##ired": 1031,
      "▁rad": 1032,
      "▁mill": 1033,
      "▁line": 1034,
      "##ason": 1035,
      "▁just": 1036,
      "▁infl": 1037,
      "▁stat": 1038,
      "▁tr": 1039,
      "▁church": 1040,
      "##que": 1041,
      "##iod": 1042,
      "▁success": 1043,
      "##min": 1044,
      "##ently": 1045,
      "▁dom": 1046,
      "▁inform": 1047,
      "▁add": 1048,
      "▁process": 1049,
      "▁compan": 1050,
      "##ization": 1051,
      "##ret": 1052,
      "▁net": 1053,
      "▁artic": 1054,
      "▁school": 1055,
      "##ley": 1056,
      "▁way": 1057,
      "▁fo": 1058,
      "▁jew": 1059,
      "##ided": 1060,
      "##ius": 1061,
      "▁political": 1062,
      "##ner": 1063,
      "▁opp": 1064,
      "▁party": 1065,
      "▁pass": 1066,
      "▁arg": 1067,
      "▁character": 1068,
      "▁sk": 1069,
      "▁west": 1070,
      "##air": 1071,
      "▁rele": 1072,
      "▁point": 1073,
      "##ories": 1074,
      "▁real": 1075,
      "▁prop": 1076,
      "▁relig": 1077,
      "▁allow": 1078,
      "▁usually": 1079,
      "▁incre": 1080,
      "##ank": 1081,
      "▁bir": 1082,
      "▁di": 1083,
      "▁roman": 1084,
      "▁bre": 1085,
      "▁crit": 1086,
      "▁down": 1087,
      "▁among": 1088,
      "##ised": 1089,
      "##ices": 1090,
      "▁phys": 1091,
      "▁typ": 1092,
      "##mber": 1093,
      "##co": 1094,
      "##ene": 1095,
      "##por": 1096,
      "▁adv": 1097,
      "##ness": 1098,
      "▁bi": 1099,
      "##ister": 1100,
      "▁open": 1101,
      "▁eas": 1102,
      "▁gree": 1103,
      "##iation": 1104,
      "##ms": 1105,
      "▁histor": 1106,
      "##bo": 1107,
      "▁last": 1108,
      "##ides": 1109,
      "##ator": 1110,
      "##au": 1111,
      "##ross": 1112,
      "▁official": 1113,
      "▁theory": 1114,
      "##ified": 1115,
      "▁area": 1116,
      "▁near": 1117,
      "▁around": 1118,
      "##ark": 1119,
      "▁fore": 1120,
      "##day": 1121,
      "▁every": 1122,
      "▁nat": 1123,
      "▁arch": 1124,
      "▁include": 1125,
      "▁short": 1126,
      "##me": 1127,
      "▁period": 1128,
      "##yn": 1129,
      "##ata": 1130,
      "##ilar": 1131,
      "▁coun": 1132,
      "▁author": 1133,
      "##dom": 1134,
      "▁view": 1135,
      "##ases": 1136,
      "##bs": 1137,
      "▁claim": 1138,
      "▁child": 1139,
      "▁left": 1140,
      "##ball": 1141,
      "▁tri": 1142,
      "▁let": 1143,
      "▁repres": 1144,
      "▁sol": 1145,
      "▁move": 1146,
      "▁military": 1147,
      "▁members": 1148,
      "##inc": 1149,
      "▁far": 1150,
      "▁population": 1151,
      "▁similar": 1152,
      "▁head": 1153,
      "##ash": 1154,
      "▁exper": 1155,
      "▁using": 1156,
      "▁though": 1157,
      "▁gi": 1158,
      "##ese": 1159,
      "▁russ": 1160,
      "##amed": 1161,
      "##ets": 1162,
      "##ably": 1163,
      "▁jap": 1164,
      "##ware": 1165,
      "▁ep": 1166,
      "##iety": 1167,
      "▁mean": 1168,
      "▁particular": 1169,
      "▁press": 1170,
      "▁east": 1171,
      "▁ide": 1172,
      "##ze": 1173,
      "▁following": 1174,
      "▁dra": 1175,
      "▁ri": 1176,
      "##son": 1177,
      "▁japan": 1178,
      "▁vol": 1179,
      "##yl": 1180,
      "▁within": 1181,
      "▁ang": 1182,
      "▁current": 1183,
      "▁bod": 1184,
      "▁bra": 1185,
      "▁tele": 1186,
      "##iving": 1187,
      "▁prof": 1188,
      "##ued": 1189,
      "▁mic": 1190,
      "##imate": 1191,
      "▁house": 1192,
      "##ec": 1193,
      "▁canad": 1194,
      "▁rest": 1195,
      "▁tem": 1196,
      "▁bus": 1197,
      "▁ste": 1198,
      "▁lab": 1199,
      "##ize": 1200,
      "##ax": 1201,
      "▁hol": 1202,
      "▁influ": 1203,
      "▁hel": 1204,
      "▁standard": 1205,
      "##erv": 1206,
      "▁due": 1207,
      "##iction": 1208,
      "▁hun": 1209,
      "▁beg": 1210,
      "▁light": 1211,
      "▁important": 1212,
      "▁ve": 1213,
      "▁appro": 1214,
      "##ript": 1215,
      "▁christian": 1216,
      "▁del": 1217,
      "▁perform": 1218,
      "▁considered": 1219,
      "▁mac": 1220,
      "▁less": 1221,
      "▁alb": 1222,
      "##ane": 1223,
      "▁social": 1224,
      "▁vi": 1225,
      "▁mal": 1226,
      "▁civ": 1227,
      "▁exist": 1228,
      "▁computer": 1229,
      "▁water": 1230,
      "##amm": 1231,
      "▁accord": 1232,
      "▁cir": 1233,
      "▁pract": 1234,
      "▁home": 1235,
      "▁sour": 1236,
      "##ertain": 1237,
      "▁start": 1238,
      "▁family": 1239,
      "##rodu": 1240,
      "▁word": 1241,
      "▁jud": 1242,
      "##ths": 1243,
      "▁information": 1244,
      "##ended": 1245,
      "▁philos": 1246,
      "##ony": 1247,
      "▁european": 1248,
      "##epend": 1249,
      "##akes": 1250,
      "▁wes": 1251,
      "▁independ": 1252,
      "▁ann": 1253,
      "▁sometimes": 1254,
      "▁win": 1255,
      "##ument": 1256,
      "▁does": 1257,
      "▁assoc": 1258,
      "▁dev": 1259,
      "▁civil": 1260,
      "▁republ": 1261,
      "▁meth": 1262,
      "▁mor": 1263,
      "▁sym": 1264,
      "▁times": 1265,
      "▁control": 1266,
      "▁cy": 1267,
      "▁miss": 1268,
      "▁without": 1269,
      "##ography": 1270,
      "▁make": 1271,
      "##hing": 1272,
      "##ler": 1273,
      "▁ber": 1274,
      "▁given": 1275,
      "▁present": 1276,
      "##par": 1277,
      "▁represent": 1278,
      "▁place": 1279,
      "▁lim": 1280,
      "▁read": 1281,
      "▁estab": 1282,
      "▁proble": 1283,
      "##ster": 1284,
      "▁ital": 1285,
      "▁born": 1286,
      "▁cle": 1287,
      "##tal": 1288,
      "▁appl": 1289,
      "▁fur": 1290,
      "▁thir": 1291,
      "▁addition": 1292,
      "▁describ": 1293,
      "▁good": 1294,
      "▁top": 1295,
      "▁level": 1296,
      "##na": 1297,
      "▁few": 1298,
      "▁emp": 1299,
      "##ither": 1300,
      "▁space": 1301,
      "▁hal": 1302,
      "▁austral": 1303,
      "▁should": 1304,
      "▁mass": 1305,
      "▁team": 1306,
      "▁black": 1307,
      "▁case": 1308,
      "▁union": 1309,
      "▁red": 1310,
      "▁cat": 1311,
      "▁central": 1312,
      "▁age": 1313,
      "##che": 1314,
      "▁pur": 1315,
      "▁vis": 1316,
      "##oss": 1317,
      "▁rul": 1318,
      "##empt": 1319,
      "##lect": 1320,
      "▁york": 1321,
      "##amb": 1322,
      "##oks": 1323,
      "##ison": 1324,
      "▁led": 1325,
      "▁circ": 1326,
      "##bn": 1327,
      "##eng": 1328,
      "##ological": 1329,
      "##read": 1330,
      "▁thus": 1331,
      "▁wom": 1332,
      "▁various": 1333,
      "▁science": 1334,
      "##une": 1335,
      "▁earth": 1336,
      "##ential": 1337,
      "##ency": 1338,
      "##ration": 1339,
      "▁aff": 1340,
      "▁become": 1341,
      "▁systems": 1342,
      "##ps": 1343,
      "##less": 1344,
      "▁ho": 1345,
      "▁isbn": 1346,
      "▁mot": 1347,
      "▁countries": 1348,
      "▁super": 1349,
      "##istic": 1350,
      "▁ca": 1351,
      "##ination": 1352,
      "▁comb": 1353,
      "▁western": 1354,
      "▁da": 1355,
      "▁must": 1356,
      "▁best": 1357,
      "▁mult": 1358,
      "▁others": 1359,
      "▁ver": 1360,
      "▁return": 1361,
      "▁according": 1362,
      "▁article": 1363,
      "▁men": 1364,
      "▁mer": 1365,
      "▁rece": 1366,
      "▁chang": 1367,
      "▁player": 1368,
      "▁special": 1369,
      "▁tit": 1370,
      "##ried": 1371,
      "▁hen": 1372,
      "▁languages": 1373,
      "▁treat": 1374,
      "▁resp": 1375,
      "##cing": 1376,
      "##ling": 1377,
      "▁der": 1378,
      "▁du": 1379,
      "▁never": 1380,
      "▁indust": 1381,
      "##ple": 1382,
      "##tic": 1383,
      "▁song": 1384,
      "##ats": 1385,
      "▁object": 1386,
      "▁began": 1387,
      "##ots": 1388,
      "▁camp": 1389,
      "▁foot": 1390,
      "▁former": 1391,
      "▁method": 1392,
      "▁proper": 1393,
      "▁test": 1394,
      "▁kill": 1395,
      "▁generally": 1396,
      "▁cop": 1397,
      "▁original": 1398,
      "##urg": 1399,
      "##ways": 1400,
      "▁need": 1401,
      "##ink": 1402,
      "▁anim": 1403,
      "▁iss": 1404,
      "▁struct": 1405,
      "##iam": 1406,
      "▁sum": 1407,
      "▁written": 1408,
      "##over": 1409,
      "▁den": 1410,
      "▁works": 1411,
      "▁sal": 1412,
      "##ones": 1413,
      "▁development": 1414,
      "▁force": 1415,
      "##ivid": 1416,
      "▁imm": 1417,
      "##lo": 1418,
      "##ott": 1419,
      "▁eth": 1420,
      "▁turn": 1421,
      "##ae": 1422,
      "▁geor": 1423,
      "▁introdu": 1424,
      "##gress": 1425,
      "▁post": 1426,
      "▁attempt": 1427,
      "▁single": 1428,
      "##eder": 1429,
      "▁constit": 1430,
      "▁prim": 1431,
      "▁france": 1432,
      "▁further": 1433,
      "##ality": 1434,
      "▁low": 1435,
      "##ai": 1436,
      "▁know": 1437,
      "##ior": 1438,
      "▁anc": 1439,
      "▁che": 1440,
      "##uted": 1441,
      "##aced": 1442,
      "▁band": 1443,
      "▁individ": 1444,
      "##ming": 1445,
      "▁km": 1446,
      "▁log": 1447,
      "▁pet": 1448,
      "▁vir": 1449,
      "##line": 1450,
      "▁groups": 1451,
      "▁relations": 1452,
      "▁wide": 1453,
      "##ring": 1454,
      "▁ident": 1455,
      "▁late": 1456,
      "▁event": 1457,
      "▁report": 1458,
      "▁cell": 1459,
      "▁obs": 1460,
      "##ove": 1461,
      "▁dav": 1462,
      "▁et": 1463,
      "▁kingdom": 1464,
      "▁liter": 1465,
      "##alth": 1466,
      "▁engine": 1467,
      "▁along": 1468,
      "##lex": 1469,
      "▁england": 1470,
      "▁son": 1471,
      "▁jan": 1472,
      "▁build": 1473,
      "##self": 1474,
      "▁fa": 1475,
      "▁repl": 1476,
      "▁aug": 1477,
      "▁body": 1478,
      "▁mathem": 1479,
      "##ively": 1480,
      "▁rather": 1481,
      "▁function": 1482,
      "▁data": 1483,
      "##ival": 1484,
      "▁position": 1485,
      "##ances": 1486,
      "▁individual": 1487,
      "▁greek": 1488,
      "##yle": 1489,
      "##olic": 1490,
      "▁invol": 1491,
      "▁court": 1492,
      "##cially": 1493,
      "▁games": 1494,
      "▁base": 1495,
      "##wards": 1496,
      "▁named": 1497,
      "▁field": 1498,
      "▁germany": 1499,
      "##ges": 1500,
      "▁beh": 1501,
      "▁scient": 1502,
      "▁lond": 1503,
      "▁soft": 1504,
      "##tt": 1505,
      "▁liber": 1506,
      "▁ara": 1507,
      "▁anal": 1508,
      "▁sea": 1509,
      "▁star": 1510,
      "▁said": 1511,
      "▁ju": 1512,
      "##ague": 1513,
      "▁battle": 1514,
      "▁version": 1515,
      "▁million": 1516,
      "▁london": 1517,
      "▁decl": 1518,
      "▁nort": 1519,
      "##ches": 1520,
      "▁natural": 1521,
      "▁company": 1522,
      "▁economic": 1523,
      "▁capital": 1524,
      "##app": 1525,
      "##cul": 1526,
      "▁published": 1527,
      "▁army": 1528,
      "▁project": 1529,
      "##rael": 1530,
      "▁strong": 1531,
      "##aster": 1532,
      "▁rese": 1533,
      "▁bal": 1534,
      "▁occur": 1535,
      "▁fem": 1536,
      "▁certain": 1537,
      "##by": 1538,
      "##ma": 1539,
      "▁pal": 1540,
      "##ote": 1541,
      "##ites": 1542,
      "▁interest": 1543,
      "▁sun": 1544,
      "▁caus": 1545,
      "##ogn": 1546,
      "▁hard": 1547,
      "▁news": 1548,
      "▁product": 1549,
      "▁mater": 1550,
      "▁either": 1551,
      "▁sov": 1552,
      "▁take": 1553,
      "▁fr": 1554,
      "▁empire": 1555,
      "▁grow": 1556,
      "##cil": 1557,
      "##work": 1558,
      "##ention": 1559,
      "▁soviet": 1560,
      "▁bill": 1561,
      "##aining": 1562,
      "##han": 1563,
      "▁service": 1564,
      "##ends": 1565,
      "##ern": 1566,
      "▁developed": 1567,
      "▁care": 1568,
      "▁israel": 1569,
      "▁syn": 1570,
      "▁wal": 1571,
      "##raft": 1572,
      "▁republic": 1573,
      "▁college": 1574,
      "▁full": 1575,
      "▁cath": 1576,
      "##most": 1577,
      "▁total": 1578,
      "▁william": 1579,
      "##ilt": 1580,
      "##mer": 1581,
      "▁youn": 1582,
      "##aps": 1583,
      "▁educ": 1584,
      "▁today": 1585,
      "▁held": 1586,
      "##ipp": 1587,
      "▁america": 1588,
      "▁local": 1589,
      "▁ill": 1590,
      "##ule": 1591,
      "▁river": 1592,
      "▁means": 1593,
      "##ification": 1594,
      "##aw": 1595,
      "▁sat": 1596,
      "▁espe": 1597,
      "▁father": 1598,
      "▁separ": 1599,
      "##ured": 1600,
      "▁norm": 1601,
      "##ctor": 1602,
      "▁third": 1603,
      "##aken": 1604,
      "▁august": 1605,
      "▁sug": 1606,
      "##itive": 1607,
      "▁ce": 1608,
      "##etic": 1609,
      "##ids": 1610,
      "▁white": 1611,
      "##dle": 1612,
      "##idence": 1613,
      "▁chem": 1614,
      "▁especially": 1615,
      "▁forces": 1616,
      "##lin": 1617,
      "▁ps": 1618,
      "▁town": 1619,
      "##gen": 1620,
      "▁hom": 1621,
      "▁concept": 1622,
      "▁material": 1623,
      "▁rock": 1624,
      "▁mount": 1625,
      "##ication": 1626,
      "▁prev": 1627,
      "▁dest": 1628,
      "▁society": 1629,
      "▁sound": 1630,
      "##ruction": 1631,
      "##arian": 1632,
      "▁books": 1633,
      "##anish": 1634,
      "▁subject": 1635,
      "▁possible": 1636,
      "▁side": 1637,
      "▁center": 1638,
      "##rew": 1639,
      "▁philosoph": 1640,
      "▁frequ": 1641,
      "##be": 1642,
      "▁enc": 1643,
      "##ught": 1644,
      "▁famous": 1645,
      "▁text": 1646,
      "▁instit": 1647,
      "▁took": 1648,
      "▁tru": 1649,
      "▁ast": 1650,
      "▁democ": 1651,
      "▁lib": 1652,
      "▁deb": 1653,
      "▁meas": 1654,
      "##osition": 1655,
      "▁novel": 1656,
      "##yal": 1657,
      "▁mach": 1658,
      "##iated": 1659,
      "##uary": 1660,
      "▁oct": 1661,
      "▁transl": 1662,
      "▁bor": 1663,
      "▁children": 1664,
      "▁regard": 1665,
      "▁complete": 1666,
      "▁having": 1667,
      "▁defin": 1668,
      "▁activ": 1669,
      "▁ball": 1670,
      "▁plan": 1671,
      "##verse": 1672,
      "▁appear": 1673,
      "##ergy": 1674,
      "▁begin": 1675,
      "▁story": 1676,
      "##ox": 1677,
      "▁princ": 1678,
      "▁came": 1679,
      "▁diff": 1680,
      "##idge": 1681,
      "▁himself": 1682,
      "▁princip": 1683,
      "##ember": 1684,
      "##iness": 1685,
      "▁islands": 1686,
      "▁broad": 1687,
      "##ability": 1688,
      "▁sex": 1689,
      "▁wind": 1690,
      "▁don": 1691,
      "##vision": 1692,
      "▁days": 1693,
      "▁card": 1694,
      "▁anti": 1695,
      "▁q": 1696,
      "▁tro": 1697,
      "##emb": 1698,
      "▁fall": 1699,
      "▁itself": 1700,
      "▁little": 1701,
      "▁seen": 1702,
      "▁uk": 1703,
      "▁avail": 1704,
      "▁vict": 1705,
      "▁culture": 1706,
      "##ander": 1707,
      "##ops": 1708,
      "▁words": 1709,
      "▁council": 1710,
      "▁dece": 1711,
      "▁tre": 1712,
      "▁express": 1713,
      "▁accept": 1714,
      "##reme": 1715,
      "▁above": 1716,
      "▁emper": 1717,
      "▁type": 1718,
      "▁fra": 1719,
      "##ored": 1720,
      "▁key": 1721,
      "▁largest": 1722,
      "▁find": 1723,
      "▁upon": 1724,
      "▁region": 1725,
      "▁software": 1726,
      "##mit": 1727,
      "▁created": 1728,
      "▁role": 1729,
      "▁final": 1730,
      "▁prom": 1731,
      "▁references": 1732,
      "▁init": 1733,
      "▁rich": 1734,
      "##ications": 1735,
      "▁foreign": 1736,
      "▁image": 1737,
      "▁march": 1738,
      "▁profess": 1739,
      "##und": 1740,
      "▁almost": 1741,
      "##ising": 1742,
      "##hern": 1743,
      "▁territ": 1744,
      "##yr": 1745,
      "▁code": 1746,
      "▁sel": 1747,
      "▁mov": 1748,
      "##ission": 1749,
      "▁once": 1750,
      "##osp": 1751,
      "▁album": 1752,
      "##craft": 1753,
      "▁nav": 1754,
      "▁jewish": 1755,
      "▁james": 1756,
      "▁help": 1757,
      "##ief": 1758,
      "▁league": 1759,
      "▁study": 1760,
      "▁ren": 1761,
      "▁gold": 1762,
      "▁religious": 1763,
      "▁january": 1764,
      "▁site": 1765,
      "##val": 1766,
      "▁cross": 1767,
      "##acks": 1768,
      "##sequ": 1769,
      "##ille": 1770,
      "▁member": 1771,
      "▁numbers": 1772,
      "▁thought": 1773,
      "▁mart": 1774,
      "##inal": 1775,
      "▁areas": 1776,
      "▁minister": 1777,
      "##ensive": 1778,
      "▁tur": 1779,
      "▁movement": 1780,
      "▁exam": 1781,
      "▁living": 1782,
      "##aces": 1783,
      "##ino": 1784,
      "▁community": 1785,
      "▁hit": 1786,
      "##cer": 1787,
      "▁bc": 1788,
      "▁tour": 1789,
      "▁source": 1790,
      "▁played": 1791,
      "▁production": 1792,
      "▁fire": 1793,
      "▁tal": 1794,
      "▁david": 1795,
      "▁close": 1796,
      "##iate": 1797,
      "▁released": 1798,
      "▁rights": 1799,
      "▁dou": 1800,
      "▁cost": 1801,
      "▁ess": 1802,
      "▁related": 1803,
      "##rict": 1804,
      "##umb": 1805,
      "##go": 1806,
      "##ators": 1807,
      "##sel": 1808,
      "▁stre": 1809,
      "▁dig": 1810,
      "##oms": 1811,
      "▁meaning": 1812,
      "▁quest": 1813,
      "▁ancient": 1814,
      "##ril": 1815,
      "▁terms": 1816,
      "▁change": 1817,
      "##here": 1818,
      "▁alex": 1819,
      "▁northern": 1820,
      "##rian": 1821,
      "##ending": 1822,
      "▁pain": 1823,
      "▁research": 1824,
      "▁won": 1825,
      "▁admin": 1826,
      "▁market": 1827,
      "▁establ": 1828,
      "▁becom": 1829,
      "##cle": 1830,
      "▁fri": 1831,
      "▁exec": 1832,
      "##inese": 1833,
      "▁middle": 1834,
      "##side": 1835,
      "▁redu": 1836,
      "▁radio": 1837,
      "##bol": 1838,
      "▁os": 1839,
      "▁sent": 1840,
      "##ploy": 1841,
      "▁energy": 1842,
      "▁priv": 1843,
      "##let": 1844,
      "▁making": 1845,
      "▁actor": 1846,
      "▁style": 1847,
      "▁produced": 1848,
      "##ca": 1849,
      "##rug": 1850,
      "##ows": 1851,
      "▁next": 1852,
      "▁women": 1853,
      "▁december": 1854,
      "▁polic": 1855,
      "##asing": 1856,
      "▁japanese": 1857,
      "▁feder": 1858,
      "▁died": 1859,
      "##ify": 1860,
      "▁available": 1861,
      "▁model": 1862,
      "##ead": 1863,
      "##ingu": 1864,
      "▁forms": 1865,
      "▁canada": 1866,
      "▁chinese": 1867,
      "##ificant": 1868,
      "▁complex": 1869,
      "▁might": 1870,
      "##ray": 1871,
      "▁conn": 1872,
      "▁parli": 1873,
      "##ald": 1874,
      "##aries": 1875,
      "##ford": 1876,
      "▁recogn": 1877,
      "▁earli": 1878,
      "▁pap": 1879,
      "▁prob": 1880,
      "##hers": 1881,
      "##ples": 1882,
      "##atures": 1883,
      "##ints": 1884,
      "▁television": 1885,
      "▁sept": 1886,
      "▁latin": 1887,
      "▁cover": 1888,
      "▁lou": 1889,
      "▁say": 1890,
      "##ected": 1891,
      "##ude": 1892,
      "##to": 1893,
      "▁half": 1894,
      "▁china": 1895,
      "▁constitution": 1896,
      "▁hor": 1897,
      "##oint": 1898,
      "▁mathemat": 1899,
      "▁established": 1900,
      "##ham": 1901,
      "▁significant": 1902,
      "▁doc": 1903,
      "▁domin": 1904,
      "▁ship": 1905,
      "▁eastern": 1906,
      "▁env": 1907,
      "▁parliament": 1908,
      "▁arab": 1909,
      "##ining": 1910,
      "▁july": 1911,
      "##put": 1912,
      "▁toget": 1913,
      "##chan": 1914,
      "▁inte": 1915,
      "▁micro": 1916,
      "▁george": 1917,
      "##ria": 1918,
      "▁built": 1919,
      "▁together": 1920,
      "▁note": 1921,
      "▁green": 1922,
      "##thern": 1923,
      "▁get": 1924,
      "▁ur": 1925,
      "▁abs": 1926,
      "▁suggest": 1927,
      "▁cann": 1928,
      "▁paul": 1929,
      "▁ox": 1930,
      "##arily": 1931,
      "▁bur": 1932,
      "▁except": 1933,
      "▁viol": 1934,
      "▁condition": 1935,
      "▁que": 1936,
      "▁charles": 1937,
      "▁compet": 1938,
      "▁catholic": 1939,
      "##ych": 1940,
      "▁parts": 1941,
      "▁instead": 1942,
      "▁indian": 1943,
      "##lam": 1944,
      "▁pot": 1945,
      "▁business": 1946,
      "▁subst": 1947,
      "▁football": 1948,
      "▁heav": 1949,
      "▁trade": 1950,
      "▁india": 1951,
      "▁neg": 1952,
      "▁account": 1953,
      "##face": 1954,
      "▁deg": 1955,
      "▁fail": 1956,
      "##iron": 1957,
      "▁june": 1958,
      "▁traditional": 1959,
      "▁underst": 1960,
      "##ka": 1961,
      "▁included": 1962,
      "##mon": 1963,
      "##uel": 1964,
      "▁big": 1965,
      "##rican": 1966,
      "##orts": 1967,
      "##used": 1968,
      "▁revolution": 1969,
      "▁least": 1970,
      "▁live": 1971,
      "▁attack": 1972,
      "▁aud": 1973,
      "▁fight": 1974,
      "▁nove": 1975,
      "▁young": 1976,
      "▁stri": 1977,
      "▁altern": 1978,
      "▁cast": 1979,
      "▁dut": 1980,
      "##utions": 1981,
      "▁capt": 1982,
      "▁prime": 1983,
      "▁commit": 1984,
      "##br": 1985,
      "##ems": 1986,
      "##ering": 1987,
      "##omb": 1988,
      "▁coast": 1989,
      "▁dan": 1990,
      "▁economy": 1991,
      "▁love": 1992,
      "▁entire": 1993,
      "##ched": 1994,
      "▁mich": 1995,
      "▁sit": 1996,
      "▁always": 1997,
      "▁range": 1998,
      "▁put": 1999,
      "▁sold": 2000,
      "▁november": 2001,
      "▁emperor": 2002,
      "▁pen": 2003,
      "▁italian": 2004,
      "▁food": 2005,
      "▁environ": 2006,
      "▁past": 2007,
      "##edia": 2008,
      "▁determ": 2009,
      "▁cro": 2010,
      "##rote": 2011,
      "▁players": 2012,
      "▁spir": 2013,
      "▁trib": 2014,
      "▁cit": 2015,
      "##apt": 2016,
      "▁april": 2017,
      "▁access": 2018,
      "▁secret": 2019,
      "##ental": 2020,
      "▁ben": 2021,
      "▁san": 2022,
      "##ront": 2023,
      "##uth": 2024,
      "▁sain": 2025,
      "▁nature": 2026,
      "▁september": 2027,
      "▁creat": 2028,
      "##icult": 2029,
      "▁cho": 2030,
      "▁taken": 2031,
      "▁self": 2032,
      "##ror": 2033,
      "##ban": 2034,
      "▁lost": 2035,
      "▁previous": 2036,
      "##ama": 2037,
      "▁southern": 2038,
      "##ober": 2039,
      "▁jour": 2040,
      "##com": 2041,
      "▁season": 2042,
      "##ta": 2043,
      "▁technology": 2044,
      "▁ic": 2045,
      "##rie": 2046,
      "▁rate": 2047,
      "▁spanish": 2048,
      "##burg": 2049,
      "##ateg": 2050,
      "▁desp": 2051,
      "▁october": 2052,
      "▁commer": 2053,
      "▁recent": 2054,
      "##ara": 2055,
      "##rica": 2056,
      "▁fig": 2057,
      "▁grand": 2058,
      "▁relative": 2059,
      "##ery": 2060,
      "▁ach": 2061,
      "▁our": 2062,
      "##rary": 2063,
      "##ked": 2064,
      "▁constant": 2065,
      "##ana": 2066,
      "▁sen": 2067,
      "▁squ": 2068,
      "▁royal": 2069,
      "▁network": 2070,
      "▁true": 2071,
      "▁reform": 2072,
      "▁lower": 2073,
      "##ered": 2074,
      "▁feb": 2075,
      "▁value": 2076,
      "▁russian": 2077,
      "▁uses": 2078,
      "##ffic": 2079,
      "##ux": 2080,
      "##ira": 2081,
      "▁ta": 2082,
      "##selves": 2083,
      "▁interp": 2084,
      "▁invest": 2085,
      "▁coll": 2086,
      "▁bud": 2087,
      "▁africa": 2088,
      "▁problem": 2089,
      "▁impro": 2090,
      "##eth": 2091,
      "▁mur": 2092,
      "▁mechan": 2093,
      "##oney": 2094,
      "▁lord": 2095,
      "▁wrote": 2096,
      "##uf": 2097,
      "▁administ": 2098,
      "▁vide": 2099,
      "▁temper": 2100,
      "▁names": 2101,
      "▁ever": 2102,
      "▁gal": 2103,
      "▁whose": 2104,
      "▁rule": 2105,
      "▁fund": 2106,
      "▁feature": 2107,
      "▁sam": 2108,
      "▁come": 2109,
      "▁prote": 2110,
      "▁historical": 2111,
      "▁psych": 2112,
      "▁difficult": 2113,
      "##pr": 2114,
      "▁distin": 2115,
      "▁hon": 2116,
      "▁australia": 2117,
      "▁distrib": 2118,
      "##ien": 2119,
      "▁dam": 2120,
      "▁respect": 2121,
      "▁minor": 2122,
      "▁particularly": 2123,
      "▁structure": 2124,
      "##ii": 2125,
      "▁frank": 2126,
      "▁thom": 2127,
      "##ption": 2128,
      "▁african": 2129,
      "##acy": 2130,
      "▁sil": 2131,
      "▁evidence": 2132,
      "▁symbol": 2133,
      "▁hold": 2134,
      "▁techni": 2135,
      "▁robert": 2136,
      "##arn": 2137,
      "▁brother": 2138,
      "▁themselves": 2139,
      "▁hyd": 2140,
      "▁cases": 2141,
      "▁fut": 2142,
      "▁reason": 2143,
      "##ceed": 2144,
      "▁adop": 2145,
      "▁influence": 2146,
      "##ume": 2147,
      "##ael": 2148,
      "▁phot": 2149,
      "▁referred": 2150,
      "##af": 2151,
      "▁too": 2152,
      "▁convent": 2153,
      "##ucle": 2154,
      "▁multip": 2155,
      "▁rail": 2156,
      "▁done": 2157,
      "▁nations": 2158,
      "##uments": 2159,
      "▁continued": 2160,
      "▁ten": 2161,
      "▁below": 2162,
      "##ney": 2163,
      "▁color": 2164,
      "▁host": 2165,
      "▁here": 2166,
      "▁colon": 2167,
      "##gypt": 2168,
      "##ky": 2169,
      "▁office": 2170,
      "▁throughout": 2171,
      "▁hop": 2172,
      "▁title": 2173,
      "▁female": 2174,
      "▁egypt": 2175,
      "▁therefore": 2176,
      "▁travel": 2177,
      "▁speed": 2178,
      "▁step": 2179,
      "▁magn": 2180,
      "▁febru": 2181,
      "▁bit": 2182,
      "##key": 2183,
      "▁independent": 2184,
      "▁environment": 2185,
      "▁ec": 2186,
      "▁instr": 2187,
      "▁cities": 2188,
      "▁definition": 2189,
      "▁peace": 2190,
      "▁february": 2191,
      "▁night": 2192,
      "▁critic": 2193,
      "▁fav": 2194,
      "▁species": 2195,
      "▁education": 2196,
      "▁ground": 2197,
      "▁electron": 2198,
      "▁park": 2199,
      "▁irish": 2200,
      "▁philosophy": 2201,
      "##bit": 2202,
      "##rad": 2203,
      "▁democr": 2204,
      "▁command": 2205,
      "▁higher": 2206,
      "▁award": 2207,
      "▁originally": 2208,
      "▁legal": 2209,
      "▁internet": 2210,
      "▁ut": 2211,
      "##ques": 2212,
      "▁bank": 2213,
      "▁sn": 2214,
      "▁wee": 2215,
      "##ym": 2216,
      "▁acad": 2217,
      "▁laws": 2218,
      "▁successful": 2219,
      "▁vo": 2220,
      "▁amount": 2221,
      "##asc": 2222,
      "##ula": 2223,
      "▁clear": 2224,
      "▁writer": 2225,
      "▁films": 2226,
      "##lim": 2227,
      "▁nucle": 2228,
      "▁elements": 2229,
      "▁male": 2230,
      "▁whether": 2231,
      "▁specific": 2232,
      "▁islam": 2233,
      "##ledge": 2234,
      "▁tar": 2235,
      "▁despite": 2236,
      "▁eventually": 2237,
      "▁agree": 2238,
      "▁action": 2239,
      "##ially": 2240,
      "##den": 2241,
      "▁ire": 2242,
      "##bon": 2243,
      "##istics": 2244,
      "▁described": 2245,
      "▁discuss": 2246,
      "▁practice": 2247,
      "##erous": 2248,
      "▁characters": 2249,
      "##itz": 2250,
      "##ached": 2251,
      "##of": 2252,
      "▁mother": 2253,
      "▁chief": 2254,
      "▁max": 2255,
      "▁necess": 2256,
      "▁events": 2257,
      "▁web": 2258,
      "▁purp": 2259,
      "▁formed": 2260,
      "▁wat": 2261,
      "▁bul": 2262,
      "▁commonly": 2263,
      "▁cry": 2264,
      "##ania": 2265,
      "▁able": 2266,
      "▁received": 2267,
      "##ires": 2268,
      "##gor": 2269,
      "▁maint": 2270,
      "▁problems": 2271,
      "##ply": 2272,
      "##oll": 2273,
      "▁disp": 2274,
      "▁jews": 2275,
      "##king": 2276,
      "▁speak": 2277,
      "##usion": 2278,
      "▁schol": 2279,
      "##isc": 2280,
      "▁discover": 2281,
      "▁compos": 2282,
      "▁belief": 2283,
      "▁typically": 2284,
      "▁indic": 2285,
      "▁types": 2286,
      "▁lay": 2287,
      "▁club": 2288,
      "▁includes": 2289,
      "▁outside": 2290,
      "▁ze": 2291,
      "##duct": 2292,
      "▁look": 2293,
      "##ounced": 2294,
      "##rick": 2295,
      "▁page": 2296,
      "▁contrib": 2297,
      "▁personal": 2298,
      "##uation": 2299,
      "▁physical": 2300,
      "##imately": 2301,
      "▁actually": 2302,
      "##iding": 2303,
      "##ari": 2304,
      "##lands": 2305,
      "▁fiction": 2306,
      "##asion": 2307,
      "▁transport": 2308,
      "##aves": 2309,
      "##istan": 2310,
      "▁deaths": 2311,
      "▁followed": 2312,
      "▁blood": 2313,
      "▁dri": 2314,
      "▁fac": 2315,
      "▁henry": 2316,
      "##aring": 2317,
      "▁leader": 2318,
      "▁dial": 2319,
      "▁widely": 2320,
      "##ards": 2321,
      "▁basic": 2322,
      "▁went": 2323,
      "##ours": 2324,
      "##atives": 2325,
      "▁controvers": 2326,
      "▁academ": 2327,
      "▁ord": 2328,
      "##rap": 2329,
      "▁conserv": 2330,
      "▁relationship": 2331,
      "▁nob": 2332,
      "##aged": 2333,
      "##ams": 2334,
      "▁front": 2335,
      "##isl": 2336,
      "##nal": 2337,
      "▁mind": 2338,
      "▁quant": 2339,
      "##ste": 2340,
      "##ston": 2341,
      "▁champ": 2342,
      "▁inde": 2343,
      "##ung": 2344,
      "▁leaders": 2345,
      "▁wall": 2346,
      "▁beginning": 2347,
      "##itect": 2348,
      "##anted": 2349,
      "▁defe": 2350,
      "##inary": 2351,
      "##oses": 2352,
      "▁elected": 2353,
      "▁offer": 2354,
      "##lement": 2355,
      "##itor": 2356,
      "▁mess": 2357,
      "▁ven": 2358,
      "▁tex": 2359,
      "▁building": 2360,
      "▁movie": 2361,
      "▁ib": 2362,
      "▁alph": 2363,
      "▁flow": 2364,
      "▁emb": 2365,
      "▁detail": 2366,
      "##wor": 2367,
      "▁independence": 2368,
      "▁pow": 2369,
      "▁canadian": 2370,
      "▁aircraft": 2371,
      "▁spirit": 2372,
      "▁blue": 2373,
      "##igh": 2374,
      "▁hall": 2375,
      "##ades": 2376,
      "▁occup": 2377,
      "▁births": 2378,
      "▁orth": 2379,
      "▁architect": 2380,
      "▁future": 2381,
      "▁surv": 2382,
      "##oted": 2383,
      "▁louis": 2384,
      "▁video": 2385,
      "▁birth": 2386,
      "▁mary": 2387,
      "▁consist": 2388,
      "▁electric": 2389,
      "▁wood": 2390,
      "▁scientific": 2391,
      "##utes": 2392,
      "▁dyn": 2393,
      "▁simply": 2394,
      "▁size": 2395,
      "##ha": 2396,
      "▁jes": 2397,
      "▁defined": 2398,
      "▁bran": 2399,
      "▁calif": 2400,
      "##uck": 2401,
      "▁webs": 2402,
      "▁extreme": 2403,
      "▁experim": 2404,
      "▁industry": 2405,
      "##ties": 2406,
      "▁edition": 2407,
      "▁cause": 2408,
      "▁examples": 2409,
      "▁approx": 2410,
      "##the": 2411,
      "##rial": 2412,
      "▁californ": 2413,
      "##urity": 2414,
      "▁increasing": 2415,
      "▁dead": 2416,
      "▁myth": 2417,
      "▁employ": 2418,
      "▁mis": 2419,
      "▁leng": 2420,
      "##hib": 2421,
      "▁respons": 2422,
      "▁stra": 2423,
      "▁your": 2424,
      "▁believe": 2425,
      "##cript": 2426,
      "▁health": 2427,
      "▁road": 2428,
      "▁services": 2429,
      "▁idea": 2430,
      "▁soon": 2431,
      "##ago": 2432,
      "##bc": 2433,
      "▁tim": 2434,
      "##ands": 2435,
      "▁points": 2436,
      "##iers": 2437,
      "▁introduced": 2438,
      "▁cut": 2439,
      "▁manuf": 2440,
      "▁intell": 2441,
      "##ression": 2442,
      "▁letter": 2443,
      "▁gun": 2444,
      "▁manufact": 2445,
      "▁deal": 2446,
      "▁britain": 2447,
      "▁achie": 2448,
      "▁features": 2449,
      "▁federal": 2450,
      "▁dim": 2451,
      "▁majority": 2452,
      "▁organization": 2453,
      "▁separate": 2454,
      "▁cannot": 2455,
      "▁bab": 2456,
      "▁ireland": 2457,
      "▁designed": 2458,
      "▁sense": 2459,
      "▁pun": 2460,
      "▁classical": 2461,
      "▁media": 2462,
      "##ico": 2463,
      "▁collect": 2464,
      "##hol": 2465,
      "▁writing": 2466,
      "▁franc": 2467,
      "##atory": 2468,
      "▁required": 2469,
      "▁address": 2470,
      "▁associated": 2471,
      "▁hydro": 2472,
      "##ump": 2473,
      "##odes": 2474,
      "▁mix": 2475,
      "▁knowledge": 2476,
      "▁cam": 2477,
      "▁foc": 2478,
      "▁private": 2479,
      "▁yet": 2480,
      "##roy": 2481,
      "▁located": 2482,
      "▁california": 2483,
      "▁changes": 2484,
      "▁mel": 2485,
      "##aut": 2486,
      "##ement": 2487,
      "##ibility": 2488,
      "##ises": 2489,
      "▁unit": 2490,
      "▁religion": 2491,
      "▁liberal": 2492,
      "▁rh": 2493,
      "##wer": 2494,
      "▁believed": 2495,
      "▁resour": 2496,
      "▁chemical": 2497,
      "▁away": 2498,
      "▁sequ": 2499,
      "▁started": 2500,
      "▁integr": 2501,
      "▁aver": 2502,
      "▁reb": 2503,
      "▁fle": 2504,
      "▁meet": 2505,
      "▁assemb": 2506,
      "▁nation": 2507,
      "▁poet": 2508,
      "▁county": 2509,
      "▁poly": 2510,
      "##ysis": 2511,
      "▁element": 2512,
      "▁rules": 2513,
      "▁rob": 2514,
      "▁studies": 2515,
      "▁understand": 2516,
      "▁congress": 2517,
      "▁mole": 2518,
      "▁gas": 2519,
      "▁intellig": 2520,
      "▁depart": 2521,
      "▁policy": 2522,
      "▁jose": 2523,
      "▁chann": 2524,
      "▁corn": 2525,
      "▁working": 2526,
      "▁founded": 2527,
      "##itch": 2528,
      "▁sem": 2529,
      "##cent": 2530,
      "##iff": 2531,
      "▁election": 2532,
      "▁saw": 2533,
      "▁currently": 2534,
      "##berg": 2535,
      "▁provide": 2536,
      "▁hung": 2537,
      "▁brought": 2538,
      "▁thomas": 2539,
      "##ole": 2540,
      "##hab": 2541,
      "▁weap": 2542,
      "▁corpor": 2543,
      "▁australian": 2544,
      "▁cart": 2545,
      "▁labor": 2546,
      "##uit": 2547,
      "##ension": 2548,
      "▁muse": 2549,
      "##ols": 2550,
      "▁alle": 2551,
      "##wh": 2552,
      "▁sus": 2553,
      "▁sup": 2554,
      "▁continu": 2555,
      "▁russia": 2556,
      "##omp": 2557,
      "▁allowed": 2558,
      "▁greater": 2559,
      "▁earlier": 2560,
      "▁limited": 2561,
      "##hel": 2562,
      "▁tax": 2563,
      "▁online": 2564,
      "##istry": 2565,
      "▁pict": 2566,
      "▁kind": 2567,
      "▁quick": 2568,
      "▁ban": 2569,
      "▁mi": 2570,
      "▁association": 2571,
      "▁iv": 2572,
      "▁nar": 2573,
      "##rated": 2574,
      "▁autom": 2575,
      "##ilities": 2576,
      "▁mostly": 2577,
      "▁document": 2578,
      "▁displ": 2579,
      "▁evolution": 2580,
      "▁citiz": 2581,
      "##uk": 2582,
      "▁across": 2583,
      "##cast": 2584,
      "▁emer": 2585,
      "##action": 2586,
      "▁prec": 2587,
      "▁added": 2588,
      "##vin": 2589,
      "▁things": 2590,
      "▁atl": 2591,
      "▁mc": 2592,
      "##med": 2593,
      "▁ham": 2594,
      "▁simple": 2595,
      "▁question": 2596,
      "▁chap": 2597,
      "▁require": 2598,
      "##cies": 2599,
      "▁commercial": 2600,
      "▁saint": 2601,
      "##rest": 2602,
      "▁singer": 2603,
      "▁effects": 2604,
      "▁sources": 2605,
      "▁growth": 2606,
      "##sh": 2607,
      "▁legisl": 2608,
      "▁remains": 2609,
      "▁bound": 2610,
      "▁protest": 2611,
      "▁swed": 2612,
      "▁probably": 2613,
      "▁gar": 2614,
      "▁vari": 2615,
      "▁gave": 2616,
      "▁longer": 2617,
      "▁freed": 2618,
      "▁richard": 2619,
      "▁break": 2620,
      "▁reference": 2621,
      "▁oil": 2622,
      "▁pron": 2623,
      "▁drug": 2624,
      "▁dise": 2625,
      "▁appoint": 2626,
      "▁map": 2627,
      "▁killed": 2628,
      "##ened": 2629,
      "▁career": 2630,
      "▁tom": 2631,
      "▁hyp": 2632,
      "##enced": 2633,
      "▁round": 2634,
      "▁museum": 2635,
      "▁division": 2636,
      "▁cub": 2637,
      "##cles": 2638,
      "##ulf": 2639,
      "▁musical": 2640,
      "▁prince": 2641,
      "▁etc": 2642,
      "▁give": 2643,
      "##ey": 2644,
      "##bor": 2645,
      "▁nom": 2646,
      "▁security": 2647,
      "##ishing": 2648,
      "▁obser": 2649,
      "▁length": 2650,
      "▁counter": 2651,
      "▁behav": 2652,
      "##isms": 2653,
      "▁better": 2654,
      "▁prevent": 2655,
      "▁confl": 2656,
      "▁rat": 2657,
      "##use": 2658,
      "▁expect": 2659,
      "▁machine": 2660,
      "▁stories": 2661,
      "▁keep": 2662,
      "▁imper": 2663,
      "▁epis": 2664,
      "▁money": 2665,
      "##ician": 2666,
      "▁holy": 2667,
      "##ctr": 2668,
      "##ij": 2669,
      "▁ethn": 2670,
      "▁actress": 2671,
      "▁lake": 2672,
      "▁id": 2673,
      "##ls": 2674,
      "##ga": 2675,
      "▁theore": 2676,
      "▁spain": 2677,
      "▁larger": 2678,
      "▁leading": 2679,
      "▁becomes": 2680,
      "▁rout": 2681,
      "▁opt": 2682,
      "##isions": 2683,
      "▁parties": 2684,
      "▁prize": 2685,
      "▁products": 2686,
      "▁scott": 2687,
      "▁muslim": 2688,
      "▁pred": 2689,
      "##ground": 2690,
      "▁website": 2691,
      "##ffer": 2692,
      "▁fort": 2693,
      "▁remained": 2694,
      "▁cultural": 2695,
      "##ulated": 2696,
      "▁months": 2697,
      "▁lines": 2698,
      "▁territory": 2699,
      "##hest": 2700,
      "▁wife": 2701,
      "▁hill": 2702,
      "▁moved": 2703,
      "▁politics": 2704,
      "▁pie": 2705,
      "##ready": 2706,
      "##iting": 2707,
      "▁largely": 2708,
      "▁cust": 2709,
      "▁categ": 2710,
      "▁fell": 2711,
      "▁famil": 2712,
      "▁dutch": 2713,
      "▁oce": 2714,
      "▁makes": 2715,
      "▁companies": 2716,
      "▁destroy": 2717,
      "▁contains": 2718,
      "##rast": 2719,
      "▁kar": 2720,
      "##ference": 2721,
      "##haps": 2722,
      "▁tor": 2723,
      "▁lack": 2724,
      "▁perhaps": 2725,
      "▁na": 2726,
      "▁establish": 2727,
      "##ights": 2728,
      "##stein": 2729,
      "▁already": 2730,
      "▁iii": 2731,
      "▁library": 2732,
      "▁mars": 2733,
      "▁rap": 2734,
      "▁corre": 2735,
      "▁agric": 2736,
      "▁appeared": 2737,
      "▁mex": 2738,
      "▁matter": 2739,
      "▁mas": 2740,
      "##antic": 2741,
      "▁happ": 2742,
      "▁era": 2743,
      "▁ey": 2744,
      "▁graph": 2745,
      "##onic": 2746,
      "▁wil": 2747,
      "▁subsequ": 2748,
      "▁bene": 2749,
      "##aign": 2750,
      "##wood": 2751,
      "▁italy": 2752,
      "▁results": 2753,
      "▁letters": 2754,
      "▁whole": 2755,
      "▁fair": 2756,
      "▁pan": 2757,
      "▁jer": 2758,
      "▁laun": 2759,
      "▁particip": 2760,
      "▁produce": 2761,
      "▁journal": 2762,
      "▁fif": 2763,
      "▁bow": 2764,
      "▁hot": 2765,
      "▁calcul": 2766,
      "▁pay": 2767,
      "▁guit": 2768,
      "▁subs": 2769,
      "▁directly": 2770,
      "▁latter": 2771,
      "##men": 2772,
      "##odox": 2773,
      "▁loss": 2774,
      "▁board": 2775,
      "▁surface": 2776,
      "▁status": 2777,
      "▁ax": 2778,
      "▁van": 2779,
      "##ura": 2780,
      "▁highly": 2781,
      "▁glob": 2782,
      "▁fer": 2783,
      "▁caused": 2784,
      "▁ult": 2785,
      "##itude": 2786,
      "▁measure": 2787,
      "##ables": 2788,
      "▁district": 2789,
      "##reg": 2790,
      "▁campaign": 2791,
      "▁native": 2792,
      "##aching": 2793,
      "▁director": 2794,
      "▁michael": 2795,
      "▁release": 2796,
      "##lying": 2797,
      "▁metal": 2798,
      "▁treaty": 2799,
      "▁authority": 2800,
      "##va": 2801,
      "▁ww": 2802,
      "▁virt": 2803,
      "▁double": 2804,
      "▁lic": 2805,
      "##urs": 2806,
      "▁conver": 2807,
      "▁consum": 2808,
      "▁tv": 2809,
      "▁scot": 2810,
      "##like": 2811,
      "▁asia": 2812,
      "▁implement": 2813,
      "▁washing": 2814,
      "##kn": 2815,
      "##ris": 2816,
      "▁portug": 2817,
      "▁concern": 2818,
      "▁anth": 2819,
      "##win": 2820,
      "##da": 2821,
      "▁moon": 2822,
      "▁programming": 2823,
      "##ya": 2824,
      "▁date": 2825,
      "##ift": 2826,
      "▁faith": 2827,
      "▁brown": 2828,
      "▁invent": 2829,
      "▁magaz": 2830,
      "##otes": 2831,
      "▁regular": 2832,
      "▁whom": 2833,
      "##ips": 2834,
      "▁creation": 2835,
      "▁agricult": 2836,
      "▁wik": 2837,
      "▁mad": 2838,
      "▁playing": 2839,
      "▁conflict": 2840,
      "##view": 2841,
      "##resp": 2842,
      "##col": 2843,
      "▁towards": 2844,
      "##ini": 2845,
      "▁married": 2846,
      "▁memory": 2847,
      "▁course": 2848,
      "▁orthodox": 2849,
      "##asons": 2850,
      "▁issues": 2851,
      "##onents": 2852,
      "▁sha": 2853,
      "▁cand": 2854,
      "▁heart": 2855,
      "##ores": 2856,
      "##ithm": 2857,
      "▁basis": 2858,
      "▁cele": 2859,
      "▁queen": 2860,
      "##ging": 2861,
      "▁enough": 2862,
      "▁primary": 2863,
      "▁alexander": 2864,
      "▁rare": 2865,
      "▁remain": 2866,
      "▁sac": 2867,
      "▁dark": 2868,
      "▁kh": 2869,
      "▁digital": 2870,
      "##ream": 2871,
      "##icated": 2872,
      "▁rome": 2873,
      "▁functions": 2874,
      "▁provided": 2875,
      "##uries": 2876,
      "▁cd": 2877,
      "▁demon": 2878,
      "##can": 2879,
      "▁analysis": 2880,
      "##aff": 2881,
      "▁think": 2882,
      "▁hero": 2883,
      "▁claims": 2884,
      "▁literature": 2885,
      "▁replaced": 2886,
      "▁peter": 2887,
      "▁joseph": 2888,
      "##ee": 2889,
      "##ding": 2890,
      "▁divided": 2891,
      "▁likely": 2892,
      "▁medical": 2893,
      "▁average": 2894,
      "▁vill": 2895,
      "##ivity": 2896,
      "▁property": 2897,
      "▁students": 2898,
      "##iles": 2899,
      "▁smith": 2900,
      "▁street": 2901,
      "▁wars": 2902,
      "▁los": 2903,
      "▁smaller": 2904,
      "##oura": 2905,
      "▁degree": 2906,
      "##het": 2907,
      "▁elections": 2908,
      "▁claimed": 2909,
      "##oid": 2910,
      "▁progress": 2911,
      "▁draw": 2912,
      "▁performance": 2913,
      "▁alternative": 2914,
      "▁washington": 2915,
      "▁camb": 2916,
      "▁user": 2917,
      "##wise": 2918,
      "▁slow": 2919,
      "▁controll": 2920,
      "##for": 2921,
      "▁carbon": 2922,
      "##itation": 2923,
      "▁columb": 2924,
      "▁flag": 2925,
      "##bi": 2926,
      "▁fal": 2927,
      "##ection": 2928,
      "##ously": 2929,
      "▁nearly": 2930,
      "▁schools": 2931,
      "▁paris": 2932,
      "▁saf": 2933,
      "▁jesus": 2934,
      "▁gradu": 2935,
      "▁baseball": 2936,
      "▁industrial": 2937,
      "##utive": 2938,
      "▁collection": 2939,
      "##edy": 2940,
      "##porary": 2941,
      "##fl": 2942,
      "▁thous": 2943,
      "▁corresp": 2944,
      "▁daught": 2945,
      "##riage": 2946,
      "▁finan": 2947,
      "▁commission": 2948,
      "▁contem": 2949,
      "▁quar": 2950,
      "▁changed": 2951,
      "▁section": 2952,
      "▁review": 2953,
      "▁ideas": 2954,
      "▁programs": 2955,
      "▁distinct": 2956,
      "##ush": 2957,
      "▁records": 2958,
      "▁station": 2959,
      "##ope": 2960,
      "##izations": 2961,
      "▁frequently": 2962,
      "##izing": 2963,
      "▁increase": 2964,
      "▁highest": 2965,
      "▁pac": 2966,
      "▁finally": 2967,
      "▁notable": 2968,
      "▁ira": 2969,
      "▁table": 2970,
      "▁dog": 2971,
      "▁methods": 2972,
      "▁recently": 2973,
      "##uge": 2974,
      "##fect": 2975,
      "▁paper": 2976,
      "▁heavy": 2977,
      "##cks": 2978,
      "▁heb": 2979,
      "▁assum": 2980,
      "##cycl": 2981,
      "▁border": 2982,
      "▁variety": 2983,
      "▁bay": 2984,
      "▁democratic": 2985,
      "▁involved": 2986,
      "▁intel": 2987,
      "▁cred": 2988,
      "▁mun": 2989,
      "▁kore": 2990,
      "▁served": 2991,
      "▁observ": 2992,
      "##arent": 2993,
      "##field": 2994,
      "▁bon": 2995,
      "▁sexual": 2996,
      "▁inn": 2997,
      "##thing": 2998,
      "▁ple": 2999,
      "##cher": 3000,
      "##pper": 3001,
      "▁nuclear": 3002,
      "▁operation": 3003,
      "▁objects": 3004,
      "##ields": 3005,
      "▁deli": 3006,
      "##hood": 3007,
      "##mar": 3008,
      "▁increased": 3009,
      "##iter": 3010,
      "▁medic": 3011,
      "##bra": 3012,
      "▁bish": 3013,
      "▁windows": 3014,
      "▁die": 3015,
      "##iant": 3016,
      "▁astron": 3017,
      "▁relatively": 3018,
      "##gin": 3019,
      "##ech": 3020,
      "▁bbc": 3021,
      "▁create": 3022,
      "▁returned": 3023,
      "##well": 3024,
      "▁conditions": 3025,
      "▁sens": 3026,
      "▁mos": 3027,
      "▁takes": 3028,
      "▁mand": 3029,
      "▁adopted": 3030,
      "▁ice": 3031,
      "▁perm": 3032,
      "▁plat": 3033,
      "▁ocean": 3034,
      "▁pack": 3035,
      "▁woman": 3036,
      "▁immed": 3037,
      "▁file": 3038,
      "▁electr": 3039,
      "##olf": 3040,
      "##off": 3041,
      "▁poor": 3042,
      "▁dialect": 3043,
      "##onia": 3044,
      "▁appears": 3045,
      "▁ans": 3046,
      "##ont": 3047,
      "##ners": 3048,
      "▁gn": 3049,
      "##omy": 3050,
      "##agement": 3051,
      "▁committe": 3052,
      "▁guitar": 3053,
      "▁burn": 3054,
      "▁animals": 3055,
      "▁existence": 3056,
      "▁units": 3057,
      "##cell": 3058,
      "▁discovered": 3059,
      "▁assembly": 3060,
      "▁immediate": 3061,
      "▁prior": 3062,
      "▁philosop": 3063,
      "▁incor": 3064,
      "▁reported": 3065,
      "▁box": 3066,
      "▁active": 3067,
      "▁mention": 3068,
      "▁deep": 3069,
      "▁assist": 3070,
      "▁universe": 3071,
      "##ying": 3072,
      "▁htt": 3073,
      "▁chic": 3074,
      "▁encycl": 3075,
      "▁behind": 3076,
      "▁angel": 3077,
      "▁normal": 3078,
      "▁algor": 3079,
      "▁diss": 3080,
      "▁numerous": 3081,
      "▁construction": 3082,
      "▁scale": 3083,
      "▁professional": 3084,
      "▁lad": 3085,
      "▁wa": 3086,
      "▁operating": 3087,
      "▁tend": 3088,
      "▁unlike": 3089,
      "▁dar": 3090,
      "##ridge": 3091,
      "▁institute": 3092,
      "▁airport": 3093,
      "▁iron": 3094,
      "▁taking": 3095,
      "▁naz": 3096,
      "▁pressure": 3097,
      "▁od": 3098,
      "▁amb": 3099,
      "▁centre": 3100,
      "▁experience": 3101,
      "▁week": 3102,
      "##oe": 3103,
      "▁ros": 3104,
      "▁sett": 3105,
      "▁estim": 3106,
      "▁stage": 3107,
      "▁concent": 3108,
      "▁conte": 3109,
      "▁monarch": 3110,
      "▁recorded": 3111,
      "▁issue": 3112,
      "▁troops": 3113,
      "▁resist": 3114,
      "▁primarily": 3115,
      "▁hebrew": 3116,
      "▁math": 3117,
      "##iance": 3118,
      "▁notes": 3119,
      "▁tun": 3120,
      "▁bad": 3121,
      "▁org": 3122,
      "▁exch": 3123,
      "▁pope": 3124,
      "▁neigh": 3125,
      "##ibly": 3126,
      "▁something": 3127,
      "▁square": 3128,
      "▁descript": 3129,
      "▁encyclop": 3130,
      "▁defense": 3131,
      "▁aspect": 3132,
      "▁print": 3133,
      "▁potential": 3134,
      "▁insp": 3135,
      "▁accepted": 3136,
      "▁powers": 3137,
      "##anced": 3138,
      "▁mathematics": 3139,
      "▁select": 3140,
      "##umn": 3141,
      "##illa": 3142,
      "▁cel": 3143,
      "▁pattern": 3144,
      "▁race": 3145,
      "▁mission": 3146,
      "▁stop": 3147,
      "▁cru": 3148,
      "▁gro": 3149,
      "▁kil": 3150,
      "▁resources": 3151,
      "##oting": 3152,
      "▁compar": 3153,
      "▁essential": 3154,
      "▁sin": 3155,
      "▁acqu": 3156,
      "▁running": 3157,
      "▁applied": 3158,
      "▁derived": 3159,
      "##astic": 3160,
      "##igned": 3161,
      "##ately": 3162,
      "▁calend": 3163,
      "##orial": 3164,
      "▁francis": 3165,
      "▁formal": 3166,
      "▁master": 3167,
      "##idents": 3168,
      "▁additional": 3169,
      "##ken": 3170,
      "▁lived": 3171,
      "▁ens": 3172,
      "▁equival": 3173,
      "▁placed": 3174,
      "▁shows": 3175,
      "▁nobel": 3176,
      "▁freedom": 3177,
      "##inated": 3178,
      "▁instance": 3179,
      "▁conqu": 3180,
      "▁http": 3181,
      "▁roll": 3182,
      "##wa": 3183,
      "▁bomb": 3184,
      "▁jul": 3185,
      "▁impl": 3186,
      "▁purpose": 3187,
      "▁dia": 3188,
      "▁frac": 3189,
      "##ba": 3190,
      "▁twent": 3191,
      "▁script": 3192,
      "▁budd": 3193,
      "▁target": 3194,
      "▁scholars": 3195,
      "▁magazine": 3196,
      "▁equal": 3197,
      "▁broadcast": 3198,
      "▁suffer": 3199,
      "▁hab": 3200,
      "▁boy": 3201,
      "▁serious": 3202,
      "▁gall": 3203,
      "▁respon": 3204,
      "▁channel": 3205,
      "▁scre": 3206,
      "▁governor": 3207,
      "▁engineering": 3208,
      "▁citizens": 3209,
      "##ki": 3210,
      "##orph": 3211,
      "##clus": 3212,
      "##ios": 3213,
      "▁rise": 3214,
      "▁mainly": 3215,
      "##round": 3216,
      "##oon": 3217,
      "▁spread": 3218,
      "##dp": 3219,
      "▁arts": 3220,
      "##ita": 3221,
      "▁phen": 3222,
      "▁seem": 3223,
      "▁cos": 3224,
      "▁ip": 3225,
      "▁versions": 3226,
      "▁threat": 3227,
      "▁mont": 3228,
      "▁operations": 3229,
      "▁interpret": 3230,
      "▁settle": 3231,
      "##att": 3232,
      "▁quite": 3233,
      "##iences": 3234,
      "▁marriage": 3235,
      "▁older": 3236,
      "▁dip": 3237,
      "##gon": 3238,
      "▁mut": 3239,
      "##tered": 3240,
      "▁applications": 3241,
      "▁ethnic": 3242,
      "▁proposed": 3243,
      "▁bible": 3244,
      "▁contain": 3245,
      "▁shown": 3246,
      "▁obt": 3247,
      "▁hund": 3248,
      "▁police": 3249,
      "▁bass": 3250,
      "▁consists": 3251,
      "▁cells": 3252,
      "▁instrument": 3253,
      "▁rank": 3254,
      "▁transform": 3255,
      "▁sir": 3256,
      "##hi": 3257,
      "▁alge": 3258,
      "▁articles": 3259,
      "##rative": 3260,
      "▁writers": 3261,
      "##imum": 3262,
      "▁volume": 3263,
      "▁cens": 3264,
      "▁lu": 3265,
      "▁scotland": 3266,
      "▁fast": 3267,
      "▁exact": 3268,
      "▁ways": 3269,
      "▁hell": 3270,
      "▁rand": 3271,
      "▁apparent": 3272,
      "▁regions": 3273,
      "▁levels": 3274,
      "▁arri": 3275,
      "▁albert": 3276,
      "▁dat": 3277,
      "▁construct": 3278,
      "▁possess": 3279,
      "▁properties": 3280,
      "▁quickly": 3281,
      "▁duke": 3282,
      "▁try": 3283,
      "▁uns": 3284,
      "▁fundament": 3285,
      "▁nd": 3286,
      "▁comment": 3287,
      "▁songs": 3288,
      "▁cas": 3289,
      "▁conne": 3290,
      "▁convention": 3291,
      "##aria": 3292,
      "##ola": 3293,
      "▁techniques": 3294,
      "▁plant": 3295,
      "▁extra": 3296,
      "▁dance": 3297,
      "##omen": 3298,
      "##ads": 3299,
      "▁ability": 3300,
      "▁communist": 3301,
      "▁introduction": 3302,
      "##back": 3303,
      "##eter": 3304,
      "▁ris": 3305,
      "▁passed": 3306,
      "▁chicago": 3307,
      "▁animal": 3308,
      "▁friends": 3309,
      "▁approximately": 3310,
      "▁navy": 3311,
      "##hic": 3312,
      "▁bapt": 3313,
      "▁surround": 3314,
      "▁composer": 3315,
      "▁chron": 3316,
      "▁apple": 3317,
      "▁wr": 3318,
      "##isation": 3319,
      "▁appointed": 3320,
      "##ned": 3321,
      "▁centuries": 3322,
      "▁committee": 3323,
      "▁path": 3324,
      "▁jac": 3325,
      "▁forced": 3326,
      "▁usa": 3327,
      "▁compl": 3328,
      "▁pra": 3329,
      "▁cra": 3330,
      "▁mit": 3331,
      "▁hous": 3332,
      "▁percent": 3333,
      "▁martin": 3334,
      "##ients": 3335,
      "##rupt": 3336,
      "▁places": 3337,
      "▁month": 3338,
      "▁individuals": 3339,
      "##soft": 3340,
      "▁distingu": 3341,
      "▁face": 3342,
      "▁learn": 3343,
      "▁focus": 3344,
      "##ker": 3345,
      "▁wit": 3346,
      "▁refers": 3347,
      "▁bib": 3348,
      "##rief": 3349,
      "▁kings": 3350,
      "##aches": 3351,
      "##ager": 3352,
      "▁sho": 3353,
      "▁values": 3354,
      "▁agreement": 3355,
      "##ship": 3356,
      "▁comes": 3357,
      "▁via": 3358,
      "▁afg": 3359,
      "▁speech": 3360,
      "▁temperature": 3361,
      "▁response": 3362,
      "##elling": 3363,
      "##mp": 3364,
      "▁www": 3365,
      "▁acid": 3366,
      "##erson": 3367,
      "▁climate": 3368,
      "▁jack": 3369,
      "▁bridge": 3370,
      "▁protect": 3371,
      "▁carry": 3372,
      "▁champions": 3373,
      "▁internal": 3374,
      "▁repe": 3375,
      "▁labour": 3376,
      "▁murder": 3377,
      "▁daughter": 3378,
      "▁rot": 3379,
      "▁von": 3380,
      "##omm": 3381,
      "▁search": 3382,
      "▁demonst": 3383,
      "##anian": 3384,
      "▁reflect": 3385,
      "▁friend": 3386,
      "▁contract": 3387,
      "▁fel": 3388,
      "##abet": 3389,
      "##pped": 3390,
      "▁depend": 3391,
      "▁motion": 3392,
      "##yth": 3393,
      "##gers": 3394,
      "▁pil": 3395,
      "▁consequ": 3396,
      "▁cold": 3397,
      "▁branch": 3398,
      "▁flight": 3399,
      "▁forest": 3400,
      "▁lie": 3401,
      "▁lingu": 3402,
      "##eral": 3403,
      "▁sav": 3404,
      "▁fix": 3405,
      "▁stars": 3406,
      "▁noted": 3407,
      "##zz": 3408,
      "▁microsoft": 3409,
      "##igr": 3410,
      "▁shot": 3411,
      "▁summer": 3412,
      "▁unique": 3413,
      "▁voc": 3414,
      "▁content": 3415,
      "▁supported": 3416,
      "▁bey": 3417,
      "▁brain": 3418,
      "▁clos": 3419,
      "▁billion": 3420,
      "▁arth": 3421,
      "▁ful": 3422,
      "##onent": 3423,
      "▁miles": 3424,
      "▁christianity": 3425,
      "▁computers": 3426,
      "▁treatment": 3427,
      "▁rapid": 3428,
      "▁plann": 3429,
      "▁correspond": 3430,
      "▁management": 3431,
      "▁promin": 3432,
      "▁mob": 3433,
      "▁direction": 3434,
      "##mark": 3435,
      "##ett": 3436,
      "##aker": 3437,
      "▁flu": 3438,
      "▁calendar": 3439,
      "##overy": 3440,
      "▁write": 3441,
      "▁remo": 3442,
      "▁performed": 3443,
      "▁necessary": 3444,
      "##ville": 3445,
      "▁intended": 3446,
      "##hens": 3447,
      "▁lith": 3448,
      "##olved": 3449,
      "▁spl": 3450,
      "##ales": 3451,
      "▁cab": 3452,
      "▁transfer": 3453,
      "▁benef": 3454,
      "##aled": 3455,
      "▁fat": 3456,
      "▁rang": 3457,
      "▁affair": 3458,
      "▁conduct": 3459,
      "##anded": 3460,
      "▁diam": 3461,
      "##aur": 3462,
      "▁disease": 3463,
      "▁worked": 3464,
      "▁vehic": 3465,
      "▁recon": 3466,
      "▁imperial": 3467,
      "##nes": 3468,
      "▁gene": 3469,
      "▁sets": 3470,
      "▁users": 3471,
      "▁atom": 3472,
      "▁attrib": 3473,
      "▁luc": 3474,
      "▁acts": 3475,
      "▁lands": 3476,
      "▁physics": 3477,
      "▁sports": 3478,
      "▁reading": 3479,
      "▁multiple": 3480,
      "▁gramm": 3481,
      "▁afghan": 3482,
      "▁figure": 3483,
      "▁fan": 3484,
      "▁speaking": 3485,
      "▁iraq": 3486,
      "▁signed": 3487,
      "▁critical": 3488,
      "▁motor": 3489,
      "▁export": 3490,
      "▁haw": 3491,
      "##xual": 3492,
      "▁contrast": 3493,
      "▁prefer": 3494,
      "▁cer": 3495,
      "▁location": 3496,
      "▁translation": 3497,
      "▁regarded": 3498,
      "▁mathematical": 3499,
      "▁wild": 3500,
      "▁reject": 3501,
      "▁connect": 3502,
      "▁gir": 3503,
      "##phas": 3504,
      "##zil": 3505,
      "▁infin": 3506,
      "▁tree": 3507,
      "▁inhab": 3508,
      "▁enem": 3509,
      "▁jean": 3510,
      "##itors": 3511,
      "▁circum": 3512,
      "▁beyond": 3513,
      "##rents": 3514,
      "▁orient": 3515,
      "▁province": 3516,
      "##ny": 3517,
      "▁arran": 3518,
      "##icted": 3519,
      "##har": 3520,
      "##pap": 3521,
      "▁alco": 3522,
      "▁medicine": 3523,
      "##och": 3524,
      "▁spok": 3525,
      "▁approach": 3526,
      "▁polish": 3527,
      "▁skill": 3528,
      "▁stock": 3529,
      "##ws": 3530,
      "▁reached": 3531,
      "▁fant": 3532,
      "▁brief": 3533,
      "▁lif": 3534,
      "▁remaining": 3535,
      "▁display": 3536,
      "▁il": 3537,
      "▁financial": 3538,
      "##la": 3539,
      "▁why": 3540,
      "▁adm": 3541,
      "▁provides": 3542,
      "▁notably": 3543,
      "▁track": 3544,
      "▁administration": 3545,
      "▁mm": 3546,
      "▁jur": 3547,
      "▁cup": 3548,
      "▁les": 3549,
      "▁feel": 3550,
      "▁guide": 3551,
      "▁candid": 3552,
      "▁inj": 3553,
      "▁actual": 3554,
      "▁opposition": 3555,
      "##outh": 3556,
      "▁distribution": 3557,
      "▁bring": 3558,
      "▁logic": 3559,
      "##icit": 3560,
      "▁alt": 3561,
      "▁block": 3562,
      "▁joined": 3563,
      "▁conservative": 3564,
      "▁rain": 3565,
      "▁prison": 3566,
      "▁theories": 3567,
      "▁bob": 3568,
      "▁prem": 3569,
      "##oration": 3570,
      "▁models": 3571,
      "▁catal": 3572,
      "##eria": 3573,
      "▁coal": 3574,
      "▁custom": 3575,
      "▁mr": 3576,
      "▁aim": 3577,
      "▁distance": 3578,
      "▁influenced": 3579,
      "##ada": 3580,
      "▁format": 3581,
      "▁pit": 3582,
      "▁intelligence": 3583,
      "##osis": 3584,
      "##rane": 3585,
      "▁doctr": 3586,
      "▁victor": 3587,
      "▁correct": 3588,
      "▁greece": 3589,
      "##board": 3590,
      "▁department": 3591,
      "▁context": 3592,
      "▁hands": 3593,
      "▁celebr": 3594,
      "▁stren": 3595,
      "##inian": 3596,
      "▁universal": 3597,
      "▁humans": 3598,
      "▁activity": 3599,
      "▁sell": 3600,
      "▁pacific": 3601,
      "▁algebra": 3602,
      "##isters": 3603,
      "▁global": 3604,
      "##gn": 3605,
      "▁executive": 3606,
      "##mas": 3607,
      "▁mom": 3608,
      "▁previously": 3609,
      "▁powerful": 3610,
      "##ida": 3611,
      "##otic": 3612,
      "▁ran": 3613,
      "▁quality": 3614,
      "▁brazil": 3615,
      "▁coup": 3616,
      "▁abb": 3617,
      "▁restrict": 3618,
      "▁synt": 3619,
      "▁needed": 3620,
      "##rison": 3621,
      "▁share": 3622,
      "▁bond": 3623,
      "▁jim": 3624,
      "##elled": 3625,
      "▁extremely": 3626,
      "##racy": 3627,
      "▁ell": 3628,
      "▁vote": 3629,
      "▁legend": 3630,
      "▁completely": 3631,
      "▁phenomen": 3632,
      "##enth": 3633,
      "▁edward": 3634,
      "▁ga": 3635,
      "▁gard": 3636,
      "##ody": 3637,
      "##aph": 3638,
      "▁string": 3639,
      "▁allows": 3640,
      "▁berlin": 3641,
      "▁virgin": 3642,
      "##uls": 3643,
      "▁investig": 3644,
      "▁contemporary": 3645,
      "▁advent": 3646,
      "▁advanced": 3647,
      "##oke": 3648,
      "##cious": 3649,
      "▁cook": 3650,
      "▁newspap": 3651,
      "▁rab": 3652,
      "▁doub": 3653,
      "##lor": 3654,
      "##osh": 3655,
      "##gian": 3656,
      "##ocol": 3657,
      "##ortun": 3658,
      "▁gives": 3659,
      "##head": 3660,
      "▁shar": 3661,
      "▁stated": 3662,
      "▁poland": 3663,
      "▁becoming": 3664,
      "##azz": 3665,
      "▁advant": 3666,
      "▁tas": 3667,
      "##ona": 3668,
      "▁regional": 3669,
      "▁justice": 3670,
      "##where": 3671,
      "▁crown": 3672,
      "▁streng": 3673,
      "▁ign": 3674,
      "▁fourth": 3675,
      "▁enter": 3676,
      "▁guard": 3677,
      "▁foundation": 3678,
      "▁crim": 3679,
      "▁nether": 3680,
      "▁turned": 3681,
      "▁heat": 3682,
      "▁difference": 3683,
      "▁critics": 3684,
      "▁weapons": 3685,
      "▁episode": 3686,
      "##bour": 3687,
      "▁ott": 3688,
      "▁purch": 3689,
      "▁paral": 3690,
      "▁standards": 3691,
      "▁mountain": 3692,
      "▁ded": 3693,
      "▁kong": 3694,
      "▁electronic": 3695,
      "▁sand": 3696,
      "▁dun": 3697,
      "▁chur": 3698,
      "▁contact": 3699,
      "▁favor": 3700,
      "▁screen": 3701,
      "##ua": 3702,
      "▁argument": 3703,
      "▁musician": 3704,
      "##pg": 3705,
      "▁fans": 3706,
      "▁ba": 3707,
      "##ounds": 3708,
      "▁greatest": 3709,
      "▁usage": 3710,
      "▁featured": 3711,
      "▁fields": 3712,
      "▁training": 3713,
      "▁vow": 3714,
      "##asy": 3715,
      "##gal": 3716,
      "▁hours": 3717,
      "▁ships": 3718,
      "▁inside": 3719,
      "▁application": 3720,
      "▁link": 3721,
      "▁useful": 3722,
      "▁initial": 3723,
      "▁exchange": 3724,
      "▁else": 3725,
      "▁moving": 3726,
      "▁domest": 3727,
      "##fficient": 3728,
      "▁describe": 3729,
      "▁wing": 3730,
      "▁rough": 3731,
      "##mann": 3732,
      "▁suc": 3733,
      "▁resulting": 3734,
      "▁oxford": 3735,
      "▁honor": 3736,
      "▁behavior": 3737,
      "▁churches": 3738,
      "▁effic": 3739,
      "▁arabic": 3740,
      "▁fundamental": 3741,
      "▁urban": 3742,
      "▁slight": 3743,
      "▁quarter": 3744,
      "▁netherlands": 3745,
      "##ias": 3746,
      "##isp": 3747,
      "▁pair": 3748,
      "▁theat": 3749,
      "▁horse": 3750,
      "▁supreme": 3751,
      "▁fest": 3752,
      "▁diction": 3753,
      "▁spring": 3754,
      "▁weight": 3755,
      "##oo": 3756,
      "▁impact": 3757,
      "▁carried": 3758,
      "▁artist": 3759,
      "▁failed": 3760,
      "▁arthur": 3761,
      "▁folk": 3762,
      "▁reasons": 3763,
      "▁upper": 3764,
      "##ieties": 3765,
      "▁continue": 3766,
      "▁reve": 3767,
      "▁molec": 3768,
      "▁cp": 3769,
      "▁dro": 3770,
      "▁unf": 3771,
      "▁going": 3772,
      "▁emphas": 3773,
      "▁responsible": 3774,
      "##usal": 3775,
      "▁rd": 3776,
      "##oca": 3777,
      "▁competition": 3778,
      "▁occasion": 3779,
      "##rich": 3780,
      "▁compil": 3781,
      "▁opposed": 3782,
      "▁perman": 3783,
      "##erve": 3784,
      "▁decision": 3785,
      "▁islamic": 3786,
      "##tical": 3787,
      "▁stone": 3788,
      "▁voice": 3789,
      "▁technical": 3790,
      "▁planet": 3791,
      "##what": 3792,
      "▁architecture": 3793,
      "▁mexico": 3794,
      "▁incorpor": 3795,
      "▁nap": 3796,
      "▁scottish": 3797,
      "▁beat": 3798,
      "▁starting": 3799,
      "##imal": 3800,
      "▁somewhat": 3801,
      "##mitted": 3802,
      "▁negative": 3803,
      "▁equip": 3804,
      "##my": 3805,
      "##ml": 3806,
      "▁oly": 3807,
      "▁dang": 3808,
      "▁swe": 3809,
      "▁views": 3810,
      "▁materials": 3811,
      "▁activities": 3812,
      "▁spoken": 3813,
      "▁biography": 3814,
      "▁doll": 3815,
      "▁linear": 3816,
      "▁ones": 3817,
      "##icip": 3818,
      "▁gh": 3819,
      "▁protection": 3820,
      "##reed": 3821,
      "▁signal": 3822,
      "##log": 3823,
      "▁follows": 3824,
      "##west": 3825,
      "▁attempts": 3826,
      "▁vary": 3827,
      "▁charge": 3828,
      "▁generation": 3829,
      "▁indeed": 3830,
      "##aving": 3831,
      "▁declared": 3832,
      "▁winter": 3833,
      "▁cambridge": 3834,
      "▁ly": 3835,
      "##vert": 3836,
      "▁decided": 3837,
      "▁olymp": 3838,
      "##ram": 3839,
      "▁chall": 3840,
      "▁ended": 3841,
      "▁composed": 3842,
      "##ressed": 3843,
      "##ulations": 3844,
      "▁growing": 3845,
      "##lom": 3846,
      "▁specif": 3847,
      "▁appearance": 3848,
      "▁succeed": 3849,
      "##rate": 3850,
      "▁anarch": 3851,
      "▁lut": 3852,
      "##sec": 3853,
      "▁geography": 3854,
      "▁oppos": 3855,
      "▁represented": 3856,
      "▁ring": 3857,
      "▁grav": 3858,
      "▁juda": 3859,
      "##writ": 3860,
      "##ests": 3861,
      "##rm": 3862,
      "▁bell": 3863,
      "▁encyclopedia": 3864,
      "▁goal": 3865,
      "▁possibly": 3866,
      "##hesis": 3867,
      "▁families": 3868,
      "▁pure": 3869,
      "▁seems": 3870,
      "▁cham": 3871,
      "▁dna": 3872,
      "▁christians": 3873,
      "##met": 3874,
      "▁zeal": 3875,
      "##lines": 3876,
      "##za": 3877,
      "▁jun": 3878,
      "##encies": 3879,
      "##ati": 3880,
      "▁classic": 3881,
      "▁dynast": 3882,
      "▁fuel": 3883,
      "▁ku": 3884,
      "▁adj": 3885,
      "##ographic": 3886,
      "▁discip": 3887,
      "▁pick": 3888,
      "▁terror": 3889,
      "▁stations": 3890,
      "▁palest": 3891,
      "▁improve": 3892,
      "▁bah": 3893,
      "▁easily": 3894,
      "▁identity": 3895,
      "▁academy": 3896,
      "▁comic": 3897,
      "▁assass": 3898,
      "▁principle": 3899,
      "▁alphabet": 3900,
      "▁equipment": 3901,
      "##erc": 3902,
      "▁giving": 3903,
      "▁phr": 3904,
      "▁armed": 3905,
      "▁marx": 3906,
      "##vey": 3907,
      "▁und": 3908,
      "▁tell": 3909,
      "▁tou": 3910,
      "▁extended": 3911,
      "##aging": 3912,
      "▁golden": 3913,
      "▁doctor": 3914,
      "▁announced": 3915,
      "##sp": 3916,
      "▁got": 3917,
      "▁ak": 3918,
      "▁compared": 3919,
      "##ils": 3920,
      "▁kenn": 3921,
      "▁positive": 3922,
      "▁causes": 3923,
      "▁unkn": 3924,
      "▁income": 3925,
      "##izes": 3926,
      "▁expans": 3927,
      "▁choice": 3928,
      "▁simpl": 3929,
      "▁technique": 3930,
      "▁reign": 3931,
      "▁advoc": 3932,
      "▁fish": 3933,
      "▁nick": 3934,
      "▁stan": 3935,
      "▁apart": 3936,
      "##ieval": 3937,
      "▁medieval": 3938,
      "▁pier": 3939,
      "▁attacks": 3940,
      "##inate": 3941,
      "▁drive": 3942,
      "▁mathematic": 3943,
      "▁immediately": 3944,
      "▁directed": 3945,
      "##era": 3946,
      "##iah": 3947,
      "▁feet": 3948,
      "▁flo": 3949,
      "##tar": 3950,
      "##eds": 3951,
      "▁efforts": 3952,
      "▁championship": 3953,
      "▁belong": 3954,
      "▁capac": 3955,
      "▁fully": 3956,
      "▁alf": 3957,
      "▁initially": 3958,
      "▁exists": 3959,
      "▁composition": 3960,
      "▁perfect": 3961,
      "▁truth": 3962,
      "##oper": 3963,
      "▁organizations": 3964,
      "▁nic": 3965,
      "##aded": 3966,
      "▁traditionally": 3967,
      "▁extensive": 3968,
      "▁conv": 3969,
      "▁presence": 3970,
      "##inet": 3971,
      "▁plants": 3972,
      "▁equivalent": 3973,
      "▁provin": 3974,
      "##book": 3975,
      "▁illust": 3976,
      "▁chance": 3977,
      "##gment": 3978,
      "##rees": 3979,
      "▁argued": 3980,
      "##kes": 3981,
      "##agan": 3982,
      "▁reaction": 3983,
      "▁valley": 3984,
      "▁austria": 3985,
      "▁background": 3986,
      "▁holid": 3987,
      "▁frame": 3988,
      "▁encoura": 3989,
      "▁combat": 3990,
      "▁combined": 3991,
      "▁achieve": 3992,
      "▁alone": 3993,
      "▁controlled": 3994,
      "▁hin": 3995,
      "▁proved": 3996,
      "▁serve": 3997,
      "▁occurs": 3998,
      "▁audio": 3999,
      "▁hus": 4000,
      "▁neut": 4001,
      "▁student": 4002,
      "▁atm": 4003,
      "▁understanding": 4004,
      "##ex": 4005,
      "##nel": 4006,
      "▁situation": 4007,
      "##don": 4008,
      "▁aid": 4009,
      "##bed": 4010,
      "▁az": 4011,
      "▁fit": 4012,
      "▁cod": 4013,
      "##onian": 4014,
      "##rier": 4015,
      "▁ford": 4016,
      "▁nothing": 4017,
      "▁differences": 4018,
      "▁brand": 4019,
      "▁glass": 4020,
      "▁pu": 4021,
      "##ologist": 4022,
      "##gra": 4023,
      "##ching": 4024,
      "##ulate": 4025,
      "▁enj": 4026,
      "##iar": 4027,
      "##claim": 4028,
      "▁paralle": 4029,
      "##iform": 4030,
      "▁pc": 4031,
      "##anta": 4032,
      "▁meant": 4033,
      "▁solution": 4034,
      "##lection": 4035,
      "▁effective": 4036,
      "▁allowing": 4037,
      "▁seat": 4038,
      "▁limit": 4039,
      "▁mentioned": 4040,
      "▁replace": 4041,
      "▁expected": 4042,
      "▁prin": 4043,
      "▁device": 4044,
      "▁portugues": 4045,
      "▁fict": 4046,
      "##ava": 4047,
      "▁secretary": 4048,
      "▁actions": 4049,
      "▁jacks": 4050,
      "▁debate": 4051,
      "##ensity": 4052,
      "▁lincol": 4053,
      "▁classes": 4054,
      "▁lincoln": 4055,
      "▁curren": 4056,
      "##teen": 4057,
      "▁communities": 4058,
      "▁victory": 4059,
      "▁unknown": 4060,
      "##inations": 4061,
      "▁unp": 4062,
      "▁portuguese": 4063,
      "▁ko": 4064,
      "▁finland": 4065,
      "##ador": 4066,
      "▁chrom": 4067,
      "▁artists": 4068,
      "▁gained": 4069,
      "▁sport": 4070,
      "▁poll": 4071,
      "▁mere": 4072,
      "▁recognized": 4073,
      "▁turk": 4074,
      "##cape": 4075,
      "▁sort": 4076,
      "▁judaism": 4077,
      "▁eg": 4078,
      "▁cla": 4079,
      "▁oh": 4080,
      "▁batt": 4081,
      "▁entirely": 4082,
      "▁conference": 4083,
      "##anda": 4084,
      "▁teams": 4085,
      "▁ath": 4086,
      "▁ht": 4087,
      "▁connected": 4088,
      "▁environmental": 4089,
      "▁laure": 4090,
      "▁domestic": 4091,
      "▁ts": 4092,
      "▁carl": 4093,
      "▁dram": 4094,
      "▁begins": 4095,
      "▁prep": 4096,
      "▁writings": 4097,
      "▁politician": 4098,
      "▁vel": 4099,
      "▁gdp": 4100,
      "▁wealth": 4101,
      "▁completed": 4102,
      "▁drum": 4103,
      "▁otherwise": 4104,
      "▁geomet": 4105,
      "▁bulg": 4106,
      "##nam": 4107,
      "▁ll": 4108,
      "▁convers": 4109,
      "▁apol": 4110,
      "▁bishop": 4111,
      "▁asc": 4112,
      "▁ruled": 4113,
      "##vi": 4114,
      "▁sites": 4115,
      "▁bol": 4116,
      "▁cards": 4117,
      "##mers": 4118,
      "##more": 4119,
      "▁copyr": 4120,
      "▁fill": 4121,
      "▁stor": 4122,
      "▁datab": 4123,
      "##wan": 4124,
      "##ologists": 4125,
      "▁trial": 4126,
      "▁attract": 4127,
      "▁arms": 4128,
      "▁controversy": 4129,
      "▁earliest": 4130,
      "##ique": 4131,
      "▁experiment": 4132,
      "##usalem": 4133,
      "▁containing": 4134,
      "▁attention": 4135,
      "▁workers": 4136,
      "▁physic": 4137,
      "▁suggested": 4138,
      "▁esc": 4139,
      "▁alcohol": 4140,
      "▁output": 4141,
      "▁solid": 4142,
      "▁cycle": 4143,
      "▁sequence": 4144,
      "▁jerusalem": 4145,
      "▁penn": 4146,
      "▁hong": 4147,
      "▁temple": 4148,
      "▁principles": 4149,
      "▁anne": 4150,
      "▁han": 4151,
      "▁literary": 4152,
      "▁leban": 4153,
      "▁interview": 4154,
      "▁scientists": 4155,
      "▁reduced": 4156,
      "##wide": 4157,
      "▁hug": 4158,
      "##ala": 4159,
      "▁officially": 4160,
      "▁figures": 4161,
      "▁americans": 4162,
      "▁popularity": 4163,
      "▁fighting": 4164,
      "##aven": 4165,
      "▁prominent": 4166,
      "▁instruments": 4167,
      "▁scene": 4168,
      "▁typical": 4169,
      "##hold": 4170,
      "##mun": 4171,
      "▁cu": 4172,
      "▁jackson": 4173,
      "▁argent": 4174,
      "▁winning": 4175,
      "##igan": 4176,
      "▁entry": 4177,
      "▁structures": 4178,
      "▁increasingly": 4179,
      "##actions": 4180,
      "▁requires": 4181,
      "##igration": 4182,
      "▁cond": 4183,
      "▁intellect": 4184,
      "▁israeli": 4185,
      "##acher": 4186,
      "▁liqu": 4187,
      "▁statement": 4188,
      "▁sax": 4189,
      "▁algorithm": 4190,
      "##ns": 4191,
      "▁says": 4192,
      "##ota": 4193,
      "▁jazz": 4194,
      "▁avoid": 4195,
      "▁bott": 4196,
      "▁lives": 4197,
      "▁daily": 4198,
      "▁barb": 4199,
      "▁frequency": 4200,
      "▁buddh": 4201,
      "▁moment": 4202,
      "▁images": 4203,
      "▁flat": 4204,
      "▁satell": 4205,
      "##iders": 4206,
      "▁zealand": 4207,
      "##ded": 4208,
      "▁discussion": 4209,
      "▁specifically": 4210,
      "▁exc": 4211,
      "##itable": 4212,
      "▁atlantic": 4213,
      "▁split": 4214,
      "▁gib": 4215,
      "##ception": 4216,
      "▁confeder": 4217,
      "▁domain": 4218,
      "▁texas": 4219,
      "▁adult": 4220,
      "▁expansion": 4221,
      "##rim": 4222,
      "##ione": 4223,
      "##inger": 4224,
      "▁mountains": 4225,
      "##unt": 4226,
      "▁harv": 4227,
      "▁dynasty": 4228,
      "▁jones": 4229,
      "▁genetic": 4230,
      "▁price": 4231,
      "▁depending": 4232,
      "▁senate": 4233,
      "▁ft": 4234,
      "▁description": 4235,
      "▁lear": 4236,
      "▁severe": 4237,
      "▁importance": 4238,
      "▁pray": 4239,
      "▁georg": 4240,
      "▁criticism": 4241,
      "▁las": 4242,
      "▁destroyed": 4243,
      "▁wave": 4244,
      "▁gosp": 4245,
      "▁elev": 4246,
      "▁qual": 4247,
      "▁opin": 4248,
      "▁inspired": 4249,
      "##iro": 4250,
      "▁lun": 4251,
      "▁staff": 4252,
      "▁sweden": 4253,
      "▁analog": 4254,
      "▁entered": 4255,
      "▁anthrop": 4256,
      "▁closed": 4257,
      "▁boston": 4258,
      "▁invasion": 4259,
      "▁devices": 4260,
      "▁closely": 4261,
      "##works": 4262,
      "##light": 4263,
      "##abor": 4264,
      "▁texts": 4265,
      "▁hydrogen": 4266,
      "▁pp": 4267,
      "▁bush": 4268,
      "▁mythology": 4269,
      "▁fru": 4270,
      "▁wid": 4271,
      "##arc": 4272,
      "##iced": 4273,
      "▁hur": 4274,
      "▁toward": 4275,
      "▁dimens": 4276,
      "▁beaut": 4277,
      "▁diplom": 4278,
      "▁removed": 4279,
      "▁afghanistan": 4280,
      "##atically": 4281,
      "▁marked": 4282,
      "▁bern": 4283,
      "▁killing": 4284,
      "▁corporation": 4285,
      "▁juris": 4286,
      "##orter": 4287,
      "▁fu": 4288,
      "▁conscious": 4289,
      "▁apollo": 4290,
      "##dr": 4291,
      "##ogen": 4292,
      "▁ages": 4293,
      "▁helped": 4294,
      "▁cha": 4295,
      "▁runs": 4296,
      "▁quantum": 4297,
      "▁infant": 4298,
      "▁hence": 4299,
      "▁slightly": 4300,
      "▁recip": 4301,
      "▁presidential": 4302,
      "▁wikip": 4303,
      "▁fixed": 4304,
      "▁kept": 4305,
      "▁judge": 4306,
      "▁attempted": 4307,
      "▁asked": 4308,
      "▁flor": 4309,
      "##gs": 4310,
      "▁plays": 4311,
      "▁dictionary": 4312,
      "##icate": 4313,
      "▁agreed": 4314,
      "▁connection": 4315,
      "▁cooper": 4316,
      "▁republican": 4317,
      "##ening": 4318,
      "##itan": 4319,
      "##ansas": 4320,
      "▁determined": 4321,
      "##war": 4322,
      "▁proced": 4323,
      "##ested": 4324,
      "▁dynam": 4325,
      "▁protestant": 4326,
      "▁lee": 4327,
      "##rence": 4328,
      "▁phase": 4329,
      "▁traditions": 4330,
      "▁buildings": 4331,
      "▁absol": 4332,
      "▁copyright": 4333,
      "##ounder": 4334,
      "▁communications": 4335,
      "▁controversial": 4336,
      "▁lithu": 4337,
      "▁luther": 4338,
      "▁none": 4339,
      "▁existing": 4340,
      "▁substant": 4341,
      "▁wis": 4342,
      "▁violence": 4343,
      "▁authors": 4344,
      "▁spiritual": 4345,
      "##erved": 4346,
      "▁formation": 4347,
      "▁concert": 4348,
      "▁purs": 4349,
      "##hamm": 4350,
      "▁cant": 4351,
      "##ancy": 4352,
      "▁marsh": 4353,
      "▁twenty": 4354,
      "▁thousands": 4355,
      "▁din": 4356,
      "▁resulted": 4357,
      "▁merc": 4358,
      "▁agriculture": 4359,
      "▁ol": 4360,
      "▁crus": 4361,
      "▁movies": 4362,
      "##ih": 4363,
      "##vere": 4364,
      "▁occurred": 4365,
      "##band": 4366,
      "▁discovery": 4367,
      "▁offered": 4368,
      "▁estimated": 4369,
      "▁weak": 4370,
      "▁heavily": 4371,
      "▁mir": 4372,
      "▁zone": 4373,
      "##iny": 4374,
      "▁comics": 4375,
      "▁cryst": 4376,
      "▁argue": 4377,
      "##zech": 4378,
      "##onym": 4379,
      "▁aspects": 4380,
      "▁cosm": 4381,
      "▁crime": 4382,
      "▁moral": 4383,
      "▁damage": 4384,
      "▁austrian": 4385,
      "▁ancest": 4386,
      "##rugg": 4387,
      "▁leadership": 4388,
      "▁ibm": 4389,
      "▁chair": 4390,
      "##orders": 4391,
      "▁governments": 4392,
      "##osphere": 4393,
      "##iana": 4394,
      "▁eliz": 4395,
      "▁factors": 4396,
      "▁caes": 4397,
      "▁combination": 4398,
      "▁shall": 4399,
      "▁room": 4400,
      "##cules": 4401,
      "▁advantage": 4402,
      "##aming": 4403,
      "▁manner": 4404,
      "▁disk": 4405,
      "##active": 4406,
      "▁novels": 4407,
      "▁fictional": 4408,
      "##inn": 4409,
      "▁forward": 4410,
      "▁ram": 4411,
      "▁affairs": 4412,
      "▁viet": 4413,
      "▁effort": 4414,
      "▁doctrine": 4415,
      "▁cars": 4416,
      "▁mail": 4417,
      "##box": 4418,
      "▁stay": 4419,
      "▁crick": 4420,
      "▁stal": 4421,
      "##andon": 4422,
      "▁hungary": 4423,
      "##arm": 4424,
      "▁category": 4425,
      "▁strugg": 4426,
      "▁withd": 4427,
      "▁coord": 4428,
      "▁opened": 4429,
      "▁holds": 4430,
      "▁ru": 4431,
      "▁leaving": 4432,
      "▁imag": 4433,
      "▁maced": 4434,
      "▁soldiers": 4435,
      "▁czech": 4436,
      "▁reports": 4437,
      "▁census": 4438,
      "▁reach": 4439,
      "##ropri": 4440,
      "▁territories": 4441,
      "▁cool": 4442,
      "##vant": 4443,
      "▁situ": 4444,
      "▁schem": 4445,
      "▁towns": 4446,
      "##ault": 4447,
      "▁formula": 4448,
      "##via": 4449,
      "▁abst": 4450,
      "▁reality": 4451,
      "▁theorem": 4452,
      "##kins": 4453,
      "▁pak": 4454,
      "▁desert": 4455,
      "##omorph": 4456,
      "▁manif": 4457,
      "▁origins": 4458,
      "▁gods": 4459,
      "▁defeated": 4460,
      "##bal": 4461,
      "▁anton": 4462,
      "▁factor": 4463,
      "▁annual": 4464,
      "▁picture": 4465,
      "▁tan": 4466,
      "▁lew": 4467,
      "▁maintain": 4468,
      "▁told": 4469,
      "▁chos": 4470,
      "▁concepts": 4471,
      "▁strip": 4472,
      "▁permanent": 4473,
      "▁teleph": 4474,
      "▁democracy": 4475,
      "▁constitutional": 4476,
      "▁core": 4477,
      "##orters": 4478,
      "▁explos": 4479,
      "▁nazi": 4480,
      "##roll": 4481,
      "▁professor": 4482,
      "▁jord": 4483,
      "▁abandon": 4484,
      "▁protocol": 4485,
      "▁topics": 4486,
      "▁testament": 4487,
      "##ato": 4488,
      "▁tried": 4489,
      "▁wikipedia": 4490,
      "##las": 4491,
      "▁fried": 4492,
      "##ado": 4493,
      "▁exclus": 4494,
      "##quar": 4495,
      "▁christmas": 4496,
      "##ella": 4497,
      "▁ray": 4498,
      "▁evil": 4499,
      "▁communication": 4500,
      "▁owners": 4501,
      "▁enjoy": 4502,
      "##iber": 4503,
      "▁vac": 4504,
      "▁statistics": 4505,
      "▁presented": 4506,
      "##uts": 4507,
      "▁spent": 4508,
      "▁opening": 4509,
      "▁normally": 4510,
      "▁subsequent": 4511,
      "▁beliefs": 4512,
      "▁bact": 4513,
      "▁ash": 4514,
      "▁sky": 4515,
      "▁identified": 4516,
      "▁false": 4517,
      "▁risk": 4518,
      "▁supply": 4519,
      "▁continues": 4520,
      "▁grew": 4521,
      "▁defeat": 4522,
      "▁details": 4523,
      "▁columbia": 4524,
      "▁inhabit": 4525,
      "▁ger": 4526,
      "▁clock": 4527,
      "▁actors": 4528,
      "▁shap": 4529,
      "▁drink": 4530,
      "▁goods": 4531,
      "▁institutions": 4532,
      "▁negot": 4533,
      "▁alexand": 4534,
      "▁currency": 4535,
      "▁expression": 4536,
      "▁wanted": 4537,
      "▁thing": 4538,
      "##imb": 4539,
      "##ifying": 4540,
      "▁pronounced": 4541,
      "▁learning": 4542,
      "##heast": 4543,
      "##ctors": 4544,
      "▁kl": 4545,
      "▁spect": 4546,
      "▁parad": 4547,
      "▁hardware": 4548,
      "▁creating": 4549,
      "▁administrative": 4550,
      "▁involve": 4551,
      "▁iran": 4552,
      "##iations": 4553,
      "▁kur": 4554,
      "▁arist": 4555,
      "▁leave": 4556,
      "▁lists": 4557,
      "▁indo": 4558,
      "▁subsequently": 4559,
      "##bury": 4560,
      "▁hypot": 4561,
      "▁plot": 4562,
      "▁goes": 4563,
      "##cons": 4564,
      "▁semi": 4565,
      "▁vice": 4566,
      "▁forum": 4567,
      "▁heaven": 4568,
      "▁match": 4569,
      "##ocks": 4570,
      "▁linux": 4571,
      "▁decades": 4572,
      "▁processes": 4573,
      "▁bodies": 4574,
      "▁machines": 4575,
      "▁message": 4576,
      "▁expressed": 4577,
      "▁tribes": 4578,
      "##ket": 4579,
      "▁goth": 4580,
      "▁meeting": 4581,
      "▁sides": 4582,
      "▁dv": 4583,
      "##icial": 4584,
      "##igen": 4585,
      "▁commod": 4586,
      "▁organized": 4587,
      "▁hyper": 4588,
      "▁movements": 4589,
      "▁angeles": 4590,
      "▁fash": 4591,
      "▁bil": 4592,
      "▁pages": 4593,
      "▁dry": 4594,
      "##oud": 4595,
      "▁fantasy": 4596,
      "▁ka": 4597,
      "##zo": 4598,
      "▁stad": 4599,
      "▁veget": 4600,
      "▁founder": 4601,
      "▁editor": 4602,
      "▁eye": 4603,
      "▁proof": 4604,
      "▁cultures": 4605,
      "▁roughly": 4606,
      "##iary": 4607,
      "##anding": 4608,
      "##ologies": 4609,
      "▁interpretation": 4610,
      "##icks": 4611,
      "▁pros": 4612,
      "▁arc": 4613,
      "▁alleged": 4614,
      "▁nas": 4615,
      "▁sacr": 4616,
      "##isf": 4617,
      "▁mode": 4618,
      "▁piece": 4619,
      "▁sle": 4620,
      "▁vast": 4621,
      "##agn": 4622,
      "▁historians": 4623,
      "▁questions": 4624,
      "▁policies": 4625,
      "##car": 4626,
      "▁gain": 4627,
      "▁orbit": 4628,
      "##abeth": 4629,
      "##oren": 4630,
      "##eland": 4631,
      "▁canon": 4632,
      "▁intellectual": 4633,
      "▁absolute": 4634,
      "▁input": 4635,
      "▁hay": 4636,
      "##zy": 4637,
      "▁ari": 4638,
      "▁fame": 4639,
      "▁jpg": 4640,
      "##ograp": 4641,
      "▁server": 4642,
      "▁positions": 4643,
      "▁steel": 4644,
      "▁mort": 4645,
      "▁len": 4646,
      "▁confir": 4647,
      "##rey": 4648,
      "##stream": 4649,
      "▁sty": 4650,
      "▁swedish": 4651,
      "▁parallel": 4652,
      "▁chosen": 4653,
      "▁crypt": 4654,
      "##uses": 4655,
      "##oty": 4656,
      "▁raised": 4657,
      "▁observed": 4658,
      "▁bru": 4659,
      "##opp": 4660,
      "▁atoms": 4661,
      "▁kilomet": 4662,
      "▁receive": 4663,
      "▁formerly": 4664,
      "▁susp": 4665,
      "▁astronom": 4666,
      "▁philosopher": 4667,
      "▁extin": 4668,
      "▁elim": 4669,
      "▁shortly": 4670,
      "▁brothers": 4671,
      "▁resistance": 4672,
      "▁pakistan": 4673,
      "▁translated": 4674,
      "▁shape": 4675,
      "▁database": 4676,
      "##ano": 4677,
      "▁plane": 4678,
      "▁crew": 4679,
      "▁chapter": 4680,
      "▁tower": 4681,
      "▁bear": 4682,
      "▁parents": 4683,
      "##ety": 4684,
      "▁files": 4685,
      "▁extent": 4686,
      "▁considerable": 4687,
      "▁archae": 4688,
      "▁analy": 4689,
      "▁mobile": 4690,
      "▁sud": 4691,
      "▁tub": 4692,
      "▁want": 4693,
      "▁strict": 4694,
      "▁regarding": 4695,
      "▁captain": 4696,
      "##rid": 4697,
      "▁greatly": 4698,
      "▁proceed": 4699,
      "▁clar": 4700,
      "▁sister": 4701,
      "▁rum": 4702,
      "▁studied": 4703,
      "▁marg": 4704,
      "▁genes": 4705,
      "▁transportation": 4706,
      "▁ion": 4707,
      "▁sab": 4708,
      "▁rub": 4709,
      "▁railway": 4710,
      "▁bos": 4711,
      "▁mcc": 4712,
      "▁blues": 4713,
      "##ees": 4714,
      "##ache": 4715,
      "▁persian": 4716,
      "▁equation": 4717,
      "▁characteristics": 4718,
      "▁municip": 4719,
      "##stone": 4720,
      "▁proport": 4721,
      "##oral": 4722,
      "▁plate": 4723,
      "▁needs": 4724,
      "▁failure": 4725,
      "##cont": 4726,
      "▁courts": 4727,
      "▁ordered": 4728,
      "▁chemistry": 4729,
      "▁revolutionary": 4730,
      "▁eld": 4731,
      "▁adapt": 4732,
      "▁sovere": 4733,
      "▁respectively": 4734,
      "▁sovereign": 4735,
      "##greg": 4736,
      "▁johnson": 4737,
      "▁economics": 4738,
      "▁cow": 4739,
      "▁owned": 4740,
      "▁bang": 4741,
      "##unc": 4742,
      "▁rates": 4743,
      "▁suff": 4744,
      "▁asian": 4745,
      "▁cris": 4746,
      "▁projects": 4747,
      "▁femin": 4748,
      "▁philosophical": 4749,
      "##house": 4750,
      "▁peoples": 4751,
      "##olis": 4752,
      "▁chain": 4753,
      "▁minutes": 4754,
      "▁divine": 4755,
      "▁rivers": 4756,
      "▁symbols": 4757,
      "▁straight": 4758,
      "▁jacob": 4759,
      "##char": 4760,
      "▁fashion": 4761,
      "▁wides": 4762,
      "##iring": 4763,
      "##fully": 4764,
      "▁practical": 4765,
      "▁settlement": 4766,
      "▁criminal": 4767,
      "▁exhib": 4768,
      "▁relation": 4769,
      "▁mes": 4770,
      "▁hosp": 4771,
      "##lywood": 4772,
      "▁accur": 4773,
      "▁medium": 4774,
      "##etics": 4775,
      "##umin": 4776,
      "▁covered": 4777,
      "▁awarded": 4778,
      "▁fro": 4779,
      "▁seats": 4780,
      "▁supposed": 4781,
      "▁launched": 4782,
      "##inity": 4783,
      "##rel": 4784,
      "##iger": 4785,
      "▁reven": 4786,
      "▁neither": 4787,
      "##inton": 4788,
      "▁carol": 4789,
      "▁finn": 4790,
      "▁representation": 4791,
      "▁solar": 4792,
      "▁chronic": 4793,
      "▁hindu": 4794,
      "▁sail": 4795,
      "##cts": 4796,
      "▁naval": 4797,
      "▁crow": 4798,
      "▁refused": 4799,
      "##gar": 4800,
      "▁cm": 4801,
      "▁ends": 4802,
      "▁feat": 4803,
      "▁tenn": 4804,
      "▁andrew": 4805,
      "▁easy": 4806,
      "▁wales": 4807,
      "▁ah": 4808,
      "▁cine": 4809,
      "▁mist": 4810,
      "▁compr": 4811,
      "▁whereas": 4812,
      "▁concer": 4813,
      "▁narrow": 4814,
      "▁doug": 4815,
      "##lem": 4816,
      "▁harm": 4817,
      "▁describes": 4818,
      "##cop": 4819,
      "▁arrest": 4820,
      "▁install": 4821,
      "▁harmon": 4822,
      "▁deriv": 4823,
      "▁principal": 4824,
      "##itzer": 4825,
      "▁dj": 4826,
      "##osl": 4827,
      "▁korea": 4828,
      "▁satellite": 4829,
      "##ceived": 4830,
      "▁defend": 4831,
      "▁phon": 4832,
      "▁jordan": 4833,
      "▁fasc": 4834,
      "▁bann": 4835,
      "▁mental": 4836,
      "▁academic": 4837,
      "▁darwin": 4838,
      "▁noun": 4839,
      "▁indones": 4840,
      "▁multi": 4841,
      "▁cou": 4842,
      "▁coming": 4843,
      "▁comedy": 4844,
      "▁sufficient": 4845,
      "▁mah": 4846,
      "▁electro": 4847,
      "▁battles": 4848,
      "▁ille": 4849,
      "▁myster": 4850,
      "▁processing": 4851,
      "▁mixed": 4852,
      "▁drugs": 4853,
      "▁pieces": 4854,
      "▁jurisd": 4855,
      "▁label": 4856,
      "▁felt": 4857,
      "▁strength": 4858,
      "##clusion": 4859,
      "▁producer": 4860,
      "▁occasionally": 4861,
      "▁storage": 4862,
      "##akh": 4863,
      "▁register": 4864,
      "▁snow": 4865,
      "▁purposes": 4866,
      "##ompan": 4867,
      "▁mathb": 4868,
      "▁ein": 4869,
      "▁unc": 4870,
      "▁leon": 4871,
      "##oman": 4872,
      "##utation": 4873,
      "▁anything": 4874,
      "##isher": 4875,
      "▁bron": 4876,
      "▁ken": 4877,
      "▁newton": 4878,
      "▁victim": 4879,
      "▁occupied": 4880,
      "▁repeated": 4881,
      "##uous": 4882,
      "▁accompan": 4883,
      "▁patri": 4884,
      "▁index": 4885,
      "▁electrical": 4886,
      "▁saying": 4887,
      "▁interpre": 4888,
      "▁binary": 4889,
      "▁dict": 4890,
      "▁plans": 4891,
      "##ipped": 4892,
      "▁pictures": 4893,
      "▁enemy": 4894,
      "▁isol": 4895,
      "▁transition": 4896,
      "▁radical": 4897,
      "▁inhabitants": 4898,
      "▁bw": 4899,
      "##osexual": 4900,
      "▁explor": 4901,
      "▁village": 4902,
      "▁rational": 4903,
      "▁granted": 4904,
      "▁persons": 4905,
      "▁layer": 4906,
      "##oured": 4907,
      "▁huge": 4908,
      "▁lot": 4909,
      "▁scand": 4910,
      "▁degrees": 4911,
      "▁fifth": 4912,
      "▁dialects": 4913,
      "▁challen": 4914,
      "▁bure": 4915,
      "▁grant": 4916,
      "▁michigan": 4917,
      "▁weeks": 4918,
      "▁speakers": 4919,
      "##iat": 4920,
      "##pread": 4921,
      "▁ine": 4922,
      "▁sector": 4923,
      "▁ie": 4924,
      "▁artific": 4925,
      "▁descend": 4926,
      "▁selected": 4927,
      "▁festival": 4928,
      "▁widespread": 4929,
      "▁gay": 4930,
      "##ette": 4931,
      "▁magnetic": 4932,
      "▁cav": 4933,
      "▁pian": 4934,
      "▁alliance": 4935,
      "▁joint": 4936,
      "▁commonwe": 4937,
      "▁babyl": 4938,
      "##ena": 4939,
      "▁train": 4940,
      "▁peak": 4941,
      "▁apost": 4942,
      "##gu": 4943,
      "##itarian": 4944,
      "▁legislative": 4945,
      "##ras": 4946,
      "##aling": 4947,
      "▁density": 4948,
      "▁kg": 4949,
      "▁unus": 4950,
      "##ogue": 4951,
      "▁determine": 4952,
      "▁commonwealth": 4953,
      "##order": 4954,
      "▁affect": 4955,
      "▁platform": 4956,
      "▁someone": 4957,
      "▁freder": 4958,
      "▁sword": 4959,
      "▁similarly": 4960,
      "▁influential": 4961,
      "▁visual": 4962,
      "▁achieved": 4963,
      "▁random": 4964,
      "▁isa": 4965,
      "##ading": 4966,
      "▁traffic": 4967,
      "▁particles": 4968,
      "▁hitler": 4969,
      "##gi": 4970,
      "▁om": 4971,
      "▁dispute": 4972,
      "##tes": 4973,
      "▁column": 4974,
      "▁elizabeth": 4975,
      "##ped": 4976,
      "▁advert": 4977,
      "▁teach": 4978,
      "▁supporters": 4979,
      "▁entertain": 4980,
      "▁homosexual": 4981,
      "▁newspaper": 4982,
      "▁explan": 4983,
      "▁sevent": 4984,
      "##tery": 4985,
      "##ellow": 4986,
      "▁salv": 4987,
      "▁awards": 4988,
      "▁houses": 4989,
      "##ani": 4990,
      "▁hoc": 4991,
      "▁deliver": 4992,
      "▁gospel": 4993,
      "##lers": 4994,
      "▁hour": 4995,
      "▁gulf": 4996,
      "▁teaching": 4997,
      "▁worldwide": 4998,
      "▁orders": 4999
    }
  }
}