<unk>	0
<s>	0
</s>	0
▁	-3.12544
.	-3.14814
,	-3.58498
▁ja	-3.82968
n	-3.94475
a	-4.41384
▁on	-4.52395
-	-4.53433
t	-4.82479
	-4.92018
in	-4.96552
▁oli	-5.08461
	-5.18813
en	-5.26431
▁hän	-5.27148
s	-5.49279
▁vuonna	-5.50266
ssa	-5.53635
	-5.56416
an	-5.57028
sta	-5.59678
▁(	-5.66168
▁myös	-5.75872
)	-5.79766
	-5.87925
:	-5.88426
ta	-5.90174
▁se	-5.99264
ä	-6.0282
▁joka	-6.09791
lle	-6.10269
na	-6.1082
ksi	-6.11422
lla	-6.16542
▁ei	-6.20906
i	-6.26634
▁ovat	-6.29274
▁mutta	-6.29329
▁sekä	-6.32165
▁sen	-6.32604
ja	-6.35473
▁että	-6.39536
e	-6.44217
▁tai	-6.45517
▁hänen	-6.52874
▁kanssa	-6.53416
on	-6.55082
▁jälkeen	-6.56058
kin	-6.66333
issa	-6.70639
ista	-6.72626
▁vuoden	-6.75407
▁-	-6.78613
▁kun	-6.79066
o	-6.83144
ssä	-6.85525
stä	-6.85585
et	-6.85775
ia	-6.86328
sa	-6.87828
▁mukaan	-6.90128
▁jonka	-6.90195
vat	-6.92626
▁jossa	-6.94547
▁sai	-6.94578
▁suomen	-6.96413
nsa	-6.97995
▁toimi	-6.98463
▁olivat	-7.02544
▁kuitenkin	-7.03299
jen	-7.04341
▁"	-7.04624
nen	-7.0748
ten	-7.07711
▁jo	-7.09326
▁muun	-7.09834
tä	-7.11052
ille	-7.11772
▁tuli	-7.12981
▁kuin	-7.13785
▁noin	-7.15033
y	-7.15714
llä	-7.15791
u	-7.17114
▁muassa	-7.17667
▁”	-7.19175
▁kaksi	-7.19587
us	-7.19994
▁aikana	-7.21579
▁ollut	-7.21664
▁hänet	-7.24663
iin	-7.25159
▁eli	-7.25894
sen	-7.26306
▁lisäksi	-7.26385
▁he	-7.26486
▁ole	-7.26577
▁vuosina	-7.27895
▁voi	-7.28723
▁vain	-7.2898
si	-7.32724
▁yli	-7.33276
la	-7.34208
m	-7.34914
▁myöhemmin	-7.35615
▁–	-7.35968
k	-7.36278
▁jotka	-7.36812
d	-7.36821
illa	-7.37863
sti	-7.38385
inen	-7.38524
).	-7.38858
▁teki	-7.40055
nä	-7.43343
▁ne	-7.43669
▁osa	-7.44031
luvun	-7.44072
▁the	-7.44299
"	-7.45141
un	-7.45654
▁vastaan	-7.46169
luvulla	-7.48134
h	-7.48564
▁eri	-7.4873
maan	-7.48825
▁kuten	-7.50385
▁ennen	-7.50395
▁esimerkiksi	-7.50438
lta	-7.50767
),	-7.52532
▁yksi	-7.52888
▁tämän	-7.52989
▁voitti	-7.53511
▁de	-7.55788
▁sitä	-7.56018
ko	-7.56953
c	-7.57617
▁koko	-7.5869
l	-7.59168
”	-7.60935
▁pelasi	-7.61327
ne	-7.61904
minen	-7.62544
iden	-7.62931
ke	-7.63206
▁000	-7.63636
än	-7.63738
▁pää	-7.64964
g	-7.65451
▁ensimmäinen	-7.66282
ti	-7.66614
▁kauden	-7.66752
den	-7.67049
nut	-7.67367
te	-7.67777
▁jolloin	-7.69586
▁mm	-7.69795
▁siirtyi	-7.70013
ma	-7.70587
▁ensimmäisen	-7.71057
va	-7.71952
▁vuodesta	-7.72171
er	-7.72357
▁sillä	-7.73072
ka	-7.73154
ita	-7.7384
ki	-7.7425
r	-7.74406
it	-7.76655
▁metriä	-7.76766
sin	-7.7689
ihin	-7.77
to	-7.77462
▁niin	-7.77471
▁suomessa	-7.77504
▁koska	-7.78808
ri	-7.80321
▁kolme	-7.80827
is	-7.82174
de	-7.82916
▁kaudella	-7.83054
▁la	-7.84526
istä	-7.84534
▁tämä	-7.85307
essa	-7.85434
▁vielä	-7.86318
tti	-7.87138
kseen	-7.88019
le	-7.88053
▁kaupungin	-7.89242
vät	-7.89554
neet	-7.89683
▁siitä	-7.90241
▁alkoi	-7.90437
man	-7.90707
▁sijaitsee	-7.90755
▁saa	-7.91147
'	-7.91683
▁pohjois	-7.92365
▁vasta	-7.92511
▁vuotta	-7.92523
▁voidaan	-7.92937
re	-7.92943
▁alus	-7.93881
▁olla	-7.93982
▁usein	-7.94083
▁helsingin	-7.94416
p	-7.94916
▁of	-7.95603
een	-7.95954
da	-7.9624
▁hyvin	-7.96334
jä	-7.96932
tta	-7.97454
b	-7.97683
f	-7.99236
/	-8.00032
sä	-8.00436
v	-8.00456
;	-8.00516
▁jota	-8.01005
▁kaikki	-8.01665
▁aloitti	-8.02005
▁suomalainen	-8.02174
▁kautta	-8.02397
▁al	-8.02492
ni	-8.03272
▁etelä	-8.03745
lainen	-8.04643
▁maan	-8.05152
lan	-8.05179
issä	-8.05207
▁vaikka	-8.05921
pa	-8.05933
tu	-8.06029
▁eivät	-8.06335
▁m	-8.07095
▁ha	-8.07714
▁vuoksi	-8.08284
ra	-8.08623
se	-8.09418
▁b	-8.09428
▁olisi	-8.10559
▁ajan	-8.10957
iksi	-8.10964
▁keski	-8.11919
▁s	-8.1195
▁toinen	-8.12035
▁i	-8.12411
▁itse	-8.12968
misen	-8.13625
’	-8.13985
ton	-8.14304
aan	-8.1461
▁uusi	-8.14975
▁yleensä	-8.15047
▁mukana	-8.15655
ku	-8.15891
▁alueella	-8.16141
▁useita	-8.16224
▁1	-8.16348
▁lopulta	-8.16354
▁maa	-8.16395
▁jos	-8.16461
mi	-8.16669
▁k	-8.17149
–	-8.17346
▁toisen	-8.18212
▁syntyi	-8.18602
▁17	-8.19079
▁kuuluu	-8.19394
ty	-8.19513
▁niiden	-8.19615
▁maailman	-8.19715
▁josta	-8.19925
▁2	-8.2005
z	-8.20576
tin	-8.20686
▁nimi	-8.21279
▁alussa	-8.21307
isen	-8.2191
▁elokuva	-8.22127
no	-8.23361
▁uuden	-8.23456
▁eikä	-8.23537
▁pitkä	-8.2368
▁15	-8.23947
ro	-8.24052
neen	-8.24267
van	-8.24338
▁yhdessä	-8.24607
▁3	-8.24669
▁suuri	-8.24929
▁jäi	-8.25065
▁olevan	-8.25229
▁neljä	-8.25249
ala	-8.25507
­	-8.25528
▁heidän	-8.26017
mista	-8.26516
miseen	-8.26538
mo	-8.27239
nsä	-8.2724
▁ala	-8.27537
▁vuoteen	-8.27555
ttu	-8.27589
ve	-8.27596
▁asti	-8.27948
al	-8.27968
▁joista	-8.28006
x	-8.28252
▁työ	-8.28417
li	-8.28759
▁historia	-8.28774
▁sm	-8.29122
▁yhden	-8.29447
▁c	-8.29478
uksen	-8.29581
▁paljon	-8.29648
▁new	-8.29711
di	-8.2994
taan	-8.30308
▁samalla	-8.30419
▁mikä	-8.30494
ksen	-8.31524
▁suurin	-8.31831
vi	-8.31974
iä	-8.3272
isia	-8.32897
▁lähes	-8.33048
▁kertaa	-8.33619
▁palasi	-8.33642
▁siihen	-8.33988
▁aina	-8.3423
▁o	-8.34589
▁maaliskuuta	-8.34842
▁alueen	-8.35314
▁kuoli	-8.35336
▁valittiin	-8.35577
▁kerran	-8.35946
ttiin	-8.35992
▁16	-8.36047
▁käytetään	-8.36161
ttä	-8.36219
▁10	-8.36465
os	-8.36704
yn	-8.3689
▁kesäkuuta	-8.36928
▁vaan	-8.37307
elle	-8.3744
▁4	-8.37507
es	-8.38186
▁me	-8.38216
▁muita	-8.38294
▁tammikuuta	-8.3832
sia	-8.38323
▁toukokuuta	-8.3852
▁sodan	-8.38766
▁5	-8.38778
▁nousi	-8.38917
▁huhtikuuta	-8.39169
sten	-8.39203
esta	-8.39335
▁2010	-8.39392
▁sota	-8.3942
llinen	-8.39483
me	-8.39523
ilta	-8.39786
kan	-8.39797
▁lokakuuta	-8.40148
▁joulukuuta	-8.40357
▁1.	-8.40636
▁järven	-8.40952
▁syyskuuta	-8.41018
▁itä	-8.41228
1	-8.41496
j	-8.41497
▁heinäkuuta	-8.41574
po	-8.42094
▁venäjän	-8.43084
ään	-8.43089
▁julkaistiin	-8.43233
▁p	-8.43297
▁takaisin	-8.4365
▁valmistui	-8.4368
▁häntä	-8.44336
▁jopa	-8.44562
▁helmikuuta	-8.44629
▁kaupunki	-8.44761
▁2009	-8.44891
hin	-8.45107
▁osallistui	-8.4532
▁koulu	-8.45355
seen	-8.45518
▁elokuuta	-8.45591
▁marraskuuta	-8.45601
▁g	-8.45643
▁20	-8.45819
▁erityisesti	-8.45848
▁saakka	-8.46087
▁edelleen	-8.46386
▁kuitenkaan	-8.46489
▁nimellä	-8.46723
joen	-8.4683
▁2011	-8.47025
▁julkaisi	-8.47161
▁lähtien	-8.47396
▁sitten	-8.47518
eksi	-8.47601
▁2008	-8.47602
▁f	-8.48085
kka	-8.4817
▁2006	-8.48227
▁yhdysvaltain	-8.48621
do	-8.48775
▁ura	-8.48934
2	-8.49102
▁v	-8.49184
▁käyttää	-8.49355
▁alle	-8.49386
▁saksan	-8.49536
ina	-8.49586
▁avulla	-8.49636
▁2007	-8.50124
▁välillä	-8.50422
▁2012	-8.50677
▁seura	-8.50739
▁kilometriä	-8.50822
w	-8.51062
▁e	-8.51166
▁joutui	-8.5145
ha	-8.5165
▁re	-8.51664
ar	-8.51753
pi	-8.5176
▁tulee	-8.51815
▁siellä	-8.51826
ltä	-8.52083
▁muiden	-8.52147
▁vesi	-8.5248
▁taas	-8.53081
▁d	-8.53117
▁joissa	-8.53729
▁saanut	-8.53926
▁perustettiin	-8.53977
▁to	-8.54191
▁joiden	-8.54309
ge	-8.54502
järven	-8.54695
▁oy	-8.54708
▁uudelleen	-8.5478
ella	-8.55206
▁euroopan	-8.55439
iset	-8.55524
▁iso	-8.55555
".	-8.55574
isten	-8.55608
▁jolla	-8.55608
▁ranskan	-8.55609
▁kuului	-8.55727
▁muut	-8.55933
mis	-8.55972
▁2014	-8.56036
ga	-8.56165
▁pinta	-8.5634
”.	-8.56527
▁kirkko	-8.56716
lin	-8.57436
▁viisi	-8.57523
▁peli	-8.57629
ho	-8.57659
▁kulttuuri	-8.57693
hi	-8.57771
▁le	-8.57792
malla	-8.58021
pe	-8.58117
son	-8.5824
▁toimii	-8.58307
▁ii	-8.58916
▁2013	-8.59007
▁jää	-8.59253
nyt	-8.59716
maa	-8.59884
tus	-8.60023
ck	-8.60082
▁yhtyeen	-8.60097
isi	-8.6023
▁näin	-8.60416
▁aikaan	-8.60552
illä	-8.6059
▁2015	-8.61077
▁aluksi	-8.6119
▁alue	-8.61267
▁sijoittui	-8.61381
▁yhtye	-8.61998
isiin	-8.62009
go	-8.6211
▁ilman	-8.62296
▁pian	-8.62418
järvi	-8.62638
ven	-8.6275
jo	-8.63093
▁12	-8.63431
▁(19	-8.64006
▁eaa	-8.64064
rin	-8.64368
▁niitä	-8.64714
▁arvo	-8.64773
kki	-8.64848
▁länsi	-8.6489
▁joukkueen	-8.65235
▁kahden	-8.65312
▁takia	-8.65778
▁kunnes	-8.65872
kon	-8.65917
▁auto	-8.66086
▁oma	-8.66256
▁minkä	-8.66731
▁ruotsin	-8.66833
essä	-8.66873
▁alkaen	-8.66891
vo	-8.67203
set	-8.67328
▁ku	-8.67415
lu	-8.67583
▁myötä	-8.67584
▁joita	-8.67591
▁pois	-8.67603
▁aiemmin	-8.68107
ter	-8.68196
▁toiminta	-8.68222
▁jälleen	-8.68342
▁meri	-8.68356
vuotiaana	-8.6837
▁2005	-8.68545
▁j	-8.68799
▁käyttö	-8.68876
▁koti	-8.68935
el	-8.69221
▁pa	-8.69661
▁h	-8.69734
din	-8.69786
▁ka	-8.69866
▁toiminut	-8.70126
▁määrä	-8.70217
▁muutti	-8.70387
ien	-8.70644
▁turun	-8.70748
▁lu	-8.70865
▁piti	-8.70877
staan	-8.70903
▁hms	-8.7098
▁pe	-8.71273
▁miljoonaa	-8.71435
▁jäsen	-8.71495
ba	-8.7183
▁metrin	-8.7231
▁kirkon	-8.72515
▁siinä	-8.72664
▁oman	-8.72665
▁2016	-8.7286
▁aika	-8.73233
▁joten	-8.7342
▁pääsi	-8.73601
▁yhteensä	-8.73605
▁sisä	-8.73652
▁työskenteli	-8.73704
▁kuningas	-8.74061
▁enää	-8.74072
▁ensi	-8.74097
▁alun	-8.74415
▁poika	-8.74749
▁enemmän	-8.74782
▁kirjoitti	-8.74786
via	-8.74899
at	-8.74969
▁kuusi	-8.75104
su	-8.75231
3	-8.75294
▁%	-8.75355
▁johon	-8.754
▁kuva	-8.75471
▁perusti	-8.75565
▁monet	-8.75766
▁john	-8.75796
ch	-8.75905
▁2004	-8.76054
▁nykyään	-8.7614
▁yhteydessä	-8.76357
lo	-8.76359
▁pitää	-8.76431
▁varten	-8.7647
▁7	-8.7648
ön	-8.76579
▁opiskeli	-8.76775
▁ko	-8.76783
▁8	-8.76952
▁saman	-8.7698
▁l	-8.77013
siin	-8.77064
▁di	-8.77152
ed	-8.77267
▁jatkoi	-8.77319
kaan	-8.7746
▁nykyisin	-8.77656
▁paras	-8.77808
▁kivi	-8.77848
▁tunnetaan	-8.77863
▁yliopiston	-8.78012
▁and	-8.78344
▁kirja	-8.78443
▁kansan	-8.78511
▁seuran	-8.7873
▁käyttöön	-8.78977
ing	-8.7932
▁otti	-8.79389
massa	-8.79483
▁alku	-8.79527
▁keskus	-8.7984
▁6	-8.7986
▁suur	-8.7987
▁2017	-8.79884
mme	-8.80371
▁väli	-8.80498
▁samana	-8.80599
▁tätä	-8.8065
▁yhdysvalloissa	-8.80776
▁no	-8.80846
▁r	-8.80918
▁mo	-8.81096
▁w	-8.81163
der	-8.81436
▁30	-8.81452
▁toiseksi	-8.81545
▁perin	-8.81557
▁puu	-8.81893
▁hänellä	-8.82215
▁musiikki	-8.82247
▁ri	-8.82384
▁valtion	-8.8241
pu	-8.82566
▁pieni	-8.82596
▁ottelua	-8.82994
▁laji	-8.83041
tettiin	-8.83085
ju	-8.83436
tiin	-8.8366
ry	-8.83743
5	-8.841
ver	-8.84132
–19	-8.8439
▁levy	-8.84491
▁hänelle	-8.84541
min	-8.84581
▁perus	-8.84623
▁liittyi	-8.84781
▁ase	-8.84977
▁siirrettiin	-8.85086
mään	-8.85137
▁missä	-8.85251
▁sivu	-8.85369
teen	-8.85375
▁elokuvan	-8.85415
▁johti	-8.85424
▁100	-8.85548
▁14	-8.85573
▁lopulla	-8.85575
▁metsä	-8.85598
▁san	-8.85622
▁co	-8.8593
kilpailuissa	-8.85973
▁kylä	-8.86
▁rakennus	-8.86615
▁po	-8.86735
ltaan	-8.86753
▁pituus	-8.86794
▁ilma	-8.86831
▁radio	-8.86895
▁kar	-8.87013
▁sarjan	-8.874
mpi	-8.87463
▁kaudeksi	-8.87469
▁ottelussa	-8.87491
▁em	-8.87696
▁joukkue	-8.87726
▁seuraavana	-8.87821
▁olleet	-8.87827
▁taistelu	-8.87854
▁mu	-8.87935
▁läpi	-8.88119
▁ääni	-8.88124
▁vara	-8.88162
▁ulko	-8.88236
▁per	-8.88325
▁lähti	-8.88748
▁esiintyi	-8.88788
▁so	-8.88801
▁urheilu	-8.8898
▁valtio	-8.8917
lä	-8.89209
▁uransa	-8.89311
itä	-8.89446
▁2.	-8.89569
▁tuolloin	-8.89604
▁bo	-8.89615
▁lo	-8.89662
▁13	-8.89756
▁loppu	-8.89847
▁sähkö	-8.89892
vä	-8.90346
▁lähellä	-8.9053
estä	-8.90556
▁isä	-8.908
▁prosenttia	-8.90881
▁mar	-8.9101
▁vi	-8.91047
▁hänestä	-8.91113
misesta	-8.91178
▁rakennettiin	-8.91265
▁suuren	-8.91339
co	-8.9135
pää	-8.91359
▁kauppa	-8.91365
▁musta	-8.91587
▁kesällä	-8.91927
▁nhl	-8.92026
▁yliopistossa	-8.92108
▁ar	-8.92268
gi	-8.92464
▁ettei	-8.92567
▁juuri	-8.92577
▁11	-8.9258
▁voivat	-8.92802
laiset	-8.92998
▁sa	-8.93058
▁u	-8.93063
han	-8.93337
uksia	-8.93767
▁2000	-8.93943
▁tammikuussa	-8.93992
▁aikaa	-8.94256
▁ma	-8.94468
▁sotilas	-8.94538
–18	-8.94764
▁2003	-8.94905
kä	-8.94947
▁tehtiin	-8.95029
▁valuma	-8.95097
▁luo	-8.95257
▁hi	-8.95386
so	-8.95431
be	-8.95532
▁saavutti	-8.95784
th	-8.95972
▁järvi	-8.96001
▁pro	-8.96243
▁maailmansodan	-8.96491
▁9	-8.9651
oksen	-8.96543
▁(18	-8.96841
berg	-8.96892
▁kävi	-8.96892
▁tuo	-8.96985
▁ra	-8.97105
▁antoi	-8.97127
▁näyttelijä	-8.97189
ru	-8.97396
tie	-8.97431
▁ry	-8.97433
▁nimitettiin	-8.97559
▁kertoo	-8.97656
▁kirjailija	-8.97704
je	-8.9775
▁kansallis	-8.97779
alueen	-8.98071
ca	-8.9811
▁huolimatta	-8.98247
▁ro	-8.98294
▁vapaa	-8.98333
mä	-8.98357
bo	-8.98374
▁van	-8.98587
ly	-8.98695
▁ensimmäiset	-8.987
▁2002	-8.98728
▁helsinki	-8.98766
or	-8.99014
▁ca	-8.99025
▁muuta	-8.99045
▁leveä	-8.99068
▁hieman	-8.99105
▁tunnettu	-8.99327
▁fa	-8.99354
▁cm	-8.99933
bi	-8.99953
▁nämä	-9.00015
▁isänsä	-9.00018
▁perhe	-9.00042
▁pari	-9.00078
▁ensin	-9.00312
4	-9.00715
▁von	-9.00806
laisen	-9.00971
▁puolestaan	-9.00974
▁50	-9.01174
vin	-9.01216
▁tutkimus	-9.01416
▁as	-9.01421
ssaan	-9.01429
▁edusti	-9.01482
▁korkea	-9.0149
he	-9.01684
▁1980-	-9.01775
▁bar	-9.01821
▁saivat	-9.01955
",	-9.02009
▁su	-9.02108
alue	-9.02153
mistä	-9.02504
▁tästä	-9.02656
men	-9.02661
▁päätti	-9.02697
um	-9.02823
▁lähinnä	-9.02907
▁1970-	-9.02934
▁hallituksen	-9.02948
▁2018	-9.02949
▁puoli	-9.0304
vien	-9.03123
▁yhtä	-9.03162
▁har	-9.03187
▁julkaistu	-9.03251
kko	-9.03346
ce	-9.03383
laisten	-9.03479
▁sijaan	-9.03679
▁kahdeksan	-9.0371
▁oikeus	-9.0405
yhdysvaltalainen	-9.04154
▁lento	-9.0418
ajan	-9.04244
▁1800-	-9.04332
▁esiintyy	-9.04369
▁ru	-9.04605
ski	-9.04669
sarjan	-9.047
▁paino	-9.04746
▁oleva	-9.04945
ran	-9.04993
isesti	-9.05072
ura	-9.05073
▁3.	-9.0519
▁pelaaja	-9.05205
▁rakennettu	-9.05214
▁talous	-9.05307
▁sopimuksen	-9.05316
▁tieto	-9.05352
▁etu	-9.05427
▁2001	-9.05463
▁epä	-9.05472
tun	-9.05543
mia	-9.05604
▁alkaa	-9.05694
▁käytettiin	-9.05795
▁pu	-9.06033
▁kymmenen	-9.06033
▁seitsemän	-9.06217
▁raja	-9.06242
▁seurauksena	-9.06311
▁ni	-9.06325
sto	-9.06402
▁albumi	-9.06577
▁500	-9.06815
▁siten	-9.06863
▁tehty	-9.06948
▁tuotanto	-9.07253
▁da	-9.07288
sarjassa	-9.07349
▁mitä	-9.07365
”,	-9.07525
▁kohti	-9.07688
▁1960-	-9.07751
▁henkilö	-9.07757
▁x	-9.07804
oja	-9.07923
lleen	-9.07943
▁erikois	-9.0801
▁sala	-9.08199
▁ilmoitti	-9.08329
▁hallitus	-9.08532
▁presidentti	-9.08588
▁40	-9.08831
▁joulukuussa	-9.08901
▁tu	-9.08929
▁200	-9.09218
▁du	-9.09323
▁moni	-9.09367
mu	-9.09547
▁käytetty	-9.09558
▁tarkoittaa	-9.09563
▁vanha	-9.09657
▁au	-9.09727
▁valta	-9.09783
▁sittemmin	-9.09914
▁km	-9.09955
▁keväällä	-9.1007
▁val	-9.1014
dan	-9.10159
▁st	-9.1033
▁25	-9.10392
▁ab	-9.10431
▁tie	-9.10496
▁päättyi	-9.10772
▁taka	-9.11092
kar	-9.11111
▁elokuvassa	-9.11348
▁nopeasti	-9.11457
ys	-9.11571
▁ali	-9.11648
▁taide	-9.11656
▁suo	-9.11724
▁&	-9.11834
mies	-9.11845
▁kieli	-9.11935
▁lokakuussa	-9.1202
▁vuosi	-9.12092
▁silloin	-9.12106
▁saada	-9.12141
ur	-9.12198
▁ajoi	-9.12248
▁be	-9.12327
0	-9.12361
▁tehdä	-9.12377
▁teatteri	-9.12452
▁yleis	-9.12574
▁ainoa	-9.12644
hu	-9.12764
▁väri	-9.12774
llaan	-9.12827
ger	-9.13073
▁el	-9.13173
▁1990-	-9.13182
▁tehnyt	-9.13261
fi	-9.13265
▁tampereen	-9.1328
miseksi	-9.13294
▁mennessä	-9.1344
▁marraskuussa	-9.13723
▁tullut	-9.13885
dy	-9.13908
mäki	-9.13952
▁osan	-9.13968
▁puolue	-9.13991
▁lehti	-9.14048
▁ver	-9.14117
▁käytössä	-9.14312
▁syksyllä	-9.14405
▁toukokuussa	-9.14427
▁1999	-9.14448
▁maaliskuussa	-9.14488
▁aluksen	-9.14493
uus	-9.14546
▁elokuussa	-9.14552
ppi	-9.14683
▁neuvostoliiton	-9.1477
▁pidetään	-9.14859
▁ilmestyi	-9.14989
▁yhä	-9.15153
mon	-9.15166
▁joko	-9.15347
kas	-9.15421
▁kausi	-9.15534
▁perusteella	-9.15585
▁sarja	-9.1597
▁lasten	-9.15976
▁lähi	-9.16091
▁oppi	-9.16125
▁ainakin	-9.1614
▁ju	-9.16212
▁esi	-9.16229
▁niistä	-9.16373
▁naisten	-9.16399
▁pi	-9.16434
▁kokonaan	-9.16609
▁näiden	-9.16663
▁päivänä	-9.1694
▁kuuluvat	-9.17007
ili	-9.1705
▁suomi	-9.17055
▁joskus	-9.17069
laisia	-9.17213
talo	-9.17226
▁merkittävä	-9.17321
joukkue	-9.17331
▁mestaruuden	-9.1736
il	-9.17525
joki	-9.1754
▁kolmen	-9.17577
▁vuosien	-9.17586
▁kilometrin	-9.17618
▁kai	-9.1767
tuksen	-9.18002
▁for	-9.18193
▁laulu	-9.18357
▁ensimmäistä	-9.18477
▁professori	-9.18489
▁samaan	-9.18499
▁ylä	-9.18785
▁tällä	-9.18793
▁helmikuussa	-9.18831
▁lopussa	-9.18832
ö	-9.18881
▁päivä	-9.18894
▁li	-9.18946
ellä	-9.19183
▁tuki	-9.19266
▁toi	-9.19356
▁tällöin	-9.19366
▁hu	-9.19559
▁albumin	-9.19665
▁syyskuussa	-9.19744
utta	-9.19751
osa	-9.19802
▁kasvaa	-9.19802
seura	-9.19835
▁jotta	-9.19922
ut	-9.19926
▁kesäkuussa	-9.20047
▁ottelun	-9.20079
▁yliopisto	-9.20355
▁melko	-9.2062
▁ensimmäisenä	-9.20637
▁4.	-9.20639
▁or	-9.20893
▁ki	-9.20979
▁entinen	-9.2099
▁sosiaali	-9.21097
▁erittäin	-9.21223
▁armeijan	-9.21464
val	-9.21482
▁alueelle	-9.21605
▁sijaitseva	-9.21725
▁perustettu	-9.21865
▁matka	-9.22023
jan	-9.22076
usta	-9.22123
▁suomeen	-9.22248
tila	-9.2254
luvulta	-9.22701
▁päätteeksi	-9.22712
▁maalia	-9.22802
id	-9.22969
▁olleen	-9.23037
nti	-9.23096
▁johtaja	-9.23103
▁huhtikuussa	-9.23326
mar	-9.23369
▁yhteis	-9.23419
▁televisio	-9.23495
▁man	-9.23746
▁heinäkuussa	-9.23848
erin	-9.23874
kään	-9.24067
alan	-9.24129
▁lisä	-9.24147
▁yhtiö	-9.2418
▁johdolla	-9.24226
▁1998	-9.24327
▁keisari	-9.24369
▁kappaletta	-9.2445
▁ihmis	-9.24527
▁pan	-9.2454
za	-9.24683
▁kappaleen	-9.24775
the	-9.2479
▁rock	-9.24846
▁15.	-9.24874
▁kanta	-9.24882
▁käytti	-9.24971
▁alusta	-9.24986
▁seurasi	-9.25026
▁1994	-9.25107
liiton	-9.25126
▁kappale	-9.25251
▁saari	-9.25306
▁liitto	-9.2556
ner	-9.25655
▁täysin	-9.25762
▁heti	-9.25817
▁yhteen	-9.25827
▁puna	-9.25941
▁joilla	-9.26009
palkinnon	-9.26158
▁meni	-9.26168
▁ohella	-9.26189
ansa	-9.26193
kauden	-9.26217
▁pidettiin	-9.26254
▁vanhemmat	-9.26326
▁11.	-9.26344
▁piste	-9.26352
▁pääasiassa	-9.26438
▁18	-9.26447
engl	-9.26451
▁ammatti	-9.26526
▁vuodelta	-9.26646
ll	-9.26757
iseen	-9.26783
▁kielen	-9.2679
▁etenkin	-9.26797
▁poliisi	-9.26892
kunta	-9.2701
mäen	-9.27065
▁5.	-9.27172
ir	-9.27275
▁tri	-9.27346
▁ainoastaan	-9.27409
▁super	-9.27465
saari	-9.27569
▁erilaisia	-9.27571
mer	-9.27759
aika	-9.27948
▁helsingissä	-9.2808
▁ympäristö	-9.28093
▁italian	-9.28188
per	-9.2827
▁uusia	-9.28307
▁tarkoitus	-9.28453
▁mies	-9.28455
▁joukko	-9.28522
▁car	-9.28637
▁8.	-9.28657
land	-9.28733
iseksi	-9.28745
6	-9.28789
▁7.	-9.28812
neiden	-9.28898
▁6.	-9.28925
▁kunnan	-9.28928
▁ryhmä	-9.28983
assa	-9.29078
▁am	-9.29125
alueella	-9.29275
▁yritys	-9.29293
tty	-9.29356
▁kone	-9.29392
▁kilpailu	-9.29403
▁1918	-9.29429
▁onnistui	-9.29497
▁juoni	-9.29551
00	-9.2971
▁go	-9.29714
vaa	-9.29809
▁liike	-9.29811
▁12.	-9.29818
▁moottori	-9.29871
▁kesä	-9.30072
▁levinneisyys	-9.3008
▁kaikkien	-9.30114
▁veden	-9.30297
▁con	-9.30302
▁her	-9.30352
▁kon	-9.30394
isti	-9.30731
▁suoritti	-9.3074
▁jätti	-9.30765
▁kolmas	-9.30884
▁tässä	-9.30916
▁puolueen	-9.30963
aali	-9.30977
ber	-9.31061
▁1997	-9.31096
▁muu	-9.31103
kausi	-9.31272
▁englannin	-9.3146
▁ba	-9.3146
ivat	-9.31488
auto	-9.3158
▁uutta	-9.31673
▁jonkin	-9.31673
asema	-9.31945
▁10.	-9.32024
▁kutsutaan	-9.32037
▁my	-9.32042
kirja	-9.32048
ker	-9.32056
▁esitti	-9.32089
keskus	-9.32126
▁nyt	-9.32163
sissa	-9.32201
▁eu	-9.32293
sarja	-9.32441
ppa	-9.32491
wa	-9.32618
▁tanssi	-9.32754
▁1996	-9.32775
▁hehtaaria	-9.32807
▁1900-	-9.32884
▁pikku	-9.32924
gin	-9.32942
▁hävisi	-9.32958
ssi	-9.32996
tettu	-9.33047
miin	-9.33242
▁monia	-9.33264
tto	-9.33338
ks	-9.33433
ky	-9.3349
7	-9.33571
▁kertoi	-9.3362
▁1944	-9.33628
▁1995	-9.33725
▁hallinto	-9.33791
▁alkoivat	-9.33852
lais	-9.33937
▁koskaan	-9.33989
▁nais	-9.34054
▁ga	-9.34083
ster	-9.34183
ikka	-9.34203
▁käsi	-9.34214
▁ke	-9.34217
▁asui	-9.34234
▁saaren	-9.34313
▁sanoi	-9.3434
vu	-9.34415
toja	-9.3447
š	-9.34476
▁vii	-9.34489
▁ihmisen	-9.34513
▁pitkään	-9.3455
▁sisältää	-9.34614
llisesti	-9.34664
▁pelannut	-9.34687
▁saattaa	-9.34797
▁kaupungissa	-9.348
▁lisää	-9.34876
tar	-9.34906
▁koe	-9.35019
▁piiri	-9.35054
▁mahdollista	-9.35091
▁tavataan	-9.35149
▁antaa	-9.35161
▁naimisissa	-9.35251
▁video	-9.35267
arvo	-9.35334
▁hy	-9.35338
▁ympäri	-9.35339
▁13.	-9.35406
yhtiö	-9.35426
my	-9.35619
8	-9.35745
▁otettiin	-9.35821
▁alla	-9.3596
▁1992	-9.36016
▁nimensä	-9.36263
liitto	-9.36269
eli	-9.36289
▁metalli	-9.36308
▁25.	-9.3633
ley	-9.36402
▁puheenjohtaja	-9.36551
▁maria	-9.36649
▁9.	-9.36683
▁14.	-9.36706
koulu	-9.36758
▁kor	-9.36772
▁käy	-9.36914
lehden	-9.37146
é	-9.37205
▁palo	-9.37279
▁pelin	-9.37283
▁miesten	-9.37337
▁vie	-9.37372
▁1990	-9.3745
mainen	-9.37466
▁tähän	-9.37469
▁21.	-9.37536
▁kokonais	-9.37678
▁paikallis	-9.37681
mällä	-9.37692
▁suoraan	-9.37731
▁1991	-9.37811
▁saapui	-9.37951
▁hyvä	-9.38002
gen	-9.38047
don	-9.38081
▁tavoin	-9.3816
▁nykyisen	-9.38192
▁ero	-9.3822
▁1950-	-9.38275
▁maahan	-9.38338
▁museo	-9.38354
▁kallio	-9.38356
▁jatko	-9.38409
á	-9.38511
▁var	-9.38521
▁kenraali	-9.38539
ler	-9.38569
kku	-9.38599
▁sama	-9.38756
▁tutki	-9.38782
jien	-9.38801
▁kaikkiaan	-9.38869
▁viimeinen	-9.38875
▁julkaisu	-9.38908
▁kello	-9.39082
▁tärkeä	-9.39433
lahden	-9.39489
lli	-9.39577
▁kolmanneksi	-9.39591
▁kehitys	-9.39675
hen	-9.3969
llista	-9.39719
tulo	-9.39778
mat	-9.39814
ff	-9.39821
▁1993	-9.3986
▁nimen	-9.39873
▁cor	-9.39974
▁tar	-9.39979
▁luonnon	-9.40065
tien	-9.40206
▁kesken	-9.40287
▁20.	-9.40369
▁alettiin	-9.40515
llis	-9.40553
▁liikenne	-9.40663
lehti	-9.40684
▁valko	-9.40725
▁18.	-9.40754
▁elämä	-9.40763
▁19.	-9.40788
▁päivää	-9.40908
▁1987	-9.4106
▁tv	-9.41108
▁saksassa	-9.41161
ttaa	-9.41241
essaan	-9.4135
▁kärsi	-9.41352
▁28.	-9.41365
ken	-9.41381
mien	-9.41418
sy	-9.41444
▁anna	-9.41448
mus	-9.41576
▁bu	-9.41591
ian	-9.41759
luku	-9.41838
▁korkeus	-9.41852
uuden	-9.4186
▁oulun	-9.41902
▁syntynyt	-9.41963
▁paul	-9.42035
▁järjestettiin	-9.42042
▁ansiosta	-9.42083
▁mi	-9.42156
▁23.	-9.42235
▁kirjan	-9.42406
ron	-9.42456
▁linja	-9.42504
▁vastaa	-9.4255
io	-9.4257
▁16.	-9.4257
sesti	-9.42699
st	-9.42811
▁viime	-9.4283
▁loppuun	-9.42836
▁22.	-9.42947
▁sil	-9.43083
ile	-9.43218
▁yhtiön	-9.43292
▁toivo	-9.43329
▁ho	-9.4348
eja	-9.43494
▁kur	-9.435
sh	-9.43542
▁espanjan	-9.43577
▁kulkee	-9.43593
▁vero	-9.43656
▁huono	-9.43704
▁runo	-9.43763
▁tor	-9.43765
▁liian	-9.43841
▁runsaasti	-9.43867
▁valo	-9.43877
▁seuraa	-9.43915
▁rauta	-9.43961
▁päivän	-9.43966
isiä	-9.44022
ste	-9.44038
▁kasvoi	-9.44052
▁single	-9.44064
▁versio	-9.44163
▁asu	-9.44166
esti	-9.4417
▁robert	-9.44189
▁24	-9.44278
▁molemmat	-9.4439
▁osti	-9.44402
ng	-9.44402
▁pyrki	-9.44477
▁yhdeksän	-9.44731
uutta	-9.44743
▁asema	-9.44766
toista	-9.44798
paikka	-9.44882
▁tasa	-9.44964
▁pal	-9.45155
▁rii	-9.45269
mp	-9.45334
▁pala	-9.45355
▁60	-9.4538
▁2019	-9.454
fa	-9.45401
▁tehoilla	-9.45446
palvelu	-9.45613
▁laki	-9.45647
▁26.	-9.45864
levy	-9.45864
▁kuoleman	-9.45936
▁laulaja	-9.46049
peli	-9.46055
▁turva	-9.46111
määrä	-9.46187
kunnan	-9.46372
jana	-9.46463
▁loi	-9.46509
▁puolella	-9.46527
ot	-9.46538
▁lai	-9.4654
▁iii	-9.46576
▁27.	-9.46597
du	-9.46664
sk	-9.46771
tään	-9.46949
▁17.	-9.46958
▁osaa	-9.47043
eseen	-9.47254
▁siis	-9.47275
ensa	-9.47276
valta	-9.47287
▁kiinni	-9.47399
▁nuorten	-9.4746
teet	-9.47644
▁osuus	-9.47648
▁vuosittain	-9.4779
30	-9.47812
▁tapahtui	-9.4786
▁äiti	-9.47869
▁ranta	-9.47879
▁aikaisemmin	-9.48247
vuotias	-9.4825
19	-9.48278
▁saatiin	-9.48307
▁james	-9.48343
vesi	-9.48355
▁laivaston	-9.48455
▁24.	-9.48822
ci	-9.48854
▁ollessa	-9.48971
ser	-9.49093
as	-9.49167
ryhmä	-9.49229
▁toisaalta	-9.49257
▁david	-9.49258
▁maassa	-9.49299
län	-9.49392
▁verran	-9.49403
▁ulkonäkö	-9.49463
▁niissä	-9.49585
bu	-9.49644
▁29.	-9.49698
▁kat	-9.49727
gu	-9.49812
▁si	-9.49835
▁kuninkaan	-9.49854
ji	-9.49863
▁lasta	-9.49892
▁mitään	-9.49929
oli	-9.50029
▁suku	-9.50042
mm	-9.50045
kat	-9.50061
ov	-9.501
isin	-9.50112
▁ensimmäisessä	-9.50116
▁musiikin	-9.5019
▁syö	-9.50328
▁laskee	-9.50359
od	-9.50431
elokuva	-9.50467
▁hahmo	-9.50574
▁näistä	-9.50644
▁kansa	-9.50648
▁30.	-9.50686
▁suoja	-9.50719
▁vir	-9.50724
päivä	-9.50752
▁gu	-9.50898
▁bi	-9.50926
▁sana	-9.50946
pä	-9.50963
▁za	-9.50971
ojen	-9.50988
▁400	-9.51093
pan	-9.51123
vän	-9.5113
▁do	-9.51198
▁elämän	-9.51243
▁sy	-9.51349
▁kii	-9.51371
▁johtaa	-9.5139
▁va	-9.51398
▁tulo	-9.51463
▁300	-9.51505
▁fe	-9.51645
▁ensimmäisellä	-9.51693
▁puheenjohtajana	-9.51836
▁nimeltä	-9.51895
järjestelmä	-9.51919
10	-9.51929
▁yksityis	-9.51946
▁varsinkin	-9.52045
ttava	-9.52057
iltä	-9.52116
▁pohja	-9.5213
▁piispa	-9.5217
hd	-9.52185
len	-9.5236
▁euroopassa	-9.52363
▁perustuu	-9.52409
▁1945	-9.52421
▁1989	-9.52487
▁sijaitsi	-9.52521
▁1930-	-9.52559
=	-9.52645
▁usko	-9.52804
ren	-9.5284
hon	-9.52868
▁vähän	-9.52896
em	-9.52913
pin	-9.52932
gan	-9.52954
▁peter	-9.53191
▁puolustus	-9.53229
työ	-9.53327
▁kuvaa	-9.53356
ee	-9.53362
laista	-9.53362
ville	-9.53439
▁kiinan	-9.5345
▁carl	-9.53485
▁ky	-9.53486
▁los	-9.53505
stään	-9.53511
▁vähä	-9.53541
▁cha	-9.5373
▁itsensä	-9.53751
▁jalkapallo	-9.53811
mestaruuden	-9.53816
▁eniten	-9.53827
ic	-9.53828
kö	-9.53914
▁vaati	-9.53984
▁malli	-9.53995
▁filosofian	-9.54018
ation	-9.54061
▁ottaa	-9.54111
▁teos	-9.54145
▁kulta	-9.54205
▁kasvi	-9.54229
▁huomattavasti	-9.54234
▁pääosin	-9.54359
9	-9.54376
ineen	-9.54406
▁toimivat	-9.54512
▁kylän	-9.54513
▁historian	-9.54622
▁ve	-9.54782
▁par	-9.54794
tur	-9.54851
am	-9.54968
▁kuiva	-9.54996
▁york	-9.55086
ü	-9.55106
tetaan	-9.55125
▁kierroksella	-9.55135
elta	-9.5517
▁piispaksi	-9.55207
▁siirto	-9.55237
▁jumala	-9.55307
▁1970	-9.5533
▁olemassa	-9.55377
ström	-9.55494
▁johtajana	-9.5553
▁voima	-9.55641
▁2000-	-9.55661
▁kari	-9.55689
▁te	-9.55725
▁hankki	-9.55809
tui	-9.5588
▁siksi	-9.56017
▁elää	-9.56024
▁mon	-9.56033
▁kuulu	-9.56112
▁paikalle	-9.56156
▁suomalaisen	-9.56165
▁vanhan	-9.56332
ers	-9.56427
▁palvelus	-9.56465
▁22	-9.56538
▁kala	-9.56606
▁tavalla	-9.56636
▁myytiin	-9.56855
▁fi	-9.56949
▁palveli	-9.56986
▁1941	-9.57018
saaren	-9.57038
▁william	-9.57074
▁liitettiin	-9.57118
▁varhais	-9.57152
▁kolmi	-9.57219
▁1940	-9.57243
by	-9.57244
ottelussa	-9.57254
▁työn	-9.57292
▁numero	-9.57404
▁neuvosto	-9.57508
▁muista	-9.57533
▁1919	-9.57545
▁we	-9.57566
▁päässä	-9.57713
llisen	-9.57756
▁1988	-9.57787
▁japanin	-9.57791
ska	-9.57818
▁joukot	-9.57897
▁valtakunnan	-9.57987
▁hä	-9.57989
▁naimisiin	-9.58025
▁ruotsissa	-9.5809
▁suomalais	-9.58174
▁talo	-9.58188
▁historiaa	-9.582
merkki	-9.58207
teiden	-9.58329
johtaja	-9.5833
ze	-9.5834
▁erosi	-9.58383
im	-9.58536
ase	-9.58666
▁kova	-9.58674
▁matti	-9.58728
▁tur	-9.58819
▁1972	-9.58829
▁ihmisten	-9.58901
▁tausta	-9.58942
ttua	-9.58967
▁ge	-9.58975
-19	-9.58992
▁vallan	-9.59044
▁toimitusjohtaja	-9.5905
▁kunta	-9.59082
▁nu	-9.59119
▁suora	-9.59139
masta	-9.59177
▁käytännössä	-9.59221
▁1986	-9.59288
▁pysty	-9.5929
▁arkkitehti	-9.59367
▁lapsi	-9.59443
▁mc	-9.59446
▁peri	-9.59527
!	-9.59553
▁rautatie	-9.59677
▁saattoi	-9.59683
▁valmistus	-9.59684
▁aiheuttaa	-9.59751
tia	-9.59811
▁1984	-9.59815
vasta	-9.5983
▁lain	-9.59831
▁21	-9.59944
▁toimintaa	-9.59946
▁taistelussa	-9.59974
▁anti	-9.5998
▁armeija	-9.59983
▁tra	-9.60057
ola	-9.60104
▁1939	-9.60182
kun	-9.60201
▁näytteli	-9.60238
▁michael	-9.60339
▁suu	-9.60348
▁muoto	-9.60431
yhtye	-9.60453
kaudella	-9.60572
▁cupin	-9.60609
▁peräisin	-9.60645
▁britannian	-9.607
siä	-9.60719
▁koulutus	-9.60733
▁martin	-9.60896
▁tosin	-9.60955
▁sinne	-9.61106
we	-9.61132
kisoissa	-9.61181
▁lähtee	-9.61197
q	-9.6121
▁tuho	-9.61228
▁wa	-9.61241
ps	-9.61276
aatio	-9.613
▁lukuun	-9.61417
▁1985	-9.61501
▁sijaitsevat	-9.61552
tel	-9.61582
▁vai	-9.61624
ž	-9.61733
▁hauta	-9.61765
▁teho	-9.61786
▁omaa	-9.6184
hy	-9.61876
▁pienen	-9.61968
elin	-9.62058
▁george	-9.62391
▁neli	-9.62456
▁halusi	-9.62491
▁neljän	-9.62492
▁vaikutus	-9.62502
▁rooli	-9.62518
▁yleisesti	-9.62564
jat	-9.62573
nnin	-9.62593
▁yritti	-9.6262
▁sisällä	-9.62632
▁heitä	-9.6273
▁vei	-9.62821
▁ben	-9.62881
▁samoin	-9.62957
taso	-9.62966
▁joukkueessa	-9.62993
▁world	-9.63186
▁soi	-9.63207
ris	-9.63291
skin	-9.63344
tusta	-9.63351
▁koostuu	-9.63469
▁kohtaan	-9.63533
kel	-9.63576
▁tähti	-9.63581
▁ottelu	-9.63608
▁tekee	-9.63677
2.	-9.63678
▁rantaviivan	-9.63713
▁lajin	-9.63795
▁ottamatta	-9.63878
alueeseen	-9.63879
tojen	-9.6395
▁eräs	-9.64014
kuva	-9.64026
▁yhtenä	-9.64179
▁viiden	-9.64251
▁sää	-9.64277
▁heidät	-9.64328
▁19	-9.64397
▁laiva	-9.64437
▁varsin	-9.64455
20	-9.6446
ts	-9.64544
▁raha	-9.64552
vuotiaiden	-9.64662
ie	-9.64909
▁parhaan	-9.65015
▁luu	-9.65045
tunut	-9.65047
▁pol	-9.65065
▁maantietoa	-9.65196
40	-9.65287
▁päästä	-9.65332
sse	-9.65384
mmin	-9.65391
ion	-9.65423
▁löydetty	-9.6543
▁ken	-9.65454
tuu	-9.6548
▁toimittaja	-9.65524
▁ti	-9.65607
▁tapa	-9.65629
▁1920	-9.65634
▁fc	-9.65751
▁yrityksen	-9.65784
▁nyky	-9.65785
▁säveltäjä	-9.65788
▁väestö	-9.65851
▁toisessa	-9.65861
▁mahdollisesti	-9.6588
▁laaja	-9.65888
suomen	-9.65909
ss	-9.6592
▁1980	-9.65923
▁muutaman	-9.65927
moottori	-9.65955
▁vihittiin	-9.66031
▁kilpailun	-9.66096
teli	-9.66122
▁sata	-9.66134
▁taiteilija	-9.66171
▁han	-9.66229
▁1962	-9.66275
▁tarina	-9.6631
nes	-9.66378
▁kuukauden	-9.66488
▁tila	-9.66508
▁1973	-9.66529
▁mukaisesti	-9.66701
▁vaali	-9.66773
puoli	-9.66795
▁suuria	-9.66838
▁itselleen	-9.66844
▁pyhä	-9.66852
▁sarjassa	-9.66888
▁1975	-9.66904
▁seuraavan	-9.67084
les	-9.67097
ny	-9.67111
▁tytär	-9.67244
▁ylioppilaaksi	-9.6727
▁ulos	-9.6733
que	-9.67509
▁red	-9.67522
▁rata	-9.67559
rakennus	-9.67595
nimi	-9.67615
sch	-9.67667
voi	-9.67738
▁1983	-9.67792
ig	-9.68009
▁1963	-9.68026
▁euroa	-9.68069
tor	-9.68122
▁1968	-9.68126
▁suunnitteli	-9.68165
▁maata	-9.68248
▁ranskassa	-9.68422
valla	-9.68487
▁rauhan	-9.68515
▁1938	-9.68518
ell	-9.68621
tys	-9.68645
▁1936	-9.68708
▁sar	-9.68853
▁bra	-9.68891
▁er	-9.68938
zi	-9.69054
▁pistettä	-9.69077
ttää	-9.69191
▁pitkin	-9.69207
▁1979	-9.6927
▁1976	-9.69274
▁tavallisesti	-9.69287
▁joki	-9.69298
▁1982	-9.69322
ek	-9.69348
▁1917	-9.69371
▁kau	-9.6938
tit	-9.69401
ske	-9.6942
viä	-9.69421
▁del	-9.69431
▁olympia	-9.69459
▁samassa	-9.69557
▁äitinsä	-9.69586
ei	-9.69617
▁linna	-9.6963
▁mor	-9.69697
ad	-9.69803
kke	-9.69878
▁nimettiin	-9.69885
▁pre	-9.69924
malli	-9.69934
▁huippu	-9.69949
▁varrella	-9.69963
▁teollisuus	-9.70004
▁1958	-9.70119
▁star	-9.70213
▁tulisi	-9.70254
gon	-9.7027
ham	-9.7034
neita	-9.70388
met	-9.704
uransa	-9.70408
ero	-9.70473
▁toiseen	-9.70494
▁teoksen	-9.70602
▁vaikuttaa	-9.70742
▁kolmannen	-9.7075
50	-9.70758
kaa	-9.70766
▁elinympäristö	-9.70813
▁johan	-9.70912
▁at	-9.70917
eista	-9.71056
(	-9.71125
ani	-9.71142
▁1978	-9.71174
▁neuvostoliitto	-9.71181
25	-9.71238
▁chi	-9.71281
▁poikansa	-9.7129
▁tapaan	-9.71303
▁osaksi	-9.71396
▁sanottu	-9.7141
▁tarkoituksena	-9.71487
▁vedenpinnan	-9.71545
▁1964	-9.71546
▁nuori	-9.71552
▁jäsenet	-9.71571
asta	-9.71662
▁tilalle	-9.7167
ol	-9.71753
▁lie	-9.71757
▁nimeltään	-9.71768
manin	-9.71768
▁1937	-9.71875
tte	-9.72007
niemen	-9.72011
▁charles	-9.72219
▁pekka	-9.72227
▁pidetty	-9.72255
▁näitä	-9.72278
lahti	-9.723
▁y	-9.72327
▁teksti	-9.72385
▁syy	-9.72487
chi	-9.72617
▁sp	-9.72636
▁toiminnan	-9.72776
hl	-9.72857
ukset	-9.72952
▁rakenne	-9.73004
▁lähetti	-9.73038
▁toisella	-9.73055
▁vietti	-9.73072
▁vaimo	-9.73076
kset	-9.73138
▁pallo	-9.7314
▁nimeä	-9.73155
matta	-9.73168
▁luku	-9.73203
▁can	-9.73204
niemi	-9.73224
▁talvi	-9.73261
▁kirjasto	-9.73361
▁mur	-9.73372
inä	-9.73396
▁fo	-9.73454
▁osittain	-9.73467
▁rooman	-9.73473
llisia	-9.73556
yr	-9.7368
▁ad	-9.73688
▁palvelukseen	-9.73741
kuu	-9.7381
▁ravinto	-9.73834
▁esiintynyt	-9.73837
▁maali	-9.7391
▁1960	-9.73958
▁1977	-9.73996
▁karl	-9.73997
▁operaatio	-9.74034
aine	-9.74034
toimi	-9.74076
onin	-9.74086
sivat	-9.74135
▁voittanut	-9.74228
tetty	-9.74303
▁pieniä	-9.74356
▁henrik	-9.74419
▁1967	-9.74447
mmat	-9.74524
▁1974	-9.74537
▁aivan	-9.74562
▁80	-9.74585
▁opetus	-9.7463
▁kartan	-9.74638
ide	-9.74698
ment	-9.7475
▁laivasto	-9.74771
osasto	-9.748
▁sam	-9.74804
▁1971	-9.74879
▁1942	-9.74947
tz	-9.74958
tai	-9.74976
▁sieltä	-9.74993
esi	-9.75011
puu	-9.75023
▁ydin	-9.75038
▁romaani	-9.75055
▁asia	-9.75059
▁lopetti	-9.75073
▁pen	-9.75089
▁virka	-9.75107
▁1954	-9.75178
▁lyhyt	-9.75181
▁koulun	-9.75215
▁talon	-9.75239
taa	-9.75243
kit	-9.75246
▁150	-9.75307
seksi	-9.75412
oitu	-9.75587
▁antiikin	-9.75632
15	-9.75689
liigan	-9.75692
teitä	-9.75727
▁vuodessa	-9.75803
luvulle	-9.75811
▁1969	-9.75819
tö	-9.75873
▁miehen	-9.76087
▁asunto	-9.76118
▁1959	-9.76152
muoto	-9.76172
▁nousu	-9.76183
eri	-9.76295
▁joukossa	-9.76317
▁kaasu	-9.76338
▁sopimuksella	-9.76349
▁kuuluva	-9.76414
kse	-9.76471
ul	-9.76474
▁kuu	-9.76503
▁1965	-9.76523
▁jonne	-9.76555
▁taso	-9.76594
▁lukuisia	-9.76616
▁tapahtuma	-9.76626
▁ruoka	-9.76681
▁johto	-9.76692
▁hal	-9.76701
▁nykyinen	-9.76735
ltään	-9.76797
▁soitti	-9.76835
har	-9.76936
▁1966	-9.7699
▁kol	-9.77017
uri	-9.77028
▁maatalous	-9.77029
▁asuu	-9.77032
kone	-9.77036
zin	-9.77063
▁kaiken	-9.7709
▁toisin	-9.77163
▁paikka	-9.77241
▁vesistössä	-9.77271
▁ilmeisesti	-9.77293
che	-9.7742
pp	-9.77484
▁erityisen	-9.77491
▁1956	-9.77597
▁edustaa	-9.77666
▁suurimman	-9.77695
▁ehkä	-9.77714
▁tunnettiin	-9.77718
▁bur	-9.7777
▁vuoristo	-9.77859
▁öljy	-9.77866
▁mer	-9.77874
▁1981	-9.77875
sson	-9.77877
▁lammen	-9.77891
▁kal	-9.77891
▁normaali	-9.77933
ryhmän	-9.77956
▁puhe	-9.7797
▁sal	-9.77987
▁23	-9.78012
yhtiön	-9.78053
▁vaikutti	-9.78079
versio	-9.781
▁ihmiset	-9.78123
▁aikoihin	-9.7827
▁verkko	-9.78334
▁1930	-9.78347
par	-9.78403
▁puoliso	-9.78408
▁lehden	-9.78461
tava	-9.78465
▁1700-	-9.78562
▁esittää	-9.78573
▁veli	-9.78573
▁temppeli	-9.78656
▁lahden	-9.78658
▁parhaiten	-9.78659
▁muutettiin	-9.7867
▁perheen	-9.78679
▁mistä	-9.78801
var	-9.78812
mpaa	-9.78816
▁ns	-9.78876
▁useissa	-9.78916
vansa	-9.78982
ukseen	-9.79036
tyy	-9.7906
koko	-9.79157
▁mikäli	-9.79176
kkaa	-9.79197
ius	-9.79384
▁jazz	-9.79389
▁ihmistä	-9.79466
▁norjan	-9.79495
▁jean	-9.79513
▁venäjällä	-9.79527
▁suurempi	-9.79583
kor	-9.79693
▁viron	-9.79694
mestaruus	-9.79703
▁is	-9.79715
▁koira	-9.79785
aja	-9.79809
▁muinais	-9.7988
▁liiton	-9.79936
▁richard	-9.80032
▁ykkös	-9.80047
▁hopeaa	-9.80052
tyyli	-9.80076
18	-9.80112
▁jäsenenä	-9.80159
+	-9.80165
▁entisen	-9.80166
▁kel	-9.80194
kylä	-9.80242
▁jotkut	-9.80286
▁yle	-9.80317
▁sisällissodan	-9.80325
miehen	-9.80345
▁eläin	-9.80351
▁sijalle	-9.80407
▁vaikea	-9.80524
▁sopimus	-9.80527
▁tietoa	-9.80554
▁paikalla	-9.80638
aatti	-9.80737
▁opettaja	-9.80764
▁pop	-9.80773
tapa	-9.80792
▁gi	-9.80795
▁mitta	-9.80807
ard	-9.80833
▁dollaria	-9.80891
▁yhdysvallat	-9.8104
▁35	-9.81064
▁terveys	-9.81094
▁mielestä	-9.81108
▁mac	-9.81142
voima	-9.81158
palkinto	-9.81219
misestä	-9.81258
▁kapteeni	-9.81287
▁vuo	-9.81297
katu	-9.81337
▁asukasta	-9.81387
▁muodostaa	-9.81403
▁1943	-9.81464
▁juhla	-9.81485
▁vesistösuhte	-9.81577
luvuilla	-9.81589
koski	-9.81616
▁perä	-9.81683
▁z	-9.81713
▁ulkopuolella	-9.81844
▁kasvu	-9.81856
▁ystävä	-9.81896
▁sille	-9.81938
ep	-9.81954
▁viimeisen	-9.81962
vy	-9.82078
▁pien	-9.82095
▁sel	-9.82111
▁sch	-9.82119
▁saksalainen	-9.82192
▁mpy	-9.8224
▁tiedon	-9.8228
▁puolesta	-9.82302
▁yhdysvaltojen	-9.82424
▁välissä	-9.82436
ine	-9.82501
laji	-9.82507
▁joulu	-9.82525
▁työväen	-9.82568
▁thomas	-9.82589
▁selvästi	-9.82612
tra	-9.82724
▁31.	-9.82806
▁eläkkeelle	-9.82872
▁1924	-9.82895
linja	-9.82924
35	-9.82929
▁meren	-9.82984
suo	-9.82989
perä	-9.83029
▁es	-9.83058
▁mukaansa	-9.83084
▁jatkaa	-9.83132
elli	-9.83153
▁toimintansa	-9.83191
▁tasavallan	-9.83243
▁1946	-9.83281
í	-9.8332
tion	-9.8332
▁kan	-9.83379
▁lähtö	-9.83391
isesta	-9.83411
uksesta	-9.83428
▁1926	-9.83464
▁läänin	-9.8348
ya	-9.83531
liike	-9.83557
▁tekemään	-9.83585
llisten	-9.83622
▁risti	-9.83654
▁sir	-9.83712
▁black	-9.8376
del	-9.8377
▁bre	-9.83812
▁saadaan	-9.83833
ling	-9.83856
las	-9.83933
▁ahl	-9.83956
▁1920-	-9.83985
▁posti	-9.84028
▁kuuluivat	-9.84093
jia	-9.84109
mpia	-9.84141
utu	-9.84158
▁aikojen	-9.84202
kohta	-9.84232
▁perustivat	-9.84264
▁pelaa	-9.84325
▁solmi	-9.84339
▁tyyli	-9.84348
▁vaimonsa	-9.84369
ajo	-9.84421
tes	-9.84444
▁pako	-9.84496
▁pommi	-9.84499
▁yhdiste	-9.84521
▁ram	-9.84535
▁musiikkia	-9.84563
▁lei	-9.84612
▁kaupunkiin	-9.84637
▁tunnus	-9.84658
▁viipurin	-9.84825
▁grand	-9.84878
▁satama	-9.84942
▁aihe	-9.84944
▁bal	-9.84977
ey	-9.84999
gg	-9.85031
▁0	-9.85048
▁kylässä	-9.85057
py	-9.85136
▁gp	-9.85154
tehdas	-9.85155
▁1925	-9.85238
▁1952	-9.85247
llään	-9.85311
▁papiksi	-9.85384
▁erityis	-9.85386
pen	-9.85435
▁1948	-9.85438
▁vastaanotto	-9.85438
▁ranska	-9.85572
kilpailussa	-9.85629
▁muihin	-9.85656
▁voiton	-9.85692
▁tehot	-9.85695
gel	-9.857
▁1928	-9.85704
pal	-9.85766
▁ollen	-9.85787
vesistöaluetunnu	-9.85793
▁merkitys	-9.85799
ston	-9.85806
ilu	-9.85839
▁puolivälissä	-9.85855
▁maksa	-9.85873
▁synty	-9.8588
▁1935	-9.85938
▁kultaa	-9.85993
▁hol	-9.86002
▁vanhin	-9.86054
tyyppi	-9.86085
vaara	-9.86116
lain	-9.86141
▁joseph	-9.86145
con	-9.86208
▁tietokone	-9.86212
▁henki	-9.86248
▁poistettiin	-9.86327
▁tunnetuksi	-9.8633
tteli	-9.86433
▁muuttui	-9.86437
▁vuodet	-9.8645
kyl	-9.86483
▁säilynyt	-9.86512
ismi	-9.86552
én	-9.86574
▁os	-9.86587
▁saaria	-9.8661
▁kir	-9.86613
▁liittyy	-9.86695
▁saksalais	-9.86701
▁sija	-9.86719
▁1929	-9.86728
60	-9.86748
dia	-9.86763
ori	-9.86787
▁tavoitteena	-9.86837
▁ohjelma	-9.86849
puol	-9.86935
▁rikos	-9.86937
▁johannes	-9.86942
ban	-9.86992
etti	-9.87014
▁kirjoittanut	-9.87033
▁1933	-9.87057
▁ihmisiä	-9.87143
▁mark	-9.87165
▁1921	-9.87181
lon	-9.87203
▁voisi	-9.87214
▁1927	-9.8722
ō	-9.87231
▁kaarle	-9.87252
▁isku	-9.87265
▁seurakunta	-9.87283
chin	-9.87293
ira	-9.87342
▁paikan	-9.87347
järjestö	-9.87389
▁1951	-9.87395
▁jumalan	-9.87418
vallan	-9.87423
▁formula	-9.87459
▁kutsuttiin	-9.87538
tri	-9.8754
▁palvelu	-9.87556
▁jääkäri	-9.87593
isku	-9.87618
▁ratkaisu	-9.87659
numero	-9.87814
▁pohjalta	-9.8784
▁sini	-9.87869
uden	-9.8789
▁saksa	-9.87902
▁ajo	-9.87921
▁90	-9.87981
▁välinen	-9.87986
▁tapahtuu	-9.88075
bergin	-9.88082
▁kansainvälinen	-9.88096
naan	-9.88177
▁liigan	-9.88187
runkosarjaottelu	-9.88202
▁1923	-9.8823
▁28	-9.88259
▁puolet	-9.88294
▁osasto	-9.883
▁verrattuna	-9.88337
▁1916	-9.88338
tut	-9.88357
▁yksityiselämä	-9.88375
▁yhteistyö	-9.88424
▁putosi	-9.88435
▁yhteisö	-9.88444
▁kansalais	-9.88507
▁veljensä	-9.88512
▁lähe	-9.88543
ros	-9.88554
▁myi	-9.88559
ohjelma	-9.88577
▁nimetty	-9.88588
▁avo	-9.88603
1.	-9.88608
▁nor	-9.88617
▁26	-9.88638
▁70	-9.88665
kulma	-9.88689
▁elokuvissa	-9.88796
▁kunnia	-9.88811
port	-9.88836
ikä	-9.88838
▁paperi	-9.88871
▁suurta	-9.88915
▁esitettiin	-9.88965
▁kauko	-9.88977
▁1934	-9.89021
▁järjestö	-9.89031
▁kilpa	-9.89085
▁kahteen	-9.89093
▁paavi	-9.89125
▁myönnettiin	-9.8915
▁vuoro	-9.89168
ossa	-9.89221
▁muisti	-9.89228
isuus	-9.89238
ras	-9.89269
▁lippu	-9.89281
▁ag	-9.8935
▁mat	-9.89358
viin	-9.89363
▁tekivät	-9.89449
▁aja	-9.89466
▁poliitikko	-9.89467
▁mestari	-9.89483
laiva	-9.89593
her	-9.89599
▁1931	-9.89617
nne	-9.89619
12	-9.89625
▁pitkän	-9.89627
▁1957	-9.89649
▁lau	-9.89684
▁kreikan	-9.89687
▁presidentin	-9.89688
▁1950	-9.897
▁saint	-9.89706
▁vaiheessa	-9.89815
pro	-9.89817
▁tuottaa	-9.89909
▁osin	-9.89923
▁syntyy	-9.90019
▁suosittu	-9.90031
▁tien	-9.90062
▁ongelma	-9.90153
▁toimiva	-9.90154
▁tom	-9.90179
▁valmis	-9.90185
ak	-9.90211
yhtyeen	-9.90259
ud	-9.90265
▁hei	-9.90328
sonin	-9.90347
oma	-9.90364
iitti	-9.90372
▁muutamia	-9.90397
osta	-9.90399
ise	-9.9041
▁yö	-9.90436
stu	-9.90458
tonin	-9.90563
▁kuinka	-9.90596
eihin	-9.90602
▁vuokra	-9.90618
▁menestys	-9.90688
▁puisto	-9.90694
▁kieltä	-9.90739
fe	-9.90767
▁menetti	-9.90804
res	-9.9088
tieteen	-9.909
▁jakoi	-9.90904
▁pistemies	-9.90939
▁helposti	-9.90959
▁ehti	-9.91003
▁näyttely	-9.91035
▁myynti	-9.91062
rata	-9.91093
▁heillä	-9.912
▁ale	-9.912
▁keskuudessa	-9.91201
iv	-9.91283
▁kuolema	-9.91296
▁kanadan	-9.91337
▁laati	-9.91365
ok	-9.91378
uk	-9.91403
▁massa	-9.91436
▁eteni	-9.91456
▁sisar	-9.91525
▁osana	-9.91537
▁yhteiskunta	-9.91544
▁avattiin	-9.91565
iini	-9.91632
▁palkittiin	-9.9165
▁kansainvälisen	-9.91655
▁paitsi	-9.91675
▁yrittää	-9.91738
laki	-9.91768
▁todennäköisesti	-9.91849
▁pronssia	-9.9196
▁edes	-9.92057
▁yleinen	-9.92095
eille	-9.92125
eilla	-9.92159
▁1947	-9.92171
▁ryhtyi	-9.92213
▁tarkoitettu	-9.92259
▁kokoelma	-9.92265
▁tulivat	-9.92341
▁1932	-9.92341
cher	-9.9236
▁huomiota	-9.92375
isena	-9.92438
▁paremmin	-9.92449
▁louis	-9.92459
gar	-9.92467
▁muistuttaa	-9.92498
▁1914	-9.92542
▁top	-9.92542
tis	-9.92571
▁ryhmän	-9.9263
▁vuori	-9.92634
▁saatu	-9.92634
▁löytää	-9.92677
▁600	-9.92685
järjestelmän	-9.92699
kivi	-9.92726
▁inter	-9.92817
ejä	-9.9285
läinen	-9.92883
por	-9.92898
▁katu	-9.92918
hti	-9.92966
▁il	-9.92968
▁1955	-9.92974
vuus	-9.92999
▁vähintään	-9.93004
▁johdosta	-9.93008
määri	-9.93029
▁vene	-9.93085
▁1961	-9.93087
▁syvä	-9.93122
tetään	-9.93132
tuotanto	-9.93212
kanta	-9.93279
▁aivo	-9.93287
▁pyhän	-9.93289
▁suunnittelu	-9.93392
▁vähemmän	-9.93399
▁yksin	-9.93427
▁kotoisin	-9.93434
▁muisto	-9.93495
▁takana	-9.93519
▁27	-9.93521
▁oikea	-9.93622
▁aloitettiin	-9.9364
olo	-9.93686
laulu	-9.93693
koulun	-9.93783
▁useiden	-9.93818
▁joihin	-9.9383
piiri	-9.93878
▁des	-9.93889
uksista	-9.93986
▁pariisin	-9.94043
▁fredrik	-9.94044
▁media	-9.94049
▁kuoltua	-9.94065
▁neljänneksi	-9.94133
▁omia	-9.9415
▁debytoi	-9.94155
tuksia	-9.94166
▁pelto	-9.94181
eissa	-9.9422
ther	-9.9425
kaupunki	-9.94261
kappale	-9.94458
▁ber	-9.94483
▁roomalaiskatoli	-9.94497
kosken	-9.94509
▁muodostuu	-9.94537
keskuksen	-9.94548
lassa	-9.94552
▁pir	-9.94613
▁miten	-9.94631
nö	-9.94653
▁matala	-9.94667
å	-9.94704
▁dan	-9.94716
▁pat	-9.94722
▁maajoukkueessa	-9.94763
kauppa	-9.94786
bin	-9.94804
▁pri	-9.94875
▁jyväskylän	-9.9491
▁vastasi	-9.94918
▁taistelun	-9.95002
▁alkuperäis	-9.95025
▁ruo	-9.95028
com	-9.9505
yt	-9.95071
▁suosi	-9.95101
▁(17	-9.95118
ttaessa	-9.95149
▁kulku	-9.95149
ist	-9.95166
90	-9.95233
eltä	-9.9525
aksi	-9.95311
▁teo	-9.95326
▁1922	-9.9538
taistelu	-9.95383
▁paksu	-9.95389
▁timo	-9.95416
▁kuulunut	-9.95432
veden	-9.95516
▁löytyy	-9.95563
▁koneen	-9.95569
▁800	-9.95673
poika	-9.95705
▁yllä	-9.95706
▁viittaa	-9.95728
piste	-9.95743
▁juo	-9.95745
▁henkeä	-9.95759
▁mal	-9.95854
▁omistaja	-9.95859
▁antti	-9.9586
▁auton	-9.95873
▁toista	-9.95902
▁ker	-9.95948
ole	-9.95971
isella	-9.95983
▁johtama	-9.96015
mur	-9.96022
kieli	-9.96033
▁monien	-9.96091
kilpailun	-9.96122
▁ze	-9.96134
▁tiede	-9.96199
▁lapin	-9.96201
▁kuukautta	-9.96225
▁maailmanmestar	-9.96235
▁puolustaja	-9.96238
▁kyseessä	-9.96278
ica	-9.96356
▁nuoriso	-9.96394
▁muutama	-9.96398
▁ak	-9.96413
▁valitsi	-9.96428
▁puolelle	-9.96451
ria	-9.96474
▁reaktio	-9.96481
ari	-9.96493
ovin	-9.96517
virta	-9.96539
▁sun	-9.96588
]	-9.96593
▁ranskalainen	-9.96605
▁ny	-9.96676
toiminta	-9.96688
▁pronssi	-9.96736
nnut	-9.96753
▁parissa	-9.96765
▁don	-9.96816
utui	-9.96817
lat	-9.9683
▁heinä	-9.96872
▁kra	-9.96875
▁32	-9.96898
▁hyökkäys	-9.96898
3.	-9.969
▁kitaristi	-9.96909
▁pelissä	-9.96982
▁vieraili	-9.96984
▁lasi	-9.96989
▁tunnetuin	-9.97026
▁silti	-9.97028
▁energia	-9.97033
▁itseään	-9.97036
▁euro	-9.9705
▁kannalta	-9.97056
▁music	-9.97113
oi	-9.97116
▁kä	-9.97139
▁kilpaili	-9.97161
kai	-9.97174
▁avaruus	-9.97197
aste	-9.97208
bar	-9.97248
▁kartano	-9.97266
▁aurinko	-9.97275
▁puolan	-9.97276
matka	-9.97292
lasku	-9.97373
▁esitetty	-9.97409
pari	-9.97444
▁tohtori	-9.97473
mman	-9.97482
utti	-9.97496
kk	-9.97637
▁hall	-9.97661
▁maissa	-9.9768
▁opettajana	-9.97696
▁hoito	-9.97797
▁lintu	-9.97814
▁rotu	-9.97844
▁minuuttia	-9.97847
13	-9.97932
▁pääministeri	-9.97934
sessa	-9.97981
uksessa	-9.98046
▁kuvattu	-9.98059
shi	-9.98077
▁saavat	-9.98085
▁kahdesti	-9.98117
era	-9.9815
▁voimakkaasti	-9.98166
▁muodostavat	-9.98176
uksissa	-9.98181
́	-9.98235
▁tan	-9.98247
uudesta	-9.98261
isissa	-9.98277
▁intian	-9.9828
▁keskellä	-9.98283
▁sarjakuva	-9.98399
▁olevat	-9.9842
työn	-9.98464
▁aine	-9.98504
▁myy	-9.98514
21	-9.98516
▁joitakin	-9.98526
vaihe	-9.9853
▁joukkojen	-9.98549
fer	-9.98558
sesta	-9.98564
▁nimeksi	-9.98616
▁trans	-9.9866
▁korkein	-9.98664
▁jäänyt	-9.98667
tori	-9.98699
ointi	-9.98777
▁jatkui	-9.98812
▁vahva	-9.98872
tilan	-9.98898
▁hiekka	-9.98908
paino	-9.98924
▁olympialaisissa	-9.98927
▁por	-9.98945
▁port	-9.9898
▁jääkiekko	-9.99085
▁virallisesti	-9.99163
▁monissa	-9.99171
▁kutsuttu	-9.99184
▁1953	-9.99197
▁saarella	-9.99202
▁ana	-9.99239
luokan	-9.99281
▁metal	-9.99287
kov	-9.99304
▁aalto	-9.9935
▁heikki	-9.99354
▁voitto	-9.99375
▁yhdysvaltoihin	-9.99401
▁miljoonan	-9.99403
▁kap	-9.99421
▁ai	-9.99542
▁national	-9.99559
▁air	-9.99632
▁lohko	-9.99638
oon	-9.99649
▁heistä	-9.99705
jon	-9.99775
▁studio	-9.9985
▁tuotti	-9.999
nu	-9.99951
%	-10.0001
kkä	-10.0004
▁muissa	-10.0006
▁vaakuna	-10.0006
▁aikuis	-10.0008
▁linnan	-10.0008
▁alan	-10.001
silla	-10.0014
▁para	-10.0018
80	-10.0022
▁apu	-10.0026
rd	-10.003
▁levi	-10.0032
väli	-10.0033
oppi	-10.004
▁olevansa	-10.0045
▁king	-10.005
▁sisäisen	-10.0053
▁muuttaa	-10.0055
isessa	-10.0056
▁tutkimuksen	-10.0057
misessa	-10.0058
▁viesti	-10.006
ika	-10.0061
nimisen	-10.0083
▁kehitti	-10.0089
ppu	-10.0097
ikan	-10.0104
▁1949	-10.0109
▁useat	-10.0115
ou	-10.0119
vista	-10.0119
▁ac	-10.0119
ó	-10.0122
▁pii	-10.0123
▁rakentaa	-10.0125
vet	-10.0127
▁harry	-10.013
laa	-10.0132
▁pika	-10.0139
▁nopea	-10.0153
ney	-10.0163
▁love	-10.0171
▁varustettu	-10.0173
▁samaa	-10.0179
▁tro	-10.0181
▁selvi	-10.0181
ah	-10.0183
▁kuuden	-10.0185
asia	-10.0186
▁pääkaupunki	-10.0187
▁tärkein	-10.0189
▁juna	-10.0193
▁lauri	-10.0195
▁lajia	-10.0198
▁vol	-10.02
▁onkin	-10.022
▁kansanedustaja	-10.022
▁seuraava	-10.022
▁pelaajana	-10.0222
▁ilmasto	-10.0226
hr	-10.0228
vel	-10.023
sista	-10.023
▁tuomio	-10.023
▁joutuu	-10.0231
lento	-10.0232
▁iv	-10.0232
án	-10.0235
▁kohdalla	-10.0237
▁1915	-10.024
▁ed	-10.0244
▁west	-10.0253
pol	-10.0255
cin	-10.0261
omi	-10.0263
22	-10.0266
▁250	-10.0268
▁kahdesta	-10.0269
▁gra	-10.0273
▁col	-10.0273
▁yk	-10.0273
▁sul	-10.0276
op	-10.0279
▁1600-	-10.0281
alle	-10.0289
▁ex	-10.029
▁albert	-10.0293
reita	-10.0296
▁heikko	-10.0297
wi	-10.0304
▁ah	-10.0309
salo	-10.031
▁päätyttyä	-10.0321
▁maasta	-10.0324
ik	-10.0325
nuorten	-10.0334
rä	-10.0338
▁ly	-10.0341
▁pohjan	-10.0343
16	-10.0346
▁valmistunut	-10.0346
▁tilanne	-10.0349
▁teko	-10.0358
liikkeen	-10.036
isto	-10.0362
▁°	-10.0367
▁viikon	-10.0369
▁ollessaan	-10.0369
▁kilpailussa	-10.037
▁australian	-10.0378
ologi	-10.0381
▁siviili	-10.0383
▁ravintola	-10.0387
▁lasku	-10.0389
▁taajama	-10.0391
▁vaikutteita	-10.0394
▁toisistaan	-10.0394
▁porin	-10.0395
halli	-10.0401
tter	-10.0404
liigassa	-10.0407
henkilö	-10.0409
▁ikään	-10.041
▁bel	-10.0413
▁lääkäri	-10.0415
▁suunniteltu	-10.0416
▁sisään	-10.0416
▁koro	-10.0422
tettava	-10.0436
▁yksilö	-10.0438
rik	-10.0441
▁venäjä	-10.0441
teatteri	-10.0451
▁2007.	-10.0458
▁kanava	-10.0464
▁kärki	-10.0467
▁päälle	-10.047
▁sodassa	-10.047
▁etsi	-10.0471
▁45	-10.0471
▁alkunsa	-10.0479
huone	-10.0484
▁ya	-10.0489
▁uni	-10.0491
ää	-10.0491
70	-10.0502
jän	-10.0503
▁tehdas	-10.0509
▁heimo	-10.0509
▁saha	-10.0517
ez	-10.0525
▁silta	-10.0527
▁apulais	-10.0528
▁ohi	-10.0546
oita	-10.0549
▁ruotsalainen	-10.055
▁juutalais	-10.055
▁muodostui	-10.0551
lliseen	-10.0559
▁hans	-10.0563
▁aiheutti	-10.0566
▁joukkoon	-10.0566
11	-10.0568
kari	-10.0574
albumi	-10.0575
sopimuksen	-10.0582
▁mäki	-10.0584
▁määrättiin	-10.0585
▁kas	-10.0589
▁kre	-10.059
sel	-10.0595
▁erään	-10.0597
▁lampi	-10.0606
oikeus	-10.0608
▁myöskään	-10.0611
miä	-10.0614
neeseen	-10.0614
▁matkalla	-10.0614
▁rat	-10.0616
gh	-10.0623
toimisto	-10.0627
▁alkuperäinen	-10.0627
▁miestä	-10.0629
▁aseman	-10.0633
▁liikkeen	-10.0636
▁maalintekijä	-10.0639
24	-10.0642
▁uuteen	-10.0644
▁vaasan	-10.0645
▁ilmiö	-10.0645
▁kesti	-10.0648
ttävä	-10.0652
kul	-10.0654
45	-10.0663
▁kokoonpano	-10.0666
▁hir	-10.0674
▁laina	-10.0675
▁valmistettu	-10.0689
▁kenttä	-10.0691
▁hau	-10.0692
▁alueilla	-10.0695
▁virta	-10.0696
▁koo	-10.0709
▁lumi	-10.0709
▁bor	-10.0712
miehenä	-10.0714
▁lentoasema	-10.0716
▁maiden	-10.0718
vuori	-10.072
▁takaa	-10.0721
▁selkä	-10.0722
oni	-10.0723
?	-10.0727
▁rannikko	-10.0727
▁pariisissa	-10.0732
mmaksi	-10.0732
▁kasvatti	-10.0734
▁1906	-10.0737
mb	-10.0738
▁2008.	-10.0739
▁harmaa	-10.0739
▁arvon	-10.0742
▁keskimäärin	-10.0742
des	-10.0743
▁tulla	-10.0746
mässä	-10.0749
▁esiintymis	-10.0758
▁liiga	-10.0762
▁cu	-10.0763
▁laske	-10.0763
▁kerrotaan	-10.077
ike	-10.0771
▁teoksia	-10.0772
teja	-10.0772
▁jakso	-10.0773
▁mainitaan	-10.0776
ium	-10.0778
▁moskovan	-10.0783
aari	-10.0784
▁vettä	-10.0785
▁auringon	-10.0789
▁(”	-10.0794
vis	-10.0795
▁palkinto	-10.0795
anin	-10.0796
▁fu	-10.0797
puolue	-10.0797
▁alas	-10.08
▁bio	-10.08
▁amerikan	-10.0801
raja	-10.0801
▁näytelmä	-10.0803
▁salli	-10.0811
ava	-10.0817
▁2010.	-10.0821
▁suomea	-10.0823
▁filosofi	-10.0825
▁matkan	-10.0826
tse	-10.083
▁mylly	-10.0832
▁salo	-10.0832
▁avustivat	-10.0833
▁opiskelu	-10.0834
▁jussi	-10.0835
▁lämpötila	-10.0841
nd	-10.0844
▁war	-10.0847
▁neliökilometriä	-10.086
▁kasva	-10.0861
▁kisa	-10.0866
▁live	-10.0866
▁sovi	-10.0867
▁dar	-10.0867
▁sha	-10.0868
▁suhteen	-10.0873
▁suomalaisten	-10.0875
▁pohjoisessa	-10.0876
▁määrää	-10.0876
▁toisinaan	-10.0878
▁sor	-10.088
▁useimmiten	-10.0882
▁turvallisuus	-10.0891
▁aa	-10.0892
▁kuluttua	-10.0892
▁uran	-10.0896
ologia	-10.0897
isista	-10.0898
▁yrjö	-10.0899
▁maalin	-10.0915
pallo	-10.0918
ow	-10.0918
▁yliopistosta	-10.0921
etta	-10.0927
▁palaa	-10.0927
kot	-10.0929
▁gar	-10.0933
▁eteenpäin	-10.0939
lia	-10.094
ime	-10.0941
▁brittiläinen	-10.0942
▁tanskan	-10.0942
▁rai	-10.0942
▁ikä	-10.0945
▁kei	-10.0951
dra	-10.0952
5.	-10.0959
▁väl	-10.096
▁johtoon	-10.096
▁henry	-10.0966
▁asukkaat	-10.0968
▁you	-10.0972
▁frank	-10.0973
▁lapsen	-10.0975
▁vuosia	-10.0975
vää	-10.0975
nnan	-10.0976
udu	-10.0981
▁uudet	-10.0982
isa	-10.0984
▁ste	-10.0985
▁maakunta	-10.0988
▁toimisto	-10.1
fo	-10.1007
▁perustaja	-10.101
suom	-10.1015
▁hil	-10.1018
▁der	-10.1019
▁tapaa	-10.102
sana	-10.1023
▁vaihtelee	-10.1024
itu	-10.1031
▁suuret	-10.1031
▁näkö	-10.1034
tos	-10.1036
▁tuomittiin	-10.1036
nneksi	-10.1037
▁valmistu	-10.104
▁mikko	-10.1042
▁kim	-10.1048
▁je	-10.1049
▁daniel	-10.1049
▁sc	-10.1052
▁ammattilais	-10.1054
stö	-10.1055
ido	-10.1057
▁hedelmä	-10.1058
mestari	-10.1058
6.	-10.1061
▁kirjoittama	-10.1063
▁koske	-10.1067
▁suunnittelema	-10.107
23	-10.1071
selän	-10.1075
▁ek	-10.1078
▁suhteellisen	-10.1081
▁asian	-10.1082
▁pysyi	-10.1082
▁2009.	-10.1083
▁rakennuksen	-10.1084
asu	-10.1084
▁edustaja	-10.1085
au	-10.1087
▁päättää	-10.109
▁santa	-10.1094
▁ihminen	-10.1094
▁afrikan	-10.1097
▁men	-10.1099
cha	-10.1101
▁alueelta	-10.1104
mann	-10.1104
▁tehdään	-10.1105
▁she	-10.1107
▁kulma	-10.1109
▁all	-10.111
itse	-10.1113
▁luonto	-10.1119
▁karjalan	-10.1119
tom	-10.1122
pelaaja	-10.1123
▁hyvän	-10.1126
▁tyttö	-10.1127
isuutta	-10.1127
▁suuntaan	-10.1128
tua	-10.1129
▁che	-10.1132
1-	-10.1132
▁hel	-10.1137
▁1905	-10.114
▁työskennellyt	-10.1144
▁mestaruus	-10.1146
р	-10.1148
päällikkönä	-10.116
▁pojan	-10.117
▁opiskelija	-10.1171
▁tehtävä	-10.1171
mpiä	-10.1172
amerikan	-10.1175
kadun	-10.1181
ranta	-10.1191
▁pääsee	-10.1195
▁lukien	-10.1196
tyn	-10.1198
seuran	-10.12
▁niihin	-10.1201
▁kaikissa	-10.1205
▁naapuri	-10.1206
laitos	-10.1206
▁tuottaja	-10.1206
▁1912	-10.1209
17	-10.1213
▁järjestää	-10.1216
hahmo	-10.1216
▁neljäs	-10.1216
▁estää	-10.1218
▁tyr	-10.1219
▁muualla	-10.1219
▁voinut	-10.1221
vuoden	-10.1221
▁yorkin	-10.1231
▁jolle	-10.1234
▁piano	-10.1238
▁poly	-10.1242
tee	-10.1242
luo	-10.1247
puolueen	-10.1249
▁tyypillisesti	-10.1258
▁otto	-10.1258
tro	-10.1263
▁valmistaa	-10.1276
▁luke	-10.1276
▁virtaa	-10.1282
▁valkoinen	-10.1284
▁oscar	-10.1289
▁alkoholi	-10.1293
dd	-10.1294
zz	-10.1297
jev	-10.1298
▁tahansa	-10.1299
▁ominaisuudet	-10.13
▁peru	-10.1311
▁varjo	-10.1311
▁turku	-10.1313
▁2011.	-10.1314
kilpailu	-10.1317
▁sur	-10.1322
▁jälki	-10.1322
▁aluetta	-10.1325
▁pietarin	-10.1326
▁elektroni	-10.1326
,8	-10.1328
tukset	-10.133
▁oikeuden	-10.1338
opin	-10.1338
johtajana	-10.1349
lis	-10.135
kala	-10.1351
▁katso	-10.1351
ite	-10.1359
musiikki	-10.1361
vuonna	-10.1361
▁hotelli	-10.1364
▁tekijä	-10.1365
▁viikkoa	-10.1371
▁projekti	-10.1374
▁silmä	-10.1379
▁tilan	-10.1381
▁voittaja	-10.1387
▁lista	-10.1387
bb	-10.1388
▁viljely	-10.1395
▁kappaleita	-10.1396
▁runoilija	-10.1399
▁mikro	-10.14
käyttö	-10.14
mys	-10.1416
▁omat	-10.1423
essään	-10.1424
▁1907	-10.1425
▁hyväksi	-10.1428
piir	-10.143
▁hevos	-10.1433
▁august	-10.1436
hallituksen	-10.1437
tuksesta	-10.1441
▁hopea	-10.1442
kiin	-10.1449
▁lontoossa	-10.145
▁pohjoiseen	-10.1451
nos	-10.1453
ttuaan	-10.1456
onia	-10.146
▁29	-10.1466
▁edessä	-10.1473
ensä	-10.1477
38	-10.1481
▁joidenkin	-10.1483
torni	-10.1486
▁joukkueeseen	-10.1487
ssään	-10.1493
villa	-10.1495
kulttuuri	-10.1498
heimo	-10.1503
▁kirjoitus	-10.1505
▁ilmestynyt	-10.1508
koira	-10.1514
toi	-10.1515
▁piirin	-10.1518
▁ohjelmisto	-10.152
▁ren	-10.1537
37	-10.1538
▁annettiin	-10.1541
▁700	-10.1544
valo	-10.1544
▁joutuivat	-10.1545
missa	-10.1547
▁monta	-10.1553
▁tukea	-10.1553
iselle	-10.1554
ministeri	-10.1555
▁af	-10.1559
▁reuna	-10.156
▁kartanon	-10.1562
▁ran	-10.1564
▁kehittyi	-10.1565
net	-10.157
ret	-10.1571
н	-10.1572
▁palveluksessa	-10.1572
▁keksi	-10.1573
▁smith	-10.1578
▁liu	-10.1579
ppe	-10.1588
for	-10.1588
▁perusta	-10.1604
▁ros	-10.1609
osaston	-10.1611
▁konsertti	-10.1613
kunnasta	-10.1614
▁käyttävät	-10.1615
ier	-10.1619
▁naaras	-10.1619
▁ooppera	-10.1622
▁sin	-10.163
olan	-10.1634
risti	-10.1635
▁vihreä	-10.1635
zan	-10.1638
▁henkilöä	-10.1645
▁kaakkois	-10.1648
▁mari	-10.165
lau	-10.1651
▁cup	-10.1657
▁finn	-10.1658
▁itävallan	-10.166
▁pesä	-10.1663
▁2006.	-10.1668
kiel	-10.167
▁miehet	-10.1671
▁kovin	-10.1674
▁kapea	-10.1675
ula	-10.1679
sp	-10.168
maton	-10.168
▁arvioi	-10.1683
32	-10.1683
▁33	-10.1686
paikkoja	-10.1687
▁kos	-10.1693
▁julkaissut	-10.1694
▁vaunu	-10.1696
▁yhteistyötä	-10.17
▁vastaava	-10.1701
▁useimmat	-10.1702
▁orkesteri	-10.1703
▁aiheuttama	-10.1709
▁omista	-10.1714
zer	-10.1716
▁neste	-10.1717
joh	-10.1719
▁lontoon	-10.1722
▁naisen	-10.1723
▁juhli	-10.1724
▁alkuperä	-10.1726
▁olisivat	-10.173
yksi	-10.1732
tio	-10.1732
pohja	-10.1737
▁maailmassa	-10.1739
▁american	-10.1739
▁rä	-10.1739
▁avioitui	-10.174
▁järjestetty	-10.1743
▁rei	-10.1743
▁käytiin	-10.1743
lliset	-10.1746
ottelu	-10.1747
65	-10.1751
kasta	-10.1752
▁luostari	-10.1757
▁vaihe	-10.1758
can	-10.176
▁mil	-10.1761
▁keräsi	-10.1762
▁mene	-10.1768
▁maailmaa	-10.1774
haa	-10.1775
▁lähetettiin	-10.1776
▁nord	-10.1778
kur	-10.1782
▁juha	-10.1785
tyksen	-10.1785
ning	-10.1792
▁kymmen	-10.1795
istaan	-10.1797
▁maantiede	-10.1798
metri	-10.18
▁merkittäviä	-10.1807
▁heille	-10.1807
oista	-10.1811
▁keskustelu	-10.1811
▁päätös	-10.1811
oilla	-10.1811
▁neuvo	-10.1811
▁järjesti	-10.1814
▁uudeksi	-10.1815
meri	-10.1819
▁+	-10.1823
▁elokuvaa	-10.1826
▁puutarha	-10.183
▁kahdessa	-10.1832
▁kanna	-10.1833
4.	-10.1842
▁sankari	-10.1842
historia	-10.1845
▁pienempi	-10.1847
nus	-10.185
holm	-10.1852
▁ilo	-10.1854
▁sie	-10.1858
▁kara	-10.186
mit	-10.186
tteja	-10.1861
29	-10.1862
▁kg	-10.1863
▁italiassa	-10.1863
▁mukanaan	-10.1864
▁rumpali	-10.1867
▁blues	-10.1873
▁ampuma	-10.1874
bel	-10.1875
▁pah	-10.1879
▁kuolemaansa	-10.1879
▁sijoitettu	-10.1879
▁31	-10.1883
kylän	-10.1884
▁löysi	-10.1886
▁levyn	-10.1891
▁city	-10.1895
▁asutus	-10.1896
▁elä	-10.1897
▁keskenään	-10.1898
jille	-10.1898
▁osalta	-10.1898
pinta	-10.19
▁varasi	-10.1901
▁kaa	-10.1904
dor	-10.1904
▁urallaan	-10.1906
▁kutsu	-10.1911
▁international	-10.192
▁yorkissa	-10.1922
▁kuvaus	-10.1922
metsä	-10.193
▁ympärille	-10.1934
sha	-10.1935
tuksessa	-10.1935
▁talli	-10.1937
kos	-10.1939
liikenne	-10.1941
▁kaupungista	-10.195
tää	-10.1951
mal	-10.1958
▁tilasto	-10.1962
▁muodossa	-10.1965
kilpailut	-10.1967
kunnassa	-10.197
▁kana	-10.1972
lehdessä	-10.1972
▁martti	-10.1974
▁tarinan	-10.1974
▁tutkija	-10.1976
▁symboli	-10.1977
▁vähitellen	-10.1978
lie	-10.1979
▁kato	-10.1987
▁ruu	-10.1995
ida	-10.1995
alin	-10.1996
▁säily	-10.1999
▁seinä	-10.2001
▁onnistunut	-10.2001
▁kakkos	-10.2003
kal	-10.2004
▁maksu	-10.2004
yri	-10.2006
▁kaksois	-10.2007
▁gro	-10.2009
▁vaihtoehto	-10.2011
▁jatkosopimuksen	-10.2011
alla	-10.2011
▁kuopion	-10.2017
ré	-10.2021
▁savi	-10.2023
ttyä	-10.2023
▁mus	-10.2028
▁tee	-10.2032
▁kappaleet	-10.2032
väri	-10.2033
▁1908	-10.2036
▁vihkiminen	-10.2037
▁verta	-10.2044
▁jäljellä	-10.2045
iz	-10.2048
linna	-10.2049
teita	-10.2051
▁uskonto	-10.2056
nis	-10.206
tš	-10.2062
▁puh	-10.2072
niminen	-10.2074
▁royal	-10.2076
▁upseeri	-10.2077
ac	-10.2078
sota	-10.2081
▁kulki	-10.2082
sella	-10.2082
▁paine	-10.2082
▁sanan	-10.2082
▁bon	-10.2085
34	-10.2087
▁koivu	-10.2087
α	-10.2089
stus	-10.2092
▁halli	-10.2092
42	-10.2093
▁taiteen	-10.2093
▁maantie	-10.2099
age	-10.21
ft	-10.21
▁valtatie	-10.2101
▁high	-10.2104
▁kunnallis	-10.2104
▁pakko	-10.2105
otto	-10.2112
▁lapset	-10.2113
▁kuolemaan	-10.2115
▁laskettiin	-10.2119
▁muuttu	-10.212
▁kreivi	-10.2121
▁tule	-10.2127
lampi	-10.2128
▁ter	-10.2132
▁usea	-10.2137
▁pudotuspeleissä	-10.2137
▁sydän	-10.2137
▁pankki	-10.2138
▁lähde	-10.2138
vaunu	-10.2142
▁jakaa	-10.2145
▁istu	-10.2145
▁perustama	-10.2149
▁pelaajan	-10.2152
▁kirjoitettu	-10.2152
▁rannalla	-10.2153
▁murha	-10.2154
▁vaaleissa	-10.2156
car	-10.2156
rit	-10.2156
ds	-10.2159
▁hur	-10.2161
vero	-10.2164
tha	-10.2168
▁päivi	-10.2169
konsekraattorina	-10.2176
▁uhri	-10.2181
uuteen	-10.2182
▁lakkautettiin	-10.2182
paikan	-10.2183
▁kuukausi	-10.2183
▁miehistö	-10.2187
isiksi	-10.2187
▁niinpä	-10.2191
▁voitiin	-10.2191
▁valittu	-10.2191
▁will	-10.2192
▁sula	-10.2195
▁pidä	-10.2196
▁tapauksessa	-10.2198
kassa	-10.2199
▁juniori	-10.22
llin	-10.22
▁ohjasi	-10.2202
▁seuraavalla	-10.2203
nee	-10.2206
▁kokemäenjoen	-10.2206
▁jack	-10.2207
▁art	-10.2209
▁parhaimmillaan	-10.2209
illaan	-10.2214
▁tehden	-10.2216
▁japanissa	-10.2218
▁senttimetriä	-10.2218
▁valokuva	-10.222
▁min	-10.2222
▁»	-10.2223
▁ohjaaja	-10.2223
▁1500-	-10.2231
uma	-10.2232
hun	-10.2233
▁elin	-10.2233
luokka	-10.2234
▁eivätkä	-10.224
▁1913	-10.2241
▁käytöstä	-10.2242
▁kulu	-10.2243
▁mel	-10.2248
tynyt	-10.2254
llo	-10.2256
otti	-10.2256
č	-10.2257
uksiin	-10.2261
▁matkustaja	-10.2264
▁school	-10.2264
▁toimia	-10.2271
▁suori	-10.2276
rs	-10.2285
▁hyökkäyksen	-10.2287
▁päätyi	-10.2289
ör	-10.2291
lé	-10.2291
▁herra	-10.2292
▁wilhelm	-10.2294
▁totesi	-10.2295
▁tarjo	-10.2296
ii	-10.2296
▁nähtiin	-10.2297
dis	-10.2299
▁ruskea	-10.2299
▁kolmesta	-10.23
▁laskuoja	-10.2307
▁kristillis	-10.2311
▁jäivät	-10.2312
▁suojelu	-10.2317
▁viimeiset	-10.2319
▁pietari	-10.2322
▁lii	-10.2323
▁määrän	-10.2326
▁komentaja	-10.2326
logi	-10.2332
▁ongelmia	-10.2333
▁jukka	-10.2333
▁kahta	-10.2345
▁italialainen	-10.2345
▁vo	-10.2346
▁hetkellä	-10.2346
▁englannissa	-10.2347
▁kestää	-10.2349
▁espanja	-10.2353
▁vanhempi	-10.2354
ckin	-10.2355
31	-10.2356
▁päin	-10.2357
▁uudestaan	-10.2357
▁len	-10.2359
▁mä	-10.236
▁leiri	-10.2361
26	-10.2363
vir	-10.2369
▁syntymä	-10.237
28	-10.2374
▁sijoitettiin	-10.2376
ú	-10.2379
▁ritari	-10.238
▁laski	-10.2382
kokoelma	-10.2386
▁henkilökohtaise	-10.2388
▁ci	-10.2394
▁osallistu	-10.2398
▁saaneet	-10.2399
koti	-10.2404
▁kirjoittaa	-10.2407
fin	-10.2409
▁julkaisema	-10.2411
▁lämpö	-10.2418
2-	-10.2419
7.	-10.2423
toiminnan	-10.2426
▁italia	-10.2427
rk	-10.2427
▁far	-10.2431
▁välille	-10.2432
▁20-	-10.2436
alisti	-10.2437
▁kou	-10.2443
yhdistys	-10.2449
▁ir	-10.2456
▁runko	-10.2458
▁etelässä	-10.2459
vara	-10.246
▁yleisö	-10.2463
▁alkuun	-10.2463
low	-10.2464
musta	-10.2464
▁ol	-10.2466
esin	-10.2467
▁koski	-10.2468
14	-10.2469
▁ruotsi	-10.2471
▁päähän	-10.2471
tele	-10.2473
▁nimitys	-10.2474
ohjelman	-10.2474
▁palkinnon	-10.2481
▁lou	-10.2481
▁raa	-10.2486
▁sisälsi	-10.2492
▁määrin	-10.2498
36	-10.2498
▁aleksanteri	-10.2498
▁jokainen	-10.2501
33	-10.2501
▁materiaali	-10.2502
▁suunta	-10.2502
▁mai	-10.2503
teollisuus	-10.2503
▁sanotaan	-10.2504
jakso	-10.2504
▁omistama	-10.2507
▁veri	-10.251
talon	-10.2511
dar	-10.2511
85	-10.2511
ivät	-10.2518
▁kulttuurin	-10.2519
▁torni	-10.2522
▁toisiinsa	-10.2523
-1	-10.2525
▁rinta	-10.2526
ministeriön	-10.2533
▁simon	-10.2534
▁pystyi	-10.2535
▁shi	-10.2541
▁käyttämä	-10.255
▁näyttää	-10.2553
▁tietää	-10.2556
▁kutsui	-10.2557
▁pra	-10.2561
▁väliin	-10.2565
▁vapaaehtois	-10.2569
▁viha	-10.257
musiikin	-10.257
▁radan	-10.2571
▁saira	-10.2574
▁edellä	-10.2576
▁seka	-10.2576
▁ep	-10.2577
▁real	-10.2579
▁osallistunut	-10.258
▁uhka	-10.258
▁jaakko	-10.258
▁ansio	-10.2581
27	-10.2582
41	-10.2584
▁lyhyen	-10.2584
▁kahdella	-10.2589
nie	-10.2593
▁järjestetään	-10.2595
▁raaka	-10.2606
qui	-10.2607
▁nainen	-10.2607
▁päällä	-10.2609
▁mie	-10.261
▁vasemmisto	-10.2613
kkaan	-10.2614
▁seuraavaksi	-10.2614
▁nar	-10.2614
▁sol	-10.2616
ikko	-10.2616
▁elinkeino	-10.2617
▁esiin	-10.2618
iko	-10.2618
▁villa	-10.2623
▁saksalaisten	-10.2626
sor	-10.2633
▁hallitsija	-10.2635
▁valtaa	-10.2635
▁elo	-10.2638
▁arvostelu	-10.2642
ukselle	-10.2642
▁tohtoriksi	-10.2643
▁kohtaa	-10.2645
kirjailija	-10.2647
▁ark	-10.2648
▁käyttivät	-10.265
▁sijoitus	-10.2655
▁vahvisti	-10.2658
lammi	-10.2658
muksen	-10.2658
▁valmistetaan	-10.2659
▁erik	-10.266
rat	-10.2661
▁sara	-10.2664
▁kangas	-10.2669
isilla	-10.267
–17	-10.2671
▁pelkästään	-10.2673
▁2005.	-10.2676
eita	-10.2679
▁maajoukkue	-10.2679
▁'	-10.2679
jää	-10.268
▁laivan	-10.268
▁entistä	-10.2682
selle	-10.2682
▁hiippakunnan	-10.2683
▁merkki	-10.2688
teeseen	-10.2689
▁2012.	-10.2692
▁näkyy	-10.2694
▁ur	-10.2695
bri	-10.2695
kyky	-10.2695
▁perustuva	-10.2696
tukseen	-10.2706
▁panssari	-10.2706
▁1910	-10.2706
▁jun	-10.2707
▁lee	-10.2711
▁kirjallisuuden	-10.2713
▁hai	-10.2714
▁vil	-10.2716
▁järjestelmä	-10.2718
▁helsinkiin	-10.2719
▁korvasi	-10.2721
▁pitänyt	-10.2724
▁lukio	-10.2726
▁pyysi	-10.2729
aminen	-10.273
▁luultavasti	-10.273
▁tuomi	-10.273
▁tehtävänä	-10.2731
89	-10.2732
gue	-10.2737
▁manner	-10.2738
▁hyväksyi	-10.2739
▁hinta	-10.274
▁suola	-10.2744
puolen	-10.2744
kirkko	-10.2751
▁järvellä	-10.2753
▁[	-10.2757
vuoren	-10.2759
if	-10.276
▁lehdet	-10.2761
▁kiinteistö	-10.2761
▁avioliitto	-10.2761
▁noussut	-10.2762
▁ant	-10.2762
ung	-10.2766
museo	-10.277
ander	-10.2773
ves	-10.2773
idi	-10.2775
▁solu	-10.2775
ttavat	-10.2776
nit	-10.2778
▁yksinkertais	-10.2778
▁riippuen	-10.2779
▁1911	-10.2781
sivu	-10.2783
▁fri	-10.2786
▁bri	-10.2788
joella	-10.2789
tyi	-10.279
▁hieno	-10.2793
valtio	-10.2802
▁film	-10.2802
cy	-10.2804
▁kuluessa	-10.2804
▁lentokone	-10.2807
▁lounais	-10.2811
tutkinnon	-10.2813
,5	-10.2816
▁pel	-10.2816
▁maajoukkueura	-10.2816
hel	-10.2817
ija	-10.2817
▁kohtalo	-10.282
▁sijoittu	-10.2824
▁keskittyi	-10.2824
suku	-10.2825
▁sim	-10.2829
▁halu	-10.2829
▁palatsi	-10.2829
▁tehtaan	-10.2829
▁tappio	-10.2829
tic	-10.2829
▁aleksandr	-10.2831
▁75	-10.2832
empi	-10.2833
jäsen	-10.2836
itta	-10.2837
uu	-10.2838
▁records	-10.2839
▁tampere	-10.284
ttanut	-10.2843
▁matkaa	-10.2848
alta	-10.285
▁este	-10.2853
lund	-10.2854
▁paluu	-10.2855
▁joukkuetta	-10.2859
▁soittaa	-10.286
rakente	-10.2863
▁etelään	-10.2863
sija	-10.2863
▁jäsentä	-10.2866
▁kuuluisa	-10.2876
▁tour	-10.2876
hoito	-10.2878
▁kaupunkia	-10.2878
aikana	-10.2879
▁wi	-10.288
▁määräsi	-10.288
▁tre	-10.2881
kia	-10.2884
▁rauha	-10.2888
▁löytyi	-10.289
▁alkupuolella	-10.289
▁runkosarjassa	-10.2891
▁saavuttanut	-10.2893
▁tilaa	-10.2894
▁termi	-10.2894
▁36	-10.2895
kis	-10.29
▁päävalmentaja	-10.2901
-20	-10.2903
sarjaan	-10.2906
▁perheeseen	-10.2908
kau	-10.2912
▁ajattelu	-10.2913
ismin	-10.2917
▁varaustilaisuud	-10.2918
vasti	-10.2918
vil	-10.2919
▁hovi	-10.2919
▁ruotsalais	-10.2922
9.	-10.2936
field	-10.2944
▁tampereella	-10.2946
▁mahdollisimman	-10.2948
▁jäseniä	-10.2948
teri	-10.295
cal	-10.2951
ford	-10.2951
▁kansallispuisto	-10.2957
stra	-10.2957
97	-10.296
ttämään	-10.2961
▁puolen	-10.2962
▁jalka	-10.2962
▁rahaa	-10.2963
▁internet	-10.2964
▁kemi	-10.2967
▁cal	-10.2968
mieli	-10.2974
▁may	-10.2975
▁kapina	-10.2976
ellinen	-10.2977
▁pakeni	-10.2977
▁kuollut	-10.2977
▁tietä	-10.2979
▁("	-10.2986
▁sand	-10.2987
up	-10.2988
▁pyöri	-10.2988
ksia	-10.2991
▁tunnettuja	-10.2995
▁jatkuva	-10.2996
▁ap	-10.2997
▁huomattava	-10.2998
▁lienee	-10.3
▁rakentaminen	-10.3001
kreik	-10.3003
pään	-10.3004
rus	-10.3005
▁kuoro	-10.3006
▁tapasi	-10.3011
putki	-10.3012
▁mad	-10.3017
▁tappaa	-10.3024
▁kohde	-10.3025
▁auttaa	-10.3027
▁tuhoutui	-10.303
64	-10.3031
▁kaikkia	-10.3035
84	-10.3037
avan	-10.3039
päällikkö	-10.3041
▁matkailu	-10.3045
stein	-10.305
yhdistyksen	-10.305
▁fin	-10.3056
▁poliittinen	-10.3059
▁vallankumouksen	-10.3061
▁päähenkilö	-10.3061
▁tuuli	-10.3063
▁bay	-10.3066
▁metrillä	-10.3069
,6	-10.3069
▁jalkapalloilija	-10.307
▁sijainti	-10.3071
▁turussa	-10.3072
39	-10.3073
sky	-10.3075
▁punainen	-10.308
▁hallitsi	-10.3082
▁maasto	-10.3083
▁liittyvät	-10.3084
▁kohtasi	-10.3087
▁nähden	-10.3091
▁kymijoen	-10.3091
▁olo	-10.3092
▁parhaaksi	-10.3094
mun	-10.3096
rei	-10.3097
▁vuodeksi	-10.3101
8.	-10.3104
▁ranskalais	-10.3106
▁yhdistys	-10.3106
▁nosta	-10.3107
▁erkki	-10.3115
▁elämää	-10.3116
▁anton	-10.312
▁pohjoispuolella	-10.3125
▁tappa	-10.3129
▁koh	-10.313
▁om	-10.3132
▁metro	-10.3134
ttänyt	-10.3134
▁televisiosarja	-10.3135
▁band	-10.3141
▁professorina	-10.3141
one	-10.3144
▁34	-10.3144
uksella	-10.3146
▁kierto	-10.3146
lus	-10.3148
▁joukkoja	-10.3151
▁israelin	-10.3151
amo	-10.3154
▁kunnassa	-10.3157
▁loput	-10.3159
0-	-10.3159
neensa	-10.316
▁tru	-10.316
▁isän	-10.3162
ang	-10.3162
▁ruumiin	-10.3165
hopeaa	-10.3167
▁suurimmat	-10.3168
▁hor	-10.3169
art	-10.3171
▁kirje	-10.3177
▁max	-10.3178
▁tiedustelu	-10.3178
los	-10.3179
▁ajoneuvo	-10.3181
ottelua	-10.3182
▁muuten	-10.3182
▁vatsa	-10.3183
▁maailmansodassa	-10.3184
▁vaihtoi	-10.3185
▁valmistettiin	-10.3189
▁vala	-10.3191
oto	-10.3191
▁gri	-10.3192
▁alaisuudessa	-10.3193
suoja	-10.3194
▁37	-10.3195
▁arkkitehtuuri	-10.3197
neista	-10.3202
▁hengen	-10.3202
lly	-10.3204
▁vis	-10.3208
▁kirjallisuus	-10.321
järjestön	-10.321
▁paa	-10.3213
ec	-10.3215
▁900	-10.3216
▁kaikkea	-10.3216
▁cre	-10.3222
laiseen	-10.3223
▁=	-10.3226
milla	-10.3228
▁huolto	-10.3234
▁kevään	-10.3234
▁enimmäkseen	-10.3236
ellin	-10.3239
ttivat	-10.324
▁nikolai	-10.324
tsu	-10.3242
verkko	-10.3243
lukujen	-10.3244
▁tuleva	-10.3245
ino	-10.3246
aasi	-10.3247
,3	-10.3248
▁vaihto	-10.3251
liiga	-10.3256
vaaran	-10.3257
▁olli	-10.3263
ld	-10.3264
55	-10.3268
nik	-10.3273
aluetta	-10.3277
▁rajan	-10.3279
▁jatkuvasti	-10.3289
▁lääke	-10.3291
tekijä	-10.3294
▁väestöstä	-10.3294
▁alkuperäisen	-10.3299
mille	-10.3301
▁haapa	-10.3301
75	-10.3304
▁show	-10.3306
▁päätettiin	-10.3312
yritys	-10.3317
▁2014.	-10.3318
▁teräs	-10.3325
▁viita	-10.3328
▁julisti	-10.3339
▁tiedetään	-10.3341
▁lähetys	-10.3343
ón	-10.3343
▁tykistö	-10.3345
▁klo	-10.3348
▁vakio	-10.3349
▁club	-10.335
▁lännessä	-10.3353
▁uusien	-10.3355
▁mainos	-10.3355
▁tuomari	-10.3356
tystä	-10.3358
toimintaa	-10.3359
▁ilme	-10.3359
▁ajatus	-10.336
▁loma	-10.3361
▁juoksu	-10.3365
zo	-10.3366
▁hiili	-10.3372
hdi	-10.3372
ali	-10.3373
▁sk	-10.3374
▁ul	-10.3375
ude	-10.3377
▁mainittu	-10.3378
▁pappi	-10.338
▁sanoo	-10.3388
teollisuuden	-10.339
▁viidenneksi	-10.3391
▁uudessa	-10.3391
let	-10.3397
▁täytyy	-10.3397
▁ukrainan	-10.3397
joukot	-10.3398
yli	-10.3403
▁kuvi	-10.3407
▁nai	-10.3407
▁löydettiin	-10.3407
▁pur	-10.3409
▁up	-10.341
▁kil	-10.3411
kh	-10.3411
▁lainkaan	-10.3428
▁ehdolla	-10.3429
eg	-10.3429
▁riveissä	-10.3431
▁valinta	-10.3434
ila	-10.3434
maksu	-10.3435
▁japani	-10.3436
kenttä	-10.3437
fu	-10.344
▁paina	-10.344
▁opetti	-10.3442
▁uutis	-10.3445
▁2013.	-10.3448
julkaisu	-10.3455
miehet	-10.3462
sille	-10.3463
56	-10.3463
▁terä	-10.3464
oikeuden	-10.3466
▁naiset	-10.3469
▁korva	-10.347
lei	-10.3473
tinen	-10.3474
kainen	-10.3474
47	-10.3474
▁osassa	-10.3476
▁turkin	-10.3477
▁yu	-10.348
▁käsin	-10.3481
iuksen	-10.3485
▁paavo	-10.3485
▁muutos	-10.3485
▁höyry	-10.3488
▁1900	-10.3493
▁spe	-10.3498
▁pitivät	-10.3498
bon	-10.3499
▁taustalla	-10.3501
▁sävel	-10.3506
▁sanoma	-10.3507
▁teoria	-10.3509
,4	-10.3509
stin	-10.3512
tieto	-10.3516
▁luokiteltu	-10.3516
cker	-10.352
matto	-10.352
laitoksen	-10.3522
▁bro	-10.3528
tapahtuma	-10.3528
way	-10.3532
▁helppo	-10.3534
▁seuraavat	-10.3537
amerikassa	-10.354
urin	-10.3543
▁lehto	-10.3544
▁yhdistää	-10.3545
▁turnauksen	-10.3546
▁kuningatar	-10.3546
lajeja	-10.3547
▁taidemaalari	-10.3548
▁suhde	-10.3548
▁un	-10.3554
▁kaikista	-10.3555
akseen	-10.3555
▁edward	-10.3555
,9	-10.3557
▁rikko	-10.356
ympäristö	-10.3562
pyörä	-10.3565
uka	-10.357
▁laakso	-10.3571
▁pääsy	-10.3574
▁johtava	-10.3583
▁toiselle	-10.3584
▁nimet	-10.3588
▁luoda	-10.3588
mpaan	-10.3589
▁yhdeksi	-10.3589
bor	-10.3591
▁divisioona	-10.3591
tsi	-10.3592
▁joen	-10.3593
▁wil	-10.3594
▁park	-10.3595
▁prinssi	-10.3597
▁kirjoittaja	-10.3597
itti	-10.3598
▁merkittävästi	-10.3598
▁kuun	-10.3601
teista	-10.3604
kien	-10.3605
kanava	-10.3607
▁38	-10.3607
▁pystyy	-10.3611
▁olavi	-10.3612
▁taakse	-10.3614
▁tulevat	-10.3619
▁stra	-10.362
▁hell	-10.3623
▁viini	-10.3624
▁ham	-10.3625
hallinnon	-10.3628
0.	-10.363
▁aro	-10.3632
▁luona	-10.3633
uh	-10.3634
hallinto	-10.3638
▁tuote	-10.3638
▁herätti	-10.364
▁1940-	-10.3642
ttamaan	-10.3642
▁päässyt	-10.3644
▁käyttöä	-10.3644
▁kilpailija	-10.3645
▁seurakunnan	-10.3648
aihe	-10.365
▁nimityksen	-10.3651
▁tekemä	-10.3651
teltu	-10.3652
▁matkusti	-10.3654
str	-10.3657
enä	-10.3658
▁yhteiskunnallis	-10.3659
▁sijasta	-10.3659
kle	-10.3661
▁kisoissa	-10.3661
ttinen	-10.3667
▁heiko	-10.3669
imi	-10.367
▁com	-10.3674
▁erottaa	-10.3675
▁sii	-10.3675
maista	-10.3677
▁ilmavoimien	-10.3679
sali	-10.3691
kalla	-10.3691
ele	-10.3695
▁2008–2009	-10.3697
vii	-10.3702
ach	-10.3703
▁tukholman	-10.3704
▁itävalta	-10.3706
▁venäläinen	-10.3708
▁alexander	-10.371
▁tuntia	-10.3711
ima	-10.372
bra	-10.372
▁anta	-10.372
▁iho	-10.3721
▁kertoja	-10.3721
▁kylmä	-10.3724
hal	-10.3725
▁suomeksi	-10.3725
vuotis	-10.3727
tehtaan	-10.3728
mitta	-10.3729
▁kalle	-10.373
▁kom	-10.3734
▁ulkomailla	-10.3739
▁2015.	-10.374
ketju	-10.3743
oiden	-10.3743
▁kantaa	-10.3744
▁villi	-10.3746
▁arkkipiispa	-10.3747
▁hävittäjä	-10.3748
▁gor	-10.375
käy	-10.3751
▁tele	-10.3754
▁son	-10.3754
▁mit	-10.3755
▁2010–2011	-10.3756
▁asukkaita	-10.3757
▁hämeen	-10.376
ssin	-10.376
▁toimintaan	-10.3761
amaan	-10.3761
▁aloittaa	-10.3761
▁osavaltion	-10.3762
▁osia	-10.3763
▁jäseneksi	-10.3763
▁2009–2010	-10.3763
▁sub	-10.3764
▁nimesi	-10.3764
miehi	-10.3766
▁haja	-10.3767
▁ohjaama	-10.3769
ua	-10.3769
▁jaettu	-10.3774
▁erotettiin	-10.3777
ble	-10.3777
▁muuttuu	-10.3784
puisto	-10.3788
▁nuorena	-10.379
▁yläpuolella	-10.3791
ive	-10.3795
kirjan	-10.3796
▁pysy	-10.3796
▁bill	-10.3804
▁hoita	-10.3806
▁venäläis	-10.3806
▁ääntä	-10.3806
mel	-10.3806
▁onnistu	-10.3809
▁savu	-10.381
▁omisti	-10.3811
radio	-10.3812
▁kuvan	-10.3813
▁blue	-10.3814
ajat	-10.3817
pon	-10.3817
▁yhdistyksen	-10.3819
▁saar	-10.3822
armeija	-10.3825
▁pelaamaan	-10.3825
vik	-10.3825
▁jaettiin	-10.3826
das	-10.3826
oihin	-10.3828
▁suomalaiset	-10.3828
▁ob	-10.3829
▁kreikkalais	-10.3835
▁paikkaa	-10.3835
tiivis	-10.3839
gr	-10.3839
eiksi	-10.3841
mpana	-10.3842
pur	-10.3843
▁pas	-10.3843
▁säteily	-10.3844
koulussa	-10.3845
▁idässä	-10.3849
▁jaksossa	-10.385
04	-10.3851
▁tutustu	-10.3852
▁rikollis	-10.3855
liikke	-10.3858
▁toisiaan	-10.386
yyli	-10.3861
▁niillä	-10.3864
▁ss	-10.3868
▁jatkosodan	-10.3869
puolelta	-10.387
rock	-10.3873
vene	-10.3873
▁syystä	-10.3876
▁teema	-10.3877
silta	-10.3878
tal	-10.3881
ttaminen	-10.3887
arin	-10.3894
▁sävelsi	-10.3896
▁2011–2012	-10.3897
▁pitkiä	-10.3897
▁eteläpuolella	-10.3898
iste	-10.3901
▁py	-10.3901
▁nuoruus	-10.3901
▁valtaan	-10.3902
▁amerikkalais	-10.3904
▁alueeseen	-10.3904
▁rikka	-10.3907
vall	-10.3907
▁keskusta	-10.3908
▁hautausmaa	-10.3908
▁kuvattiin	-10.391
▁vihollis	-10.3913
▁ara	-10.3916
ilainen	-10.3918
▁runkosarja	-10.3919
▁voimaan	-10.392
▁vilja	-10.3921
▁dollarin	-10.3923
▁gustaf	-10.3925
ben	-10.3925
▁it	-10.3932
▁ulottuu	-10.3932
▁lähelle	-10.3936
▁sanomalehti	-10.3939
▁pit	-10.3942
▁keskustan	-10.3944
▁loppupuolella	-10.3947
▁sairaala	-10.3948
vuutta	-10.3948
män	-10.3949
05	-10.3949
▁myrsky	-10.3952
ttivät	-10.3953
▁rap	-10.3953
oissa	-10.3956
lit	-10.3958
▁viimeiseksi	-10.396
▁kustaa	-10.396
▁olevia	-10.3962
▁britanniassa	-10.3962
ikkaa	-10.3965
▁levisi	-10.3965
isyys	-10.3969
▁ph	-10.3972
▁todella	-10.3973
paikkaa	-10.3975
etin	-10.3976
▁tiedot	-10.3977
▁tunnetuimpia	-10.3979
▁mahdollisuus	-10.3979
▁halunnut	-10.3979
▁sotaan	-10.3981
▁jouko	-10.3984
elmi	-10.3984
▁olevien	-10.3985
▁tunnin	-10.3985
▁täysi	-10.3987
▁asettui	-10.3988
elokuvassa	-10.3989
sc	-10.3989
82	-10.3991
▁saksalaiset	-10.3992
▁green	-10.3992
▁kupari	-10.3993
▁kyse	-10.3993
▁koriste	-10.3993
▁mau	-10.3996
alis	-10.3998
▁group	-10.4001
▁musiikkivideo	-10.4002
oksi	-10.4002
joukkojen	-10.4009
▁mallin	-10.4014
▁finland	-10.4016
▁wall	-10.4016
▁nähdä	-10.4016
▁hart	-10.4016
velje	-10.4021
▁ari	-10.4021
▁esitteli	-10.4024
▁ison	-10.4025
ruots	-10.4026
pito	-10.4032
▁hannu	-10.4032
armeijan	-10.4033
▁valmentaja	-10.4035
joita	-10.4036
xi	-10.4036
▁basisti	-10.4037
loi	-10.4039
nnassa	-10.4044
▁osavaltio	-10.4045
99	-10.4046
sien	-10.4046
projekti	-10.4052
tavat	-10.4053
▁kri	-10.4054
▁unionin	-10.4054
▁yleistä	-10.4056
ini	-10.4057
▁gal	-10.406
▁syynä	-10.4061
▁otettu	-10.4061
bal	-10.4064
▁pelattiin	-10.407
▁aikoinaan	-10.4071
kissa	-10.4072
raa	-10.4074
ab	-10.4074
▁kah	-10.4077
▁synny	-10.4078
▁scott	-10.4084
▁op	-10.4085
▁pistepörssin	-10.4087
▁asioita	-10.4088
▁1909	-10.4088
63	-10.4091
rannan	-10.4091
▁kaiva	-10.4096
с	-10.41
arvio	-10.41
▁eversti	-10.41
kuntien	-10.4101
hai	-10.4101
▁league	-10.4105
ub	-10.4113
▁lopullisesti	-10.4118
▁kehä	-10.4119
▁fra	-10.4119
umin	-10.4119
teo	-10.412
95	-10.4121
▁markkina	-10.4122
81	-10.4123
om	-10.4123
▁palveluksesta	-10.4124
▁muodostettiin	-10.4131
ity	-10.4131
▁elämäkerta	-10.4131
jun	-10.4133
utuu	-10.4135
▁18-	-10.4136
▁viides	-10.414
▁vaatii	-10.4142
joiden	-10.4143
udesta	-10.4152
olla	-10.4156
hm	-10.4159
▁luki	-10.4161
▁roomalais	-10.4162
▁tammi	-10.4162
▁palattuaan	-10.4165
▁työtä	-10.417
94	-10.4172
ehdo	-10.4173
kielinen	-10.4175
▁viimeksi	-10.4175
44	-10.4175
teltiin	-10.4176
▁kasvanut	-10.4177
▁aikanaan	-10.4181
▁ven	-10.4184
▁suojeluskunta	-10.4185
▁virallinen	-10.4185
ette	-10.4187
▁länteen	-10.4189
▁edustanut	-10.4199
▁1904	-10.4201
▁seurassa	-10.4201
▁tul	-10.4203
luu	-10.4204
▁myönsi	-10.4207
stro	-10.4208
cle	-10.4208
kär	-10.4211
,2	-10.4211
▁poliittisen	-10.4212
ilma	-10.4212
	-10.4214
mö	-10.4215
71	-10.4215
vahv	-10.422
▁arthur	-10.4222
sis	-10.4224
▁osoittautui	-10.423
▁asiasta	-10.4232
▁säännö	-10.4234
▁lyö	-10.4235
telee	-10.4237
▁herttua	-10.4241
▁koulussa	-10.4241
▁power	-10.4241
tola	-10.4243
▁huomaa	-10.4243
▁berliinin	-10.4243
▁suvun	-10.4243
▁liikunta	-10.4245
mor	-10.4245
▁2004.	-10.4246
▁big	-10.4248
▁alueita	-10.4252
▁2016.	-10.4253
ric	-10.4253
у	-10.4259
▁tonnia	-10.4261
▁esine	-10.4262
▁lause	-10.4269
▁ulkopuolelle	-10.4274
48	-10.4278
isuuden	-10.428
▁unkarin	-10.428
▁käytön	-10.4283
järveen	-10.4286
▁töitä	-10.4287
tausta	-10.4294
▁veteen	-10.4295
cc	-10.4295
▁selvisi	-10.4295
▁alkua	-10.4297
opettaja	-10.4301
▁tarkoitetaan	-10.4303
▁pul	-10.4304
ikki	-10.4305
rooli	-10.4306
▁käyttäjä	-10.4309
ttö	-10.4309
käyttöön	-10.4309
▁elävät	-10.4312
▁divisioonan	-10.4315
▁varsinainen	-10.4318
▁parempi	-10.4319
▁viidestä	-10.432
▁cam	-10.4322
fl	-10.4323
▁liigassa	-10.4323
▁tarjoaa	-10.4323
tähti	-10.4324
▁nimitti	-10.4329
reuna	-10.4329
▁muutoksia	-10.4332
tv	-10.4334
▁/	-10.4337
▁2013–2014	-10.4341
▁leo	-10.4341
▁johtuen	-10.4344
▁suunnitellut	-10.4344
▁hui	-10.4346
▁piirissä	-10.4349
▁edu	-10.4352
▁todettiin	-10.4356
solu	-10.4362
tek	-10.4363
telu	-10.4364
▁mega	-10.4365
ttaja	-10.4366
vuo	-10.4367
▁kieltäytyi	-10.4373
out	-10.4376
▁taisteluun	-10.4376
▁pitäisi	-10.4377
liikenteen	-10.4378
▁alkanut	-10.4378
98	-10.438
▁valmisti	-10.438
kuri	-10.438
▁ce	-10.4383
▁ajalla	-10.4387
stettiin	-10.439
teho	-10.4392
▁cho	-10.4392
09	-10.4393
hem	-10.4394
of	-10.4395
▁ban	-10.4398
qvist	-10.4403
pit	-10.4404
mina	-10.4405
▁toteutta	-10.4411
▁taisteli	-10.4411
amalla	-10.4411
▁united	-10.4412
von	-10.4413
▁kerto	-10.4416
evä	-10.4417
▁merkitystä	-10.4418
▁jättää	-10.4419
▁ohjelman	-10.4419
▁välittömästi	-10.4419
▁q	-10.442
kautta	-10.4422
vol	-10.4425
▁esillä	-10.4426
▁aamu	-10.4433
▁saattavat	-10.4434
xin	-10.4439
▁puhu	-10.444
llistä	-10.4444
▁pei	-10.4449
▁käsite	-10.4452
▁ch	-10.4453
▁erot	-10.4454
▁tunnusta	-10.4455
▁nosti	-10.446
▁välisen	-10.4469
alueilla	-10.447
86	-10.4477
▁tapahtumat	-10.4478
▁kerro	-10.448
▁kolmeen	-10.449
tyä	-10.449
▁prix	-10.4495
▁kalevan	-10.4498
nneet	-10.4498
sio	-10.4499
toihin	-10.4499
-2	-10.45
ms	-10.4501
▁saarelle	-10.4503
”)	-10.4503
▁vaara	-10.4505
▁koripallo	-10.4505
ij	-10.4508
▁tavara	-10.451
▁surmansa	-10.451
▁muodostama	-10.4511
▁fre	-10.4512
▁pisteen	-10.4514
▁tumma	-10.4514
ily	-10.4514
▁vieras	-10.4515
kaasu	-10.4516
▁suostu	-10.4518
▁mini	-10.4519
▁lapsia	-10.4522
▁lin	-10.4523
▁aktiivisesti	-10.4523
▁tähden	-10.4526
▁keino	-10.4528
▁kimppuun	-10.4531
▁lähettää	-10.4532
▁ludvig	-10.4535
ag	-10.4537
▁muille	-10.4541
wan	-10.4544
jako	-10.4545
dun	-10.4552
▁2007–2008	-10.4555
▁parlamentti	-10.4555
ttamalla	-10.4556
▁2012–2013	-10.4562
▁albumia	-10.4563
▁toistaiseksi	-10.4563
ttelee	-10.4565
▁kappaleesta	-10.4565
▁vakava	-10.4567
isille	-10.4571
▁tapahtunut	-10.4573
▁väinö	-10.4574
nimellä	-10.4578
▁tim	-10.458
▁järjestön	-10.458
ā	-10.4583
▁koillis	-10.4584
▁apua	-10.4584
lyn	-10.4584
ojan	-10.4584
▁valmentajana	-10.4585
▁kiinassa	-10.4588
kaali	-10.4591
laulaja	-10.4592
▁kruunu	-10.4593
▁120	-10.4594
▁vä	-10.4594
mana	-10.4599
▁haltuunsa	-10.4599
sissä	-10.4602
▁englantilainen	-10.4602
▁hc	-10.4604
▁merkittävin	-10.4616
▁metsästys	-10.4617
88	-10.4618
kea	-10.4618
kee	-10.4622
▁päällikkö	-10.4623
▁sho	-10.4623
▁2014–2015	-10.4623
tavan	-10.4624
ikon	-10.4624
▁ministeri	-10.4624
▁mary	-10.4625
alus	-10.4627
ora	-10.463
afrikan	-10.4633
gor	-10.4635
▁tuloksena	-10.4636
tön	-10.4638
rak	-10.464
▁voimakas	-10.464
korke	-10.4645
voitto	-10.4646
66	-10.4647
mallin	-10.4647
,7	-10.4647
▁leveys	-10.4648
▁suunnitelma	-10.4656
▁kalli	-10.4666
▁mol	-10.4667
konserni	-10.4669
maisia	-10.467
▁ruotsiin	-10.4673
▁komedia	-10.4674
▁erä	-10.4674
▁harjoit	-10.4676
kunnat	-10.4677
▁käytettävä	-10.4678
▁wei	-10.4679
▁thor	-10.4682
▁muodosti	-10.4686
▁white	-10.4687
43	-10.4689
▁riski	-10.4689
▁luoteis	-10.4689
▁sveitsin	-10.4692
▁(16	-10.4694
▁inno	-10.4695
▁adolf	-10.4696
▁kirjassa	-10.4697
ettu	-10.4697
▁koostui	-10.4701
ttelu	-10.4701
rian	-10.4703
▁dia	-10.4706
▁rivi	-10.4711
tre	-10.4711
▁kierroksen	-10.4711
suon	-10.4715
▁angel	-10.4718
▁asukkaista	-10.4722
muut	-10.4723
▁hill	-10.4726
▁rad	-10.4729
▁piilo	-10.4736
▁muodosta	-10.4742
usten	-10.4745
▁laulun	-10.4748
▁mittaisen	-10.4749
▁idea	-10.475
▁purettiin	-10.4751
ish	-10.4754
▁kaikille	-10.4754
▁hyökkäsi	-10.4754
▁ihme	-10.4754
▁seksuaali	-10.4754
▁itään	-10.4759
llisiä	-10.4759
jista	-10.4763
bert	-10.4763
adi	-10.4764
▁suosio	-10.4764
54	-10.4765
▁maihinnousu	-10.4769
uttaa	-10.4772
▁karhu	-10.4773
▁riveihin	-10.4777
▁talvella	-10.4777
▁pienet	-10.4777
ym	-10.4777
ob	-10.4779
▁luokan	-10.478
joista	-10.4782
▁lang	-10.4782
77	-10.4789
и	-10.4792
uran	-10.4794
▁tutkijat	-10.4794
nov	-10.4794
▁tol	-10.4796
▁toronto	-10.4797
▁valon	-10.4798
▁tarpeeksi	-10.48
▁kie	-10.4804
tieteiden	-10.4807
▁muotoon	-10.481
▁runkosarjan	-10.4812
▁torpedo	-10.4812
▁yhdisty	-10.4814
tävä	-10.4822
▁kaatui	-10.4822
▁dis	-10.4825
päävalmentajaksi	-10.4826
vissa	-10.4829
▁asiantuntija	-10.483
▁berg	-10.483
▁gene	-10.4833
46	-10.4834
▁parlamentin	-10.4834
roi	-10.4834
▁alta	-10.4836
▁euron	-10.4838
▁lipun	-10.4838
häiriö	-10.4841
väline	-10.4843
▁2003.	-10.4844
2)	-10.4848
feld	-10.4849
lum	-10.4859
▁mtv	-10.4863
osia	-10.4866
▁osoittaa	-10.4867
vaan	-10.4872
▁liittyviä	-10.4874
▁kauan	-10.4877
▁tapahtumia	-10.4878
▁ensimmäiseen	-10.4882
▁kohta	-10.4883
ope	-10.4888
▁kuolleen	-10.4889
koja	-10.4897
▁tyttären	-10.4901
▁päätoimittaja	-10.4902
▁huo	-10.4904
▁joissakin	-10.4907
▁1903	-10.4908
tyypin	-10.4908
sul	-10.4909
▁esittämä	-10.4909
▁perinteisesti	-10.491
▁tal	-10.491
▁niska	-10.4913
▁kandidaatiksi	-10.4914
▁alfred	-10.4914
▁eero	-10.4917
▁muusikko	-10.4917
▁espoon	-10.4919
▁mos	-10.4919
hol	-10.4919
eu	-10.4919
▁maailma	-10.4921
▁nuore	-10.4924
▁mas	-10.4924
▁poliisin	-10.4925
tutkimus	-10.493
osan	-10.4935
▁sade	-10.4938
▁mänty	-10.4939
▁yhteys	-10.4943
yhteisö	-10.4944
▁1,5	-10.4944
tanssi	-10.4945
▁luola	-10.4945
▁menesty	-10.4945
keita	-10.4947
vaiheen	-10.4948
▁juhani	-10.4948
cr	-10.4949
▁luokse	-10.4949
▁edellis	-10.4955
▁muilla	-10.4962
▁kehi	-10.4967
▁antanut	-10.4971
▁north	-10.4971
▁poistu	-10.4972
ministeriö	-10.4973
▁uus	-10.4981
ić	-10.4983
näytö	-10.4983
aattori	-10.4983
–2	-10.4983
ι	-10.4985
and	-10.4987
alueet	-10.499
ksesta	-10.499
▁vangit	-10.4992
gs	-10.4993
ama	-10.4993
mba	-10.4994
asi	-10.4994
zar	-10.4997
▁pyrkii	-10.4997
▁ajaksi	-10.4998
▁roman	-10.5
▁parin	-10.5002
ls	-10.5007
▁kasa	-10.5009
▁yhteinen	-10.5013
61	-10.5013
▁42	-10.5018
uro	-10.502
▁kuvasi	-10.5024
▁keho	-10.5025
lk	-10.5025
▁sano	-10.5027
▁kohden	-10.5028
utunut	-10.5029
▁55	-10.5032
▁keuhko	-10.5032
▁francisco	-10.5034
▁college	-10.5037
▁nimitystä	-10.5037
▁käyttäen	-10.5037
▁dor	-10.5038
▁seuraaja	-10.5039
▁kuka	-10.5039
teinen	-10.5046
▁zi	-10.5046
gia	-10.5047
▁surma	-10.5047
▁elokuvasta	-10.5048
▁saatavilla	-10.5049
dal	-10.505
▁muodostivat	-10.5055
▁alueet	-10.5055
▁kro	-10.5055
▁saapuu	-10.5056
▁perustui	-10.5058
▁keskeinen	-10.5058
mittari	-10.5058
▁night	-10.5059
▁luopui	-10.5059
▁samoihin	-10.5064
▁yhteistyössä	-10.5064
▁35)	-10.5068
▁toimittajana	-10.5071
▁katto	-10.5074
▁ympärillä	-10.5077
kunnalle	-10.5077
▁lehdistö	-10.5081
▁omistaa	-10.5083
aaleja	-10.5084
yksen	-10.5084
▁mikael	-10.5088
▁atomi	-10.509
kuntaan	-10.5091
▁kelta	-10.5092
▁omien	-10.5094
sur	-10.5094
▁soitto	-10.5094
▁pataljoonan	-10.5098
▁saksaan	-10.51
▁pin	-10.5101
cia	-10.5101
▁(14.2	-10.5107
▁chicago	-10.5108
▁kam	-10.5108
▁britti	-10.5112
jät	-10.5112
tieteilijä	-10.5115
▁taisteluihin	-10.5115
▁avasi	-10.5118
▁organisaatio	-10.5125
järjestelmää	-10.5126
▁natsi	-10.5132
▁kori	-10.5134
▁meta	-10.5138
")	-10.514
zy	-10.5146
hko	-10.5147
▁pelastus	-10.515
piirin	-10.5151
▁kate	-10.5152
▁muovi	-10.5155
▁hyöty	-10.5155
▁fort	-10.5156
ttoman	-10.5158
tessa	-10.5164
▁melkein	-10.5165
mos	-10.5167
rö	-10.5172
leyn	-10.5173
▁jones	-10.5175
▁näihin	-10.5177
▁ulo	-10.5178
peri	-10.5178
▁kirkossa	-10.5178
kirjasto	-10.5179
yy	-10.518
▁mestarien	-10.518
▁henkilön	-10.5192
teatterissa	-10.5194
▁ohjaus	-10.5195
▁esimerkki	-10.5195
▁miljoona	-10.5196
▁gran	-10.5198
lahteen	-10.52
▁mestaruutta	-10.5204
▁väestön	-10.5208
▁koho	-10.5209
rai	-10.5213
▁1898	-10.5214
päivänä	-10.5216
▁eduskunta	-10.5216
bus	-10.5219
92	-10.5219
▁maalais	-10.5223
alueita	-10.5224
off	-10.5225
▁maatila	-10.5231
▁by	-10.5232
▁gabriel	-10.5234
▁jalo	-10.5236
▁39	-10.5238
▁company	-10.5239
▁haluaa	-10.5239
▁yhteyttä	-10.5241
▁pelata	-10.5241
▁oulu	-10.5242
▁poikki	-10.5242
▁soolo	-10.5243
▁testa	-10.5243
▁ylioppilas	-10.5244
▁kirjaa	-10.5244
▁rakensi	-10.5244
▁löytö	-10.5247
iltansa	-10.5248
ilee	-10.5248
▁syistä	-10.5248
▁roolissa	-10.5249
▁asetettiin	-10.525
tason	-10.525
▁koi	-10.5252
taiteilija	-10.5252
▁näyttämö	-10.5252
▁havaittu	-10.5254
yp	-10.5258
▁linnun	-10.526
▁paran	-10.5261
ui	-10.5264
▁tykki	-10.5264
▁sopi	-10.5266
▁varsinais	-10.5267
▁elämänsä	-10.5268
elokuvan	-10.527
▁sanat	-10.5272
▁(1	-10.5274
gren	-10.5276
pat	-10.5279
soitto	-10.5279
▁olevaa	-10.528
▁liha	-10.528
▁venäläisten	-10.5281
▁tau	-10.5281
▁kansallisen	-10.5282
▁halua	-10.5282
▁marie	-10.5285
▁päätöksen	-10.5287
▁kiertue	-10.5288
maajoukkue	-10.5293
▁säilyi	-10.5293
landin	-10.5293
▁mike	-10.5296
▁tietoja	-10.5298
kansa	-10.5299
°	-10.53
▁museon	-10.53
suomessa	-10.5301
kaupan	-10.5302
68	-10.5303
änsä	-10.5304
▁puun	-10.5305
▁veren	-10.531
83	-10.5314
▁puola	-10.5316
▁väestönlaskenna	-10.5317
▁2:	-10.5317
▁tarkka	-10.5318
▁hiihto	-10.5321
▁version	-10.5322
▁aik	-10.5322
ttuja	-10.5323
▁lääketieteen	-10.5324
▁kaivos	-10.5327
▁les	-10.5328
▁sukupuoli	-10.5329
neuvosto	-10.5331
▁katsoi	-10.5332
è	-10.5334
▁res	-10.5335
▁suhteessa	-10.5337
▁tarvitse	-10.5338
▁die	-10.5344
▁piirteitä	-10.5344
key	-10.5345
▁valmiiksi	-10.5347
cen	-10.5347
▁haka	-10.535
▁kamppailu	-10.535
▁rus	-10.5351
▁edellisen	-10.5353
▁minu	-10.5355
▁josé	-10.5355
▁rakennutti	-10.5357
▁näki	-10.5357
lov	-10.5358
▁dvd	-10.5359
▁seudun	-10.5359
▁hollywood	-10.536
oikeudet	-10.5365
▁pai	-10.5367
nimen	-10.5368
kerta	-10.5368
▁keisarin	-10.537
▁itsenäis	-10.5372
ttaisi	-10.5374
▁siirtomaa	-10.5375
▁kulkeva	-10.5376
–5	-10.5377
kuvio	-10.5377
▁torju	-10.5377
ale	-10.5382
▁kirkkoherra	-10.5386
▁vale	-10.5389
▁kehittää	-10.539
neuvos	-10.5394
▁sisältö	-10.5394
▁suositu	-10.5394
kerro	-10.5395
▁1897	-10.5399
▁ensimmäisiä	-10.5413
08	-10.5415
tutkija	-10.5417
▁kamera	-10.542
▁kr	-10.5421
▁ratsu	-10.5425
otta	-10.5425
▁käyttämään	-10.5427
▁rintama	-10.543
▁kiekko	-10.543
tuo	-10.5431
▁suurimmaksi	-10.5431
52	-10.5432
musiikkia	-10.5433
▁ruoho	-10.5436
▁kanadassa	-10.5439
▁levytti	-10.544
▁rasva	-10.5441
▁erilaiset	-10.5443
cho	-10.5443
▁ohja	-10.5445
▁siemen	-10.5445
▁kalastus	-10.5446
line	-10.5449
zu	-10.5451
suunta	-10.5453
49	-10.5453
sopimus	-10.5454
▁kla	-10.5455
▁mihin	-10.5455
teos	-10.5458
▁demo	-10.5461
▁maisteri	-10.5461
eistä	-10.5465
akka	-10.5472
▁perustuslaki	-10.5472
tuksi	-10.5473
▁kuus	-10.5475
▁tutustui	-10.5477
ting	-10.5479
▁2017.	-10.5481
▁käsittelee	-10.5482
▁kritisoi	-10.5482
▁äidin	-10.5486
▁väitteli	-10.5489
▁hallinnon	-10.5489
näyttely	-10.5491
kilpailuihin	-10.5492
▁65	-10.5492
–15	-10.5493
▁linnoitus	-10.5495
hallitus	-10.55
62	-10.55
▁ec	-10.5501
▁menestyi	-10.5501
energia	-10.5505
▁pyörä	-10.5505
▁vladimir	-10.5506
▁asuin	-10.5506
▁puolilla	-10.5507
urheilu	-10.5509
▁lava	-10.551
▁prosessi	-10.5511
jokeen	-10.5511
▁rou	-10.5514
▁italialais	-10.5516
▁pyöreä	-10.5518
kautensa	-10.5519
▁hockey	-10.5519
ary	-10.552
▁haara	-10.5521
▁jaetaan	-10.5523
ding	-10.5524
ryn	-10.5527
▁pyy	-10.553
▁marssi	-10.5532
▁vuosikymmenen	-10.5534
▁hallitseva	-10.5535
▁sotien	-10.5536
▁dj	-10.554
01	-10.5542
▁kiinnostunut	-10.5542
▁ystävänsä	-10.5543
▁cd	-10.5544
▁nolla	-10.5544
perin	-10.5544
siirto	-10.5545
▁pla	-10.5546
laisista	-10.5553
▁avoin	-10.5554
vär	-10.5554
▁sillan	-10.5556
koiri	-10.5557
▁kuvernööri	-10.5559
lik	-10.5559
▁johtuu	-10.556
,0	-10.556
kuntia	-10.5561
kyvy	-10.5563
▁2015–2016	-10.5565
teihin	-10.5567
▁nuoren	-10.5568
▁maisema	-10.5568
3-	-10.5569
▁kolmessa	-10.557
▁sukulais	-10.5574
▁rautatieasema	-10.5576
▁tulos	-10.5578
▁kustannus	-10.5578
eau	-10.5582
▁lind	-10.5583
vier	-10.5583
mmän	-10.5587
96	-10.559
▁ilta	-10.5591
aseman	-10.5591
tely	-10.5592
▁kiista	-10.5596
joukkueessa	-10.5598
▁lahti	-10.56
▁tasapaino	-10.5602
ore	-10.5602
▁pelo	-10.5605
07	-10.5607
▁toiminnassa	-10.561
▁ottivat	-10.5613
▁annettu	-10.5615
johto	-10.5615
▁suuresti	-10.562
▁perheensä	-10.562
▁lait	-10.562
▁insinööri	-10.5621
kola	-10.5621
▁pyrstö	-10.563
▁teosta	-10.5632
▁markkinoille	-10.5632
▁las	-10.5633
haara	-10.5633
▁joukkueensa	-10.5634
dit	-10.5635
▁palkka	-10.5637
laisessa	-10.5644
alainen	-10.5644
▁vanhempansa	-10.5649
▁day	-10.5652
▁suojasi	-10.5652
▁jatkuu	-10.5653
74	-10.5653
▁peruste	-10.5654
sion	-10.5657
▁muna	-10.5658
▁vieressä	-10.5659
▁kär	-10.566
jänä	-10.5661
▁varapuheenjohta	-10.5661
reiden	-10.5663
▁44	-10.5664
53	-10.5665
laan	-10.5665
87	-10.5666
johtaj	-10.5668
▁pon	-10.5671
▁väriltään	-10.5672
ex	-10.5673
rien	-10.5675
▁rakennukset	-10.568
▁aku	-10.5681
▁basso	-10.5681
ν	-10.5682
▁teh	-10.5683
koi	-10.5685
▁tasolla	-10.5685
▁vapa	-10.5687
▁(2	-10.5687
▁vaikuttanut	-10.5687
▁sanomien	-10.5689
▁are	-10.569
▁1899	-10.5692
▁yhdysvaltalaise	-10.5693
▁wood	-10.5696
▁ford	-10.5701
▁valvo	-10.5702
▁puhelin	-10.5702
▁street	-10.5704
▁saamaan	-10.5705
▁luoma	-10.5705
▁yleisen	-10.5706
▁kevyt	-10.5706
▁eroa	-10.5706
▁joe	-10.5708
poli	-10.5713
▁vas	-10.5718
▁jy	-10.5718
▁opinnot	-10.5719
▁reitin	-10.5719
▁teatterin	-10.572
▁kannatti	-10.5722
▁alkujaan	-10.5723
▁maaperä	-10.5723
isestä	-10.5724
▁erillis	-10.5726
▁väärä	-10.5729
▁bol	-10.573
▁williams	-10.5731
▁jokaisen	-10.5733
▁ilmi	-10.5734
paine	-10.5737
liikennettä	-10.574
▁ruusu	-10.5742
yksikkö	-10.5742
▁luis	-10.5744
maali	-10.5746
▁kysy	-10.5746
chen	-10.5751
▁käsittää	-10.5753
−	-10.5761
alismi	-10.5762
▁aikansa	-10.5762
▁yhdistettiin	-10.5764
menetelmä	-10.5765
time	-10.5765
▁tuottama	-10.5767
▁christian	-10.5769
ääni	-10.5774
▁israel	-10.5776
yan	-10.5776
▁av	-10.5777
▁eino	-10.5777
ure	-10.5778
▁harvoin	-10.5785
▁zo	-10.5786
▁voittoa	-10.5788
▁jacob	-10.5789
▁maito	-10.5789
▁arabi	-10.5789
▁paha	-10.579
mästä	-10.5791
pronssia	-10.5793
▁vaikutuksesta	-10.5795
▁miehensä	-10.5802
lö	-10.5803
pommi	-10.5803
kkeet	-10.5806
lee	-10.5808
▁mono	-10.5809
▁ominaisuuksia	-10.581
▁riippu	-10.5812
sää	-10.5813
–6	-10.5815
▁bou	-10.5818
▁vilhelm	-10.5819
mas	-10.582
▁saaristo	-10.582
dyn	-10.5821
51	-10.5822
▁matt	-10.5823
▁johtanut	-10.5824
▁jatka	-10.5824
ath	-10.5829
▁maanviljelijä	-10.5835
▁kerta	-10.5836
esimerkiksi	-10.5836
▁lewis	-10.5838
▁jäl	-10.5847
▁kestävä	-10.5847
▁taa	-10.5848
▁ger	-10.5849
58	-10.5851
liga	-10.5852
▁vallankumoukse	-10.5852
.»	-10.5853
▁kansakoulun	-10.5854
siivi	-10.5855
▁kaupunginosa	-10.5859
▁ville	-10.5862
▁maalaus	-10.5862
▁raamatun	-10.5863
▁ilmesty	-10.5863
ksiä	-10.5863
▁draama	-10.5867
ksessa	-10.5868
▁geeni	-10.587
salon	-10.5872
▁ylös	-10.5876
▁pyritään	-10.5876
▁ty	-10.5878
elius	-10.5881
▁saarta	-10.5883
▁vihki	-10.5884
sey	-10.5885
▁helena	-10.5885
▁paini	-10.5889
▁aikoina	-10.5891
▁lennon	-10.5891
▁stone	-10.5893
▁maisteriksi	-10.5899
▁siirtyivät	-10.5899
▁reagoi	-10.5901
▁marja	-10.5906
ice	-10.5907
vuosi	-10.5907
▁jäsenten	-10.5908
▁esitys	-10.5909
▁bas	-10.5914
emmin	-10.5917
▁homo	-10.5917
eb	-10.5921
▁brittiläis	-10.5921
koneen	-10.5923
heim	-10.5923
▁laite	-10.5924
▁mars	-10.5927
joukko	-10.5927
▁kotiin	-10.5928
well	-10.5929
▁riste	-10.5929
kkien	-10.5933
anti	-10.5933
dynastian	-10.5934
▁rannikolla	-10.5936
▁suojaa	-10.5939
▁mika	-10.5941
▁vit	-10.5941
sun	-10.5943
▁tulevan	-10.5943
▁lopetta	-10.5944
▁testi	-10.5945
san	-10.5945
▁vapautta	-10.5946
jin	-10.5948
maiden	-10.5948
▁väärin	-10.595
ardin	-10.5952
uksi	-10.5953
▁perustamassa	-10.5954
▁2006–2007	-10.5955
▁omalla	-10.5956
▁64	-10.5956
ukka	-10.5957
valmentaja	-10.596
ivi	-10.596
▁joensuun	-10.5961
▁opi	-10.5961
▁kukin	-10.5964
muodo	-10.5966
ettiin	-10.5972
uudessa	-10.5973
▁sdp	-10.5975
▁todellisuudessa	-10.598
kkonen	-10.5981
kasvi	-10.5987
▁1896	-10.599
▁perustaa	-10.5992
▁kiinteä	-10.5994
▁vaalea	-10.5994
▁jim	-10.5995
▁tehtävässä	-10.5997
▁siipi	-10.5998
▁vienti	-10.5998
▁mario	-10.5999
▁kiven	-10.6
our	-10.6001
▁salmi	-10.6003
▁kuorma	-10.6006
ingin	-10.6006
▁albumilla	-10.6006
teko	-10.6008
▁island	-10.6008
ring	-10.6009
▁seikkailu	-10.6012
kei	-10.6012
▁suomalaisia	-10.6015
▁opiskelemaan	-10.6015
▁sijaitsevan	-10.6016
▁emi	-10.6016
▁neljännen	-10.6017
▁350	-10.6023
jap	-10.6023
▁tony	-10.6024
57	-10.6026
ip	-10.6027
▁anne	-10.6027
▁lahja	-10.6029
▁ajalta	-10.6031
▁tasavalta	-10.6031
▁kehittämä	-10.6032
hä	-10.6033
–16	-10.6034
▁runsas	-10.6037
satama	-10.6038
▁kruunun	-10.6038
▁char	-10.6038
▁vastaavasti	-10.6039
▁jou	-10.604
▁hoiti	-10.604
▁nautti	-10.604
▁stanley	-10.6043
pala	-10.6049
▁loppuottelussa	-10.6052
▁1902	-10.6053
▁1901	-10.6054
mbo	-10.6055
▁esiteltiin	-10.6056
▁virallisen	-10.6056
ioni	-10.606
▁voittoon	-10.6062
▁vanhoja	-10.6064
▁washington	-10.6065
▁kul	-10.6069
▁sijan	-10.6069
▁vaihteessa	-10.607
▁mestis	-10.607
▁2002.	-10.6073
▁vastusti	-10.6074
▁osakilpailu	-10.6076
ρ	-10.6077
ovitš	-10.6078
ystä	-10.6079
▁vahvasti	-10.608
▁saatuaan	-10.608
78	-10.6081
▁hyväksy	-10.6082
▁satoja	-10.6085
▁ras	-10.6086
▁venäläiset	-10.6088
oo	-10.6088
pataljoona	-10.6091
▁osaston	-10.6092
▁ehdotti	-10.6093
▁nuorempi	-10.6094
▁lisääntyminen	-10.6095
▁koki	-10.6095
▁aktiivi	-10.6096
▁ääri	-10.6098
isempi	-10.6106
vers	-10.6106
▁kesän	-10.6107
lah	-10.6108
а	-10.6109
▁suorittaa	-10.6109
▁kaula	-10.6112
▁if	-10.6113
ye	-10.6117
▁ohjaa	-10.6118
59	-10.6119
▁kiinalais	-10.6119
oh	-10.6121
bol	-10.6123
torin	-10.6124
▁työskentelee	-10.6126
▁sokeri	-10.6126
▁mag	-10.6126
▁varasto	-10.613
kirjoit	-10.6131
issaan	-10.6132
▁ensimmäiseksi	-10.6135
▁sadan	-10.6136
▁48	-10.6137
▁anders	-10.6139
▁lopuksi	-10.614
▁aatelis	-10.6141
▁linnoi	-10.6141
▁main	-10.6143
▁viikko	-10.6145
▁bob	-10.6146
▁kuljetus	-10.6146
▁valloitta	-10.6148
ttävät	-10.6149
▁diplomaatti	-10.6149
eh	-10.6152
▁äänen	-10.6154
▁karva	-10.6154
▁eh	-10.6156
noja	-10.6158
teistä	-10.6159
▁hahmon	-10.6159
cul	-10.6162
etaan	-10.6162
kaarti	-10.6163
tekijöi	-10.6166
▁qua	-10.6169
▁mainitu	-10.6171
ttamista	-10.6171
▁rakennuksia	-10.6173
▁til	-10.6174
▁yh	-10.6175
▁pelastaa	-10.6177
▁tarjosi	-10.618
raha	-10.6181
▁alex	-10.6183
▁provinssi	-10.6184
onen	-10.6185
▁onnistuu	-10.6186
eus	-10.6189
▁emil	-10.619
▁47	-10.6191
▁mei	-10.6196
▁laivue	-10.6197
llisuuden	-10.6199
albumin	-10.6201
▁varus	-10.6206
mark	-10.6209
▁chris	-10.621
▁cla	-10.6214
▁pet	-10.6215
▁nas	-10.6215
▁kevät	-10.6216
▁sofia	-10.6218
▁mongoli	-10.6219
▁suomesta	-10.6219
▁antama	-10.6221
▁ammu	-10.6223
▁tyttärensä	-10.6224
▁moderni	-10.6224
03	-10.6226
▁vähemmistö	-10.6226
wood	-10.6227
▁välistä	-10.6227
▁out	-10.6228
poliisi	-10.6231
▁peliä	-10.6233
▁jalkapallon	-10.6235
▁kop	-10.6244
▁nousee	-10.6245
▁rod	-10.6247
2:	-10.6247
▁kaava	-10.6251
▁lääni	-10.6256
▁long	-10.6256
▁purjehti	-10.6256
anssi	-10.6256
ttavan	-10.6257
▁pyhi	-10.6257
neitä	-10.6258
▁juho	-10.6259
▁kuudenneksi	-10.626
69	-10.6261
▁esim	-10.6264
▁playoff	-10.6265
töitä	-10.6265
▁ray	-10.6266
▁nousivat	-10.6267
ttele	-10.6271
▁tuotannon	-10.6271
▁päävalmentajana	-10.6275
▁julkis	-10.6279
▁vali	-10.6284
▁%)	-10.6286
▁vihollisen	-10.6287
▁neuvottelu	-10.6289
▁päällikkönä	-10.6292
wo	-10.6292
▁kaupan	-10.6294
▁päämaja	-10.6295
tasolla	-10.6296
illo	-10.6296
ohjelmassa	-10.6304
▁tapio	-10.6305
▁win	-10.6307
▁kommunisti	-10.6308
▁sukua	-10.6309
▁päättyy	-10.6311
kilpailujen	-10.6311
▁menestystä	-10.6312
ev	-10.6314
kkeen	-10.6319
▁kehitetty	-10.632
gas	-10.6321
▁eurooppaan	-10.6327
suhde	-10.633
kallio	-10.6332
pelin	-10.6332
▁tälle	-10.6334
▁piha	-10.6335
elämä	-10.6335
nor	-10.6336
burg	-10.6336
▁43	-10.6337
▁laaje	-10.6338
▁menee	-10.6339
▁maanviljely	-10.6339
mari	-10.6341
vaiheessa	-10.6343
llisuus	-10.6343
▁polttoaine	-10.6345
▁kart	-10.6345
▁tois	-10.6346
▁viipuri	-10.6346
vit	-10.635
+1	-10.6351
kisoihin	-10.6355
▁sotaa	-10.6355
▁pitävät	-10.6355
▁punk	-10.6356
▁akseli	-10.6357
▁kasvatus	-10.6358
▁nau	-10.636
▁talvisodan	-10.6365
▁egyptin	-10.6366
gal	-10.6366
▁lokakuun	-10.6367
▁haudattu	-10.6367
ruo	-10.6373
93	-10.6378
▁kuudes	-10.6378
2,	-10.6378
lai	-10.638
▁juoma	-10.6381
▁muuri	-10.6384
ara	-10.6384
▁rahoi	-10.6386
▁haudattiin	-10.6387
▁lenn	-10.6389
usko	-10.6391
▁osallistua	-10.6391
▁yhdellä	-10.6396
▁löytynyt	-10.64
▁esikunta	-10.64
ome	-10.64
▁tiety	-10.64
▁venäjälle	-10.6401
▁ennätys	-10.6402
▁huume	-10.6406
▁pyrkivät	-10.6408
▁esille	-10.641
mmät	-10.641
die	-10.6411
▁pentti	-10.6413
▁edustalla	-10.6415
▁australiassa	-10.6421
isä	-10.6422
▁katsotaan	-10.6423
ø	-10.6424
▁terva	-10.6425
▁oja	-10.6426
▁ele	-10.6428
▁erässä	-10.6429
▁2001.	-10.643
▁korkeakoulu	-10.643
▁lupa	-10.6431
▁saapuivat	-10.6431
▁saksalaisen	-10.6431
huoneen	-10.6431
▁brittien	-10.6432
▁kanavan	-10.6434
▁cra	-10.6435
▁lupaa	-10.644
▁maajoukkueen	-10.6441
▁fil	-10.6442
rii	-10.6448
▁luonnonsuojelu	-10.6452
ntaa	-10.6453
▁miljardia	-10.6457
▁näky	-10.6457
▁perään	-10.6459
lm	-10.646
▁tapahtuva	-10.646
eillä	-10.646
▁asukasluku	-10.6461
▁tieteen	-10.6462
▁adam	-10.6465
▁ruotsalaisen	-10.6465
bro	-10.6466
▁tavoite	-10.6467
▁valtasivat	-10.6468
▁ranskaan	-10.6469
▁vaakunan	-10.6473
mättä	-10.6473
▁välimeren	-10.6475
tetun	-10.6475
kkää	-10.6477
▁liberaali	-10.6481
▁lukumäärä	-10.6481
▁perinteisen	-10.6482
▁kesäolympialais	-10.6483
▁2000.	-10.6487
▁wild	-10.6488
rio	-10.6491
▁esiintyvä	-10.6491
venäjän	-10.6493
▁kerää	-10.6495
▁tuhoa	-10.6496
▁maja	-10.6497
jalka	-10.6501
osista	-10.6501
▁johtajaksi	-10.6501
▁oikean	-10.6503
▁teini	-10.6505
joukkueen	-10.6505
▁kyseise	-10.6505
▁tii	-10.6506
к	-10.6506
yksiä	-10.6506
ire	-10.6508
anto	-10.651
▁veto	-10.6512
▁khl	-10.6513
▁epi	-10.6514
isistä	-10.6516
linnan	-10.6525
67	-10.6525
teille	-10.6525
og	-10.6526
tch	-10.6528
▁emä	-10.6528
▁rajoi	-10.6529
eet	-10.6529
divisioona	-10.6532
uli	-10.6534
ryhmään	-10.6535
▁kaar	-10.6536
mes	-10.654
▁määritelmä	-10.6543
▁luokka	-10.6549
▁1890	-10.655
▁kanne	-10.6552
▁voittaa	-10.6555
▁ball	-10.6556
▁osta	-10.6556
72	-10.6561
romaani	-10.6561
▁mun	-10.6562
▁hää	-10.6566
▁jouduttiin	-10.6566
ografia	-10.6568
borg	-10.6573
▁antonio	-10.6576
▁myöhempi	-10.6579
lintu	-10.6581
▁16-	-10.6583
▁house	-10.6584
olin	-10.6586
▁osu	-10.659
▁rangers	-10.6591
▁vastaavan	-10.6591
ntia	-10.6591
▁asettu	-10.6599
▁monte	-10.66
▁lake	-10.6601
yo	-10.6603
▁niille	-10.6605
näyttelijä	-10.6606
esiintymi	-10.6613
▁sijalla	-10.6613
▁kiina	-10.6614
▁bad	-10.6614
maat	-10.6615
▁pila	-10.662
▁muistomerkki	-10.662
▁autio	-10.6623
merkin	-10.6623
ittain	-10.6623
▁arkisto	-10.6623
est	-10.6624
hyödy	-10.6625
▁korja	-10.6627
▁team	-10.6627
muun	-10.6627
keino	-10.6628
zen	-10.6629
timen	-10.6629
▁ryhmään	-10.663
▁kehittynyt	-10.6632
▁samanaikaisesti	-10.6632
▁hämeenlinnan	-10.6633
▁aito	-10.6634
▁ominais	-10.6634
ministerinä	-10.6634
veli	-10.6636
▁zu	-10.6638
▁41	-10.664
maailman	-10.6643
salmen	-10.6643
06	-10.6647
▁holl	-10.6648
▁poli	-10.6651
miehiä	-10.6651
▁52	-10.6655
▁säännöllisesti	-10.6658
ami	-10.6658
▁vapautu	-10.666
▁eteen	-10.666
▁enemmistö	-10.6661
til	-10.6663
linin	-10.6664
▁välttämättä	-10.6664
▁portugalin	-10.6666
▁steve	-10.6667
▁kata	-10.6671
teoria	-10.6673
jul	-10.6673
▁sibelius	-10.6674
▁raivo	-10.6677
▁turkki	-10.6678
▁muslimi	-10.6678
meren	-10.6678
▁1895	-10.668
isina	-10.668
▁asiaa	-10.6681
▁gre	-10.6681
▁marian	-10.6681
▁palata	-10.6682
▁avaus	-10.6689
▁toiminnasta	-10.6692
▁avusta	-10.6696
sal	-10.6697
▁tiili	-10.6699
▁kolo	-10.6699
▁ympäristön	-10.67
reaktio	-10.6701
dä	-10.6702
▁sport	-10.6702
▁virhe	-10.6702
kaise	-10.6704
▁young	-10.6704
õ	-10.6706
▁vierailu	-10.6709
ttomia	-10.671
▁rengas	-10.6716
▁itäpuolella	-10.6718
alusta	-10.6718
happo	-10.6718
▁metsän	-10.6722
▁asemaa	-10.6723
▁mieltä	-10.6723
▁cur	-10.6724
jaan	-10.6724
▁saadakseen	-10.6725
▁boy	-10.6725
▁muitakin	-10.6725
▁yhteiskunnan	-10.6727
tämä	-10.6728
▁vastustaja	-10.6732
▁laaj	-10.6735
▁roolin	-10.6735
▁im	-10.6738
▁pudo	-10.674
▁vaihdettiin	-10.6742
▁pariisi	-10.6746
radan	-10.6747
▁neljästä	-10.6749
▁fox	-10.675
lock	-10.6751
rie	-10.6751
aikaa	-10.6753
▁valli	-10.6756
ted	-10.6757
▁uskotaan	-10.6757
▁puolisonsa	-10.6758
▁haki	-10.6758
▁käsittely	-10.6762
▁brand	-10.6762
▁senaatin	-10.6763
ef	-10.6763
▁matkusta	-10.6764
toimiston	-10.6765
▁kunniaksi	-10.6765
osi	-10.6767
▁näkee	-10.6768
▁kirjoja	-10.6768
▁uima	-10.677
▁ikkuna	-10.677
–3	-10.6772
tuki	-10.6772
▁sopiva	-10.6772
▁cupissa	-10.6773
oosi	-10.6774
▁liittyvä	-10.6774
kro	-10.6774
▁vesistö	-10.6775
▁etnis	-10.6775
hän	-10.6776
cu	-10.6779
▁britannia	-10.6779
▁sukellusvene	-10.678
not	-10.678
ture	-10.6781
▁pidätettiin	-10.6785
▁moraali	-10.6785
▁yhdistelmä	-10.6788
juna	-10.679
▁voimassa	-10.679
▁tuhat	-10.6791
▁kehitettiin	-10.6793
▁väitti	-10.6796
ionin	-10.6799
ere	-10.6799
neesta	-10.6801
▁orja	-10.6802
▁musikaali	-10.6803
leen	-10.6803
▁mitali	-10.6804
▁joku	-10.6806
▁hamilton	-10.6806
▁välit	-10.6807
73	-10.6809
▁norjassa	-10.6809
▁kuningaskunnan	-10.6811
kr	-10.6811
▁vaikuttavat	-10.6812
▁brown	-10.6815
▁yksikkö	-10.6815
▁jään	-10.6819
▁tel	-10.6819
▁jr	-10.6819
е	-10.6823
bre	-10.6825
akseli	-10.6826
▁philadelphia	-10.683
▁osoitti	-10.683
kut	-10.6831
▁varsinaise	-10.6832
▁eläinten	-10.6832
▁nähty	-10.6832
paikkana	-10.6833
▁korpi	-10.6835
▁gil	-10.6836
yö	-10.6837
▁vaalean	-10.6838
▁jeesuksen	-10.6838
▁syyskuun	-10.6838
▁ammattilaisura	-10.6839
▁aasian	-10.6841
pyy	-10.6841
opetukse	-10.6841
▁viestintä	-10.6849
elämän	-10.6851
▁englantiin	-10.6853
▁uskonnon	-10.6856
▁etsimään	-10.6856
suunnittelu	-10.6856
cio	-10.6859
▁tiheä	-10.686
▁ankara	-10.686
ngin	-10.6861
lehteä	-10.6872
järvellä	-10.6877
ttaneet	-10.6878
▁katsoja	-10.6878
käs	-10.688
▁soti	-10.6883
0,	-10.6884
▁friedrich	-10.6887
▁käännös	-10.6887
▁minuutin	-10.6887
▁vetäytyi	-10.6893
▁uskonnollis	-10.6893
▁vallankumous	-10.6894
▁eurooppalais	-10.6894
▁hyväksyttiin	-10.6895
pos	-10.6895
▁espanjassa	-10.6896
tettävä	-10.6897
▁reitti	-10.6899
▁suosiota	-10.69
lerin	-10.69
▁valtasi	-10.6901
▁taika	-10.6902
▁bull	-10.6904
yhtymä	-10.6908
hoitaja	-10.6908
▁nokka	-10.6909
vuuden	-10.6909
▁kup	-10.691
▁mustan	-10.6911
ääri	-10.6914
▁az	-10.6916
kurssi	-10.6916
▁pinnan	-10.6918
saks	-10.6919
ong	-10.6919
▁televisiossa	-10.6919
▁varsinaisen	-10.692
▁cap	-10.6922
aatin	-10.6922
tilat	-10.6922
suus	-10.6925
▁risto	-10.6927
▁löytä	-10.6927
dik	-10.6927
syy	-10.6929
ottelun	-10.6931
nainen	-10.6937
nettiin	-10.6937
▁päätoimittajana	-10.6939
▁ivan	-10.6941
rakenne	-10.6941
▁toisena	-10.6943
▁pot	-10.6943
▁sijainnut	-10.6945
▁tähteä	-10.6946
vaihdo	-10.6947
▁yleisin	-10.6949
operaatio	-10.695
▁2005–2006	-10.6951
▁mah	-10.6953
76	-10.6956
myös	-10.6957
jumala	-10.6957
▁pela	-10.6961
▁komentajana	-10.6963
ktio	-10.6963
▁kukaan	-10.6963
seinä	-10.6966
▁huomioon	-10.6968
pel	-10.6968
▁ajautui	-10.697
merkkejä	-10.6971
▁viere	-10.6972
▁mahdollisti	-10.6972
reitti	-10.6975
▁sitoutu	-10.6982
tiloja	-10.6982
form	-10.6983
trop	-10.6983
mannin	-10.6984
insa	-10.699
▁osat	-10.699
▁aloittivat	-10.6991
▁kutsua	-10.6991
▁koulutuksen	-10.6993
▁rakentei	-10.6995
▁cat	-10.6996
▁omaan	-10.6996
▁harjoitus	-10.6999
▁kohteeksi	-10.6999
▁nick	-10.7004
▁kääpiö	-10.7004
▁napa	-10.7006
▁elokuvia	-10.7007
▁hyökkääjä	-10.7007
▁maihin	-10.7008
▁ilmoitettiin	-10.7008
▁kaudelle	-10.7008
▁huolehti	-10.701
mentti	-10.7011
▁karsi	-10.7013
▁arki	-10.7014
ill	-10.7016
▁irakin	-10.7017
▁kuivu	-10.7017
▁taylor	-10.7017
▁kasvatta	-10.702
työtä	-10.7021
▁akatemian	-10.703
▁tuhansia	-10.7034
tuksella	-10.7035
▁pil	-10.7035
▁työstä	-10.7039
▁asuinalue	-10.7041
▁mielen	-10.7043
▁sup	-10.7044
▁energian	-10.7048
91	-10.7051
▁alkavat	-10.7053
▁veturi	-10.7058
▁häneltä	-10.7058
▁pörssi	-10.706
▁belgian	-10.706
isuudesta	-10.7062
▁lähteä	-10.7063
▁cas	-10.7065
▁edvard	-10.7066
▁46	-10.7067
empaa	-10.7068
nnalla	-10.7072
▁yleisön	-10.7073
▁valkea	-10.7074
▁kulje	-10.7075
stedt	-10.7076
▁kaikilla	-10.7076
mie	-10.7077
▁kertonut	-10.7078
▁kosto	-10.7083
uutensa	-10.7084
▁mahdollistaa	-10.7084
▁vih	-10.7088
▁finaali	-10.7095
▁ylennettiin	-10.7096
▁lauloi	-10.7101
▁kahvi	-10.7101
laatu	-10.7101
vuoro	-10.7103
▁2016–2017	-10.7106
▁tehtäviä	-10.7106
▁1:	-10.7106
▁mont	-10.7107
taulu	-10.7111
tunto	-10.7111
tarina	-10.7114
▁rannat	-10.7116
ram	-10.7118
▁kuningaskunta	-10.7119
▁east	-10.7121
▁salon	-10.7121
▁lit	-10.7121
▁ser	-10.7122
leiri	-10.7123
▁korvattiin	-10.7124
kankaan	-10.7126
▁studioalbumi	-10.7129
nyk	-10.713
▁punaisen	-10.7133
kiä	-10.7133
–10	-10.7135
mmer	-10.7137
▁seppo	-10.7138
▁boston	-10.7138
listalla	-10.7139
▁kaste	-10.714
pt	-10.7141
▁alukset	-10.7141
▁1998.	-10.7144
▁turnauksessa	-10.7146
päivän	-10.7149
nutta	-10.7151
mont	-10.7151
в	-10.7152
▁monen	-10.7153
▁magneetti	-10.7154
▁ehdot	-10.7155
win	-10.7155
–4	-10.7156
pelaaji	-10.7156
kuo	-10.7156
▁ateenan	-10.7157
▁pakolais	-10.7157
▁kestä	-10.7159
▁naisia	-10.7159
▁leh	-10.7161
1:	-10.7162
materiaali	-10.7162
▁rose	-10.7163
▁kuvio	-10.7164
▁luonne	-10.7164
valtuuston	-10.7165
79	-10.7174
gio	-10.7175
▁1894	-10.7175
▁tosi	-10.7177
sivät	-10.7177
▁japanilais	-10.718
▁tarvitaan	-10.7186
▁hyvää	-10.7186
valle	-10.7188
▁rub	-10.7189
▁disney	-10.719
kkojen	-10.719
▁myrky	-10.7191
▁suhtautu	-10.7193
▁49	-10.7194
varasto	-10.7195
▁tha	-10.7195
▁ajaa	-10.7197
vie	-10.7198
▁sui	-10.7198
ph	-10.7201
palo	-10.7202
ova	-10.7203
▁brasilian	-10.7205
▁1892	-10.7205
liittymä	-10.7207
▁land	-10.7207
▁1999.	-10.7211
▁mes	-10.7211
kymmene	-10.7212
jääkäripataljoon	-10.7219
fors	-10.7219
iso	-10.7221
hevos	-10.7221
▁bru	-10.7223
▁juan	-10.7225
▁pisteitä	-10.7228
▁hitler	-10.7228
▁renault	-10.7229
▁dr	-10.7231
▁loppui	-10.7231
▁sävy	-10.7233
▁viimeisenä	-10.7234
▁viulu	-10.7235
▁erilaisten	-10.7235
tuista	-10.7235
▁golden	-10.7235
ix	-10.7239
tum	-10.7239
▁walter	-10.724
▁oike	-10.7242
▁todiste	-10.7243
suojelu	-10.7246
▁yrittä	-10.7248
mpänä	-10.725
nder	-10.7251
viksi	-10.7251
▁edustusjoukkuee	-10.7253
▁irlannin	-10.7257
pl	-10.7259
▁vaihtui	-10.7261
joukkueeseen	-10.7264
▁henri	-10.7265
▁kitara	-10.7267
är	-10.7268
▁louhi	-10.7269
▁oltuaan	-10.727
ε	-10.7273
▁toimitti	-10.7274
▁kertova	-10.7275
▁filmi	-10.7276
▁opinto	-10.7277
▁elämään	-10.7277
▁ottanut	-10.7278
▁syn	-10.7278
▁tukholmassa	-10.728
▁yliopistoon	-10.7282
▁auttoi	-10.7284
ios	-10.7284
▁home	-10.7284
veto	-10.7286
▁tietyn	-10.7288
▁tutkinnon	-10.7288
▁kukka	-10.7288
▁17-	-10.729
tehtävä	-10.729
▁astui	-10.7291
▁sukupolven	-10.7293
single	-10.7294
▁varsi	-10.7294
▁arkeologi	-10.7294
▁harja	-10.7295
▁potkut	-10.7298
▁yllättäen	-10.7299
▁lopun	-10.7299
tul	-10.7302
▁elitserien	-10.7303
▁asumaan	-10.7304
▁kö	-10.7308
suu	-10.7309
▁kansi	-10.7309
▁kasvava	-10.731
ato	-10.7312
▁ympäristössä	-10.7315
wick	-10.7315
▁tahto	-10.7315
hoido	-10.7318
debyyttinsä	-10.7318
▁molekyyli	-10.7322
▁muodostunut	-10.7328
▁paavali	-10.7329
▁näkyvä	-10.733
▁nba	-10.7331
▁osui	-10.7335
▁julkaista	-10.7337
▁merkitty	-10.7339
▁kuri	-10.734
kortti	-10.734
kaava	-10.7346
▁valtaosa	-10.7348
thin	-10.7348
luonno	-10.7349
▁tärkeimmät	-10.7349
▁dur	-10.735
▁selvä	-10.7353
euroopassa	-10.7354
▁johdossa	-10.7355
▁raskaa	-10.7356
▁finaalissa	-10.736
viiva	-10.736
▁vastuu	-10.7361
▁riko	-10.7362
apu	-10.7363
öljy	-10.7364
02	-10.7364
▁pääsarja	-10.7366
suvun	-10.7367
▁poltto	-10.7369
▁tuon	-10.7373
yys	-10.7373
▁lisättiin	-10.7374
▁kuuluvan	-10.7375
rm	-10.7375
▁pataljoona	-10.7376
kurssin	-10.7377
▁vesa	-10.7378
▁kuuma	-10.7379
▁länsipuolella	-10.7385
kammio	-10.7386
▁löyty	-10.7387
▁veikko	-10.7389
▁käyttänyt	-10.739
rintama	-10.739
uru	-10.7391
▁tauti	-10.7392
▁leima	-10.7392
▁kanada	-10.7394
▁chan	-10.7394
▁nopeus	-10.7397
▁talouden	-10.7397
▁olemaan	-10.7398
oksidi	-10.7399
korti	-10.7403
▁gau	-10.7405
▁tapauksissa	-10.7405
▁edeltäjä	-10.7406
dell	-10.7406
▁valkoisen	-10.7406
▁ano	-10.7407
mais	-10.7409
▁eric	-10.7412
▁olikin	-10.7413
▁joukon	-10.7414
puheenjohtajaksi	-10.7415
▁brittiläisen	-10.7416
▁jousi	-10.7417
▁piiriin	-10.7418
▁osake	-10.742
▁hoitaa	-10.742
para	-10.7424
ruoka	-10.7424
▁avain	-10.7425
▁kalusto	-10.7426
euroopan	-10.7433
▁sab	-10.7435
▁1893	-10.7435
dri	-10.7438
kkeja	-10.7438
▁rakkaus	-10.7439
▁saattoivat	-10.744
tapahtumassa	-10.7444
▁ilmari	-10.7445
▁kerä	-10.7446
koita	-10.7446
▁neliö	-10.7446
▁siirtää	-10.7447
▁lyh	-10.745
3)	-10.745
daan	-10.745
▁pierre	-10.745
kulku	-10.7451
▁teokset	-10.7451
▁sanasta	-10.7457
▁läheisyydessä	-10.7459
▁hajosi	-10.746
▁kehityksen	-10.7462
kuore	-10.7463
▁tuttu	-10.7465
▁asetti	-10.7465
▁itsenäisyys	-10.7465
▁life	-10.7466
▁aho	-10.7466
miselle	-10.7466
maailma	-10.747
ew	-10.7471
teatterin	-10.7471
▁lip	-10.7472
ea	-10.7474
yl	-10.7474
▁alankomaiden	-10.7475
▁tärkeää	-10.7475
▁meno	-10.7478
▁edustajana	-10.7478
▁suomalaista	-10.748
ín	-10.748
▁kissa	-10.7481
▁liikennöi	-10.7482
▁aikuisten	-10.7483
▁nuoret	-10.7484
▁suurten	-10.7487
▁muoti	-10.7489
▁pääosa	-10.7492
iltaan	-10.7492
▁purje	-10.7494
▁lisäsi	-10.7496
▁soul	-10.7497
yydestä	-10.7498
▁paikkansa	-10.7498
▁lauta	-10.7499
▁osaan	-10.7499
toimittaja	-10.75
▁koulutukseltaan	-10.75
atti	-10.7501
lev	-10.7501
▁1891	-10.7501
jek	-10.7502
▁2018.	-10.7502
ap	-10.7505
▁sisältävät	-10.7505
vuotisen	-10.7507
▁sijoittuu	-10.7508
▁nostaa	-10.7508
▁heinäkuun	-10.7511
kielistä	-10.7511
teisiin	-10.7511
▁rytmi	-10.7511
oppila	-10.7513
▁mir	-10.7514
▁väkiluku	-10.7517
kirjoja	-10.7519
▁muttei	-10.7521
▁gla	-10.7521
▁kongressi	-10.7522
▁%.	-10.7523
uduttua	-10.7523
yhteys	-10.7529
kes	-10.753
▁paikoin	-10.7531
▁niemi	-10.7533
kappaleen	-10.7533
▁voida	-10.7533
▁mieli	-10.7533
▁kotka	-10.7534
▁pyytää	-10.7534
▁jotkin	-10.7535
kasvu	-10.7537
▁valtakunnallise	-10.7542
▁jumal	-10.7544
opi	-10.7546
▁johtivat	-10.7551
tussa	-10.7552
▁bat	-10.7555
▁florida	-10.7555
antti	-10.7558
aikaan	-10.7559
rou	-10.7561
▁tähtien	-10.7567
▁manchester	-10.7567
eva	-10.757
▁kuvataan	-10.757
▁br	-10.757
▁yhdistetty	-10.7571
rov	-10.7571
mansa	-10.7572
▁pakenemaan	-10.7572
kom	-10.7573
▁harju	-10.7574
▁sopimusta	-10.7574
lääkäri	-10.7576
▁kid	-10.7576
neuvoston	-10.7577
▁solmu	-10.7577
▁arvioitu	-10.7577
taiteen	-10.7579
▁kuulo	-10.758
dr	-10.7583
▁näissä	-10.7586
▁haasta	-10.7587
ness	-10.7588
▁valtakunta	-10.7588
▁tiedetä	-10.759
▁tei	-10.7592
geeni	-10.7594
▁paris	-10.7599
▁elisabet	-10.7599
osin	-10.7599
hyökkä	-10.7601
studio	-10.7602
▁kaikkein	-10.7603
tutkimuksen	-10.7604
▁saisi	-10.7606
▁ohje	-10.7607
▁esko	-10.7608
ord	-10.7609
▁viikossa	-10.761
▁nurmi	-10.7611
vas	-10.7612
▁nähdään	-10.7615
rc	-10.7617
▁aukio	-10.7618
▁johnson	-10.7619
▁maaottelua	-10.7623
▁huonosti	-10.7626
▁lajit	-10.7629
▁eurooppa	-10.763
▁hammas	-10.7631
itus	-10.7632
▁artikkeli	-10.7633
sävel	-10.7633
▁jotain	-10.7633
toon	-10.7635
té	-10.764
▁ostaa	-10.7642
▁vapaan	-10.7644
▁tärkeitä	-10.7645
▁vaikutusta	-10.7645
cus	-10.7646
▁turnaus	-10.7646
▁juu	-10.7646
yh	-10.7649
derin	-10.765
▁juusto	-10.7654
▁valita	-10.7655
▁tulli	-10.7655
ano	-10.7656
llu	-10.7656
▁toimitus	-10.7659
neelle	-10.766
▁oh	-10.7663
▁camp	-10.7663
▁voitu	-10.7668
päässä	-10.7673
▁mahdollisuuden	-10.7674
▁siirtä	-10.7677
▁suunnattu	-10.7681
▁laatu	-10.7685
taide	-10.7687
▁saavu	-10.7687
▁sv	-10.7687
▁valmensi	-10.7691
▁ketju	-10.7691
▁1888	-10.7692
lista	-10.7692
kosta	-10.7695
are	-10.7696
pla	-10.7696
▁slo	-10.7696
▁1400-	-10.7696
puri	-10.7698
▁yhdys	-10.7698
paa	-10.7698
▁vuosisadan	-10.7699
verkon	-10.7703
▁näytellyt	-10.7706
▁pelaajat	-10.7707
▁lev	-10.7708
hoidon	-10.771
maatti	-10.771
▁presidentiksi	-10.7713
puna	-10.7713
▁epäonnistui	-10.7715
tettua	-10.7717
▁data	-10.7718
käsittely	-10.7719
tykseen	-10.772
plo	-10.7723
jina	-10.7725
tauti	-10.7726
▁laukaisu	-10.7729
▁elokuvien	-10.7733
▁markku	-10.7736
tilaa	-10.7738
istinen	-10.7738
ér	-10.7739
hara	-10.7741
▁eduskunnan	-10.7743
▁post	-10.7743
ight	-10.7744
ttavaksi	-10.7744
▁cy	-10.7746
ilmiö	-10.7747
▁elintarvike	-10.7748
aineena	-10.7749
valtaa	-10.7752
ikäinen	-10.7752
▁society	-10.7753
pitoisuus	-10.7754
▁vaiva	-10.776
&	-10.7761
sessä	-10.7762
▁vanki	-10.7765
▁keskeisi	-10.7766
oksesta	-10.7772
aineita	-10.7774
▁kesäkuun	-10.7779
▁pianisti	-10.7779
▁maat	-10.7779
▁tanska	-10.778
liigaan	-10.778
suunnitelma	-10.7781
pus	-10.7784
▁esiintyminen	-10.7785
▁uskon	-10.7786
▁otteeseen	-10.7791
▁lausu	-10.7794
tekniikan	-10.7794
▁gustav	-10.7795
▁sito	-10.7796
▁norja	-10.7799
kuun	-10.7803
▁sär	-10.7806
▁nat	-10.7806
▁erikoistunut	-10.7809
▁uudella	-10.781
far	-10.7811
▁asteen	-10.7811
▁lentopallo	-10.7813
▁geo	-10.7815
▁ö	-10.7815
ç	-10.7816
–20	-10.7816
▁kirk	-10.7817
het	-10.7818
▁kooltaan	-10.7819
▁pormestari	-10.782
▁ilmaisu	-10.7823
dro	-10.7824
▁organisoi	-10.7825
▁1200-	-10.7826
neistä	-10.7826
strömin	-10.7827
vänsä	-10.7828
▁radikaali	-10.783
▁kokee	-10.7831
ο	-10.7832
▁dra	-10.7835
tuminen	-10.7837
▁saavuttaa	-10.7838
ttäjä	-10.784
▁tavattu	-10.7841
▁ilmestyy	-10.7842
▁victor	-10.7843
divisioonan	-10.7847
й	-10.7848
▁maksoi	-10.7848
▁hirvi	-10.7849
▁lar	-10.785
nnasta	-10.785
kojen	-10.7851
▁ša	-10.7852
▁haaste	-10.7853
▁tuotantoon	-10.7854
perhe	-10.7856
-18	-10.7858
selkä	-10.7858
▁lapsena	-10.7859
lander	-10.7861
ttely	-10.7862
▁käsikirjoittaja	-10.7863
à	-10.7864
▁paidassa	-10.7864
rom	-10.7864
psi	-10.7866
▁ruokaa	-10.7866
▁säveltämä	-10.7868
▁välisenä	-10.7868
ffe	-10.787
▁kyseisen	-10.787
▁51	-10.7871
▁avaa	-10.7871
akatemiassa	-10.7871
▁kansallinen	-10.7872
▁uss	-10.7873
ito	-10.7873
kra	-10.7874
korea	-10.7875
▁roomassa	-10.788
pesä	-10.788
▁helmi	-10.788
▁tekevät	-10.7881
pello	-10.7883
▁taustaa	-10.7884
▁hyökkää	-10.7884
▁game	-10.7885
▁elintavat	-10.7886
uuni	-10.7887
elo	-10.7887
▁valitaan	-10.7887
▁maansa	-10.7888
▁levinnyt	-10.789
▁vedet	-10.7895
▁elävä	-10.7895
▁ilmailu	-10.7897
▁perintö	-10.7902
▁keskiajalla	-10.7903
▁kasvavat	-10.7905
▁tulen	-10.7905
tamaan	-10.7906
▁kardinaali	-10.7906
aalinen	-10.7909
▁magn	-10.7912
▁1885	-10.7913
jet	-10.7914
▁manageri	-10.7915
▁kymmeniä	-10.7916
▁yhtään	-10.7917
▁olemassaolo	-10.7917
▁kiinnostui	-10.7918
▁kirkonkylä	-10.7918
▁asiakas	-10.7919
ratojen	-10.7921
▁psykologi	-10.7922
▁suunniteltiin	-10.7922
ttama	-10.7923
▁filosofia	-10.7924
▁joutunut	-10.7925
▁lainalla	-10.7925
▁jokin	-10.7926
pia	-10.7926
▁rio	-10.7927
▁korvaa	-10.7928
metalli	-10.7929
fr	-10.793
▁georgian	-10.7931
▁terve	-10.7932
▁johann	-10.7933
▁miina	-10.7934
▁tuoda	-10.7934
▁sydney	-10.7938
▁hyvät	-10.7938
toveri	-10.7938
▁(35.7	-10.7939
▁gold	-10.794
ennätyksensä	-10.7941
▁tilanteen	-10.7941
vana	-10.7944
▁nostettiin	-10.7946
▁sarjatasolla	-10.7948
▁hot	-10.7952
kir	-10.7953
▁yhdistä	-10.7954
loista	-10.7958
gli	-10.7958
tiivi	-10.7959
sko	-10.7961
avi	-10.7961
▁wal	-10.7965
▁erää	-10.7965
▁millimetriä	-10.797
▁fer	-10.7971
nuor	-10.7972
ár	-10.7972
▁ruumis	-10.7974
▁paavin	-10.7975
▁siirsi	-10.7975
eitä	-10.7978
yksikön	-10.7979
▁th	-10.798
ensi	-10.798
kangas	-10.7982
▁tehokkain	-10.7983
▁käytännön	-10.7983
▁tuloksella	-10.7985
ukon	-10.7986
▁fan	-10.7987
▁lähte	-10.799
▁allekirjoitti	-10.7992
▁käsittelevä	-10.7992
und	-10.7992
tilojen	-10.7995
▁summa	-10.7995
▁tietojen	-10.8
▁eroon	-10.8
▁1992.	-10.8
▁tulevi	-10.8001
▁pimeä	-10.8003
▁käsky	-10.8004
▁hätä	-10.8007
loissa	-10.8008
▁laajeni	-10.8009
▁usa	-10.8009
orin	-10.801
▁talossa	-10.8011
▁parta	-10.8011
▁opiskellut	-10.8013
retki	-10.8013
▁kielellä	-10.8014
4)	-10.8018
▁kaivo	-10.8018
▁tehopistettä	-10.8018
▁populaatio	-10.8019
▁rehtori	-10.802
▁tulipalo	-10.8021
lauta	-10.8022
▁sisko	-10.8023
▁(35.4	-10.8023
▁paikallisen	-10.8026
▁lisätä	-10.8026
▁sig	-10.8026
▁georgia	-10.8028
▁harva	-10.8029
▁tutkimuksessa	-10.8029
tuli	-10.8029
ppo	-10.8031
▁päättivät	-10.8031
▁hava	-10.8032
kuljettaja	-10.8033
▁puutte	-10.8033
▁kappeli	-10.8033
▁menehtyi	-10.8035
▁pelaajaksi	-10.8035
▁jäte	-10.8035
▁täys	-10.8038
laisille	-10.8038
▁valmistaja	-10.8038
▁tarvittava	-10.804
▁britit	-10.8041
▁koste	-10.8041
miesten	-10.8042
▁kemian	-10.8045
▁folk	-10.8046
▁henkilöitä	-10.8046
ttavia	-10.8048
rich	-10.8049
ug	-10.8052
▁with	-10.8053
▁festivaali	-10.8054
▁myöten	-10.8056
keli	-10.8058
▁francis	-10.8059
▁satelliitti	-10.8059
nimistä	-10.8063
▁kansainvälistä	-10.8065
▁lea	-10.8065
alueelle	-10.8066
yyden	-10.8066
▁laajalti	-10.8072
▁vietiin	-10.8073
▁arvonimen	-10.8075
▁huoma	-10.8075
▁14)	-10.8075
▁tuntee	-10.8076
britannian	-10.8076
▁satu	-10.8076
▁huhu	-10.8077
▁georg	-10.8077
▁pienempiä	-10.8077
pula	-10.8078
kasti	-10.8079
▁kielsi	-10.8079
▁1996.	-10.808
▁ulkomaalais	-10.8081
▁tähdistökentä	-10.8081
▁herä	-10.8082
▁pariisiin	-10.8083
▁järjestä	-10.8083
▁lensi	-10.8084
▁parantaa	-10.8084
▁miss	-10.8087
▁kuolee	-10.8088
▁poikaa	-10.8088
▁jersey	-10.8088
▁kive	-10.809
▁hallituksessa	-10.809
shire	-10.8092
▁jackson	-10.8092
τ	-10.8093
lou	-10.8099
▁kattava	-10.8099
▁perustetun	-10.81
▁muistuttava	-10.8102
htaa	-10.8102
▁partio	-10.8103
keen	-10.8104
▁johtajan	-10.8104
mpää	-10.8104
▁15-	-10.8106
aalto	-10.8107
karin	-10.8108
▁jokaisella	-10.8109
▁muotoilu	-10.8109
▁vapaasti	-10.8111
▁2,5	-10.8114
▁standardi	-10.8117
▁tunnetun	-10.8118
metyyli	-10.8119
▁muutto	-10.8119
▁molempien	-10.8121
▁bell	-10.8121
▁teorian	-10.8123
etu	-10.8125
järjestöjen	-10.8125
sil	-10.8126
yama	-10.813
▁mittaisella	-10.8131
▁samuel	-10.8132
▁seudulla	-10.8132
▁maalivahti	-10.8132
▁jatkamaan	-10.8133
rho	-10.8134
alueiden	-10.8134
▁roll	-10.8135
osiin	-10.8137
all	-10.8139
▁vähäise	-10.814
salmi	-10.814
rey	-10.8143
▁kysymys	-10.8145
viiko	-10.8146
ohjelmia	-10.8148
▁yleisradion	-10.8149
1,	-10.815
palkinnolla	-10.8152
▁valvonta	-10.8152
▁toiset	-10.8153
kokous	-10.8153
koista	-10.8155
kansainvälisesti	-10.8156
▁ympäröi	-10.8158
я	-10.8159
▁pesäpallo	-10.8159
▁minä	-10.816
tonta	-10.8161
▁pr	-10.8162
▁betoni	-10.8162
▁hum	-10.8166
▁pitämään	-10.8168
onnettomuudessa	-10.8168
▁aura	-10.8169
▁force	-10.8169
kl	-10.817
▁muuttivat	-10.8171
▁viro	-10.8172
▁taru	-10.8173
viljely	-10.8174
▁toteuttaa	-10.8175
▁arviolta	-10.8175
▁lapsille	-10.818
▁katedraali	-10.818
▁käsitteli	-10.8181
▁intiassa	-10.8182
-3	-10.8183
ähtä	-10.8183
▁kylään	-10.8185
▁lammella	-10.8186
5)	-10.819
ologian	-10.8191
▁luvan	-10.8191
▁viihde	-10.8194
pper	-10.8195
mitali	-10.8197
▁tapahtumien	-10.8198
▁lopetettiin	-10.8198
▁sou	-10.8202
▁asunno	-10.8202
▁valmistama	-10.8203
valmiste	-10.8204
▁päi	-10.8204
▁henkilöstö	-10.8207
▁berliinissä	-10.8208
▁teatterissa	-10.8209
▁oppositio	-10.8209
neuvoksen	-10.821
▁tarttu	-10.8212
▁jär	-10.8213
wer	-10.8214
siipi	-10.8214
pet	-10.8216
maisen	-10.8217
▁pö	-10.8218
tyttäre	-10.8221
▁elokuun	-10.8222
▁not	-10.8222
more	-10.8224
▁tulokset	-10.8228
kello	-10.8228
▁irto	-10.823
▁voiman	-10.823
▁leijona	-10.8231
tuottaja	-10.8232
▁sammu	-10.8235
▁tapani	-10.8235
uoma	-10.8238
▁historioitsija	-10.8241
luutnantti	-10.8244
▁näytti	-10.8244
▁hifk	-10.8246
uko	-10.8246
▁tammikuun	-10.8248
cs	-10.8248
▁selville	-10.8249
▁pitäjän	-10.825
▁konstantin	-10.8252
lentokone	-10.8253
iteetti	-10.8255
▁kauhu	-10.8256
▁tyypillinen	-10.8257
afrikassa	-10.8257
▁kilo	-10.8258
▁pääsivät	-10.826
▁alueiden	-10.8267
▁kukkula	-10.8269
mekanismi	-10.8269
lasta	-10.827
▁avio	-10.8271
▁gun	-10.8272
pul	-10.8273
▁palm	-10.8273
▁miehistön	-10.8273
▁kykeni	-10.8274
▁phil	-10.8275
▁omasta	-10.8275
ous	-10.8275
▁aktiivinen	-10.8278
▁helmikuun	-10.8282
▁vaike	-10.8282
▁pohjoismaiden	-10.8284
▁kui	-10.8285
teksti	-10.8289
lapse	-10.8289
▁luc	-10.8292
onsa	-10.8294
▁mieh	-10.8294
▁eks	-10.8295
▁ensimmäisestä	-10.8296
▁kaupunkien	-10.8296
oidi	-10.8297
festivaali	-10.8298
200	-10.83
▁teloi	-10.83
historian	-10.8302
▁keskittynyt	-10.8307
▁seitsemänneksi	-10.8307
ryhmiä	-10.8309
mir	-10.8309
teollisuutta	-10.831
▁menetelmä	-10.831
▁tällaisia	-10.8312
▁1882	-10.8314
isellä	-10.8316
▁pohjoisen	-10.8317
▁tuotteita	-10.8322
lääkkei	-10.8326
▁parhaana	-10.8326
ttien	-10.8326
▁digitaali	-10.8326
rake	-10.8328
malle	-10.8328
▁450	-10.8329
▁poliittis	-10.8329
т	-10.833
▁kehittämis	-10.833
▁tunne	-10.8332
▁temppelin	-10.8333
▁sosialisti	-10.8333
eiden	-10.8334
▁espanjalais	-10.8335
see	-10.8337
▁riita	-10.8337
▁ui	-10.8337
▁asetta	-10.8344
▁karja	-10.8345
▁miehiä	-10.8348
ania	-10.8349
pio	-10.835
ges	-10.835
▁näkyvi	-10.8351
llisena	-10.8351
▁riittävän	-10.8351
ttomasti	-10.8352
▁yritysten	-10.8353
▁markkinoi	-10.8355
iku	-10.8356
▁opas	-10.8356
▁lähtevät	-10.8357
▁halki	-10.8357
▁hevosen	-10.8358
▁pääasialli	-10.8359
▁historiassa	-10.836
▁alkaessa	-10.8362
▁aseita	-10.8364
ctor	-10.8365
sistä	-10.8366
▁hallussa	-10.8367
▁1889	-10.8369
amiini	-10.837
kkoja	-10.8374
▁rinnalla	-10.8375
alasta	-10.8376
▁kokous	-10.8377
▁sund	-10.8378
emi	-10.8379
mäinen	-10.838
▁loppukauden	-10.838
▁seuraura	-10.8381
▁komentajaksi	-10.8381
▁vaativat	-10.8383
jään	-10.8383
▁tyyppi	-10.8386
▁lars	-10.8388
▁pojat	-10.8389
▁merkittävi	-10.8389
▁bakteeri	-10.8391
kentän	-10.8394
▁flo	-10.8395
ttyään	-10.8397
llisyys	-10.8397
▁hitaasti	-10.8399
▁aisti	-10.8401
▁kirjo	-10.8403
▁valkoiset	-10.8404
▁kappaleella	-10.8406
▁maksaa	-10.8411
rajan	-10.8414
iska	-10.8415
▁river	-10.8415
kkö	-10.8416
▁konservatiivi	-10.8416
▁×	-10.8419
▁meksikon	-10.842
▁maine	-10.842
▁suojel	-10.8422
maalaukse	-10.8424
▁eliö	-10.8425
noin	-10.8426
▁syys	-10.8427
▁yhtyeeseen	-10.8427
lar	-10.8428
ša	-10.8429
▁iron	-10.843
▁valkoisten	-10.8432
▁peräti	-10.8432
▁open	-10.8434
▁53	-10.8435
▁mikkelin	-10.8435
sarjaa	-10.8436
hir	-10.8436
▁rakenn	-10.8436
day	-10.8437
lähte	-10.8438
sodan	-10.8439
▁maalipörssin	-10.844
▁laboratorio	-10.8442
bul	-10.8443
mmista	-10.8445
▁rajaa	-10.8445
▁sotilaat	-10.8448
▁hv	-10.8449
▁täyttä	-10.8449
▁1997.	-10.845
saksan	-10.8452
lapsi	-10.8452
▁kalifornian	-10.8453
senin	-10.8454
juhla	-10.8455
politiikan	-10.8455
▁vähentää	-10.8457
▁kielletty	-10.8457
▁tutkimusta	-10.8459
▁honka	-10.8459
▁aseen	-10.846
▁moskovassa	-10.846
linjan	-10.846
evi	-10.8464
▁asennettiin	-10.8464
▁teoksessa	-10.8467
▁ampu	-10.8468
▁korkeimmalla	-10.8468
▁seutu	-10.8469
lian	-10.8469
suutta	-10.8471
▁1995.	-10.8473
▁pitkät	-10.8474
▁aiempi	-10.8475
▁yo	-10.8476
opettajana	-10.8477
▁annetaan	-10.8478
▁davis	-10.8478
hei	-10.8478
▁moottorin	-10.8478
▁ratkaiseva	-10.848
laisesta	-10.8482
▁yhdysvaltalais	-10.8482
turnauksessa	-10.8482
▁proteiini	-10.8482
▁university	-10.8484
amerikkaan	-10.8484
▁iske	-10.8484
▁hylkäsi	-10.8485
λ	-10.8485
▁edistää	-10.8486
kseksi	-10.8486
ajalla	-10.8487
▁venäjää	-10.849
▁entsyymi	-10.849
▁reservi	-10.8491
▁lasketaan	-10.8491
tsin	-10.8492
koon	-10.8492
▁pori	-10.8492
▁kanto	-10.8492
▁väitöskirja	-10.8494
hau	-10.8495
▁oikeutta	-10.85
tina	-10.8502
▁1886	-10.8504
▁keskustassa	-10.8505
kaudellaan	-10.8505
▁työnsä	-10.8509
grafi	-10.8509
▁kääntyi	-10.851
saksa	-10.8512
▁mäkelä	-10.8513
▁viimeisessä	-10.8514
▁erikseen	-10.8515
akatemian	-10.8518
▁mannerheim	-10.8518
▁comp	-10.852
▁lännen	-10.8521
▁rosen	-10.8522
▁käsitte	-10.8522
▁säätiö	-10.8524
▁pääsarjassa	-10.8524
tettavaksi	-10.8524
▁kaksivuotisen	-10.8527
▁psyko	-10.853
▁käynyt	-10.8531
▁tyhjä	-10.8532
sarjoissa	-10.8532
▁kuljettaja	-10.8532
▁nykyistä	-10.8532
▁rangaistus	-10.8535
vaaleissa	-10.8538
vään	-10.854
ttamiseen	-10.8541
▁hallin	-10.8546
▁asiassa	-10.8553
pri	-10.8556
▁poiketen	-10.8559
▁filip	-10.8561
pr	-10.8562
▁ravi	-10.8562
▁mielestään	-10.8563
▁tukikohta	-10.8565
periaattee	-10.8566
ved	-10.8566
▁batman	-10.8567
▁vakaa	-10.8568
neuvostoliitossa	-10.857
ū	-10.857
▁suunnitelman	-10.8571
virasto	-10.8573
ruhtina	-10.8573
▁thaimaa	-10.8582
▁sydämen	-10.8584
vaali	-10.8584
▁brian	-10.8584
työt	-10.8585
säännö	-10.8585
avat	-10.8586
▁poikien	-10.859
▁persoona	-10.8591
▁hyökkäsivät	-10.8592
▁sävellys	-10.8595
▁aino	-10.8596
▁wolf	-10.8597
▁perustuslain	-10.8597
▁clark	-10.8599
bach	-10.86
▁esitetään	-10.8601
▁osavaltiossa	-10.8603
▁tapaus	-10.8605
ray	-10.8607
▁ylen	-10.8608
▁golf	-10.8608
▁uudista	-10.8609
▁itämeren	-10.861
town	-10.8611
▁kiito	-10.8611
lliseksi	-10.8614
▁korjaus	-10.8614
kaista	-10.8615
neille	-10.8617
utua	-10.8618
nopeus	-10.8619
▁tiuk	-10.862
järvestä	-10.862
▁juurikaan	-10.8621
kerros	-10.8621
▁minnesota	-10.8621
▁piir	-10.8622
kaupungin	-10.8623
ttäessä	-10.8624
suomalais	-10.8625
oksia	-10.8627
▁päivässä	-10.8628
▁simo	-10.8631
▁oppilas	-10.8633
video	-10.8634
▁teologi	-10.8634
▁toisi	-10.8635
iki	-10.8635
tiedettä	-10.8636
▁toukokuun	-10.8636
tumista	-10.8636
▁kerrottiin	-10.8636
▁yhdisti	-10.8637
▁pietarissa	-10.8637
▁arvioidaan	-10.8638
▁mr	-10.8638
▁vel	-10.8638
▁ang	-10.8639
▁teollisuuden	-10.8639
▁myyty	-10.8641
siirro	-10.8642
kamari	-10.8644
puku	-10.8646
▁johnny	-10.8647
▁orkesterin	-10.8647
▁maailmancupin	-10.8648
▁1887	-10.8651
▁54	-10.8652
▁asunut	-10.8653
▁tyypillisiä	-10.8655
▁kapinoi	-10.8655
▁prinsessa	-10.8657
▁irti	-10.866
▁haavoittu	-10.866
turi	-10.8663
▁serie	-10.8665
▁yhdestä	-10.8667
▁kasvin	-10.8668
tiikan	-10.8668
▁ever	-10.867
▁markkinointi	-10.867
kunnissa	-10.8671
yttä	-10.8671
▁jakob	-10.8676
runo	-10.8678
▁song	-10.8679
prosentti	-10.868
▁(3	-10.868
tessaan	-10.8681
▁alk	-10.8681
▁äly	-10.8683
▁noudatta	-10.8683
▁kappaleista	-10.8683
päällikön	-10.8685
▁lep	-10.8685
▁160	-10.8686
▁valtava	-10.8687
kitara	-10.8688
sairaala	-10.8689
▁ellei	-10.869
tunnus	-10.8691
mmasta	-10.8698
lim	-10.87
▁syöpä	-10.8701
käytössä	-10.8702
kohde	-10.8703
uni	-10.8703
▁olevaan	-10.8705
▁perustaminen	-10.8707
▁tuotantoa	-10.8707
▁kielten	-10.8708
kuntaa	-10.8708
▁ross	-10.8712
▁tuotiin	-10.8712
▁kapinan	-10.8712
▁söder	-10.8713
▁laitoksen	-10.8714
mmissa	-10.8715
▁dna	-10.8716
denin	-10.8718
▁leikki	-10.8718
▁elinvoimaiseksi	-10.8719
mpien	-10.8719
aria	-10.872
lammin	-10.872
▁millimetrin	-10.8721
▁brasilia	-10.8721
▁osaltaan	-10.8723
▁skotlannin	-10.8724
itsi	-10.8727
▁latinalais	-10.8727
kkiä	-10.8729
▁luovutti	-10.8729
▁lawrence	-10.873
▁tps	-10.8731
▁korkeimman	-10.8732
pankki	-10.8736
rum	-10.8737
ryhmää	-10.8738
▁syl	-10.8738
▁hyvi	-10.8739
▁rauman	-10.874
▁sihteeri	-10.874
log	-10.874
evan	-10.874
moni	-10.8741
▁tuohon	-10.8741
▁liittyivät	-10.8741
kirkon	-10.8741
▁vaikutuksen	-10.8741
▁kävely	-10.8743
▁maaottelu	-10.8743
▁aikaansa	-10.8747
bird	-10.8747
▁maakunnan	-10.8748
isoi	-10.8752
▁detroit	-10.8753
▁qu	-10.8754
▁sanotu	-10.8754
▁kilpailua	-10.8755
yer	-10.8758
yrityksen	-10.8759
▁laura	-10.8759
▁istui	-10.8764
▁vanhaa	-10.8764
▁englantilais	-10.8766
▁hirviö	-10.877
▁kaudesta	-10.877
▁atlantin	-10.8771
▁äänestä	-10.8771
▁57	-10.8774
▁center	-10.8775
▁rö	-10.8776
▁kalenteri	-10.8777
kii	-10.8779
▁pitki	-10.878
ð	-10.8782
▁emo	-10.8784
▁arvioita	-10.8784
det	-10.8784
▁56	-10.8787
viesti	-10.8787
paikat	-10.8789
▁selviyty	-10.879
1)	-10.879
▁vety	-10.879
koodi	-10.8792
elia	-10.8793
▁osto	-10.8793
▁elämästä	-10.8793
▁ajoittain	-10.8795
pre	-10.8796
▁uhkaa	-10.8797
war	-10.8797
ction	-10.8797
▁roger	-10.8798
▁käärme	-10.8798
kasvei	-10.8799
▁ferdinand	-10.8799
▁pun	-10.88
matkan	-10.8801
laite	-10.8802
lio	-10.8803
▁kukat	-10.8804
▁käsikirjoitukse	-10.8806
kulttuurin	-10.8808
shin	-10.8808
cl	-10.8809
tavara	-10.881
grad	-10.8811
iksen	-10.8812
▁ok	-10.8812
▁täyden	-10.8812
vina	-10.8814
bas	-10.8815
valmistaja	-10.8817
▁sosiali	-10.8819
▁ylsi	-10.8821
–1	-10.8822
▁pudotuspeli	-10.8822
kanavalla	-10.8822
▁(35.3	-10.8823
▁frans	-10.8823
▁kier	-10.8824
ohjaaja	-10.8831
▁marraskuun	-10.8831
▁1994.	-10.8833
▁suostui	-10.8835
pun	-10.8835
▁toive	-10.8836
▁tilat	-10.8836
о	-10.8839
▁bab	-10.8843
sso	-10.8843
utuminen	-10.8843
▁tode	-10.8845
mistaan	-10.8845
▁ajettiin	-10.8846
▁valu	-10.8846
▁andrew	-10.8848
▁tulva	-10.8848
▁samo	-10.8852
▁jorma	-10.8855
100	-10.8856
▁terävä	-10.8858
▁evankeliumi	-10.8858
▁yhteyteen	-10.8858
▁vaihde	-10.8858
immista	-10.8859
uuskilpailut	-10.886
▁suosion	-10.8861
▁hake	-10.8861
▁ferr	-10.8861
kerho	-10.8863
yyttä	-10.8864
▁oi	-10.8866
▁tuomas	-10.8867
▁110	-10.8868
ies	-10.8868
▁vartalo	-10.8868
kemia	-10.8869
▁kuuli	-10.8869
kuninka	-10.8869
▁maha	-10.887
▁metsää	-10.8876
-10	-10.8876
6)	-10.8876
tulkin	-10.8877
sar	-10.8881
saaressa	-10.8882
▁bond	-10.8882
himo	-10.8883
kaus	-10.8883
▁katolisen	-10.8884
▁vaihtelevat	-10.8885
▁merkitsi	-10.8885
ilija	-10.8886
▁täyde	-10.8887
▁kuvanveistäjä	-10.8887
▁syöttöpistettä	-10.8887
▁yhtyeestä	-10.8889
▁majuri	-10.8889
▁runsa	-10.889
▁espoo	-10.8893
tuote	-10.8893
▁bbc	-10.8893
▁(20	-10.8894
näkö	-10.8896
▁cer	-10.8896
▁julius	-10.8896
▁puolalais	-10.8897
iro	-10.8897
▁häiriö	-10.8898
▁nato	-10.8898
▁gen	-10.8903
▁kuori	-10.8904
▁windows	-10.8905
▁kuninkaaksi	-10.8905
▁tuhota	-10.8905
pankin	-10.8905
▁pehmeä	-10.8907
▁sairaus	-10.8908
▁talle	-10.8909
kalvo	-10.8909
karjalan	-10.891
▁radalla	-10.8911
▁muka	-10.8911
▁perinteinen	-10.8913
talous	-10.8914
▁sisältä	-10.8922
▁lattia	-10.8922
▁tekemi	-10.8922
▁esiintyä	-10.8923
▁alueesta	-10.8924
virran	-10.8926
tiede	-10.8927
▁kyky	-10.8927
▁myöhäis	-10.8927
vari	-10.8927
–8	-10.8929
▁joissain	-10.8932
▁neljään	-10.8933
▁kiertueen	-10.8934
▁haku	-10.8934
teesta	-10.8935
▁ruhtinas	-10.8937
▁komppanian	-10.8938
näytelmä	-10.8938
▁montreal	-10.8941
▁pitkälti	-10.8941
row	-10.8942
▁nykyaika	-10.8943
llisuutta	-10.8944
ence	-10.8944
▁kuopio	-10.8945
▁animaatio	-10.8945
ttia	-10.8945
▁harri	-10.8945
▁leino	-10.8947
tyksiä	-10.8947
▁kaudellaan	-10.8948
▁tehtävät	-10.895
▁kokonaisuudessa	-10.895
saare	-10.8951
▁puhtaa	-10.8955
alalla	-10.8955
▁rajoittuu	-10.8956
▁toimineen	-10.8959
▁1884	-10.8959
▁löi	-10.896
▁huomioi	-10.8961
▁stefan	-10.8965
insinööri	-10.8967
▁syöksy	-10.8968
▁väi	-10.8968
▁sinfonia	-10.8969
▁krist	-10.8971
▁aero	-10.8973
▁syksyn	-10.8973
▁eva	-10.8975
▁titulaaripiispa	-10.8975
▁esittänyt	-10.8977
▁tällainen	-10.8981
▁has	-10.8981
▁2017–2018	-10.8981
osuus	-10.8987
kla	-10.8988
▁tekniikan	-10.8988
▁ralli	-10.899
▁1993.	-10.8991
▁suru	-10.8992
▁veljekset	-10.8992
▁oksa	-10.8994
nerin	-10.8995
enius	-10.8997
▁sap	-10.8997
▁senaattori	-10.8997
▁todettu	-10.8999
▁angeles	-10.8999
▁alaisuuteen	-10.9001
▁kiersi	-10.9001
▁tehokkaa	-10.9001
isteja	-10.9001
▁yleisölle	-10.9004
ttämällä	-10.9009
▁itsestään	-10.9011
▁ohjus	-10.9011
▁julkaisemi	-10.9011
kamera	-10.9012
skan	-10.9014
▁pui	-10.9017
▁vartio	-10.9017
▁teoksensa	-10.9017
▁1,2	-10.9017
▁palvelut	-10.9018
▁ääne	-10.9019
▁liikenteen	-10.9021
▁yksilön	-10.9021
▁rakentamisen	-10.9021
▁konekivääri	-10.9022
▁ukraina	-10.9024
▁bush	-10.9027
▁säilyttä	-10.9028
ł	-10.9029
▁selkeä	-10.9029
▁ash	-10.903
▁omaksu	-10.9031
llisuudesta	-10.9031
▁alumiini	-10.9034
▁hetken	-10.9035
▁ev	-10.9038
▁carlos	-10.9039
juoksu	-10.904
linnu	-10.904
eur	-10.9041
▁materiaalia	-10.9042
akti	-10.9044
▁tappion	-10.9046
▁kron	-10.9046
▁rah	-10.9046
▁yksittäis	-10.9046
▁85	-10.9047
ilijoiden	-10.9048
mätön	-10.905
▁kerros	-10.9052
▁harvinainen	-10.9052
▁dokumentti	-10.9054
▁uskoi	-10.9056
▁portugali	-10.9056
▁vetä	-10.9057
▁uudenmaan	-10.9057
dō	-10.9059
rahasto	-10.906
▁upo	-10.906
▁maaliskuun	-10.9061
▁taho	-10.9063
▁saaga	-10.9063
rivi	-10.9064
▁torjunta	-10.9065
▁unkari	-10.9066
▁poista	-10.9066
▁sielu	-10.9069
▁yleisiä	-10.9069
vastuu	-10.907
▁viher	-10.9071
▁ron	-10.9071
▁1300-	-10.9072
▁kyn	-10.9073
zon	-10.9076
▁sebastian	-10.9076
▁mihail	-10.9076
▁välein	-10.9077
toimet	-10.9077
▁sininen	-10.9078
▁kertovat	-10.9085
▁hyviä	-10.9086
▁sanoen	-10.9086
▁bändi	-10.9086
▁näyte	-10.9088
▁osumallaan	-10.9089
tari	-10.909
▁luovutta	-10.9092
▁alo	-10.9093
turva	-10.9094
kselle	-10.9094
▁uhra	-10.9094
ý	-10.9095
▁kanadalainen	-10.9098
▁unioni	-10.9101
kkaus	-10.9102
▁kuninkaallisen	-10.9102
bia	-10.9102
demokraattien	-10.9102
▁puolusta	-10.9105
▁kulutta	-10.9105
▁cro	-10.9108
ttavissa	-10.911
▁johanna	-10.911
bs	-10.9111
syn	-10.9111
rick	-10.9111
mail	-10.9112
tavia	-10.9114
sena	-10.9116
▁vastaanoton	-10.9116
▁suhteet	-10.9118
▁liber	-10.9119
tetut	-10.9119
▁huvila	-10.912
tella	-10.9121
▁yksilöä	-10.9122
kyn	-10.9122
fy	-10.9123
▁sky	-10.9123
▁luovutettiin	-10.9124
▁riippuu	-10.9124
lasi	-10.9126
mmalla	-10.9127
▁romania	-10.9128
kentällä	-10.9128
myöh	-10.9129
kt	-10.913
▁voitaisiin	-10.913
▁stor	-10.913
▁kuvia	-10.9131
liito	-10.9132
▁keisarikunnan	-10.9133
verkosto	-10.9135
▁anthony	-10.9136
▁blo	-10.9137
aga	-10.9138
▁tarkoi	-10.9142
läiset	-10.9142
seppä	-10.9143
puolustusvoimien	-10.9144
▁tukee	-10.9146
▁recordsin	-10.9146
▁kurssi	-10.9147
▁käsikirjoitus	-10.9148
▁bart	-10.9148
▁käyty	-10.9151
▁vaasa	-10.9151
mättömi	-10.9152
▁hag	-10.9152
▁fysiikan	-10.9153
▁58	-10.9153
▁huu	-10.9159
▁ympäröivä	-10.9159
ttaen	-10.916
tilanne	-10.9161
▁välityksellä	-10.9161
▁risteilijä	-10.9161
▁sovelta	-10.9162
▁peräkkäin	-10.9166
kanavi	-10.9168
kaksi	-10.9168
stys	-10.9171
pesi	-10.9171
▁lamp	-10.9171
osien	-10.9172
▁keskeytti	-10.9172
▁paikallinen	-10.9172
▁lajeja	-10.9172
▁lama	-10.9173
▁dol	-10.9176
pido	-10.9179
▁hengitys	-10.918
▁nova	-10.9182
▁puolustajien	-10.9182
▁astu	-10.9183
▁pitäjä	-10.9184
▁laivueen	-10.9185
▁taito	-10.9186
▁esikois	-10.9188
meno	-10.9189
▁puolelta	-10.9189
puhe	-10.9189
tensä	-10.9191
▁tarkas	-10.9192
ml	-10.9193
▁piispan	-10.9193
part	-10.9195
ulo	-10.9196
▁eräät	-10.9196
▁työläis	-10.9196
▁kolmannella	-10.9196
▁nuor	-10.9196
ttujen	-10.9197
▁yrittivät	-10.9198
vihreä	-10.92
▁harmoni	-10.92
▁karsinta	-10.9204
▁päätty	-10.9205
▁astetta	-10.9205
▁romaanin	-10.9207
lem	-10.9208
▁vapautettiin	-10.9208
▁toteutettu	-10.9209
gerin	-10.9209
▁syvyys	-10.9209
istui	-10.9214
▁liikemies	-10.9217
mmilla	-10.9217
komitean	-10.9218
▁66	-10.9219
▁virkaan	-10.9219
▁pääoma	-10.9224
▁soittanut	-10.9228
▁god	-10.9229
▁englanti	-10.923
aineet	-10.923
ttamisen	-10.9231
luvut	-10.9231
gård	-10.9233
kilpailuun	-10.9234
▁rykmentin	-10.9235
▁juhana	-10.9236
▁å	-10.9237
esiintymisensä	-10.9237
▁stephen	-10.9239
▁vesille	-10.9239
tasango	-10.9241
▁tulleen	-10.9242
väestö	-10.9242
sie	-10.9245
▁määritelty	-10.9245
▁ernst	-10.9245
yde	-10.9246
prosessi	-10.9246
jokea	-10.9247
▁virginia	-10.9249
▁matali	-10.9249
dé	-10.9251
▁tulleet	-10.9251
▁porvoon	-10.9251
▁miekka	-10.9252
▁moskova	-10.9252
▁imp	-10.9255
▁joille	-10.9256
▁irlanti	-10.9256
▁havaitsi	-10.9257
▁keittiö	-10.9257
väylä	-10.9258
▁eron	-10.9258
eissä	-10.9259
▁edistä	-10.9261
▁dub	-10.9263
▁tarkasti	-10.9263
▁haltuun	-10.9264
▁vieraa	-10.9266
▁juutalaisten	-10.9266
▁koskeva	-10.9268
marin	-10.9273
▁kunto	-10.9273
▁asukkaiden	-10.9277
sinfoniaorkester	-10.9281
▁sairastu	-10.9281
▁lisääntymis	-10.9283
▁järjestys	-10.9287
ute	-10.9289
▁tapahtuman	-10.9289
▁death	-10.929
▁jatkoivat	-10.9291
▁valmistautu	-10.9293
▁mennä	-10.9296
hdu	-10.9297
järvelle	-10.9298
läis	-10.93
▁pelasta	-10.93
▁etteivät	-10.9303
▁hard	-10.9304
▁ts	-10.9305
▁täten	-10.9305
muka	-10.9307
asunto	-10.9308
ttaisiin	-10.9308
▁kiinnitetty	-10.9308
ttamisesta	-10.931
▁järjestelmän	-10.931
▁pahoin	-10.931
kielen	-10.9313
▁130	-10.9314
vaurio	-10.9317
dos	-10.9318
▁voittivat	-10.9318
▁liittyä	-10.9319
nic	-10.9319
▁armeijaan	-10.9322
▁vamma	-10.9323
kolan	-10.9323
▁ymmärtää	-10.9324
▁tunkeutu	-10.9324
▁lontoo	-10.9325
▁time	-10.9329
▁hyönteis	-10.9329
thi	-10.933
▁motor	-10.9331
ileva	-10.9333
use	-10.9336
▁pysyvä	-10.9336
rre	-10.9336
▁ennus	-10.9337
▁seuraavassa	-10.9337
▁muodo	-10.9338
leja	-10.9338
▁liettuan	-10.9339
▁venäläisiä	-10.934
▁tunturi	-10.9342
▁ottamaan	-10.9342
harju	-10.9343
▁2004–2005	-10.9343
▁1991.	-10.9345
puvu	-10.9346
▁sparta	-10.9347
ique	-10.9348
▁tunneli	-10.935
▁kartta	-10.9351
▁loppuottelu	-10.9353
▁franz	-10.9355
luun	-10.9357
▁sergei	-10.9359
▁huone	-10.9359
▁2-	-10.9359
▁ranskalaiset	-10.936
talouden	-10.936
uteen	-10.9361
oidu	-10.9361
▁tarvittaessa	-10.9361
gre	-10.9368
▁reittien	-10.9371
cor	-10.9371
▁palautettiin	-10.9374
roos	-10.9375
vyys	-10.9376
▁sairaalassa	-10.9377
▁evankelis	-10.9378
impia	-10.938
mut	-10.9381
oille	-10.9381
▁laskeutu	-10.9385
▁katariina	-10.9385
▁markkaa	-10.9386
taminen	-10.9386
▁taitava	-10.9387
▁uraansa	-10.9387
▁fred	-10.9388
▁yritykset	-10.9388
▁osakeyhtiö	-10.9388
▁väre	-10.9389
▁kit	-10.9391
▁tutkia	-10.9392
▁torjui	-10.9395
sing	-10.9395
▁runoja	-10.9396
▁muutamaa	-10.9397
▁sopeutu	-10.9398
▁koiran	-10.94
suuri	-10.9401
▁rahan	-10.9401
▁yorkiin	-10.9402
▁kansakoulu	-10.9402
hauta	-10.9403
thy	-10.9403
got	-10.9405
▁luonnossa	-10.9406
kaari	-10.9411
▁ateena	-10.9412
iaan	-10.9413
▁pelipaikalta	-10.9414
tuottei	-10.9414
▁kirjeen	-10.9416
▁vanhat	-10.9417
vuotia	-10.9418
▁leon	-10.9418
roth	-10.9423
▁jäljelle	-10.9423
▁svenska	-10.9423
▁rahti	-10.9425
▁tuhosi	-10.9425
▁teknologia	-10.9428
▁intia	-10.943
▁mauri	-10.9435
ib	-10.9436
▁rot	-10.9437
▁perustuvat	-10.9439
tše	-10.9439
▁keskimääräinen	-10.9441
▁enintään	-10.9441
▁raiva	-10.9442
▁cri	-10.9446
▁ava	-10.9447
gur	-10.9448
▁paikalliset	-10.9448
▁end	-10.9449
▁qui	-10.9449
▁elokuvaohjaaja	-10.945
▁puhutaan	-10.9451
ark	-10.9452
esiintymä	-10.9456
yksistä	-10.9456
ohjelmaa	-10.9458
▁biologi	-10.9458
▁merkitykse	-10.9459
amin	-10.9462
▁dark	-10.9463
▁terrori	-10.9464
ratkaisu	-10.9465
▁aloittanut	-10.9466
▁kirkkoon	-10.9467
▁epäily	-10.9468
ruudu	-10.9469
lahdella	-10.947
▁dal	-10.9471
▁käännetty	-10.9471
▁tutka	-10.9471
elämää	-10.9471
▁ensimmäisten	-10.9472
tutkinto	-10.9472
▁kopio	-10.9474
org	-10.9475
dien	-10.9476
▁aiko	-10.9481
asti	-10.9481
▁monesti	-10.9482
▁jääkiekon	-10.9484
▁lupasi	-10.9487
pot	-10.9488
▁sotilasta	-10.9488
▁vt	-10.9491
kri	-10.9491
teknologia	-10.9492
▁suunnilleen	-10.9492
▁yrittäjä	-10.9492
noi	-10.9493
▁sami	-10.9493
▁keula	-10.9494
▁neu	-10.9495
▁lordi	-10.9496
neeksi	-10.9497
▁teosten	-10.9498
▁menestynyt	-10.9499
▁alkulohko	-10.9501
▁ainetta	-10.9503
▁pystynyt	-10.9504
▁rakentama	-10.9508
▁viran	-10.9511
▁historiallinen	-10.9511
▁yleisurheilu	-10.9511
lj	-10.9512
▁lähtivät	-10.9514
lanti	-10.9514
▁1990.	-10.9515
ttäminen	-10.9515
▁sanaa	-10.9515
▁julkisen	-10.9518
▁jarru	-10.9519
▁vakavasti	-10.952
▁patsas	-10.9521
lam	-10.9522
tietokone	-10.9523
▁sum	-10.9523
misessä	-10.9525
▁nan	-10.9527
▁työvoima	-10.9528
▁perinne	-10.9529
▁perustamis	-10.9532
kvar	-10.9533
lupa	-10.9533
▁sarjaa	-10.9534
▁johtuva	-10.9535
cht	-10.9537
▁otteli	-10.9539
▁katsottiin	-10.9539
▁yhtyeessä	-10.9541
tehtävissä	-10.9541
▁varhainen	-10.9541
ssel	-10.9542
▁tuomitsi	-10.9542
▁työntekijä	-10.9546
kärki	-10.9547
▁silmät	-10.9549
kol	-10.955
▁95	-10.955
aikais	-10.955
fon	-10.9552
▁liisa	-10.9552
omistaja	-10.9554
gro	-10.9555
▁happi	-10.9556
▁rahoitus	-10.9557
▁tehtävissä	-10.9558
▁muuttunut	-10.9562
▁isäntä	-10.9563
000	-10.9563
▁putki	-10.9563
kokoonpano	-10.9566
toimen	-10.9566
▁korean	-10.9567
▁fani	-10.9568
vuodet	-10.957
▁tunnetu	-10.9571
▁uudistus	-10.9574
▁ori	-10.9574
rek	-10.9575
▁presidentinvaal	-10.9576
levyn	-10.9576
–9	-10.9576
▁punaisten	-10.9576
bli	-10.9577
aatto	-10.9578
▁johdettu	-10.9578
▁wen	-10.9579
▁tallin	-10.958
▁sissi	-10.9583
arab	-10.9583
▁veron	-10.9584
▁rauhoit	-10.9584
▁ji	-10.9584
öö	-10.9584
▁sauna	-10.9585
▁billy	-10.9588
▁sada	-10.9589
stoon	-10.959
ate	-10.9596
ilan	-10.9598
▁sound	-10.9598
▁syytti	-10.9599
▁pysähty	-10.9603
▁sekuntia	-10.9604
▁väkivalta	-10.9605
▁jokaisessa	-10.9612
zzi	-10.9613
▁nokia	-10.9615
▁omistukseen	-10.9619
▁suihku	-10.9619
veri	-10.9619
▁haastattelu	-10.962
▁russell	-10.9622
▁ulkomaille	-10.9622
ohjelmaan	-10.9622
▁pientä	-10.9623
▁hermo	-10.9626
kuvernööri	-10.9627
▁luna	-10.9627
▁purka	-10.9629
▁julkaisun	-10.963
▁suurimpia	-10.9632
olle	-10.9632
▁haar	-10.9632
▁liito	-10.9634
tuotteita	-10.9634
▁alusten	-10.9635
kim	-10.9635
▁työskentely	-10.9636
▁1881	-10.9636
▁fla	-10.9637
▁informaatio	-10.9638
koneita	-10.9639
▁koto	-10.9639
▁samat	-10.9641
▁tyynenmeren	-10.9641
▁oikeudet	-10.9642
▁haavoittui	-10.9643
8)	-10.9644
▁laine	-10.9646
▁rajalla	-10.9646
mieheksi	-10.9647
kohdan	-10.9647
osto	-10.9648
illeen	-10.9649
▁peit	-10.9649
▁alapuolella	-10.965
▁mans	-10.965
▁opetta	-10.965
▁prosentin	-10.9651
▁kaliforniassa	-10.9652
isivat	-10.9652
laitteita	-10.9653
▁liverpool	-10.9654
jensa	-10.9654
tellen	-10.9656
läisen	-10.9658
▁vastaavat	-10.9661
lor	-10.9661
planeeta	-10.9662
▁punakaarti	-10.9662
▁pääjohtaja	-10.9663
rad	-10.9663
paikoilla	-10.9663
ort	-10.9664
suunnassa	-10.9664
▁1870	-10.9665
▁syytä	-10.9665
▁tavallista	-10.9666
▁selittää	-10.9668
arabia	-10.9668
▁vantaan	-10.9669
▁suljettiin	-10.9673
itten	-10.9673
▁lapsuus	-10.9679
luterilais	-10.9681
gle	-10.9683
silmä	-10.9684
▁kapellimestari	-10.9685
sellä	-10.9686
jer	-10.9687
▁siipien	-10.9687
uskonno	-10.9689
▁xi	-10.969
kuoro	-10.9691
▁rooma	-10.9692
▁kolmio	-10.9693
▁1883	-10.9693
▁tekstiili	-10.9696
▁puhui	-10.9696
▁tänä	-10.9696
kil	-10.9697
teissa	-10.9697
▁kommunistisen	-10.97
л	-10.97
tyttö	-10.9702
▁sulttaani	-10.9702
▁serbi	-10.9707
sz	-10.9708
▁omistettu	-10.9711
▁general	-10.9712
merkit	-10.9712
▁syyt	-10.9713
▁kaupunginosassa	-10.9713
▁laivastoon	-10.9714
▁parasta	-10.9715
▁tuu	-10.9719
▁tuhka	-10.972
▁vaihtelu	-10.972
▁katsojaa	-10.972
▁parhaasta	-10.9723
filmi	-10.9723
▁erotti	-10.9724
▁tytäryhtiö	-10.9724
▁grön	-10.9726
▁vähentä	-10.9726
▁kauppias	-10.9727
tyminen	-10.9727
▁hawk	-10.9729
▁paljastaa	-10.973
▁lund	-10.973
henge	-10.9731
▁oikein	-10.9732
rakentamis	-10.9732
▁vieraissa	-10.9732
ilo	-10.9733
▁tunnista	-10.9733
▁lada	-10.9734
▁käsitti	-10.9735
▁hieta	-10.9736
▁sisällissota	-10.9739
tyvi	-10.9742
▁toisesta	-10.9743
▁roomalaiset	-10.9743
▁kuivi	-10.9744
neva	-10.9744
aseen	-10.9746
▁messu	-10.9747
▁140	-10.9748
varsi	-10.9748
ismia	-10.9749
▁michel	-10.9752
▁good	-10.9752
▁oulussa	-10.9753
▁tarkoitti	-10.9756
▁intiaani	-10.9756
▁rev	-10.9757
▁tuntemattoma	-10.9757
▁vaikutta	-10.9757
talli	-10.9759
sivuston	-10.9759
▁fall	-10.9759
turnaus	-10.976
säätiö	-10.9761
▁useisiin	-10.9762
▁julkisesti	-10.9762
▁hankala	-10.9763
▁musti	-10.9764
▁koulutusta	-10.9767
▁varhain	-10.9767
uksien	-10.9768
▁kukista	-10.9771
▁tapana	-10.9774
tiettävästi	-10.9774
▁karjala	-10.9775
säteily	-10.9776
▁kenraalimajuri	-10.9781
▁joutu	-10.9782
▁usean	-10.9782
ess	-10.9783
3:	-10.9787
▁pyrittiin	-10.9788
sano	-10.9789
▁palaamaan	-10.979
▁arvosteli	-10.9791
▁lyhy	-10.9792
▁aki	-10.9793
terin	-10.9794
▁tiedosto	-10.9794
kloridi	-10.9794
eeni	-10.9797
▁liitetty	-10.9797
▁viktor	-10.9797
▁leppä	-10.9798
ming	-10.9798
▁helpo	-10.9798
▁osmanien	-10.9799
_	-10.98
valtuusto	-10.98
▁alalaji	-10.98
▁liettua	-10.98
▁savon	-10.9801
▁tiloissa	-10.9804
▁pelko	-10.9804
▁siltä	-10.9805
▁erilaista	-10.9806
▁vastarinta	-10.9808
▁dog	-10.9809
▁siiven	-10.981
▁valituksi	-10.981
ult	-10.9811
lajeista	-10.9811
stetaan	-10.9812
listan	-10.9812
▁keskittyy	-10.9813
▁prof	-10.9813
eläimi	-10.9813
▁line	-10.9813
dom	-10.9813
▁space	-10.9814
▁kolmos	-10.9815
▁maku	-10.9815
festivaaleilla	-10.9817
▁perässä	-10.9817
▁anni	-10.9818
▁dave	-10.9818
*	-10.9819
▁vaalit	-10.9819
▁edisty	-10.982
▁alalla	-10.982
▁savo	-10.9821
head	-10.9822
▁johtokunnan	-10.9822
turnauksen	-10.9824
▁energiaa	-10.9827
▁huole	-10.9828
koo	-10.9828
pien	-10.9828
äinen	-10.9829
▁vahvistettiin	-10.9832
▁vaihdossa	-10.9835
▁jääneet	-10.9835
▁pont	-10.9836
organisaatio	-10.9838
kaudelta	-10.9838
▁ulkoministeri	-10.9839
▁porta	-10.9842
▁kaunii	-10.9844
dio	-10.9845
▁yhteiskoulu	-10.9846
▁sora	-10.9848
▁keikka	-10.9849
imen	-10.985
▁urho	-10.985
afrikka	-10.985
▁62	-10.9851
▁british	-10.9852
▁billboard	-10.9852
▁anderson	-10.9852
▁harjoittelu	-10.9853
ator	-10.9854
▁theodor	-10.9855
▁ampui	-10.9855
mäellä	-10.9855
▁harha	-10.9856
kuntiin	-10.9857
tekniikka	-10.9858
puolelle	-10.9858
▁kotkan	-10.9859
roni	-10.986
▁kannattaja	-10.986
▁nivel	-10.986
kää	-10.9864
byn	-10.9865
▁propaganda	-10.9866
uman	-10.9866
▁merkittävää	-10.9869
▁mö	-10.9869
red	-10.9869
▁kaupungeissa	-10.987
▁170	-10.987
▁pudotuspelien	-10.9872
▁bosnia	-10.9873
ukselta	-10.9873
▁huvi	-10.9874
▁mielessä	-10.9876
kansanedustajana	-10.9877
▁television	-10.9878
▁näkökulmasta	-10.9879
▁hyper	-10.988
▁rikki	-10.9881
▁pidety	-10.9881
▁medi	-10.9881
vissä	-10.9883
imo	-10.9885
▁1863	-10.9885
ota	-10.9887
▁haastattelussa	-10.989
▁1880	-10.989
▁sveitsissä	-10.9891
tuotannon	-10.9891
▁hahmot	-10.9893
nnoista	-10.9893
irin	-10.9894
▁link	-10.9895
soi	-10.9895
terapia	-10.9897
▁vasten	-10.99
▁cou	-10.9901
kah	-10.9901
▁sto	-10.9901
▁teologian	-10.9908
▁katolis	-10.991
▁sisältävä	-10.9911
isessä	-10.9911
▁aineen	-10.9913
kaisi	-10.9914
▁kesäisin	-10.9914
sian	-10.9915
kara	-10.9916
▁ms	-10.9919
kaupassa	-10.992
▁virolais	-10.9921
▁islam	-10.9922
osissa	-10.9923
▁tuntematon	-10.9923
lähde	-10.9925
▁päälliköksi	-10.9927
▁nahka	-10.9928
▁siirtynyt	-10.993
▁esittämi	-10.993
▁bern	-10.993
▁fen	-10.9932
▁murska	-10.9935
▁koulua	-10.9935
ple	-10.9935
lehteen	-10.9936
ardi	-10.9937
vassa	-10.9939
▁fon	-10.994
▁kolmannessa	-10.994
▁opti	-10.994
tellut	-10.9941
oksella	-10.9944
▁arvioitiin	-10.9946
ruu	-10.9948
▁siir	-10.9949
▁nuorin	-10.9949
▁useaan	-10.9952
▁patrick	-10.9955
▁tunti	-10.9958
▁englanniksi	-10.996
▁japanilainen	-10.9961
▁suosittuja	-10.9962
▁renessanssi	-10.9962
löydö	-10.9963
sol	-10.9965
▁tennis	-10.9967
▁toimintaansa	-10.9968
▁petri	-10.997
ranska	-10.9971
laitteet	-10.9973
▁kle	-10.9975
▁lat	-10.9976
vuosina	-10.9977
▁state	-10.9979
▁liiketoiminta	-10.998
▁raportoi	-10.998
▁asemansa	-10.998
tuja	-10.9981
▁kriisi	-10.9981
▁juli	-10.9982
▁todellinen	-10.9984
▁konkurssi	-10.9984
▁victoria	-10.9984
▁sotilaita	-10.9984
▁taloudellisesti	-10.9985
avun	-10.9985
▁lihas	-10.9986
▁paikallisten	-10.9987
▁voittanee	-10.9988
▁1000	-10.999
▁laskevat	-10.9992
▁vaihta	-10.9993
▁pyör	-10.9994
▁vastoin	-10.9994
▁ik	-10.9995
▁kortti	-10.9995
uksilla	-10.9997
▁paranta	-10.9999
▁huomattavan	-11
divisioonassa	-11.0002
▁mainetta	-11.0002
▁perustamisen	-11.0003
▁wienin	-11.0003
▁esiintyvät	-11.0003
▁kirjailijan	-11.0004
▁ps	-11.0005
▁erillinen	-11.0006
▁selviytyi	-11.0008
▁viranomaiset	-11.0008
nneen	-11.0009
▁aga	-11.0011
▁suurimmista	-11.0012
▁margaret	-11.0014
päivää	-11.0016
päälliköksi	-11.0017
▁lohikäärme	-11.0021
▁tuottanut	-11.0023
▁vaikeaa	-11.0025
▁kesto	-11.0025
liikku	-11.0026
maita	-11.003
▁madrid	-11.003
version	-11.0031
maalla	-11.0031
ukseksi	-11.0032
läisten	-11.0032
▁lukija	-11.0032
slav	-11.0034
▁opetusta	-11.0034
utus	-11.0034
▁paka	-11.0035
▁edusta	-11.0036
▁asiat	-11.0038
▁henkilöt	-11.0039
▁tanskassa	-11.0044
▁kurt	-11.0045
▁sak	-11.0045
▁ottelunsa	-11.0046
pöydä	-11.0047
▁pistepörssissä	-11.0047
▁laulaa	-11.0049
rp	-11.0049
▁pitkälle	-11.0052
tyksestä	-11.0053
▁puolusti	-11.0053
▁muistetaan	-11.0054
▁itsenäinen	-11.0054
▁painaa	-11.0054
▁siirtyy	-11.0054
▁lahjoitti	-11.0054
▁ihmisoikeus	-11.0056
dat	-11.0056
▁suuressa	-11.0058
▁erosivat	-11.0058
▁marx	-11.0058
mma	-11.0059
▁rooliin	-11.006
▁kalpa	-11.006
▁asianajaja	-11.006
▁saama	-11.0061
▁hitti	-11.0062
▁raunio	-11.0062
▁huomasi	-11.0063
akatemia	-11.0064
laus	-11.0067
▁lakkautta	-11.007
▁kirjallisuutta	-11.007
▁kajaanin	-11.0072
▁jeesus	-11.0073
kansleri	-11.0074
▁yleisradio	-11.0074
▁tö	-11.0076
▁kautensa	-11.0077
▁johansson	-11.0078
▁laajan	-11.0079
politiikkaa	-11.0079
▁evoluutio	-11.008
▁tienoilla	-11.0081
▁š	-11.0081
lf	-11.0082
komissio	-11.0083
verta	-11.0085
▁paikalta	-11.0087
▁rau	-11.0087
▁bernard	-11.0087
mil	-11.0088
▁12-	-11.0089
▁ajatuksen	-11.0089
▁lainsäädäntö	-11.0091
tuksista	-11.0092
▁ottaen	-11.0094
kalle	-11.0095
▁hautajais	-11.0095
▁elossa	-11.0097
polve	-11.0098
▁oikeisto	-11.0098
▁ryhmi	-11.0099
▁toipu	-11.0099
▁syyria	-11.0099
▁krimin	-11.01
keskuksessa	-11.0103
▁ilves	-11.0103
▁reaali	-11.0104
▁ylitti	-11.0106
matonta	-11.0106
▁havaittiin	-11.0106
▁vaino	-11.0107
▁tunnukse	-11.0108
▁rom	-11.0108
▁lauluja	-11.011
▁keltainen	-11.0111
ootti	-11.0111
ketjun	-11.0112
▁system	-11.0112
▁nimenomaan	-11.0113
▁2003–2004	-11.0114
▁järveen	-11.0114
▁janne	-11.0116
▁värvä	-11.0117
▁raketti	-11.0121
▁koottu	-11.0122
▁preussin	-11.0125
▁vankilaan	-11.0127
ries	-11.0127
▁muumi	-11.0129
voittaen	-11.013
▁johtamaan	-11.013
▁suvu	-11.0132
▁luottamus	-11.0133
▁aiempaa	-11.0133
pojan	-11.0134
▁neuro	-11.0135
▁oltava	-11.0136
▁uudelle	-11.0138
▁jona	-11.0138
▁julista	-11.0139
▁entis	-11.014
▁kokoomuksen	-11.014
▁suunni	-11.014
vaattei	-11.0141
ets	-11.0142
▁virhee	-11.0143
▁ranskalaisen	-11.0143
▁maalasi	-11.0143
▁munuais	-11.0146
▁sisu	-11.0146
▁varastoi	-11.0146
▁iski	-11.0147
venäjä	-11.0149
sopimukse	-11.0151
jaksi	-11.0152
▁toisensa	-11.0153
▁hugo	-11.0154
tuivat	-11.0155
▁kiss	-11.0155
▁englanninkielis	-11.0157
uusi	-11.0158
britannia	-11.0159
yyteen	-11.016
joukkoja	-11.0162
▁tanskalais	-11.0162
tavoittee	-11.0163
sit	-11.0164
kista	-11.0164
sestä	-11.0165
▁miksi	-11.0166
▁kehitystä	-11.0166
▁ruutu	-11.0167
▁kritiikkiä	-11.0169
wald	-11.0169
käynti	-11.017
enberg	-11.0172
▁bach	-11.0172
▁marc	-11.0172
annon	-11.0173
elma	-11.0176
nnissa	-11.0177
▁parhaat	-11.0179
▁suunnitella	-11.018
ihmis	-11.0181
▁sekaan	-11.0183
▁palkkio	-11.0185
mailla	-11.0185
▁68	-11.0185
▁käydä	-11.0189
▁läpimurto	-11.019
▁viisa	-11.019
▁syöttäjä	-11.0192
▁kirkolliskokou	-11.0193
liha	-11.0194
▁valmennus	-11.0195
▁pato	-11.0196
▁kisojen	-11.0196
▁laajenta	-11.0196
▁hyödyn	-11.0198
▁jatku	-11.0198
π	-11.0199
vistä	-11.0202
▁kv	-11.0202
▁käyttämällä	-11.0204
▁tunsi	-11.0205
▁tam	-11.0207
tule	-11.0207
puut	-11.0208
▁saarna	-11.0209
▁halv	-11.021
komitea	-11.0212
aineiden	-11.0212
päin	-11.0213
kirje	-11.0213
tex	-11.0215
dale	-11.0215
kulu	-11.0216
▁näyttö	-11.0217
▁viranomais	-11.0218
▁wo	-11.0218
▁pahan	-11.0219
kykyä	-11.022
▁napoleon	-11.0222
▁näy	-11.0224
▁pesi	-11.0225
televisio	-11.0226
▁’	-11.0226
▁huonon	-11.0226
▁rikkoi	-11.0227
instituutin	-11.0228
▁taulu	-11.0229
▁käynnistyi	-11.0229
▁jäädä	-11.0229
▁suomalaisessa	-11.0229
▁tason	-11.023
▁pure	-11.0235
itz	-11.0236
morf	-11.0236
ersin	-11.0237
▁esa	-11.0238
lava	-11.0238
▁arvosana	-11.0238
upseeri	-11.0238
▁fal	-11.024
▁1879	-11.0241
▁tarjota	-11.0241
koh	-11.0241
jiin	-11.0243
▁vedessä	-11.0244
▁taju	-11.0245
â	-11.0246
lman	-11.0247
▁ou	-11.0248
luistelu	-11.025
▁kokouksessa	-11.0251
vauhdi	-11.0253
tuma	-11.0253
kadulla	-11.0254
▁muuttanut	-11.0255
▁kappaleiden	-11.0255
▁down	-11.0256
kelta	-11.0258
▁ennakko	-11.026
▁edustajat	-11.0262
star	-11.0262
▁eläke	-11.0263
järjestelmään	-11.0268
▁fle	-11.0269
pas	-11.0269
▁karu	-11.0271
▁vankilassa	-11.0271
▁viimeistään	-11.0272
▁virossa	-11.0272
tela	-11.0272
kaveri	-11.0272
▁työnantaja	-11.0274
▁toisten	-11.0276
▁hilja	-11.0277
▁1989.	-11.0279
▁öljyn	-11.0279
▁rakennuksessa	-11.0279
▁kalevala	-11.028
▁1876	-11.0281
▁magnus	-11.0281
▁syrjä	-11.0281
▁your	-11.0282
▁pioneeri	-11.0282
▁hiukkas	-11.0282
▁koiras	-11.0283
▁patri	-11.0286
▁halusivat	-11.0287
cast	-11.0289
▁hallitsema	-11.029
▁tutu	-11.0292
▁tote	-11.0293
▁wilson	-11.0293
▁kasvattajaseura	-11.0293
▁keskustasta	-11.0294
▁mestaruussarja	-11.0295
▁johtui	-11.0296
▁valmistuttuaan	-11.0296
▁kontra	-11.0297
▁kilpailuun	-11.0298
▁mik	-11.0298
▁uudesta	-11.0298
▁vanhojen	-11.03
keri	-11.03
▁säilytti	-11.0305
▁lähistöllä	-11.0307
bit	-11.0307
▁katosi	-11.0307
listalle	-11.0308
▁kopioi	-11.0312
▁2010-	-11.0312
▁kyseinen	-11.0312
▁tutkimuksia	-11.0315
gol	-11.0316
▁stu	-11.0316
▁laskeva	-11.0317
auton	-11.0317
▁kaunis	-11.0318
▁silloisen	-11.0318
▁palloseura	-11.0318
atomi	-11.0318
▁ylläpitää	-11.0319
▁yön	-11.0319
▁tehtävän	-11.032
▁rob	-11.0321
teillä	-11.0321
▁shin	-11.0322
▁osallistuivat	-11.0324
tuna	-11.0324
▁spin	-11.0325
▁ohio	-11.0327
▁budapest	-11.0327
määrän	-11.0328
▁hyväksytty	-11.033
▁levittä	-11.0331
▁jäsenistä	-11.0332
▁saalista	-11.0333
kossa	-11.0335
▁maksimi	-11.0336
▁kaarlo	-11.0336
näyttelyssä	-11.0337
▁kuvaili	-11.0338
▁tilattiin	-11.0339
▁tuotto	-11.0339
▁cover	-11.0339
sir	-11.034
▁mg	-11.034
▁tyypillistä	-11.0341
▁hanke	-11.0343
työhön	-11.0343
ettava	-11.0343
▁valtakuntaa	-11.0345
hamin	-11.0345
▁perustu	-11.0346
▁kerrallaan	-11.0347
▁diesel	-11.0347
br	-11.0348
▁mukaise	-11.0348
▁kolmesti	-11.0349
komppania	-11.0349
autojen	-11.035
▁muualle	-11.0351
▁hampuri	-11.0353
▁old	-11.0353
▁tehtäviin	-11.0359
▁ylittää	-11.0359
otteluun	-11.036
▁muhammad	-11.0361
kymmentä	-11.0363
▁lopettaa	-11.0364
▁laskettu	-11.0366
▁arvonimi	-11.0367
▁amatööri	-11.0368
▁itsenäisyyden	-11.0368
lii	-11.0368
▁nuo	-11.0368
▁sataman	-11.0369
▁komento	-11.0369
ttelemaan	-11.0369
▁kristian	-11.037
▁moore	-11.0372
kkuus	-11.0372
pitäjä	-11.0373
▁kiinnostu	-11.0373
lajien	-11.0374
▁siirtyä	-11.0375
bé	-11.0375
▁liittoutuneiden	-11.0375
plan	-11.0376
▁kaupallis	-11.0377
▁paju	-11.0379
▁poltta	-11.0379
▁rosa	-11.0381
▁arm	-11.0382
▁kuuba	-11.0382
▁tutkittu	-11.0384
puolella	-11.0384
▁lentäjä	-11.0387
▁angelesissa	-11.0389
▁jne	-11.0389
ote	-11.0391
mella	-11.0392
▁köyhi	-11.0394
▁latvia	-11.0395
osaa	-11.0397
▁bulgaria	-11.0398
▁voitettuaan	-11.0399
▁sven	-11.0401
▁tehneet	-11.0401
▁kommentoi	-11.0402
▁paluun	-11.0402
▁kertyi	-11.0403
▁piirikunta	-11.0404
▁lyhenne	-11.0405
▁bruce	-11.0406
▁iha	-11.0406
eilta	-11.0407
varo	-11.0407
kirjaime	-11.0408
fen	-11.0408
klubi	-11.0409
▁viimeisellä	-11.0409
▁tarkoittava	-11.0412
▁luostarin	-11.0415
heit	-11.0416
▁from	-11.0416
isissä	-11.0417
isoitu	-11.042
▁tuore	-11.0422
▁niemimaa	-11.0429
▁hiilidioksidi	-11.0429
▁kahdeksanneksi	-11.043
▁signaali	-11.0433
neessa	-11.0434
kkeiden	-11.0434
▁bysantin	-11.0434
tappio	-11.0435
▁luokkaa	-11.0435
▁voimakkaan	-11.0438
▁clo	-11.044
▁vainio	-11.0441
▁kotelo	-11.0442
▁kli	-11.0443
▁merkkejä	-11.0444
▁tapahtumista	-11.0444
▁hitlerin	-11.0444
▁peto	-11.0448
▁funktio	-11.0448
yhtiöiden	-11.0449
laivoi	-11.0449
▁ohl	-11.0449
▁eräässä	-11.0449
poja	-11.045
▁osuma	-11.0453
▁hoitoon	-11.0454
šin	-11.0454
▁viidennen	-11.0454
dou	-11.0456
▁lyijy	-11.0456
oga	-11.0459
alojen	-11.046
▁boo	-11.0461
▁valmista	-11.0463
▁kumo	-11.0464
joille	-11.0466
▁teoksista	-11.047
allo	-11.0471
▁sla	-11.0471
▁apo	-11.0473
git	-11.0474
▁saatava	-11.0475
maajoukkueessa	-11.0475
+2	-11.0475
ux	-11.0478
▁ulottuva	-11.0479
3,	-11.0479
▁puiston	-11.048
cer	-11.0481
▁kokoontu	-11.0483
inger	-11.0483
▁1988.	-11.0483
▁hylättiin	-11.0484
ilun	-11.0484
▁“	-11.0484
sei	-11.0485
kisojen	-11.0486
▁hanna	-11.0486
▁joutuvat	-11.0487
▁juoksi	-11.0487
▁rie	-11.0488
ransk	-11.0489
idän	-11.0492
▁neljässä	-11.0493
▁viimein	-11.0494
tyyppiä	-11.0494
▁glo	-11.0495
muisti	-11.0499
▁skp	-11.05
bot	-11.05
▁nauha	-11.05
▁france	-11.0501
maja	-11.0501
▁turkkilais	-11.0504
asento	-11.0505
▁antoivat	-11.0507
▁south	-11.0508
▁nimillä	-11.051
▁kreeta	-11.051
▁politiikan	-11.051
ttuna	-11.051
▁taloudellinen	-11.0511
▁joukkueet	-11.0513
puun	-11.0514
tär	-11.0516
▁koneet	-11.0517
▁mytologiassa	-11.0519
▁pauli	-11.0521
latina	-11.0522
▁leikkaus	-11.0522
idin	-11.0523
▁bla	-11.0527
▁ryhty	-11.0531
▁jääpallo	-11.0532
teorian	-11.0533
sääntö	-11.0534
▁koru	-11.0538
kapasiteetti	-11.0539
▁association	-11.0539
lehdet	-11.0539
▁vaikuttivat	-11.054
▁monilla	-11.054
▁puut	-11.0541
▁kampanja	-11.0541
▁sh	-11.0542
stoa	-11.0546
oda	-11.0547
▁lope	-11.0548
▁eräänä	-11.055
▁tiet	-11.0551
▁kiinnitty	-11.0552
▁little	-11.0553
▁tutkimusten	-11.0554
▁korkei	-11.0556
▁pelaajauransa	-11.0557
suunnittelija	-11.0558
▁kunnanvaltuusto	-11.0558
▁keskiarvo	-11.0559
▁vuoren	-11.0559
▁senaatti	-11.0561
rac	-11.0562
▁avioliiton	-11.0565
instituutti	-11.0567
▁räjähdys	-11.0567
▁1878	-11.0568
ree	-11.0568
▁rautatien	-11.057
▁laula	-11.057
kolla	-11.0572
▁muusta	-11.0572
▁keltaise	-11.0575
aikainen	-11.0575
tettä	-11.058
▁mittaus	-11.058
päähän	-11.0581
▁tont	-11.0581
arkisto	-11.0582
▁pöly	-11.0583
stone	-11.0583
aho	-11.0583
ál	-11.0584
pakka	-11.0586
putken	-11.0586
▁iranin	-11.0591
▁tehdyn	-11.0592
▁punaiset	-11.0592
britanniassa	-11.0593
▁monista	-11.0593
▁luokittelu	-11.0595
tajia	-11.0595
▁osoitta	-11.0596
main	-11.0598
muotoinen	-11.0598
▁syyrian	-11.0599
▁pasi	-11.0601
▁kallion	-11.0601
▁ot	-11.0601
▁vahvista	-11.0602
ović	-11.0602
▁luopu	-11.0603
▁virtsa	-11.0603
▁kaupungit	-11.0604
▁rakennusten	-11.0604
▁leski	-11.0606
kyvyn	-11.0608
▁kalifornia	-11.0608
▁vapaana	-11.0609
▁tarkoitetu	-11.0611
▁edustava	-11.0612
▁puhuja	-11.0614
▁ulkomaan	-11.0617
isillä	-11.0619
▁ful	-11.062
▁kylästä	-11.0621
esim	-11.0622
▁72	-11.0622
iiri	-11.0623
rotu	-11.0623
▁kristuksen	-11.0625
▁suoritus	-11.0626
▁road	-11.0627
jiä	-11.0627
ampuja	-11.0628
pyöräily	-11.0629
▁huumori	-11.0629
▁dre	-11.0631
▁luettelo	-11.0632
▁kykenee	-11.0634
ance	-11.0634
▁muistuttavat	-11.0635
▁virtanen	-11.0635
▁ota	-11.0637
dorf	-11.0637
gra	-11.0638
▁suljettu	-11.0643
▁mk	-11.0644
▁armeijassa	-11.0644
▁63	-11.0647
iri	-11.0648
kukka	-11.0648
▁vaate	-11.0649
▁tärkeimpiä	-11.065
amista	-11.0651
miehe	-11.0651
▁side	-11.0652
▁taivaan	-11.0652
▁paljasta	-11.0655
▁metri	-11.0656
▁rinne	-11.0656
▁kolmella	-11.0657
▁vin	-11.0657
▁ohjannut	-11.0658
▁idän	-11.0659
▁kävivät	-11.0659
▁dam	-11.066
karsinnoissa	-11.066
ooppera	-11.066
arki	-11.0661
hang	-11.0661
▁intialais	-11.0662
▁rykmentti	-11.0663
ela	-11.0663
ars	-11.0663
valiokunnan	-11.0667
▁pelaajia	-11.0667
▁koostuva	-11.0669
▁vaikut	-11.067
▁selvittää	-11.0673
▁muuhun	-11.0673
ikassa	-11.0677
▁ilkka	-11.0677
▁viereen	-11.0677
merellä	-11.0679
▁tekemistä	-11.0679
kop	-11.0679
maata	-11.068
▁vapaus	-11.0681
▁huhtikuun	-11.0681
▁asuvat	-11.0682
chu	-11.0682
▁free	-11.0683
istisen	-11.0683
▁kohteena	-11.0684
▁voittamassa	-11.0685
▁yhtyy	-11.0686
kilpailuja	-11.0688
▁aineisto	-11.0692
▁taivu	-11.0693
huoneeseen	-11.0693
▁herää	-11.0696
pé	-11.0696
▁kyllä	-11.0696
oida	-11.0699
▁hehtaarin	-11.0702
▁omaksi	-11.0704
kohtei	-11.0704
gui	-11.0704
▁kauppaa	-11.0704
ē	-11.0706
ə	-11.0706
▁virassa	-11.0709
▁keskustelua	-11.071
kuvien	-11.0712
▁toukka	-11.0715
virallis	-11.0715
luokassa	-11.0715
kuningas	-11.0718
udin	-11.0719
▁put	-11.072
κ	-11.072
▁kyennyt	-11.072
▁johtaman	-11.0721
▁76	-11.0721
gy	-11.0721
▁oranssi	-11.0722
▁kape	-11.0722
tumisen	-11.0723
▁itsenäisty	-11.0724
▁sääntö	-11.0725
▁menestyksekkää	-11.0727
▁matematiikan	-11.0727
▁miltei	-11.0727
italia	-11.0728
▁lontooseen	-11.073
solujen	-11.073
▁paalu	-11.0731
▁näytelmän	-11.0733
▁tot	-11.0734
▁kapteenina	-11.0735
▁ohjelmoi	-11.0736
kuten	-11.0737
burgin	-11.0738
oinnin	-11.0738
▁piikki	-11.0739
▁bet	-11.0739
▁aallon	-11.0739
▁baletti	-11.0741
laadu	-11.0741
verko	-11.0742
muodot	-11.0743
▁kriitikko	-11.0744
▁nigeria	-11.0746
▁nah	-11.0746
▁wu	-11.0747
fra	-11.0749
–12	-11.075
▁tuke	-11.075
▁kulkevat	-11.0751
▁esineitä	-11.0751
▁messi	-11.0751
▁mitat	-11.0752
valli	-11.0753
dut	-11.0754
▁komppaniaan	-11.0754
▁kuluttaja	-11.0754
▁elokuvaan	-11.0755
▁joulukuun	-11.0756
▁(4	-11.0756
media	-11.0756
▁modern	-11.0758
▁telakalle	-11.0762
▁pc	-11.0763
▁1830	-11.0765
▁armo	-11.0766
▁asuva	-11.0769
▁finlandia	-11.0769
▁päivittäin	-11.077
keskeise	-11.0771
▁aarne	-11.0771
▁julistettiin	-11.0771
▁saaneen	-11.0771
▁valkoista	-11.0772
▁töihin	-11.0773
▁singlen	-11.0774
yhtyeessä	-11.0775
▁pelaajien	-11.0776
tietä	-11.0777
▁tauon	-11.0777
▁texas	-11.0778
riitti	-11.0779
▁sakari	-11.0779
▁hautausmaalle	-11.0779
steri	-11.078
▁läsnä	-11.0783
▁pesii	-11.0783
oka	-11.0785
▁seurajoukkueura	-11.0786
▁akatemia	-11.0788
▁komm	-11.0789
▁arabian	-11.079
▁kosken	-11.0791
▁und	-11.0791
▁sopivat	-11.0793
▁sihteerinä	-11.0793
▁persian	-11.0794
▁asettaa	-11.0795
▁lukemalla	-11.0796
▁laajasti	-11.0796
▁joitain	-11.0796
tyneet	-11.0797
▁sanotun	-11.0798
▁venezuela	-11.0798
▁axel	-11.0798
▁kirjaston	-11.0801
▁kantava	-11.0801
▁jeff	-11.0801
▁rodun	-11.0802
▁lakia	-11.0803
▁sieni	-11.0805
}	-11.0805
▁peräkkäis	-11.0805
utettu	-11.0806
oro	-11.0807
kirjojen	-11.0808
järjestelmässä	-11.0808
▁kirjoittami	-11.0811
▁lappeenrannan	-11.0812
▁tukema	-11.0812
ttavaa	-11.0814
▁julkise	-11.0815
ksista	-11.0816
vor	-11.0817
ettin	-11.082
▁linnoituksen	-11.0821
ttömiä	-11.0822
ë	-11.0823
laisuus	-11.0826
lv	-11.0826
{	-11.0826
▁gru	-11.0828
▁peruskoulu	-11.0829
▁poro	-11.0829
udet	-11.083
▁ovi	-11.0832
johtajaksi	-11.0833
gun	-11.0835
▁näkyi	-11.0835
▁kw	-11.0837
▁chile	-11.0838
▁puheen	-11.0838
hyvä	-11.084
▁omassa	-11.0842
▁leikkaa	-11.0842
eläin	-11.0843
▁kuninkaallise	-11.0845
▁levyllä	-11.0846
ulan	-11.0848
▁mahdollinen	-11.0848
▁laajennettiin	-11.0848
▁korkeampi	-11.0848
ders	-11.085
▁viestin	-11.0854
ttäneet	-11.0856
jala	-11.0857
▁sinu	-11.0857
mania	-11.0858
▁tilannetta	-11.0859
▁1840	-11.0859
▁palautta	-11.086
▁muotoinen	-11.0862
▁beach	-11.0862
▁dag	-11.0863
▁laajensi	-11.0866
▁serbia	-11.0868
▁kunnossa	-11.0868
▁vihkipiispaksi	-11.0869
uudella	-11.0869
▁loh	-11.087
aikoina	-11.0874
▁hiihtotava	-11.0876
▁tärkei	-11.0876
▁uskoo	-11.0876
▁gon	-11.0877
▁kirjallise	-11.0879
▁milj	-11.0879
lipu	-11.088
lig	-11.088
▁eroaa	-11.0881
▁master	-11.0881
▁kiertävä	-11.0882
▁käden	-11.0886
▁buddhalais	-11.0886
▁nav	-11.0887
▁howard	-11.0889
▁kiertää	-11.0889
▁tulkinta	-11.0889
▁kiro	-11.0891
на	-11.0891
▁1918.	-11.0891
▁ska	-11.0891
▁afrikkalais	-11.0893
▁joutsen	-11.0894
▁ehtinyt	-11.0896
▁jokeri	-11.0897
▁olosuhteissa	-11.0898
▁vaihtu	-11.0899
dh	-11.09
▁ohjelmassa	-11.0901
insä	-11.0902
kauppaa	-11.0903
korkeakoulun	-11.0903
▁lis	-11.0903
▁konkurssiin	-11.0904
▁perustamisesta	-11.0904
mpiin	-11.0905
▁colorado	-11.0905
▁auki	-11.0905
▁urheilija	-11.0906
pelissä	-11.0907
▁afrikassa	-11.0908
▁alaska	-11.0908
▁merkit	-11.0908
▁pohjoisosassa	-11.0911
▁asemassa	-11.0912
–14	-11.0912
kuljetus	-11.0914
▁muodoltaan	-11.0914
▁alppi	-11.0915
▁konetta	-11.0917
kkia	-11.0917
▁uudis	-11.0919
>	-11.0919
iselta	-11.0919
▁metsästä	-11.092
▁herman	-11.092
politiikka	-11.0924
▁putoamis	-11.0925
rauha	-11.0926
▁vangiksi	-11.0926
▁hyödyntää	-11.0927
▁kamari	-11.0927
▁kroatia	-11.0928
ruskea	-11.0928
rr	-11.0928
▁köyhä	-11.0929
▁nils	-11.093
▁valitu	-11.0932
▁tukemaan	-11.0933
▁dokument	-11.0933
▁liikkuva	-11.0933
▁61	-11.0934
▁paljastu	-11.0935
juuri	-11.0936
tusten	-11.0937
▁josef	-11.0938
leg	-11.0939
ttaneen	-11.0939
▁vaihtaa	-11.0939
mattomia	-11.094
kkari	-11.094
ich	-11.0941
ا	-11.0941
▁nintendo	-11.0941
lippu	-11.0942
▁(15	-11.0943
▁puhuu	-11.0944
▁yleisty	-11.0944
virhe	-11.0944
▁valkoisia	-11.0947
uch	-11.0948
▁alkio	-11.095
▁kotimaassaan	-11.0951
she	-11.0954
▁institute	-11.0955
▁oikeudenkäynti	-11.0955
▁vierai	-11.0956
▁pelaaminen	-11.0958
▁sotilaiden	-11.0959
▁askel	-11.0961
▁käytäntö	-11.0962
▁tyyliä	-11.0962
▁lämpimä	-11.0962
lähetys	-11.0963
▁pallon	-11.0963
alo	-11.0966
▁pariin	-11.0966
▁rannikon	-11.0969
mund	-11.0969
tekijöitä	-11.0971
▁nousta	-11.0972
blom	-11.0977
pekka	-11.0977
ystävi	-11.098
▁logo	-11.0981
▁eduskuntavaalei	-11.0983
▁pysyvästi	-11.0984
▁jakson	-11.0984
▁äänistä	-11.0985
mmiksi	-11.0986
lang	-11.0987
▁kipu	-11.0988
▁liukenee	-11.0988
▁seurata	-11.0988
dista	-11.0991
▁pohjoisosa	-11.0992
kuvaa	-11.0994
▁niemimaan	-11.0994
chan	-11.0995
▁maksamaan	-11.0996
▁puoleen	-11.0999
tuomari	-11.1
▁menestyksen	-11.1001
▁kultainen	-11.1001
▁nimekseen	-11.1001
▁ef	-11.1001
▁douglas	-11.1007
aktiivi	-11.1007
▁ohjelmaa	-11.101
lajit	-11.1011
▁missään	-11.1013
▁poliittista	-11.1013
▁selitys	-11.1017
▁beau	-11.1017
siperia	-11.1018
nell	-11.1018
tuvat	-11.1018
▁autojen	-11.102
zel	-11.1021
uuksia	-11.1021
▁kylät	-11.1023
▁raskas	-11.1023
ox	-11.1023
puolisko	-11.1026
▁otte	-11.1028
▁syntyneen	-11.1028
▁nuoria	-11.1029
älä	-11.103
▁huolta	-11.1032
tupa	-11.1032
▁häneen	-11.1033
▁onnettomuus	-11.1033
▁maaliin	-11.1033
kolle	-11.1033
▁laskea	-11.1034
▁rasi	-11.1036
▁apostoli	-11.1038
toimittaji	-11.1039
▁itsekin	-11.1041
▁korkeuteen	-11.1042
▁itsemurha	-11.1045
▁rekisteröity	-11.1046
▁palkkasi	-11.1046
▁plan	-11.1047
▁täyte	-11.105
▁1871	-11.1051
▁tieltä	-11.1051
▁prim	-11.1051
cat	-11.1051
▁menivät	-11.1052
rekisteri	-11.1057
kartano	-11.1059
kerroksen	-11.106
päällikö	-11.1062
velvollis	-11.1063
▁sit	-11.1064
pinnoi	-11.1065
▁hera	-11.1065
▁rakenta	-11.1066
ede	-11.1066
tim	-11.1067
▁teknillise	-11.1068
▁emma	-11.1068
▁lähtenyt	-11.1069
▁suh	-11.107
▁venäläisen	-11.1071
ksu	-11.1072
▁suureen	-11.1073
▁legenda	-11.1073
▁lehtien	-11.1074
syöpään	-11.1075
▁suom	-11.1076
▁sotatoimi	-11.1076
laisuuden	-11.1078
kuvia	-11.1079
▁muusiko	-11.1079
▁charlie	-11.1079
▁siuna	-11.1079
▁ferrari	-11.1081
9)	-11.1082
▁kuntaan	-11.1082
tier	-11.1086
▁konferenssi	-11.1086
▁koodi	-11.1086
▁kattaa	-11.1087
▁ruoan	-11.1087
▁maailmancupissa	-11.1088
▁suurempaa	-11.1088
▁albania	-11.1088
▁seuratasolla	-11.1089
▁hyökkäystä	-11.1089
▁88	-11.109
huipu	-11.109
▁sellaisia	-11.1091
▁bul	-11.1091
pil	-11.1091
▁satunnais	-11.1092
▁alttari	-11.1093
▁laita	-11.1094
▁opintojaan	-11.1095
▁kotona	-11.1096
д	-11.1098
sim	-11.11
vr	-11.1101
▁ahven	-11.1103
▁jugoslavian	-11.1104
▁olento	-11.1104
▁vapauden	-11.1104
aluksen	-11.1105
▁esimerkkinä	-11.1105
▁3:	-11.1106
▁paljastuu	-11.1108
▁aikalais	-11.1111
▁pilvi	-11.1112
ario	-11.1113
▁piirtä	-11.1114
▁tilaus	-11.1114
dre	-11.1115
▁arvostettu	-11.1116
▁1860	-11.1116
▁käynnisty	-11.1116
▁mikään	-11.1116
▁award	-11.1117
▁rakentamista	-11.1118
alia	-11.1121
▁malmi	-11.1122
▁albuminsa	-11.1125
arvon	-11.1125
▁omistus	-11.1126
▁hay	-11.1127
▁seututie	-11.1127
▁fuusio	-11.1128
▁19-	-11.1129
zio	-11.1129
ô	-11.1129
▁liikkeelle	-11.113
▁1869	-11.1131
taito	-11.1131
-4	-11.1133
▁mou	-11.1135
säätiön	-11.1139
▁lem	-11.114
▁talven	-11.1141
terä	-11.1141
▁bussi	-11.1141
▁lukion	-11.1143
▁opet	-11.1146
▁nopei	-11.1147
▁artisti	-11.1148
vantaa	-11.1149
▁klassisen	-11.1151
▁murhaa	-11.1151
ominaisuuksi	-11.1151
▁jättiläis	-11.1152
▁tuulen	-11.1153
▁australia	-11.1153
▁loukkaantui	-11.1153
▁muutokset	-11.1153
pelejä	-11.1157
▁syntyä	-11.1157
maalari	-11.1159
▁väheni	-11.1159
▁huuto	-11.116
▁säveltänyt	-11.1161
▁tehtävästä	-11.1161
▁yhteistyön	-11.1162
▁mainitsee	-11.1163
ces	-11.1164
▁steel	-11.1165
ffin	-11.1165
▁thi	-11.1165
▁rodu	-11.1166
vuotiaan	-11.1166
gran	-11.1166
cz	-11.1167
tteihin	-11.1168
▁tukholma	-11.1168
▁paikallisia	-11.1169
▁1,3	-11.1169
▁kultti	-11.117
▁levytys	-11.1171
▁jordan	-11.1172
▁havainto	-11.1172
▁edustavat	-11.1173
▁luonteeltaan	-11.1173
▁valitsema	-11.1174
▁suosikki	-11.1175
▁johtavan	-11.1176
▁neuvoston	-11.1176
▁palautu	-11.1177
▁koivisto	-11.1177
▁tarpeen	-11.118
▁kumma	-11.1182
▁vankila	-11.1182
▁saaret	-11.1183
▁apple	-11.1183
hof	-11.1186
antin	-11.1187
▁ruumii	-11.1188
lot	-11.119
▁kasvien	-11.119
este	-11.1191
▁vangittiin	-11.1191
▁erilaisissa	-11.1192
karjala	-11.1195
▁legioona	-11.1196
▁riisi	-11.1196
utin	-11.1197
▁hape	-11.1197
ega	-11.1198
▁eräiden	-11.1198
▁välisellä	-11.1198
kem	-11.1201
▁vartioi	-11.1202
▁arvellaan	-11.1203
skandaali	-11.1203
▁fly	-11.1203
▁pitämä	-11.1206
▁med	-11.1209
▁tiedo	-11.1209
▁reilu	-11.1211
▁aiheesta	-11.1211
▁teoksessaan	-11.1213
jouko	-11.1213
▁asuivat	-11.1215
▁ylivoima	-11.1216
kum	-11.1217
nauha	-11.1219
▁jur	-11.1219
roy	-11.1225
▁play	-11.1226
▁sallittu	-11.1226
▁1877	-11.1227
▁pes	-11.1228
▁vietnamin	-11.1228
▁englantia	-11.1229
▁tutkijoiden	-11.123
▁kru	-11.123
▁ama	-11.1232
▁molemmissa	-11.1233
▁sijoi	-11.1233
▁shan	-11.1234
vietnam	-11.1235
skaja	-11.1242
▁lisenssi	-11.1243
▁syövät	-11.1244
▁portti	-11.1245
vö	-11.1246
▁kohdat	-11.1246
▁osallistuu	-11.1246
▁haju	-11.1247
▁leu	-11.1247
▁tavallisi	-11.1247
nnista	-11.1249
fordin	-11.1251
▁junior	-11.1251
put	-11.1252
▁yhteisön	-11.1253
haud	-11.1253
▁espanjalainen	-11.1255
llisiin	-11.1255
▁puuttuu	-11.1256
▁suurempia	-11.1256
mmäksi	-11.1256
▁työt	-11.1256
▁hallussaan	-11.1257
▁piirre	-11.1259
▁automaatti	-11.1262
▁pelatussa	-11.1263
▁edustajia	-11.1263
▁kum	-11.1263
▁korkeintaan	-11.1263
–7	-11.1264
▁stalinin	-11.1264
▁kirjoit	-11.1265
yk	-11.1265
▁inf	-11.1267
▁mala	-11.1268
▁järjestely	-11.1268
▁tili	-11.1269
vaikuttei	-11.1271
▁alkuvaiheessa	-11.1272
▁dream	-11.1273
▁jes	-11.1274
lundin	-11.1277
▁riippumatta	-11.1278
▁was	-11.1278
▁fair	-11.128
idien	-11.128
able	-11.1281
▁2019.	-11.1282
koulutus	-11.1283
▁jer	-11.1283
kanavan	-11.1283
▁andré	-11.1283
▁näyttelijänä	-11.1284
opiston	-11.1284
tarinoi	-11.1284
▁ulottui	-11.1285
▁philip	-11.1285
▁täällä	-11.1285
palveluita	-11.1286
▁italiaan	-11.1286
▁pelejä	-11.1289
▁syntyneet	-11.129
▁perhos	-11.129
ohjelmien	-11.129
▁titteli	-11.129
▁järjestämä	-11.1291
▁kristinuskon	-11.1292
▁giovanni	-11.1292
tiheys	-11.1292
▁dialogi	-11.1293
▁listalla	-11.1294
▁saudi	-11.1295
mond	-11.1295
▁säätiön	-11.1299
▁diplomi	-11.1299
▁luci	-11.1301
▁rekisteröi	-11.1301
▁toivat	-11.1301
▁kuvaukset	-11.1306
ound	-11.1306
▁konflikti	-11.1307
kustannuksi	-11.1307
▁kumpikin	-11.1307
▁tehtävään	-11.1308
▁taistelua	-11.1309
▁teloitettiin	-11.1309
käyttäyty	-11.1309
kirjoitus	-11.1309
▁här	-11.1309
▁ilmatorjunta	-11.131
suun	-11.131
huoneessa	-11.131
suur	-11.1311
▁yhteisen	-11.1313
▁alueille	-11.1313
▁nauhoi	-11.1313
isaatio	-11.1314
▁natrium	-11.1314
box	-11.1315
▁silloise	-11.1316
▁67	-11.1317
▁havaita	-11.1321
syö	-11.1321
▁laajentu	-11.1322
▁tapahtuneen	-11.1323
▁alkuvuodesta	-11.1323
▁carr	-11.1323
▁yhteyden	-11.1324
▁kuulla	-11.1325
liigaottelu	-11.1326
▁asioiden	-11.1326
▁isossa	-11.1329
▁molemmilla	-11.1329
lea	-11.133
▁kirve	-11.1331
▁asioista	-11.1331
▁useista	-11.1331
▁vaihteleva	-11.1332
voiton	-11.1332
ía	-11.1333
▁180	-11.1333
▁verkosto	-11.1333
▁muuttamaan	-11.1334
wen	-11.1335
▁ensimmäisistä	-11.1336
▁corporation	-11.1337
▁kiellettiin	-11.1337
nosta	-11.1337
▁anteeksi	-11.1338
tutkimuksi	-11.134
▁mak	-11.1341
pukeutu	-11.1341
utensa	-11.1342
▁korkean	-11.1343
▁vallasta	-11.1344
historiallisesti	-11.1344
ball	-11.1344
▁entise	-11.1346
kustantamo	-11.1346
arte	-11.1347
ral	-11.1348
▁kyy	-11.135
ssonin	-11.1351
▁seinäjoen	-11.1357
▁vaikuttava	-11.1358
▁kunnioitta	-11.1359
▁tarvitsi	-11.1359
▁raamattu	-11.1359
▁kerrostalo	-11.136
ington	-11.1362
▁jatkettiin	-11.1362
▁tultua	-11.1365
▁myöntää	-11.1365
▁kumpu	-11.1365
huolto	-11.1365
▁varaus	-11.1365
▁heinrich	-11.1367
▁tasolle	-11.1368
tekniikkaa	-11.137
▁voimakkai	-11.1371
tuoli	-11.1372
▁myrkky	-11.1372
▁hallitusta	-11.1372
▁seiso	-11.1372
▁gua	-11.1373
ometri	-11.1373
▁tukeva	-11.1374
jäähdy	-11.1374
miksi	-11.1374
runko	-11.1375
korkeakoulu	-11.1375
▁palkintoja	-11.1375
▁1872	-11.1376
▁psykiatri	-11.138
▁seurannee	-11.1381
▁lam	-11.1382
▁kreikassa	-11.1382
ryhmien	-11.1383
▁1873	-11.1383
press	-11.1383
▁kannattaa	-11.1384
stön	-11.1385
avia	-11.1385
▁oikeudenkäynni	-11.1386
orkesteri	-11.1387
▁uhkasi	-11.1388
järjestyksen	-11.1389
luoki	-11.139
▁yl	-11.1392
▁petr	-11.1392
karhu	-11.1395
▁broadway	-11.1397
vision	-11.1399
▁johdatti	-11.1399
▁tyypillise	-11.14
”).	-11.14
kkala	-11.1401
▁onko	-11.1403
▁monin	-11.141
▁käyttöönsä	-11.1411
▁pullo	-11.1412
▁menettää	-11.1413
▁kauppala	-11.1414
▁tarkoitukse	-11.1414
▁asutusta	-11.1415
▁prince	-11.1416
▁ryan	-11.1416
▁lukko	-11.1416
aux	-11.1417
fan	-11.1417
vali	-11.1417
").	-11.1417
▁valokuvaaja	-11.1418
▁muutkin	-11.1418
▁säveltä	-11.1419
▁sisältyy	-11.1419
uf	-11.142
▁komitea	-11.142
▁fas	-11.1421
tavaksi	-11.1421
▁1862	-11.1421
▁keskilämpötila	-11.1421
▁vyö	-11.1423
▁kh	-11.1425
demokraattinen	-11.1426
▁ryöstö	-11.1428
▁muutoin	-11.1428
▁77	-11.143
▁argentiinan	-11.143
▁murto	-11.1431
▁stadion	-11.1431
▁itsemurhan	-11.1433
ttejä	-11.1436
▁engel	-11.1439
▁lasse	-11.144
▁taiwan	-11.144
uutena	-11.144
▁pääse	-11.144
▁täynnä	-11.1442
tilaan	-11.1443
vanh	-11.1443
▁legend	-11.1445
▁varsinaisesti	-11.1446
▁kennedy	-11.145
▁irtisano	-11.145
ante	-11.1451
▁muodostaen	-11.1451
ume	-11.1451
▁eläimiä	-11.1452
▁kehittäjä	-11.1453
neestä	-11.1453
kaudesta	-11.1456
käsi	-11.1458
areena	-11.146
"-	-11.146
▁poissa	-11.1461
vaihto	-11.1462
▁tir	-11.1465
▁tuotannossa	-11.1466
▁elokuvalle	-11.1466
▁poliittisia	-11.1466
▁dun	-11.1466
▁viimeistä	-11.1466
myrsky	-11.1468
▁kielessä	-11.1468
▁tutkimuksissa	-11.1469
liikkeessä	-11.1472
▁poikaset	-11.1474
▁eerik	-11.1477
▁ortodoksi	-11.1478
kkaita	-11.1478
▁marcus	-11.1479
▁korruptio	-11.148
▁aio	-11.148
▁toimivan	-11.1481
▁kiertä	-11.1482
▁mantere	-11.1483
konetta	-11.1483
▁jatke	-11.1483
▁elokuvat	-11.1484
▁seuraavien	-11.1487
▁tšekin	-11.1488
▁odotta	-11.1489
▁suostunut	-11.149
kerin	-11.149
▁syvän	-11.1491
▁tehtävää	-11.1494
▁vankeuteen	-11.1495
▁latvian	-11.1495
▁1983.	-11.1496
▁olevasta	-11.1498
lyönti	-11.1499
tejä	-11.1499
▁sijoitta	-11.15
▁termin	-11.1501
▁pienois	-11.1502
mag	-11.1502
umia	-11.1504
oik	-11.1504
matkalla	-11.1504
▁maaherra	-11.1505
–30	-11.1506
▁onnistuivat	-11.1507
▁siirtymä	-11.1507
▁myydään	-11.1508
▁bud	-11.1509
▁microsoft	-11.151
▁hap	-11.1511
gos	-11.1512
▁kostea	-11.1513
▁taidemuseo	-11.1514
▁turvin	-11.1517
▁mod	-11.1517
▁etä	-11.1519
▁luonnehti	-11.1519
▁aiheuttavat	-11.1519
umi	-11.152
▁maapallon	-11.1521
▁rossi	-11.1522
bour	-11.1522
▁hope	-11.1522
tamo	-11.1524
▁salaa	-11.1525
yytensä	-11.1525
▁matemaattis	-11.1526
kehit	-11.1526
▁125	-11.1527
▁kaikkialla	-11.1528
▁unescon	-11.1529
▁vastusta	-11.153
▁nimiä	-11.1531
loo	-11.1532
▁nykyaikaise	-11.1532
leikkaukse	-11.1533
▁tekniikka	-11.1534
▁loukkaantu	-11.1536
▁napoleonin	-11.1537
▁protestant	-11.1539
▁hiukan	-11.1542
ikin	-11.1542
▁ime	-11.1544
upseerina	-11.1545
▁kihla	-11.1546
össä	-11.1546
▁sijaitsevi	-11.1548
▁kadonnut	-11.1549
▁pau	-11.1549
▁gall	-11.155
▁teoksesta	-11.1551
▁gy	-11.1552
▁merirosvo	-11.1556
aasian	-11.1558
▁heimon	-11.1558
▁sanonut	-11.1558
bio	-11.1558
▁seuraavaa	-11.1558
▁köy	-11.1558
▁maaseutu	-11.1558
els	-11.1559
▁värit	-11.1561
▁heino	-11.1562
▁sijoittunut	-11.1563
ttomana	-11.1563
neisiin	-11.1564
▁frankfurt	-11.1564
vuorten	-11.1564
▁1874	-11.1565
▁tulosta	-11.1566
▁kolmasosa	-11.1568
▁vastustajan	-11.1569
▁back	-11.157
▁sik	-11.1571
ico	-11.1572
▁seitsemäs	-11.1576
illi	-11.1576
▁hop	-11.1577
oth	-11.1577
▁750	-11.1578
▁myönnetty	-11.1579
▁pie	-11.1581
▁1866	-11.1581
▁valmistava	-11.1581
mul	-11.1582
▁työntekijää	-11.1582
▁1867	-11.1582
soiton	-11.1582
halu	-11.1585
tettyä	-11.1587
cca	-11.1589
▁tsaari	-11.1592
▁rakasta	-11.1592
▁verho	-11.1596
▁malta	-11.1597
▁latva	-11.1598
kato	-11.1599
laskenta	-11.1602
▁libya	-11.1603
tutkimukse	-11.1604
▁nur	-11.1604
▁ruokavalio	-11.1604
▁pic	-11.1605
▁sanoista	-11.1607
aasiassa	-11.1607
tarha	-11.1608
laatio	-11.1609
▁london	-11.1611
▁satee	-11.1611
▁kiire	-11.1614
▁1865	-11.162
▁smithin	-11.162
▁taistelemaan	-11.1621
▁napoli	-11.1625
▁hankkeen	-11.1625
▁amerikkalainen	-11.1625
▁1982.	-11.1628
maiset	-11.163
▁tytärtä	-11.1631
kultaa	-11.1632
▁edustus	-11.1634
keä	-11.1636
joukon	-11.1637
▁elli	-11.1637
▁ranskaa	-11.1637
▁pelastu	-11.1638
▁mereen	-11.1638
lett	-11.1638
▁pertti	-11.1641
▁uhat	-11.1641
lohko	-11.1642
piireissä	-11.1643
▁uraani	-11.1643
tuottee	-11.1644
vaikeuksi	-11.1644
▁valloitti	-11.1646
▁intiaan	-11.1646
▁syytettiin	-11.1648
puh	-11.1648
▁längelmäveden	-11.1648
▁eurooppalaisten	-11.1649
tulehdus	-11.165
oc	-11.1651
▁yhteistä	-11.1652
▁more	-11.1653
▁prote	-11.1654
aro	-11.1654
room	-11.1654
ule	-11.1655
kasva	-11.1656
ï	-11.1656
pilve	-11.1657
▁useamman	-11.1657
▁(1.	-11.1657
▁susi	-11.1658
▁käänne	-11.1658
mäessä	-11.1661
af	-11.1661
▁kulutus	-11.1662
▁tiedotus	-11.1662
▁höyhen	-11.1664
▁tyk	-11.1664
varti	-11.1666
ntiin	-11.1668
▁sähkön	-11.1668
▁vaalien	-11.1669
ilijoita	-11.1669
▁dom	-11.1669
bad	-11.167
▁lintujen	-11.1671
▁käsityö	-11.1672
▁water	-11.1672
▁1848	-11.1674
väestön	-11.1675
king	-11.1675
▁tekstin	-11.1676
liikkeitä	-11.1678
▁tuuman	-11.1678
mmistä	-11.1681
▁app	-11.1681
▁suju	-11.1681
▁kieliä	-11.1683
neena	-11.1683
▁mann	-11.1683
▁74	-11.1685
ttomat	-11.1686
turnaukseen	-11.1686
▁550	-11.1687
▁poikkeus	-11.1687
▁	-11.1688
rangaistukse	-11.169
maaottelu	-11.1691
▁kommunistien	-11.1692
▁dio	-11.1693
▁oireita	-11.1693
täjä	-11.1693
lause	-11.1694
▁harvinaise	-11.1694
ery	-11.1694
▁ahti	-11.1694
▁arveltu	-11.1695
▁science	-11.1695
▁everstiluutnant	-11.1697
▁lähtöisin	-11.1698
▁ple	-11.1698
▁kritiikki	-11.1699
▁pankin	-11.1699
juniori	-11.17
▁antamaan	-11.1701
mattoman	-11.1702
llisin	-11.1702
▁mustat	-11.1703
▁def	-11.1703
sula	-11.1704
▁henkilöiden	-11.1704
▁porvari	-11.1704
▁oppilaa	-11.1704
4,	-11.1707
puoleise	-11.1708
teessa	-11.1709
▁sukupolvi	-11.171
▁nyrkkeily	-11.1712
▁hö	-11.1713
▁pääte	-11.1714
▁rauma	-11.1715
sihteeri	-11.1721
tarpei	-11.1722
▁enkeli	-11.1723
▁union	-11.1723
ristin	-11.1724
▁kreikkalainen	-11.1726
▁pituinen	-11.1726
kula	-11.1726
▁etupäässä	-11.1728
cum	-11.1729
paikalle	-11.173
▁web	-11.1733
▁puto	-11.1733
house	-11.1733
▁2018–2019	-11.1734
toimenpitei	-11.1734
▁wright	-11.1735
▁tultaessa	-11.1736
kalusto	-11.1737
▁300-	-11.1738
eettinen	-11.1738
▁samanlainen	-11.1739
▁digi	-11.1739
▁oireyhtymä	-11.1739
▁pääkaupungin	-11.174
▁saajaksi	-11.174
▁konstantinopoli	-11.1741
udessa	-11.1744
laisiin	-11.1745
kapina	-11.1746
▁saksasta	-11.1746
toverei	-11.1749
vre	-11.1749
▁kevye	-11.175
▁town	-11.175
▁kahtia	-11.1751
opisto	-11.1755
▁bis	-11.1755
▁uhanalais	-11.1755
▁ansa	-11.1755
▁fantasia	-11.1756
▁seminaari	-11.1756
lähet	-11.1756
▁hollannin	-11.1757
år	-11.1759
▁esittävä	-11.176
▁hauki	-11.1762
▁pohti	-11.1762
▁perustamista	-11.1762
▁syntyivät	-11.1762
▁sairas	-11.1763
maalaus	-11.1764
▁3-	-11.1765
▁veistos	-11.1765
▁suuremman	-11.1766
koihin	-11.1766
renka	-11.1766
▁rakennustyöt	-11.1767
▁alkoholin	-11.177
▁dallas	-11.177
▁amerikkalaisen	-11.1771
▁pelasti	-11.1772
▁flu	-11.1772
▁muutettu	-11.1772
teollisuudessa	-11.1773
▁nukku	-11.1774
▁maailmansota	-11.1778
▁ongelmat	-11.1779
▁kööpenhamina	-11.178
ı	-11.178
ро	-11.1781
termi	-11.1782
mmassa	-11.1783
▁planeetta	-11.1783
▁puuvilla	-11.1785
laitteiden	-11.1785
▁vaikutuksia	-11.1786
▁luther	-11.1786
▁costa	-11.1787
uudet	-11.1788
muisto	-11.179
▁näyt	-11.1791
▁äärimmäisen	-11.1792
▁tutkimukset	-11.1792
eck	-11.1793
▁kääntäjä	-11.1795
vuotinen	-11.1797
▁1868	-11.1798
kama	-11.1798
▁tehdyt	-11.1798
▁onnettomuuden	-11.1801
▁pyr	-11.1802
seuraa	-11.1804
▁ip	-11.1804
▁wel	-11.1805
koneisto	-11.1805
▁law	-11.1806
▁laitos	-11.1806
▁1875	-11.1806
▁asukkaan	-11.1809
▁törmä	-11.1812
▁entertainment	-11.1812
teoksen	-11.1814
ema	-11.1815
▁myydä	-11.1815
▁aloittami	-11.1815
▁tuottavat	-11.1816
parin	-11.1816
sijoitukse	-11.1818
▁rumpu	-11.1818
▁polku	-11.1819
▁musiikista	-11.1819
▁maakunnassa	-11.182
▁tehotilaston	-11.182
▁muotoa	-11.182
▁julkisuuteen	-11.182
▁useilla	-11.1821
opintoja	-11.1821
▁keskiajan	-11.1822
▁kuume	-11.1822
ajossa	-11.1824
hkö	-11.1825
valko	-11.1825
▁puhua	-11.1826
▁markus	-11.1827
palveluja	-11.1827
▁palauttaa	-11.1827
▁korhonen	-11.1827
▁estämään	-11.1829
▁sanoa	-11.183
▁teknillisen	-11.1832
▁kuolemansa	-11.1832
▁aamulla	-11.1833
▁arvosta	-11.1833
▁mul	-11.1834
torjunta	-11.1835
▁belgia	-11.1836
▁tuottajana	-11.1836
tō	-11.1836
▁poistaa	-11.1837
kustannukset	-11.1837
sken	-11.1839
▁tilalleen	-11.1839
▁tuoma	-11.184
foni	-11.1842
ue	-11.1842
saareen	-11.1842
▁palasivat	-11.1843
▁hävittä	-11.1845
▁hip	-11.1846
▁entisestään	-11.1846
▁mutka	-11.1846
ère	-11.1847
▁soitin	-11.1847
▁tyhji	-11.1847
▁etsiä	-11.1851
▁puku	-11.1852
okset	-11.1853
enne	-11.1854
▁satakunnan	-11.1855
▁lajien	-11.1855
▁tutkinto	-11.1855
▁kiloa	-11.1856
▁mauste	-11.1858
▁julkisivu	-11.1859
▁merkittävimpiä	-11.1859
ilä	-11.186
▁ristin	-11.1861
▁shu	-11.1862
kohd	-11.1863
▁finaaliin	-11.1864
erä	-11.187
▁kentälle	-11.187
▁nykyiseen	-11.1871
▁uskottiin	-11.1871
ehto	-11.1872
palvelut	-11.1874
ovi	-11.1877
isenä	-11.1877
huu	-11.1877
▁juuret	-11.188
osastolla	-11.1881
▁päätökseen	-11.1883
▁paljasti	-11.1883
rí	-11.1885
tuneet	-11.1885
palkinno	-11.1885
▁hauhon	-11.1885
▁fun	-11.1886
▁run	-11.1891
▁lailla	-11.1892
siksi	-11.1892
chel	-11.1895
▁väki	-11.1895
▁luomaan	-11.1899
▁panssarivaunu	-11.19
▁tutkijana	-11.19
▁iässä	-11.1901
▁lange	-11.1901
▁toimimaan	-11.1902
▁egyptiläis	-11.1903
osainen	-11.1904
▁kutsuu	-11.1906
▁amsterdam	-11.1906
▁jälkeinen	-11.1906
▁lap	-11.1907
▁allen	-11.1907
tilaisuuksi	-11.1908
▁luetaan	-11.191
▁vul	-11.1911
▁romu	-11.1912
▁milloin	-11.1914
kuljetukse	-11.1917
▁tutkimaan	-11.1917
▁vanhasta	-11.1917
neensä	-11.1917
roll	-11.1918
▁beatles	-11.1923
æ	-11.1924
▁jättämään	-11.1926
sseja	-11.1927
istien	-11.1928
synty	-11.1929
ši	-11.193
▁columbia	-11.193
▁siirtolais	-11.1931
▁vaaka	-11.1931
matkoja	-11.1932
▁normaalisti	-11.1932
hé	-11.1932
▁tommy	-11.1934
▁500-	-11.1934
neuvostoliittoon	-11.1934
dot	-11.1935
autoja	-11.1935
tykki	-11.1936
▁1986.	-11.1937
telemaan	-11.1937
▁lentää	-11.1939
▁kuljetti	-11.1939
tuhatta	-11.1941
▁näillä	-11.1942
▁arvostetu	-11.1942
perheeseen	-11.1948
suunnitel	-11.1948
▁korkeakoulun	-11.1954
▁käyttävä	-11.1955
▁moniin	-11.1955
▁johtavi	-11.1955
▁jonkun	-11.1955
bury	-11.1955
qua	-11.1957
▁historiasta	-11.1957
▁eve	-11.1957
▁töissä	-11.1957
vuotena	-11.1958
laiseksi	-11.1958
▁luopumaan	-11.196
▁stalin	-11.1961
▁baseball	-11.1962
▁lautta	-11.1963
▁saarten	-11.1963
tekijöiden	-11.1963
▁viitataan	-11.1964
▁ranskalaisten	-11.1964
peruste	-11.1964
▁jäävät	-11.1965
▁ilmoittaa	-11.1966
kansan	-11.197
▁aikaisemma	-11.197
▁karsiutui	-11.1971
▁1864	-11.1972
syyttäjä	-11.1972
▁pitkäaikainen	-11.1973
vala	-11.1974
gno	-11.1977
▁apollon	-11.198
kiertueen	-11.198
▁mustia	-11.198
▁puro	-11.1981
ytime	-11.1982
▁kasvo	-11.1983
▁toistensa	-11.1983
▁suomalaisista	-11.1983
lip	-11.1984
▁kub	-11.1984
▁ihon	-11.1985
▁sever	-11.1986
▁tappoi	-11.1987
▁liuku	-11.1988
väki	-11.1988
▁tytön	-11.1989
immillaan	-11.199
▁69	-11.199
▁kirjassaan	-11.1991
▁sau	-11.1992
▁trophy	-11.1994
▁väsy	-11.1997
▁ass	-11.1998
raita	-11.1999
töiden	-11.2001
▁jälkimmäinen	-11.2002
▁uefa	-11.2002
▁suureksi	-11.2002
▁väliaikais	-11.2004
▁esityksen	-11.2006
▁laajaa	-11.2006
▁tiedossa	-11.2007
▁kytke	-11.2008
▁korkeudella	-11.201
▁rudolf	-11.201
▁professorin	-11.2012
▁pais	-11.2013
▁vuorokauden	-11.2013
▁artikkeleita	-11.2014
▁rungon	-11.2015
▁ristiriita	-11.2015
tiedot	-11.2016
▁kukisti	-11.2016
empää	-11.2016
▁lähteiden	-11.2017
▁polttoaineen	-11.2018
kp	-11.2019
▁gas	-11.202
sjärven	-11.2022
▁kotonaan	-11.2023
komedia	-11.2024
▁suhteita	-11.2025
stivat	-11.2025
▁edeltävä	-11.2026
▁aiheuttami	-11.2027
▁ora	-11.2028
ksessä	-11.2028
▁kahdeksas	-11.2029
vuosien	-11.2031
▁zen	-11.2033
▁jääneen	-11.2035
▁läheltä	-11.2037
viiri	-11.2037
▁käänsi	-11.2038
mela	-11.204
liikkeeseen	-11.204
artisti	-11.2041
kehä	-11.2041
▁hidasta	-11.2041
▁esp	-11.2044
timet	-11.2045
▁antava	-11.2045
teoksia	-11.2046
▁diego	-11.2047
▁pitkäksi	-11.2047
muodossa	-11.2047
▁lapuan	-11.205
▁gordon	-11.2051
▁sotilaallis	-11.2051
▁otetaan	-11.2052
▁laser	-11.2053
▁1975.	-11.2054
▁muistutti	-11.2054
harmaa	-11.2055
▁tupla	-11.2056
kkola	-11.2056
▁romutettavaksi	-11.2058
▁maailmaan	-11.2058
▁jacques	-11.2059
▁nimestä	-11.206
▁televisiosarjoi	-11.2061
lag	-11.2061
▁tarvitsee	-11.2062
jalostus	-11.2063
vaksi	-11.2065
▁samasta	-11.2066
▁hallitukseen	-11.2067
▁varo	-11.2069
▁kasvattaa	-11.207
patsaa	-11.207
zzo	-11.2071
▁olle	-11.2071
lääkärinä	-11.2071
▁kirjapaino	-11.2071
▁käsitys	-11.2072
uga	-11.2072
▁tumman	-11.2073
▁1980.	-11.2073
▁78	-11.2073
▁kokosi	-11.2073
▁iran	-11.2075
asteen	-11.2075
▁riippuva	-11.2075
nuorissa	-11.2076
▁parti	-11.2079
▁bert	-11.208
▁vertailu	-11.2081
▁häviä	-11.2081
▁alma	-11.2082
cke	-11.2082
▁käyttäytyminen	-11.2082
▁asenne	-11.2083
▁asiakirja	-11.2084
▁viranomaisten	-11.2085
▁indi	-11.2086
toime	-11.2086
▁holm	-11.2087
▁saattue	-11.2087
▁paikasta	-11.2087
▁johtami	-11.209
▁une	-11.209
▁valtiovarain	-11.209
šev	-11.209
ystävä	-11.2092
▁näytelmässä	-11.2092
less	-11.2092
▁muura	-11.2094
pohjanmaan	-11.2095
▁jääkauden	-11.2095
tša	-11.2095
▁dragon	-11.2096
▁nälkä	-11.2099
▁shakki	-11.2099
ois	-11.2099
rl	-11.21
▁toteaa	-11.21
▁hollantilais	-11.21
kunnista	-11.2101
▁bil	-11.2101
tarkastaja	-11.2102
komentaja	-11.2103
▁tou	-11.2104
▁hyväkseen	-11.2106
▁2002–2003	-11.2107
äiti	-11.2108
▁selviää	-11.2109
koneet	-11.211
▁kokeilu	-11.2111
▁nikola	-11.2112
koneiden	-11.2112
▁itäisen	-11.2113
▁hit	-11.2113
▁pelaavaa	-11.2113
▁lisensiaatiksi	-11.2114
▁hylkää	-11.2114
▁torino	-11.2115
hil	-11.2115
johdon	-11.2117
▁oireet	-11.2118
ravintola	-11.2119
▁kylmän	-11.212
▁helikopteri	-11.2122
hat	-11.2122
▁liikaa	-11.2124
▁1,4	-11.2124
ppaus	-11.2125
▁luutnantti	-11.2125
filosofia	-11.2126
kriisi	-11.2126
▁tietty	-11.2128
kohteita	-11.2128
ojaa	-11.2128
▁sairauden	-11.2132
▁miller	-11.2133
▁hallinta	-11.2134
oz	-11.2138
▁merkitsee	-11.2138
▁vampyyri	-11.2139
vio	-11.2139
▁robin	-11.2139
▁1100-	-11.2139
osen	-11.214
▁väliset	-11.214
▁vaikutukset	-11.2141
▁tarinoita	-11.2141
▁ehdokas	-11.2141
dynastia	-11.2144
jauho	-11.2144
▁guy	-11.2146
▁myöhemmät	-11.2147
▁kirjoitettiin	-11.2147
▁1985.	-11.2149
nimeä	-11.2149
▁ihmisille	-11.2149
craft	-11.215
▁tuntu	-11.2152
▁synnytti	-11.2154
▁liittynyt	-11.2155
▁fire	-11.2156
▁asemakaava	-11.2156
▁median	-11.2157
▁kumi	-11.2158
▁verra	-11.2158
▁määriä	-11.2159
▁1-	-11.2159
▁kirkkoa	-11.2159
ration	-11.216
▁adams	-11.216
▁arts	-11.2163
δ	-11.2163
▁kristinusko	-11.2165
▁persia	-11.2166
▁kont	-11.2167
▁mannerheimin	-11.2168
kumppani	-11.2169
▁läntisen	-11.2169
▁kerätä	-11.2171
▁hpk	-11.2176
▁paljastui	-11.2177
▁pakotti	-11.2177
▁kroatian	-11.2178
kisoista	-11.2179
▁charlotte	-11.2179
tuomioistuin	-11.2179
▁aloitteesta	-11.2181
▁sat	-11.2181
hus	-11.2182
kuja	-11.2184
▁museum	-11.2188
teilla	-11.2188
▁pinnalla	-11.2189
uinti	-11.219
▁his	-11.2191
▁gala	-11.2192
hinta	-11.2193
ografi	-11.2194
keskuksi	-11.2194
▁upposi	-11.2195
▁syöttöpörssin	-11.2196
▁abraham	-11.2196
7)	-11.22
kovin	-11.22
▁andersson	-11.2201
▁pohjoisesta	-11.2202
ydin	-11.2204
mylly	-11.2204
▁aleksanterin	-11.2206
▁kirjojen	-11.2206
konservatoriossa	-11.2207
trilogia	-11.2207
▁sopii	-11.2209
vuotisjuhla	-11.221
4-	-11.2211
▁1945.	-11.2213
▁loppuvuodesta	-11.2213
▁eteläosassa	-11.2214
▁pidempi	-11.2214
tulla	-11.2214
▁myytti	-11.2216
▁major	-11.2217
▁virkamies	-11.2217
tuuri	-11.2218
koa	-11.2219
▁jyrki	-11.222
▁rick	-11.2221
▁inc	-11.2221
▁hallinnoi	-11.2222
haukka	-11.2222
▁turkuun	-11.2223
hormoni	-11.2223
liitossa	-11.2223
menetelmi	-11.2226
▁kappaleessa	-11.2227
▁rep	-11.2228
▁kokemus	-11.2228
▁lämmi	-11.2229
▁ilmenee	-11.2229
▁sve	-11.2229
▁stan	-11.2229
▁beck	-11.223
▁pelataan	-11.2233
rikko	-11.2234
▁väitetty	-11.2234
korkeakoulussa	-11.2235
▁pastori	-11.2236
asukka	-11.2237
▁toimeen	-11.2238
▁moottoritie	-11.2238
▁ennätyksen	-11.2238
▁eteläosa	-11.2239
valvonta	-11.2242
▁nokian	-11.2243
▁peruna	-11.2243
▁hankkia	-11.2244
▁kilpi	-11.2244
σ	-11.2244
▁wester	-11.2245
kauppiai	-11.2246
▁esimerkkejä	-11.2247
▁naista	-11.2248
luettelo	-11.2249
tahti	-11.2251
luokkaan	-11.2253
rykmentti	-11.2254
▁spa	-11.2254
rakennuksen	-11.2255
vamma	-11.2256
▁alanko	-11.2256
kulla	-11.2257
lääkkee	-11.2257
jaosto	-11.2257
▁lauren	-11.2258
sarjoja	-11.2258
▁palvele	-11.226
goni	-11.2261
▁hyvinvointi	-11.2261
mmille	-11.2262
▁4-	-11.2263
▁arkki	-11.2263
varr	-11.2264
▁avioliitosta	-11.2265
yhtiölle	-11.2267
▁ohut	-11.2267
▁yrityksiä	-11.2268
▁kärppien	-11.2269
▁liittyen	-11.2269
tulle	-11.227
▁olympialaisiin	-11.227
▁annetu	-11.2272
▁kaarina	-11.2272
murhi	-11.2272
▁parhai	-11.2273
▁kevin	-11.2276
▁oopperan	-11.2277
▁ludwig	-11.2277
▁bag	-11.2278
▁collegessa	-11.2278
▁alice	-11.2278
▁sisälle	-11.2278
▁1,1	-11.228
▁kalevi	-11.228
▁yhdistyivät	-11.2281
▁roomaan	-11.2282
tilaisuudessa	-11.2282
▁paransi	-11.2282
▁raiska	-11.2283
äkseen	-11.2284
kokemukse	-11.2284
olia	-11.2286
▁1984.	-11.2287
▁levytyssopimuks	-11.2288
▁taisteluissa	-11.2288
▁huomio	-11.2289
▁uh	-11.2289
▁kypsy	-11.229
stadt	-11.229
joelle	-11.2291
▁laakson	-11.2291
▁lisätty	-11.2293
▁hank	-11.2293
oilta	-11.2294
▁tunnusti	-11.2295
▁lady	-11.2296
▁mineraali	-11.2296
▁tutkii	-11.2296
istit	-11.2296
harjun	-11.2297
▁roolia	-11.2297
uta	-11.2298
konsoli	-11.2299
▁luotto	-11.2301
veisto	-11.2301
▁hongkong	-11.2302
keski	-11.2303
opettajaksi	-11.2304
▁järjestety	-11.2306
▁valoa	-11.2306
▁kallo	-11.2308
mattomana	-11.2309
▁pennsylvania	-11.231
▁iskelmä	-11.231
▁avoimen	-11.2311
▁lim	-11.2312
utumis	-11.2314
▁siivet	-11.2318
▁kuutio	-11.2318
▁lähetystö	-11.2318
▁palmu	-11.232
ttämistä	-11.2321
▁pakistan	-11.2323
amerikka	-11.2324
järjestys	-11.2324
▁pohj	-11.2325
seurojen	-11.2327
▁ring	-11.2327
▁edetessä	-11.2327
tutki	-11.2329
kkeli	-11.233
▁klubi	-11.233
▁peili	-11.2332
▁hong	-11.2333
▁konttori	-11.2333
▁pelattu	-11.2334
▁porvoo	-11.2334
▁hanka	-11.2335
▁työkalu	-11.2335
ş	-11.2335
▁justin	-11.2336
▁kokoa	-11.2337
▁yoshi	-11.2341
▁lämmön	-11.2343
▁paikkaan	-11.2343
▁racing	-11.2344
▁tilasi	-11.2345
▁kerralla	-11.2345
▁juonta	-11.2345
▁painopiste	-11.2345
steinin	-11.2346
▁saarilla	-11.2346
▁ruotsinkielise	-11.2347
tteleva	-11.2348
▁tuotannosta	-11.2348
▁kannatus	-11.2349
manni	-11.2349
▁varma	-11.2351
▁hahmoja	-11.2351
domin	-11.2352
ennätyksen	-11.2352
ttojen	-11.2352
▁pap	-11.2354
▁tilanteessa	-11.2356
▁kestänyt	-11.2356
▁työhön	-11.2357
▁edel	-11.2357
tyneen	-11.2358
kirjallisuudessa	-11.2358
▁epäonnistu	-11.2361
▁nykyisessä	-11.2361
▁omistuksessa	-11.2362
get	-11.2363
kaani	-11.2363
▁wan	-11.2363
▁99	-11.2364
▁maatalouden	-11.2364
▁try	-11.2364
▁saksi	-11.2365
▁susan	-11.2366
▁esiintyivät	-11.2366
▁haluttiin	-11.2366
▁toteutti	-11.2367
teelle	-11.2368
▁rinnakkais	-11.2368
▁fameen	-11.2369
hö	-11.237
riffi	-11.237
▁ympäristöön	-11.2372
▁singapore	-11.2372
▁sunnuntai	-11.2374
ão	-11.2375
▁vanhempien	-11.2375
▁piirros	-11.2375
▁farmijoukkue	-11.2376
–13	-11.2376
▁kehittämään	-11.2376
teh	-11.2377
▁hämeenlinna	-11.2377
siili	-11.2378
esitys	-11.2379
ode	-11.2379
▁esti	-11.238
sessio	-11.238
ello	-11.2382
▁demokratia	-11.2384
▁henkiin	-11.2384
▁tuotantokausi	-11.2385
▁sotilaallise	-11.2387
▁ääniä	-11.2388
▁sopivi	-11.2388
▁islamilais	-11.2388
testi	-11.239
kielisiä	-11.239
▁him	-11.239
▁hiippakuntaan	-11.2391
▁kok	-11.2391
töistä	-11.2391
▁luotiin	-11.2392
▁markkinoilla	-11.2393
▁(35.6	-11.2393
▁ydinase	-11.2394
▁politiikka	-11.2395
ajoneuvo	-11.2396
▁ym	-11.2396
▁bos	-11.2401
▁keskelle	-11.2402
▁toteutettiin	-11.2402
▁1968.	-11.2402
laiselle	-11.2403
▁kohu	-11.2404
valmentajana	-11.2405
▁merkin	-11.2405
öl	-11.2406
▁turve	-11.2407
▁kullan	-11.2408
▁kuolemasta	-11.2408
pitkä	-11.241
▁lincoln	-11.241
liittoon	-11.241
▁novelli	-11.2411
▁huonekalu	-11.2411
▁arto	-11.2413
dian	-11.2413
kivääri	-11.2414
▁paikallista	-11.2414
▁potku	-11.2414
ttäen	-11.2416
▁salminen	-11.2416
▁sok	-11.2416
seuroi	-11.2417
hyl	-11.2417
▁queen	-11.2419
▁tulokas	-11.2419
▁syöttö	-11.242
llisesta	-11.242
▁passi	-11.242
räjähdyks	-11.2422
▁who	-11.2424
▁klassise	-11.2426
▁siika	-11.2426
tyksessä	-11.2429
▁hullu	-11.243
merkkiä	-11.243
▁kriitikot	-11.243
▁mets	-11.243
ilin	-11.2431
berger	-11.2431
▁hetki	-11.2434
▁neuvostotasaval	-11.2435
tytär	-11.2435
ving	-11.2439
▁vor	-11.2439
▁andy	-11.244
▁1979.	-11.2441
korvaus	-11.2441
jos	-11.2443
▁sellainen	-11.2444
thing	-11.2444
solut	-11.2445
▁virtaava	-11.2446
▁kylää	-11.2448
▁varhaiset	-11.2449
kamp	-11.245
▁veti	-11.2452
▁häiri	-11.2452
▁merenpinnan	-11.2452
▁sf	-11.2452
▁vanhassa	-11.2454
▁pisto	-11.2455
wich	-11.2458
▁kerho	-11.2458
▁pesimä	-11.2458
▁suon	-11.2459
м	-11.2459
▁todisteita	-11.2459
▁käydy	-11.2461
▁parantu	-11.2461
▁persialais	-11.2462
▁saavuttama	-11.2462
▁odo	-11.2464
▁kaj	-11.2464
hammer	-11.2464
▁heart	-11.2467
▁viiva	-11.2467
▁whl	-11.2468
ese	-11.2468
esityksiä	-11.2469
▁vokaali	-11.2469
▁historiallis	-11.247
eria	-11.2472
▁kanadalais	-11.2472
▁mora	-11.2473
▁potilas	-11.2474
▁katsottu	-11.2475
▁horn	-11.2476
▁(5	-11.2477
▁rafael	-11.2477
levinneisyysalue	-11.2478
▁kustantaja	-11.2478
▁maxim	-11.2479
▁perun	-11.248
▁kotimaahansa	-11.2482
▁21-	-11.2482
▁opettaa	-11.2483
puhelu	-11.2483
▁pääsihteeri	-11.2483
▁nouseva	-11.2484
▁hallinnollinen	-11.2485
▁aluksella	-11.2485
vyö	-11.2486
▁wienissä	-11.2488
▁mahdollisuuksia	-11.2492
▁kiihty	-11.2492
▁650	-11.2494
▁sarjasta	-11.2495
▁kalan	-11.2497
▁kimmo	-11.2497
▁1981.	-11.2498
▁oire	-11.2499
hämeen	-11.25
paperi	-11.2501
vahti	-11.2501
ă	-11.2502
▁katolinen	-11.2502
▁kehon	-11.2503
▁odottaa	-11.2505
▁sijaitsevaan	-11.2506
▁chl	-11.2508
kauteen	-11.2508
▁tori	-11.2509
▁kent	-11.2509
▁(14.	-11.2512
radalla	-11.2513
luvu	-11.2513
▁museossa	-11.2514
suhteiden	-11.2514
try	-11.2514
▁säilyttää	-11.2515
lajia	-11.2515
▁japaniin	-11.2517
pylväs	-11.2518
▁taloudellisen	-11.2518
näytte	-11.2519
▁aikakauden	-11.252
▁opiskella	-11.252
järjestely	-11.2522
kkaat	-11.2522
missä	-11.2523
ichi	-11.2524
▁tunnistaa	-11.2525
▁riittävästi	-11.2525
ς	-11.2527
▁ajanjakso	-11.2527
▁räjähtä	-11.2527
ilaisen	-11.2528
▁talviolympiala	-11.2529
▁debyytti	-11.253
▁kunnian	-11.2532
▁munii	-11.2532
▁bun	-11.2532
▁murhan	-11.2533
▁demokraattisen	-11.2533
▁kannattava	-11.2535
uraansa	-11.2537
side	-11.2538
▁tör	-11.2539
▁tuoto	-11.254
kesä	-11.254
▁lahdessa	-11.254
ado	-11.2541
▁manuel	-11.2542
eurooppa	-11.2543
▁vaikeuksia	-11.2543
▁kaartin	-11.2546
▁korvata	-11.2547
▁kertomus	-11.255
▁vanhaan	-11.255
käsitykse	-11.255
▁kaukana	-11.2553
▁erinomais	-11.2553
paita	-11.2554
▁valentin	-11.2555
▁kohoaa	-11.2556
ttävän	-11.2556
500	-11.2556
▁pis	-11.2557
▁hr	-11.2559
▁kauteen	-11.2561
▁epäselvä	-11.2561
▁kolmivuotisen	-11.2562
▁jakama	-11.2562
▁harras	-11.2563
▁aikoo	-11.2568
▁series	-11.2569
▁pou	-11.257
taloja	-11.257
▁julkisuudessa	-11.257
dig	-11.2574
▁haave	-11.2575
▁ikuis	-11.2576
▁european	-11.2576
▁swa	-11.2578
▁ajamaan	-11.258
urheilija	-11.258
uz	-11.2581
▁light	-11.2582
▁rakenteen	-11.2582
▁austin	-11.2582
▁debyyttialbumi	-11.2582
▁73	-11.2583
kriitiko	-11.2583
▁vanhempiensa	-11.2583
▁shl	-11.2584
▁huomion	-11.2587
▁ib	-11.2588
▁175	-11.2589
▁määrittää	-11.2589
▁brun	-11.2589
ovo	-11.2591
▁over	-11.2592
▁rauhassa	-11.2592
boy	-11.2593
▁käytety	-11.2594
▁käytettävissä	-11.2596
▁salamurha	-11.2596
▁dai	-11.2596
▁pelannee	-11.2597
tik	-11.2597
▁kiusa	-11.2598
▁fro	-11.2598
kirjoituksen	-11.2599
▁poliittisesti	-11.2599
▁mid	-11.26
▁é	-11.2601
reista	-11.2603
▁läntise	-11.2604
kampanja	-11.2604
▁vapautti	-11.2604
▁marin	-11.2606
tensa	-11.2606
▁awards	-11.2606
▁pääty	-11.2607
▁komp	-11.2607
▁abu	-11.2608
▁maapallo	-11.2609
▁liki	-11.261
▁taloon	-11.2611
▁cook	-11.2611
▁59	-11.2612
oneja	-11.2613
▁veny	-11.2616
▁lääketieteellis	-11.2617
▁sanomat	-11.2617
toimikunnan	-11.2617
▁viipurissa	-11.2617
▁kill	-11.2619
▁norr	-11.262
▁laitteen	-11.262
▁järjestettävä	-11.262
▁sulautu	-11.2621
▁halo	-11.2621
tuksiin	-11.2623
▁vr	-11.2623
ttomaksi	-11.2623
▁inkeri	-11.2624
▁panama	-11.2624
sarjakuva	-11.2624
▁keh	-11.2624
▁varustetu	-11.2625
▁mallia	-11.2626
▁tikka	-11.2627
ilmo	-11.2629
▁hajotta	-11.2629
▁yhdeksänneksi	-11.263
▁arma	-11.263
▁epäilty	-11.2631
nais	-11.2631
▁paikassa	-11.2632
▁proto	-11.2633
▁meksiko	-11.2636
tribu	-11.2638
▁sjö	-11.2638
▁islanti	-11.2639
▁1861	-11.2639
▁käynnisti	-11.2641
dem	-11.2642
arm	-11.2642
▁valmistelu	-11.2643
▁brasiliassa	-11.2645
▁lemm	-11.2645
▁virkaa	-11.2646
▁off	-11.2648
▁mana	-11.2651
▁borg	-11.2652
▁palki	-11.2652
▁päättyivät	-11.2653
▁platonin	-11.2654
▁fossiili	-11.2654
▁mahdollisuutta	-11.2654
▁tavoi	-11.2654
▁tulevaisuuden	-11.2655
paikkojen	-11.2657
▁filosofiaa	-11.2658
▁saamelais	-11.2662
rá	-11.2663
jäätikö	-11.2663
▁baijeri	-11.2663
ür	-11.2663
▁sairaalaan	-11.2663
osastoon	-11.2665
▁tullessa	-11.2665
lää	-11.2667
▁pahasti	-11.2668
▁som	-11.2671
μ	-11.2671
▁julkaisee	-11.2671
suurpujottelussa	-11.2672
ttomuus	-11.2674
paikaksi	-11.2676
▁norjalainen	-11.2677
▁syrjäyttä	-11.2677
▁uusinta	-11.2678
▁puolassa	-11.2678
utumista	-11.2678
tten	-11.2678
ussa	-11.2679
▁cru	-11.2679
▁muta	-11.2679
ος	-11.268
myynti	-11.2686
kunto	-11.2688
▁munaa	-11.2689
▁marko	-11.269
▁auttamaan	-11.2691
bitti	-11.2692
▁tuona	-11.2693
▁liv	-11.2693
▁kapinallis	-11.2695
▁ibn	-11.2696
▁historiallisen	-11.2696
▁asetettu	-11.2698
▁kemin	-11.2698
▁antavat	-11.2698
▁lapsensa	-11.2699
▁kitaraa	-11.27
▁heli	-11.2702
market	-11.2702
▁olympialaisten	-11.2703
hor	-11.2704
▁kilpaileva	-11.2705
▁amiraali	-11.2705
▁joukkuekilpailu	-11.2705
▁aste	-11.2705
▁2020	-11.2707
▁väittää	-11.2707
liini	-11.2707
rooleja	-11.2707
herra	-11.2708
▁vaalipiiristä	-11.2709
kokouksessa	-11.2709
had	-11.271
▁ihastu	-11.2712
tiimi	-11.2713
▁selvää	-11.2714
lands	-11.2714
▁kokoonpanoon	-11.2716
▁pöytä	-11.2717
▁voimat	-11.2717
museon	-11.2717
▁suisto	-11.2718
▁argentiina	-11.2722
▁virtuaali	-11.2723
televa	-11.2725
rium	-11.2725
ydy	-11.2728
▁rekisteri	-11.2728
▁1976.	-11.2728
▁reg	-11.2731
▁käyttäytymis	-11.2731
▁salibandy	-11.2732
huoneenlämpötila	-11.2732
▁maanviljelys	-11.2732
mmalle	-11.2734
▁marcel	-11.2734
▁carter	-11.2735
▁caesar	-11.2735
▁ainoan	-11.2736
▁sony	-11.2736
▁kane	-11.2737
▁aiheena	-11.2737
▁palkkaa	-11.2739
▁sche	-11.274
▁fyysise	-11.2741
▁sellaista	-11.2741
▁säästä	-11.2742
▁1977.	-11.2743
▁taistelut	-11.2743
▁roh	-11.2743
▁romanian	-11.2743
jar	-11.2744
netty	-11.2744
▁yhdistävä	-11.2744
luoto	-11.2744
▁laituri	-11.2745
▁cityn	-11.2746
▁ehto	-11.2746
▁rem	-11.2749
lääke	-11.275
▁lähtemään	-11.2751
▁82	-11.2752
▁14-	-11.2753
▁palatsin	-11.2753
▁atlanta	-11.2755
▁morgan	-11.2755
▁liittyvää	-11.2756
▁paeta	-11.2757
▁tunneta	-11.2757
énin	-11.2757
ttömän	-11.2759
▁rakentamaan	-11.276
▁eteläisen	-11.276
alaa	-11.276
▁maija	-11.276
▁munkki	-11.276
▁pääosan	-11.2762
▁kaupunkeja	-11.2762
ikkoja	-11.2762
▁liittovaltion	-11.2763
▁hk	-11.2765
▁rinnalle	-11.2766
▁uudistu	-11.2766
▁päijänteen	-11.2768
säiliö	-11.2769
▁sumu	-11.277
▁ajassa	-11.277
▁polvi	-11.2771
▁kahvila	-11.2771
uti	-11.2772
▁pääministeriksi	-11.2773
▁1969.	-11.2773
▁yläosa	-11.2774
teoksi	-11.2774
▁riittävä	-11.2775
▁työttömyys	-11.2776
▁dosentti	-11.2776
▁varattu	-11.2778
▁kodin	-11.2779
▁norman	-11.278
▁scar	-11.278
▁kuvaava	-11.2781
▁linjan	-11.2781
▁linnut	-11.2782
▁grammaa	-11.2782
summa	-11.2782
▁tarjolla	-11.2784
felt	-11.2785
▁mittaa	-11.2785
tso	-11.2786
mestaruutta	-11.2791
▁björk	-11.2792
▁purkautu	-11.2793
▁sarjaan	-11.2794
▁maj	-11.2794
▁—	-11.2797
▁levo	-11.2798
▁kings	-11.2799
▁hankittiin	-11.2801
▁osoite	-11.2801
▁leningradin	-11.2804
▁murre	-11.2804
bet	-11.2806
väkeä	-11.2806
▁muodon	-11.2806
televisiosarja	-11.2808
▁ensisijaisesti	-11.281
valtion	-11.281
▁kukistu	-11.281
ytti	-11.281
▁lehteä	-11.281
menestys	-11.2811
johdo	-11.2811
▁1974.	-11.2812
lá	-11.2813
▁kong	-11.2815
▁velho	-11.2816
▁est	-11.2818
▁olevista	-11.2818
▁elizabeth	-11.2818
▁loviisa	-11.2818
sai	-11.2818
▁analyysi	-11.2819
▁ilveksen	-11.2819
▁antautui	-11.2819
▁vahingossa	-11.282
▁levittäyty	-11.282
▁muutoksen	-11.282
▁valtiopäivä	-11.282
stre	-11.2822
▁orji	-11.2822
▁fight	-11.2823
▁opettajan	-11.2824
▁ye	-11.2827
vartio	-11.2827
▁avioero	-11.2828
/10	-11.2829
▁ritarikunnan	-11.2829
▁mani	-11.2829
▁saatetaan	-11.283
rikos	-11.283
▁eurooppaa	-11.283
oire	-11.2832
pohjan	-11.2832
kokouksen	-11.2832
face	-11.2832
aasia	-11.2833
▁tyylin	-11.2834
▁1978.	-11.2834
▁omiin	-11.2835
▁lahjoitta	-11.2835
ка	-11.2836
bat	-11.2836
▁kristiina	-11.2836
▁sl	-11.2837
▁françois	-11.2837
▁hattu	-11.2839
▁aseista	-11.284
▁viettää	-11.284
▁tasanko	-11.2841
▁elektro	-11.2843
aikaisen	-11.2843
▁tarve	-11.2843
▁benjamin	-11.2844
riste	-11.2844
▁merkittävän	-11.2845
▁kuljettaa	-11.2846
nyi	-11.2846
▁kielet	-11.2847
▁eb	-11.2849
asiain	-11.2849
▁kuuluneet	-11.2849
▁typ	-11.285
▁tea	-11.285
▁näkemys	-11.2851
kyy	-11.2851
▁lor	-11.2851
▁marvel	-11.2852
▁islamin	-11.2853
▁calgary	-11.2853
lyseo	-11.2853
▁taiteilijan	-11.2856
▁prikaati	-11.2857
▁kuntien	-11.2857
naama	-11.2858
▁alettua	-11.2858
▁maailmanmestari	-11.2859
▁alkuperäistä	-11.2859
paikoista	-11.2859
▁projektin	-11.2859
vuoteen	-11.2864
ihinsa	-11.2865
▁vajaa	-11.2865
ttamiseksi	-11.2867
tši	-11.2867
▁human	-11.2868
varuste	-11.2869
▁pohjautuva	-11.2869
▁kove	-11.2869
ы	-11.287
▁academy	-11.287
▁pääsääntöisesti	-11.287
▁mennyt	-11.287
▁komennettiin	-11.287
ttäviä	-11.2872
▁sivusto	-11.2873
▁oppimis	-11.2874
▁autoa	-11.2875
kova	-11.2876
▁avata	-11.2877
▁estä	-11.2879
▁vapaaehtoisena	-11.2881
ilaiset	-11.2882
▁tasan	-11.2883
beck	-11.2883
▁lepo	-11.2883
▁savonlinnan	-11.2883
pistooli	-11.2886
▁vancouver	-11.2887
vyöhyke	-11.2888
istään	-11.2888
standardi	-11.2889
▁termiä	-11.289
kylässä	-11.289
▁boris	-11.2891
muusikko	-11.2891
▁gly	-11.2891
▁ann	-11.2893
▁ay	-11.2895
yi	-11.2896
▁google	-11.2896
udi	-11.2897
taiteilijoi	-11.2897
viraston	-11.2898
sointu	-11.2899
tallin	-11.2902
ffer	-11.2902
▁make	-11.2903
▁julkista	-11.2904
▁nimissä	-11.2905
lajin	-11.2907
▁asutta	-11.291
wh	-11.291
▁koskevi	-11.2911
kori	-11.2913
▁tuotteen	-11.2913
allas	-11.2914
liitti	-11.2915
▁jimmy	-11.2916
▁suoritettiin	-11.2918
▁vastine	-11.2918
lp	-11.2921
tajien	-11.2923
▁kärkeen	-11.2923
▁tekemällä	-11.2923
▁nelson	-11.2923
eta	-11.2925
▁rakentamiseen	-11.2926
▁warner	-11.2927
▁bundesliiga	-11.2927
▁ulla	-11.2931
ê	-11.2931
▁perjantai	-11.2931
ppeja	-11.2932
▁sco	-11.2936
ttäisi	-11.2938
▁eduskuntaan	-11.294
▁beat	-11.294
tyyppinen	-11.2941
▁nykyisi	-11.2942
▁planeetan	-11.2943
▁pienten	-11.2945
tuule	-11.2946
tuva	-11.2948
▁sisällissodassa	-11.2949
▁syrjäytti	-11.2949
▁sido	-11.2949
▁tieteellis	-11.295
▁sataa	-11.295
neuvo	-11.2952
▁loppua	-11.2952
päijänteen	-11.2952
näyttelijöi	-11.2954
▁vari	-11.2955
kunnalla	-11.2956
▁hydro	-11.2957
animaatio	-11.2957
▁kreikkalaisessa	-11.2959
ward	-11.296
▁lähettä	-11.2961
▁terroristi	-11.2962
▁klaani	-11.2962
▁kirkas	-11.2962
▁turkis	-11.2963
▁kannattajat	-11.2965
▁varmista	-11.2966
järv	-11.2967
▁roolistaan	-11.2971
gly	-11.2972
tilassa	-11.2972
▁stars	-11.2972
▁nasa	-11.2975
▁tupakka	-11.2978
▁katolise	-11.298
amerikkalais	-11.2981
▁keto	-11.2981
sterin	-11.2981
▁korostaa	-11.2987
▁ruotsista	-11.2988
reich	-11.2988
▁1972.	-11.2989
kitaristi	-11.2989
yden	-11.2989
vig	-11.299
kulmio	-11.299
▁lanka	-11.299
▁halkaisija	-11.2992
avio	-11.2992
▁luomis	-11.2993
istettiin	-11.2994
▁suomu	-11.2994
▁liittä	-11.2994
negatiivi	-11.2995
▁kuolemaa	-11.2996
▁valmistami	-11.2997
oton	-11.3
öyh	-11.3002
pela	-11.3005
▁galaksi	-11.3006
kado	-11.3007
▁oikealla	-11.3007
▁samoja	-11.3007
▁bridge	-11.3007
▁laajennus	-11.3008
arvoja	-11.301
▁kypärä	-11.301
hallinta	-11.3011
▁todista	-11.3012
tian	-11.3013
kaudelle	-11.3014
▁valmentajaksi	-11.3014
▁satamaan	-11.3017
▁omaisuuden	-11.3019
meeri	-11.302
–2009	-11.302
ship	-11.302
eman	-11.3021
suhteet	-11.3023
▁taidetta	-11.3023
▁viedä	-11.3025
▁harrasti	-11.3025
▁jossain	-11.3027
▁hamp	-11.3028
▁vastuussa	-11.3028
▁juutalaisia	-11.3031
▁pääkonttori	-11.3032
▁kansojen	-11.3034
▁pakoon	-11.3034
▁kip	-11.3034
▁hul	-11.3034
▁kasvaessa	-11.3037
▁hakemaan	-11.3037
idit	-11.3037
▁latinan	-11.304
▁kanssaan	-11.304
▁suuresta	-11.3041
pea	-11.3041
mara	-11.3041
▁hyväksynyt	-11.3041
kiina	-11.3041
▁ylöspäin	-11.3046
▁kohtasivat	-11.3048
▁egyptissä	-11.3048
▁tukki	-11.3048
ert	-11.3049
▁aikaisempi	-11.305
▁edustajainhuone	-11.305
muotoja	-11.3051
▁vakuutus	-11.3051
▁yöllä	-11.3052
▁alkuperäisestä	-11.3052
istettu	-11.3053
heimon	-11.3055
ttomuutta	-11.3056
▁kaatu	-11.3056
neste	-11.3058
–2007	-11.306
muutos	-11.3062
▁siirretty	-11.3062
▁3,5	-11.3063
▁kuuluneen	-11.3063
vaatimukse	-11.3063
▁arvokkai	-11.3064
▁hallitsivat	-11.3064
▁2001–2002	-11.3065
▁kant	-11.3066
▁tarjoama	-11.3066
tuneen	-11.307
illut	-11.307
peleissä	-11.3071
▁harris	-11.3072
kuume	-11.3073
▁useasti	-11.3073
▁näyttelijän	-11.3074
▁vastakkain	-11.3074
▁kadonnee	-11.3075
lehto	-11.3075
▁nopeammin	-11.3075
afrikkaan	-11.3075
▁miehitys	-11.3076
▁kausina	-11.3077
back	-11.3078
sarjasta	-11.3078
ovan	-11.3079
▁haus	-11.3079
-15	-11.3081
▁korkeudessa	-11.3082
kasveja	-11.3082
ра	-11.3082
▁maaseudun	-11.3083
lb	-11.3083
▁äänestys	-11.3084
20-	-11.3084
karva	-11.3087
▁monimutkais	-11.3088
loma	-11.3088
ennusta	-11.309
▁viivästy	-11.3091
▁itävallassa	-11.3091
venttiili	-11.3091
▁yläpuolelle	-11.3092
▁silmän	-11.3092
▁kirjallinen	-11.3093
▁sinä	-11.3093
▁kirjasta	-11.3093
▁harrastaja	-11.3095
▁globe	-11.3095
dassa	-11.3096
▁valtioiden	-11.3097
▁tehokas	-11.3097
▁1970.	-11.3098
▁rouva	-11.3098
▁niko	-11.31
▁kahdeksi	-11.31
▁kulkeutu	-11.31
ée	-11.31
järjestelmät	-11.3102
▁mahdollisen	-11.3102
▁pelkkä	-11.3103
mio	-11.3105
elimen	-11.3107
▁tuotantokauden	-11.3107
▁cli	-11.3108
▁itärintamalla	-11.3108
▁firenze	-11.3109
▁keskustaajama	-11.3109
▁menettänyt	-11.3109
▁kahdeksa	-11.311
▁elokuvista	-11.3112
oliitti	-11.3112
immat	-11.3113
▁rehtorina	-11.3114
oitiin	-11.3114
▁merc	-11.3116
▁tarkemmin	-11.3117
villen	-11.3117
kuorma	-11.3121
▁edeltäjänsä	-11.3122
kohtia	-11.3122
▁sulka	-11.3122
katto	-11.3123
pano	-11.3124
▁käsityksen	-11.3125
lähteen	-11.3126
▁kettu	-11.3127
▁cooper	-11.3128
▁avajais	-11.3129
▁1,6	-11.3131
▁ohjaajana	-11.3131
mistään	-11.3131
lautakunnan	-11.3133
▁lahjo	-11.3133
▁nou	-11.3134
pelien	-11.3134
▁sammal	-11.3134
tuotteiden	-11.3135
▁kisko	-11.3135
▁tekijät	-11.3136
wal	-11.3136
▁glen	-11.3136
▁vanhoillis	-11.3137
tsch	-11.314
▁pääsevät	-11.314
liuska	-11.314
▁brad	-11.3141
suhtee	-11.3142
▁1967.	-11.3143
▁zürich	-11.3144
▁merenpinnasta	-11.3144
tuaan	-11.3145
▁majakka	-11.3145
isyyttä	-11.3147
▁jugoslavia	-11.3149
sosialismi	-11.3149
▁juri	-11.3151
▁kalkki	-11.3151
▁lö	-11.3152
kaisu	-11.3152
▁nosto	-11.3153
▁rovaniemen	-11.3153
▁sijainneen	-11.3153
▁tasaise	-11.3154
▁hovioikeuden	-11.3154
[...]
