<unk>	0
<s>	0
</s>	0
▁	-2.99525
.	-3.248
,	-3.70615
n	-3.80607
▁ja	-3.94749
a	-4.21013
t	-4.58495
-	-4.59938
▁on	-4.6507
in	-4.92289
	-5.04533
en	-5.18677
▁oli	-5.20309
s	-5.24245
	-5.31328
▁hän	-5.39292
ssa	-5.40489
an	-5.41633
sta	-5.55322
ta	-5.59424
▁vuonna	-5.62796
	-5.68931
i	-5.71601
▁(	-5.75058
ä	-5.7921
na	-5.84448
)	-5.85211
▁myös	-5.88385
:	-5.98468
	-6.0044
▁se	-6.02387
ksi	-6.03163
lle	-6.04072
lla	-6.08769
ja	-6.09044
e	-6.14066
▁joka	-6.2145
on	-6.3269
▁ei	-6.32931
o	-6.36097
▁ovat	-6.41833
▁mutta	-6.41851
▁sekä	-6.44701
vat	-6.45143
▁sen	-6.45824
▁tai	-6.50555
▁että	-6.52062
kin	-6.52303
et	-6.55404
issa	-6.58421
sa	-6.59147
ista	-6.59151
y	-6.62548
u	-6.62627
▁kanssa	-6.65123
▁hänen	-6.65561
▁jälkeen	-6.67302
si	-6.67655
k	-6.69837
ssä	-6.73474
us	-6.74997
tä	-6.76356
m	-6.79242
stä	-6.8059
d	-6.83555
h	-6.83879
la	-6.86572
nen	-6.87667
▁vuoden	-6.87985
ia	-6.88328
nsa	-6.88856
▁kun	-6.8941
ten	-6.90337
ke	-6.92261
inen	-6.94419
te	-6.95237
jen	-6.95316
ko	-6.95492
ma	-6.96295
r	-6.9809
maan	-6.98478
▁toimi	-6.99889
sti	-6.99967
▁-	-7.00269
▁sai	-7.02017
▁mukaan	-7.02628
▁jonka	-7.02712
l	-7.02733
▁suomen	-7.03646
ti	-7.04341
▁jo	-7.056
▁jossa	-7.05923
ille	-7.07029
ka	-7.07556
c	-7.07638
ne	-7.07999
nä	-7.09842
llä	-7.10311
va	-7.12194
ki	-7.14179
sen	-7.15182
▁olivat	-7.15489
▁kuitenkin	-7.15815
to	-7.17425
▁"	-7.17746
is	-7.18019
illa	-7.18094
tti	-7.19405
▁muun	-7.20409
g	-7.22064
re	-7.22612
▁kaksi	-7.23223
un	-7.2329
▁he	-7.23859
▁tuli	-7.24038
vi	-7.24233
ri	-7.25028
▁voi	-7.25882
▁kuin	-7.26503
▁noin	-7.27531
p	-7.2788
▁ole	-7.28033
▁muassa	-7.30185
vät	-7.30595
de	-7.31184
▁”	-7.32183
▁ollut	-7.32978
nut	-7.33145
iin	-7.33341
–19	-7.3389
▁aikana	-7.34174
▁eli	-7.34211
).	-7.34606
▁la	-7.34722
iden	-7.36264
▁yli	-7.37394
▁hänet	-7.37465
li	-7.38061
tta	-7.38268
▁pää	-7.38839
▁lisäksi	-7.38914
tu	-7.38977
le	-7.39136
▁vain	-7.39502
▁ne	-7.39799
▁vuosina	-7.40395
lta	-7.40615
▁osa	-7.40833
ku	-7.42429
ni	-7.4348
),	-7.44995
ita	-7.45826
än	-7.4609
no	-7.47275
f	-7.47997
▁myöhemmin	-7.4814
▁eri	-7.48933
▁–	-7.49243
▁jotka	-7.49328
mi	-7.50654
jä	-7.51048
"	-7.52236
ty	-7.52334
▁de	-7.52408
▁the	-7.52445
▁teki	-7.52484
pa	-7.52542
it	-7.52655
man	-7.52958
sin	-7.53158
neet	-7.53396
istä	-7.53762
▁vastaan	-7.54548
ro	-7.5483
b	-7.5502
luvun	-7.56131
minen	-7.56454
▁yksi	-7.56716
▁o	-7.56946
er	-7.57141
ra	-7.57366
ttu	-7.5748
ve	-7.57503
▁koko	-7.57664
▁al	-7.58162
den	-7.58647
me	-7.59087
luvulla	-7.60651
se	-7.60808
v	-7.61547
▁ennen	-7.62051
▁kuten	-7.62844
▁voitti	-7.62977
▁esimerkiksi	-7.62983
mo	-7.63046
ihin	-7.6354
▁ha	-7.64018
▁s	-7.64506
da	-7.65415
▁tämän	-7.65722
lan	-7.67894
▁saa	-7.68247
▁sitä	-7.68595
do	-7.68868
isen	-7.69535
▁1	-7.70647
”	-7.70983
▁pelasi	-7.7145
lainen	-7.7165
een	-7.72221
kseen	-7.72498
▁re	-7.73849
▁18	-7.73997
po	-7.7416
tin	-7.74525
▁000	-7.75187
ttiin	-7.75206
van	-7.75715
sä	-7.76111
essa	-7.78395
▁ensimmäinen	-7.78769
▁kauden	-7.79844
▁ku	-7.8007
▁pa	-7.80113
ton	-7.8025
▁2	-7.80582
▁kolme	-7.80622
▁17	-7.82061
▁jolloin	-7.82101
lu	-7.82212
▁siirtyi	-7.825
▁mm	-7.83152
jo	-7.83184
▁ensimmäisen	-7.83507
di	-7.83756
mä	-7.83777
lo	-7.84215
pi	-7.84342
▁vuodesta	-7.84593
▁vasta	-7.85106
▁pohjois	-7.85261
▁sillä	-7.85539
al	-7.85939
misen	-7.86039
▁niin	-7.86611
▁(19	-7.88469
z	-7.89073
issä	-7.89148
▁metriä	-7.89292
▁suomessa	-7.9006
pu	-7.90539
▁etelä	-7.90601
kka	-7.90707
hi	-7.90867
▁koska	-7.91267
uksen	-7.9166
▁b	-7.91676
w	-7.92063
ttä	-7.92699
kki	-7.93047
x	-7.93366
▁kaudella	-7.93738
kan	-7.95358
pe	-7.95812
▁vielä	-7.96356
▁keski	-7.96523
neen	-7.96872
▁kaupungin	-7.96969
▁k	-7.97098
▁maa	-7.97182
ha	-7.9739
▁sa	-7.97442
▁3	-7.97643
▁tämä	-7.97961
nsä	-7.98334
ga	-7.9909
ho	-7.99601
▁p	-8.00081
▁me	-8.00152
taan	-8.00329
'	-8.00984
ar	-8.00985
▁ko	-8.0105
/	-8.01298
▁hi	-8.01826
aan	-8.01905
isia	-8.02162
▁työ	-8.02625
j	-8.02631
▁nimi	-8.0274
▁siitä	-8.02787
▁alkoi	-8.02898
tus	-8.02972
elle	-8.03185
▁sijaitsee	-8.0327
ch	-8.03317
iksi	-8.03623
essä	-8.0439
▁jota	-8.04405
tettiin	-8.04457
▁mo	-8.0449
▁vuotta	-8.0493
▁hyvin	-8.05255
▁voidaan	-8.05457
ala	-8.05535
▁li	-8.0558
▁f	-8.05718
nyt	-8.06021
▁alus	-8.06173
▁usein	-8.06597
esta	-8.0666
▁helsingin	-8.06852
▁e	-8.07085
▁olla	-8.07181
so	-8.07215
mista	-8.07549
▁of	-8.07642
ry	-8.0781
ven	-8.08679
▁ra	-8.0871
–	-8.08834
▁pe	-8.09046
▁elokuva	-8.09118
▁pitkä	-8.0956
▁kaikki	-8.10166
▁itse	-8.10769
▁po	-8.11141
▁ka	-8.11171
ce	-8.11461
os	-8.11896
he	-8.12318
sto	-8.12397
es	-8.12561
▁m	-8.12748
miseen	-8.12767
;	-8.13032
▁le	-8.13705
▁kautta	-8.13774
▁pi	-8.13831
▁4	-8.13915
▁aloitti	-8.14467
▁suomalainen	-8.14574
yn	-8.1467
llinen	-8.14876
▁maan	-8.15416
ge	-8.15514
▁vaikka	-8.15573
mään	-8.1567
vo	-8.15934
mis	-8.16235
▁ma	-8.16553
ck	-8.16861
▁lu	-8.16923
lin	-8.17011
▁uusi	-8.17133
▁tuo	-8.17425
ilta	-8.17461
▁16	-8.17595
▁koulu	-8.17626
▁toisen	-8.17756
iä	-8.17947
▁so	-8.18171
maa	-8.18569
▁ala	-8.1872
ään	-8.18731
’	-8.18821
▁eivät	-8.19039
ella	-8.19305
▁sota	-8.20091
teen	-8.20556
min	-8.2059
▁vuoksi	-8.20835
bi	-8.20851
▁ajan	-8.20937
rin	-8.21536
▁to	-8.21538
kko	-8.21571
▁i	-8.21733
▁ar	-8.21734
th	-8.21808
▁historia	-8.21909
▁15	-8.21914
su	-8.2228
ju	-8.22718
din	-8.23423
sia	-8.23631
ksen	-8.23632
ter	-8.23953
▁suuri	-8.23995
▁olisi	-8.24279
▁neljä	-8.24312
ba	-8.24451
iset	-8.24573
▁toinen	-8.24634
lä	-8.24888
▁tu	-8.25347
ina	-8.25952
via	-8.25983
▁luo	-8.26023
▁ase	-8.26336
▁syntyi	-8.264
▁pu	-8.26988
mu	-8.27032
▁jos	-8.27037
▁yleensä	-8.27514
isten	-8.27928
▁mukana	-8.2814
ver	-8.28328
men	-8.286
▁useita	-8.2874
son	-8.28754
▁lopulta	-8.28869
▁alueella	-8.29035
itä	-8.29402
el	-8.29419
▁maailman	-8.29533
sten	-8.29537
▁c	-8.29896
▁su	-8.30278
seen	-8.30569
▁10	-8.30879
▁kirja	-8.30908
▁seura	-8.3186
▁kuuluu	-8.31947
▁niiden	-8.32165
▁ba	-8.32786
go	-8.32832
▁josta	-8.32845
▁ro	-8.32875
▁uuden	-8.32941
▁v	-8.32969
ön	-8.33091
▁väli	-8.33469
▁alussa	-8.3387
▁5	-8.33875
ly	-8.34275
▁oma	-8.35039
▁kuoli	-8.35743
▁esi	-8.35802
▁itä	-8.35906
▁kar	-8.35937
kon	-8.35972
ö	-8.35976
▁eikä	-8.36119
▁co	-8.36669
▁g	-8.36807
▁jää	-8.36895
▁new	-8.37038
▁yhdessä	-8.37123
eksi	-8.37448
▁jäi	-8.37775
­	-8.38043
▁olevan	-8.38209
▁yhden	-8.38534
▁heidän	-8.38538
▁sm	-8.38707
illä	-8.39028
▁peli	-8.39147
▁lähes	-8.39232
▁vuoteen	-8.4011
▁koti	-8.40311
▁suur	-8.40545
▁asti	-8.40566
▁palasi	-8.40706
ien	-8.40734
▁arvo	-8.40939
isi	-8.40975
▁joista	-8.4105
estä	-8.41228
▁2010	-8.41374
at	-8.41435
mon	-8.41518
▁suurin	-8.41553
▁alue	-8.41766
ssi	-8.41958
▁paljon	-8.42165
▁vesi	-8.4223
▁kaupunki	-8.42249
▁iso	-8.4283
dy	-8.42939
▁mikä	-8.42968
▁samalla	-8.43015
▁puu	-8.43058
▁sisä	-8.43131
▁auto	-8.4332
vä	-8.43622
▁mi	-8.43684
▁kertaa	-8.43837
▁va	-8.44053
▁aina	-8.44659
▁bo	-8.44711
▁ri	-8.44734
osa	-8.45309
▁siihen	-8.45545
kku	-8.45581
▁mar	-8.45748
▁har	-8.4602
ru	-8.46162
gi	-8.4623
kaan	-8.46525
ltä	-8.47194
▁maaliskuuta	-8.47359
▁vara	-8.47422
ran	-8.47452
▁kuva	-8.47534
der	-8.47582
hin	-8.47597
▁ulko	-8.47621
▁järven	-8.4771
järven	-8.47766
▁valittiin	-8.48086
▁alle	-8.48437
▁kerran	-8.48461
▁alueen	-8.48503
▁käytetään	-8.48681
▁sodan	-8.48851
hu	-8.49214
tun	-8.49244
kas	-8.49311
joen	-8.49412
▁kesäkuuta	-8.49445
▁6	-8.49775
▁nousi	-8.49779
ili	-8.49865
bo	-8.49929
▁u	-8.50078
tettu	-8.50166
ur	-8.50347
▁ilma	-8.50451
00	-8.50577
▁vaan	-8.50594
▁mu	-8.5066
▁ru	-8.50756
▁ho	-8.50815
▁muita	-8.50825
▁osallistui	-8.50834
▁tammikuuta	-8.50855
co	-8.50952
▁12	-8.50989
▁toukokuuta	-8.51037
▁epä	-8.51347
kä	-8.51531
▁huhtikuuta	-8.51685
▁valmistui	-8.51787
▁ca	-8.52075
▁lo	-8.52106
kunnan	-8.52293
▁lokakuuta	-8.52664
▁w	-8.52792
▁joulukuuta	-8.52872
▁h	-8.5301
tys	-8.53076
aali	-8.53486
▁syyskuuta	-8.53535
llis	-8.53695
ca	-8.5401
▁heinäkuuta	-8.5409
tiin	-8.54455
▁no	-8.5454
▁1.	-8.54728
▁julkaisi	-8.54769
▁2009	-8.54779
malla	-8.54858
▁määrä	-8.54923
isiin	-8.55196
▁ääni	-8.55208
il	-8.55335
▁2011	-8.55377
▁2008	-8.55525
▁be	-8.55578
▁julkaistiin	-8.55748
ut	-8.55752
▁kirkko	-8.55787
▁venäjän	-8.5582
isesti	-8.5583
um	-8.55867
▁d	-8.56055
▁val	-8.56163
▁takaisin	-8.56169
▁kulttuuri	-8.56182
ed	-8.56386
▁pro	-8.56461
be	-8.56521
ski	-8.56589
▁aja	-8.57137
▁helmikuuta	-8.57145
▁tar	-8.57196
▁jopa	-8.57209
▁joissa	-8.57326
▁per	-8.57472
▁häntä	-8.57659
▁ni	-8.57684
▁kor	-8.57721
mpi	-8.57839
▁jäsen	-8.57883
▁2007	-8.58071
▁au	-8.58078
▁ky	-8.58104
▁elokuuta	-8.58108
▁marraskuuta	-8.58118
▁ura	-8.58297
▁erityisesti	-8.58312
▁saakka	-8.58656
▁fa	-8.58689
▁edelleen	-8.58902
▁kuitenkaan	-8.59005
mia	-8.59114
▁muut	-8.59271
▁saksan	-8.59457
laisen	-8.59525
▁nimellä	-8.59598
je	-8.5968
▁as	-8.59691
or	-8.59703
▁henkilö	-8.59797
▁lähtien	-8.59941
tuksen	-8.59961
▁sitten	-8.60031
ji	-8.60418
kunta	-8.60666
pää	-8.60801
▁hu	-8.61064
▁yhdysvaltain	-8.61075
▁2006	-8.61221
▁di	-8.6132
lli	-8.61461
▁meri	-8.6162
▁oy	-8.61656
▁vii	-8.61852
▁käyttää	-8.61877
▁länsi	-8.6197
▁avulla	-8.62151
▁kansan	-8.62314
staan	-8.62481
▁pois	-8.62561
▁yhtye	-8.62713
ys	-8.62832
1	-8.62865
▁taistelu	-8.63014
han	-8.63034
▁välillä	-8.63047
▁kilometriä	-8.63327
▁2012	-8.63429
▁tutki	-8.63506
laiset	-8.63668
ppi	-8.63782
▁joutui	-8.64005
don	-8.64213
▁siellä	-8.64363
▁tulee	-8.64399
▁%	-8.64459
▁viisi	-8.64486
ot	-8.64491
▁muiden	-8.64707
mies	-8.64839
▁20	-8.64974
sy	-8.65049
▁moni	-8.65051
▁musta	-8.65079
ks	-8.65087
▁da	-8.65145
▁j	-8.65163
▁pinta	-8.6526
▁levy	-8.65523
▁taas	-8.6566
mme	-8.65933
".	-8.65971
usta	-8.65985
é	-8.66088
massa	-8.66099
järvi	-8.66502
▁uudelleen	-8.66516
▁perustettiin	-8.66518
▁saanut	-8.66539
du	-8.66582
uksia	-8.66584
talo	-8.66657
▁raja	-8.66658
▁ranskan	-8.66815
”.	-8.67054
fi	-8.67073
▁saman	-8.67384
▁joiden	-8.67534
berg	-8.67671
▁keskus	-8.67722
▁sivu	-8.67819
val	-8.67862
▁euroopan	-8.68028
▁ii	-8.68102
▁ju	-8.68196
st	-8.68319
▁jolla	-8.68396
▁kuului	-8.68455
▁vanha	-8.68538
▁bar	-8.68741
▁2014	-8.68874
vien	-8.69001
oja	-8.69204
▁kauppa	-8.69342
tto	-8.69353
siin	-8.69365
▁si	-8.69459
▁kon	-8.69664
š	-8.69703
ger	-8.69736
▁vapaa	-8.69754
▁loppu	-8.6981
▁yhtyeen	-8.7
ura	-8.70104
▁perin	-8.70165
▁vie	-8.7042
ste	-8.70427
▁7	-8.70541
▁2013	-8.70625
▁lii	-8.70636
▁joukkue	-8.70751
set	-8.71006
▁laji	-8.71085
▁ab	-8.71158
▁ruotsin	-8.71178
▁alku	-8.71231
▁toimii	-8.71695
tie	-8.72087
▁joita	-8.72256
▁ero	-8.72278
mien	-8.72442
▁aika	-8.72499
vin	-8.7254
▁kahden	-8.72612
▁or	-8.7272
▁radio	-8.72886
ker	-8.73002
▁näin	-8.73034
▁r	-8.73196
2	-8.73379
▁aluksi	-8.73397
▁aikaan	-8.73497
▁vi	-8.73526
ikka	-8.73681
▁yleis	-8.73706
tö	-8.73793
▁sijoittui	-8.7401
▁2015	-8.74039
tty	-8.74108
▁yhteis	-8.74236
▁8	-8.74302
oksen	-8.74333
ttaa	-8.74515
kään	-8.74654
▁pian	-8.74694
oi	-8.74703
tetaan	-8.74756
ul	-8.74888
▁metsä	-8.74956
▁korkea	-8.75021
mer	-8.75072
▁14	-8.75292
▁valtio	-8.75315
alue	-8.75334
▁minkä	-8.75351
esti	-8.75694
▁pieni	-8.75698
▁ensi	-8.75769
▁san	-8.75783
▁ga	-8.75876
▁kivi	-8.76078
miseksi	-8.7617
▁sää	-8.76204
▁ilman	-8.76257
▁eaa	-8.7653
pä	-8.76958
gen	-8.76975
dan	-8.77008
ellä	-8.77032
▁niitä	-8.7725
▁ihmis	-8.77251
taa	-8.7749
▁ry	-8.77687
ppa	-8.78004
▁joukkueen	-8.78134
▁musiikki	-8.78154
▁takia	-8.783
▁poika	-8.78301
▁kunnes	-8.7841
▁hä	-8.78433
vaa	-8.78439
kirja	-8.78592
laisten	-8.78608
tään	-8.78652
▁jälleen	-8.78945
mar	-8.78973
▁kir	-8.78989
▁par	-8.79026
▁toiminta	-8.79206
▁gu	-8.7923
tar	-8.79399
▁alkaen	-8.79406
▁13	-8.79457
▁ti	-8.7958
▁käsi	-8.79902
▁du	-8.79985
▁and	-8.80006
▁myötä	-8.80036
mp	-8.80167
▁kylä	-8.80205
▁sähkö	-8.80225
▁kai	-8.80374
▁aiemmin	-8.8051
ll	-8.80539
ttää	-8.80637
ky	-8.80649
vuotiaana	-8.80784
▁rakennus	-8.80905
▁johon	-8.80921
▁her	-8.81107
▁2005	-8.81437
lleen	-8.81459
▁var	-8.81686
misesta	-8.8176
▁ke	-8.81806
▁sotilas	-8.81931
tuu	-8.82008
▁työskenteli	-8.82054
toja	-8.82189
▁kirjoitti	-8.82233
▁sy	-8.82283
▁ki	-8.82407
land	-8.82409
voi	-8.8245
määrä	-8.82557
▁tieto	-8.82725
▁paras	-8.82797
▁toiminut	-8.82803
▁käyttö	-8.82811
▁muutti	-8.82955
▁fi	-8.82966
▁kuningas	-8.83057
peli	-8.8316
▁valta	-8.83181
▁oman	-8.83257
▁turun	-8.83292
hd	-8.83393
▁hms	-8.83506
▁kuu	-8.83532
kar	-8.83545
▁piti	-8.83591
▁nykyään	-8.83596
▁opiskeli	-8.83621
▁te	-8.83828
▁11	-8.84014
▁miljoonaa	-8.84167
▁kau	-8.84246
uus	-8.84506
20	-8.8463
vu	-8.84716
▁metrin	-8.84726
▁kuusi	-8.84864
▁van	-8.84923
▁siinä	-8.85231
ic	-8.85298
▁john	-8.8559
▁usko	-8.85611
▁2016	-8.85675
▁valtion	-8.85723
▁kirkon	-8.85734
▁pääsi	-8.8579
▁perus	-8.85912
▁pari	-8.85974
miin	-8.86051
seura	-8.86055
kohta	-8.86091
▁yhteensä	-8.86131
ttua	-8.86131
▁joten	-8.86146
▁käyttöön	-8.86147
ltaan	-8.86302
ir	-8.86521
▁enää	-8.86597
▁seuran	-8.86714
ssaan	-8.86715
▁väri	-8.86719
nti	-8.86785
tee	-8.87075
▁alun	-8.87092
sh	-8.87206
▁enemmän	-8.87298
▁järvi	-8.87385
▁kii	-8.87536
▁tehty	-8.8756
ajan	-8.87612
isti	-8.87709
▁perusti	-8.87914
ff	-8.88007
▁talous	-8.88043
▁monet	-8.88394
▁lento	-8.88396
ng	-8.88452
▁kur	-8.88482
▁100	-8.88612
▁puoli	-8.88675
ttava	-8.88778
wa	-8.8881
▁yhteydessä	-8.88873
ster	-8.88941
▁sch	-8.88954
▁pitää	-8.88963
aika	-8.88989
▁2004	-8.88998
eja	-8.89005
▁2000	-8.89015
▁suo	-8.89056
▁varten	-8.89058
ci	-8.89091
yhtiö	-8.89092
em	-8.89129
jan	-8.89212
0	-8.8931
kaa	-8.89342
▁asu	-8.89383
▁sala	-8.89504
▁el	-8.89532
▁sil	-8.89658
jien	-8.8975
ken	-8.89765
▁jatkoi	-8.89935
▁nykyisin	-8.90023
▁tunnetaan	-8.90215
uuden	-8.90395
▁yliopiston	-8.90756
ske	-8.9102
▁puolue	-8.913
▁30	-8.91566
▁am	-8.91667
▁l	-8.91923
fa	-8.91957
▁lehti	-8.91977
kke	-8.91996
lais	-8.92011
▁läpi	-8.92118
mus	-8.9212
kilpailuissa	-8.92124
stu	-8.92162
▁kansallis	-8.92179
nne	-8.922
iseen	-8.92215
▁esiintyi	-8.92274
ner	-8.92437
mistä	-8.92533
▁tutkimus	-8.9255
▁muu	-8.92603
auto	-8.9269
▁2017	-8.92847
per	-8.92934
▁otti	-8.92964
▁oleva	-8.93061
▁sp	-8.93084
▁2002	-8.93188
▁tuki	-8.93192
▁tätä	-8.93198
▁yhdysvalloissa	-8.93291
ing	-8.93336
▁bu	-8.93403
5	-8.93432
▁samana	-8.93445
▁sarja	-8.93456
▁etu	-8.93506
▁paino	-8.93531
▁lai	-8.93554
im	-8.93581
▁urheilu	-8.93746
▁liitto	-8.93748
erin	-8.9392
tel	-8.94051
▁toiseksi	-8.94078
▁soi	-8.94155
▁mon	-8.94173
▁isä	-8.94178
▁do	-8.94276
▁9	-8.94322
▁lähe	-8.94426
ber	-8.94641
laisia	-8.94694
kiel	-8.94832
kel	-8.94869
ren	-8.94904
▁hänellä	-8.94921
sse	-8.94994
▁albumi	-8.95019
▁taide	-8.95169
▁ottelussa	-8.95185
▁perhe	-8.95189
▁näyttelijä	-8.95274
llista	-8.95529
as	-8.95536
ron	-8.95645
ukset	-8.95661
▁ajoi	-8.95907
id	-8.95995
▁for	-8.95995
▁oppi	-8.9602
▁pien	-8.9605
ell	-8.96087
isiä	-8.9615
voima	-8.96193
teli	-8.96194
▁tuotanto	-8.96198
▁rooli	-8.96286
▁st	-8.96348
▁man	-8.96478
▁ottelua	-8.96481
gin	-8.96505
▁vuosi	-8.96526
llisesti	-8.96656
▁hahmo	-8.96883
gu	-8.96902
▁kieli	-8.96991
▁my	-8.97069
▁ainoa	-8.97124
▁liittyi	-8.97267
▁hänelle	-8.97391
levy	-8.97446
▁siirrettiin	-8.97547
▁tie	-8.97564
▁helsinki	-8.97635
▁pelaaja	-8.9767
▁johti	-8.97897
▁elokuvan	-8.97897
▁kasvi	-8.97977
▁lopulla	-8.98092
▁kirjailija	-8.98237
työ	-8.98307
▁em	-8.98322
mat	-8.98373
toista	-8.98406
▁missä	-8.9862
hen	-8.98695
–18	-8.98707
tila	-8.98772
ivat	-8.98787
▁tehtävä	-8.98796
▁2018	-8.99004
iseksi	-8.99037
tteli	-8.99057
gan	-8.9909
tusta	-8.99105
kul	-8.99295
od	-8.99323
▁lähi	-8.99381
▁2001	-8.99392
▁pituus	-8.9944
▁julkaistu	-8.99729
kse	-8.99789
=	-8.9979
arvo	-8.99847
▁kaudeksi	-8.99854
len	-8.99955
tetty	-9.00085
▁oikeus	-9.00121
koulu	-9.00318
▁olleet	-9.00336
tojen	-9.00416
▁seuraavana	-9.00535
▁muuta	-9.00737
llisen	-9.00865
kor	-9.00998
ile	-9.01005
tava	-9.01029
▁lähti	-9.0119
joukkue	-9.01337
teet	-9.01389
by	-9.01475
▁sarjan	-9.01882
▁saavutti	-9.01911
ansa	-9.0192
▁2.	-9.01994
▁tuolloin	-9.0212
laji	-9.02229
▁go	-9.02252
▁x	-9.02368
▁vir	-9.02623
▁kä	-9.02907
▁tasa	-9.03004
▁lähellä	-9.03126
▁pan	-9.03144
▁ylä	-9.03164
▁uransa	-9.03168
3	-9.03356
▁prosenttia	-9.03377
kauden	-9.03476
▁kal	-9.03596
▁taka	-9.03703
▁fu	-9.03737
▁armeija	-9.03754
▁rakennettiin	-9.03799
▁antoi	-9.03873
ps	-9.03887
▁500	-9.03918
▁hänestä	-9.03961
▁nais	-9.04227
▁suuren	-9.04383
▁kesällä	-9.04456
▁yliopistossa	-9.04462
io	-9.04484
▁nhl	-9.04582
nnan	-9.04762
mm	-9.04769
▁50	-9.04836
▁kan	-9.04866
▁pysty	-9.04925
neiden	-9.0499
▁ettei	-9.05055
kö	-9.05117
▁yhtä	-9.05155
esi	-9.05206
▁juuri	-9.05282
▁sanoi	-9.0569
tyy	-9.05702
▁voivat	-9.05776
eli	-9.05966
ttävä	-9.06294
alueen	-9.06307
▁aikaa	-9.06355
▁sosiaali	-9.06369
▁tammikuussa	-9.06546
▁hy	-9.06608
▁pal	-9.06625
keskus	-9.06732
▁sal	-9.06835
▁hei	-9.0692
▁kat	-9.06994
kkaa	-9.07064
kun	-9.0715
▁suu	-9.07258
tia	-9.07269
▁edusti	-9.07487
▁tehtiin	-9.07548
paikka	-9.07577
▁valuma	-9.07624
utta	-9.0769
utui	-9.07745
▁wi	-9.07754
▁2003	-9.07781
á	-9.07877
my	-9.07963
ny	-9.08011
▁1999	-9.08051
tori	-9.08176
sarjan	-9.08209
ts	-9.08233
▁asema	-9.0825
▁sama	-9.08258
met	-9.08276
▁lisä	-9.08389
▁kävi	-9.08642
ment	-9.08764
10	-9.08799
tra	-9.08852
▁lau	-9.08891
▁julkis	-9.08964
▁maailmansodan	-9.09008
▁tri	-9.09034
op	-9.09067
eseen	-9.09133
var	-9.09151
har	-9.09165
tte	-9.09192
▁kärsi	-9.09196
▁hallitus	-9.0938
pan	-9.09429
ville	-9.09543
▁puna	-9.09563
▁(18	-9.09569
ide	-9.09696
▁professori	-9.09795
▁erikois	-9.09981
▁viime	-9.1003
▁nimitettiin	-9.10138
▁seitsemän	-9.10228
▁kertoo	-9.10242
▁sopimuksen	-9.10256
aatio	-9.10276
palvelu	-9.1031
▁leveä	-9.10382
▁rock	-9.10385
▁johtaja	-9.10541
19	-9.10609
▁200	-9.10684
▁voima	-9.1072
í	-9.10736
▁huolimatta	-9.10763
▁kausi	-9.10932
▁ensin	-9.1119
▁ensimmäiset	-9.11216
▁nyky	-9.11257
llaan	-9.11284
▁sijaitseva	-9.11492
ler	-9.11522
vän	-9.11554
▁hieman	-9.11619
jana	-9.11642
stö	-9.11657
isin	-9.11672
▁matka	-9.1175
▁käy	-9.11754
▁ge	-9.11792
mb	-9.11814
▁tunnettu	-9.11864
tor	-9.11876
▁single	-9.11899
",	-9.11975
▁presidentti	-9.12034
utu	-9.12096
vää	-9.12216
liiton	-9.12265
▁isänsä	-9.12379
▁cm	-9.12398
▁yliopisto	-9.12399
tui	-9.12497
▁nämä	-9.12544
▁koo	-9.12607
ston	-9.12684
▁yksityis	-9.12739
▁ver	-9.12749
▁merkittävä	-9.12797
▁päättyi	-9.12897
▁rii	-9.12945
▁car	-9.12968
oli	-9.1304
piste	-9.13164
▁kone	-9.13226
▁ilmoitti	-9.13453
ek	-9.13503
▁puolestaan	-9.13537
▁versio	-9.13591
ian	-9.13775
▁talo	-9.13791
6	-9.13808
▁varhais	-9.13863
▁ran	-9.13915
▁syy	-9.13917
▁paikallis	-9.14241
▁wa	-9.14255
▁1994	-9.14256
▁1980-	-9.14358
▁muoto	-9.14404
ol	-9.14509
▁kiinni	-9.14513
▁jatko	-9.14646
sk	-9.14721
▁aihe	-9.14837
▁ammatti	-9.1491
elta	-9.14955
sarjassa	-9.15009
▁saivat	-9.15053
▁laulu	-9.15071
joki	-9.15077
▁ali	-9.15146
▁tästä	-9.15202
chi	-9.15249
▁saari	-9.15254
län	-9.15264
▁käytetty	-9.15282
ik	-9.153
▁lähinnä	-9.15424
▁1970-	-9.15475
▁päätti	-9.15478
4	-9.15487
▁tarjo	-9.15536
engl	-9.15593
za	-9.15767
▁hallituksen	-9.15854
▁von	-9.15908
▁con	-9.15961
▁kilpailu	-9.15963
▁1996	-9.16121
mällä	-9.16129
▁1998	-9.16167
▁hal	-9.1632
+	-9.16324
▁sijaan	-9.16384
sarja	-9.16502
▁luonnon	-9.16521
▁mitä	-9.16534
▁teatteri	-9.16605
▁laaja	-9.16651
yhdysvaltalainen	-9.1667
▁1800-	-9.16745
▁kahdeksan	-9.16868
▁suku	-9.16871
▁esiintyy	-9.16887
ilu	-9.16981
▁1997	-9.17183
gon	-9.17186
▁lisää	-9.17336
▁kohti	-9.17355
▁tyyli	-9.17461
lehti	-9.1756
”,	-9.17583
▁rakennettu	-9.17818
14	-9.17991
kuu	-9.18048
puol	-9.18129
▁1995	-9.18173
▁joukko	-9.1821
▁alkaa	-9.18231
12	-9.18306
hun	-9.18325
▁super	-9.18333
▁käytettiin	-9.18334
▁pla	-9.18435
▁päivä	-9.18492
▁moottori	-9.18543
▁kymmenen	-9.18679
ori	-9.18806
tetään	-9.1882
▁lasten	-9.18825
▁seurauksena	-9.18828
▁mor	-9.18856
ov	-9.18866
▁käytössä	-9.18879
assa	-9.18896
sesti	-9.19024
kset	-9.19032
ss	-9.19287
▁sana	-9.19299
tien	-9.19314
tur	-9.19363
▁siten	-9.19468
▁pala	-9.19503
▁ilmestyi	-9.19588
▁ve	-9.19661
rk	-9.19667
mäki	-9.19916
toimi	-9.20213
oma	-9.20297
▁1960-	-9.20335
▁fo	-9.20399
▁3.	-9.2049
▁vaati	-9.20517
▁televisio	-9.20524
liitto	-9.2081
stään	-9.21021
ley	-9.21084
▁ber	-9.21162
par	-9.21207
▁ai	-9.21258
▁kanta	-9.21374
▁kaa	-9.21397
▁joulukuussa	-9.21417
▁pohja	-9.21476
▁toi	-9.21485
▁kansa	-9.21504
▁laki	-9.21507
asema	-9.21537
▁pol	-9.21568
▁piste	-9.21573
del	-9.21586
▁yhteen	-9.21683
▁ben	-9.22008
▁liike	-9.22061
▁tarkoittaa	-9.22082
▁yhtiö	-9.22153
▁40	-9.22275
11	-9.22319
▁julkaisu	-9.22409
▁sittemmin	-9.22429
▁km	-9.22519
30	-9.22565
▁keväällä	-9.22586
▁1992	-9.22589
pin	-9.22592
▁tra	-9.22602
▁keisari	-9.22623
▁linja	-9.22806
▁1918	-9.22886
▁ed	-9.22973
▁kallio	-9.2314
50	-9.23161
▁lie	-9.23597
▁veden	-9.2368
▁kuulu	-9.23718
mmin	-9.23724
mman	-9.23735
▁tur	-9.23921
valta	-9.23921
▁nopeasti	-9.23998
olo	-9.24035
valla	-9.24179
▁bi	-9.24271
▁turva	-9.24339
▁&	-9.24475
kuva	-9.24494
▁lokakuussa	-9.24538
▁kesä	-9.24568
▁koira	-9.2459
▁elokuvassa	-9.24595
▁silloin	-9.24608
▁sor	-9.24638
▁saada	-9.247
▁tehdä	-9.24882
mäen	-9.24884
iini	-9.24919
alan	-9.25004
ase	-9.25229
tuksia	-9.25447
▁hallinto	-9.25459
▁tuho	-9.25462
▁oikea	-9.25477
▁kappale	-9.25496
▁suomalais	-9.25692
we	-9.25727
▁tehnyt	-9.25783
▁0	-9.25826
tyyli	-9.25835
▁tampereen	-9.2585
▁syö	-9.25957
▁mennessä	-9.25958
▁1990-	-9.25967
▁piiri	-9.26004
bu	-9.26033
15	-9.26049
ō	-9.26082
oitu	-9.2618
▁marraskuussa	-9.26241
lia	-9.26253
elli	-9.26267
▁asia	-9.26287
▁tila	-9.2638
▁1991	-9.26393
▁tullut	-9.26401
▁1993	-9.26424
▁1990	-9.26544
essaan	-9.26551
▁joilla	-9.26654
▁elokuussa	-9.26802
▁mur	-9.26914
▁syksyllä	-9.26921
ska	-9.26941
,5	-9.26943
▁toukokuussa	-9.26945
▁maaliskuussa	-9.27006
muoto	-9.2705
saari	-9.27224
▁tapa	-9.27228
▁koh	-9.27261
▁neuvostoliiton	-9.27289
▁museo	-9.27347
▁pidetään	-9.27372
ser	-9.27395
▁aluksen	-9.27481
▁ol	-9.27578
uutta	-9.27632
▁aa	-9.27644
▁yhä	-9.27726
ojen	-9.27748
the	-9.27765
toi	-9.27823
▁loi	-9.27839
jia	-9.2788
▁ottelu	-9.27915
▁seurasi	-9.27972
eri	-9.27987
viä	-9.28054
▁perusteella	-9.28108
hy	-9.28115
uksesta	-9.28115
▁onnistui	-9.28132
sissa	-9.28158
▁yritys	-9.28166
▁perustettu	-9.2827
▁huono	-9.28271
▁osan	-9.28291
▁han	-9.28356
▁joko	-9.28367
▁hel	-9.28425
▁olleen	-9.28425
▁ad	-9.28524
▁fe	-9.28531
▁poliisi	-9.2854
▁tulo	-9.28551
nö	-9.28627
▁ainakin	-9.28711
aste	-9.28732
▁sel	-9.28908
▁niistä	-9.2896
▁valo	-9.2897
▁naisten	-9.29004
ation	-9.2905
▁runo	-9.29056
▁yhtenä	-9.29062
les	-9.29078
▁kokonaan	-9.29135
▁rauta	-9.29137
ó	-9.29148
▁näiden	-9.29197
▁luke	-9.29198
▁ryhmä	-9.29279
▁ken	-9.29413
▁joskus	-9.2945
▁kokonais	-9.29516
▁paul	-9.29525
▁suomi	-9.29564
fe	-9.29613
▁vuosien	-9.29783
ava	-9.2979
▁kuuluvat	-9.29817
▁kolmen	-9.2992
▁päivänä	-9.29941
▁kilometrin	-9.29958
her	-9.30001
▁mah	-9.30017
lahden	-9.30042
▁yö	-9.30068
▁25	-9.30096
▁mestaruuden	-9.30179
▁lei	-9.30323
▁vero	-9.30353
laista	-9.30561
am	-9.30626
py	-9.30697
▁rei	-9.30702
ad	-9.30904
▁kei	-9.30972
▁ensimmäistä	-9.30993
▁nu	-9.31066
▁pikku	-9.31079
▁murha	-9.31206
▁tällä	-9.31335
▁helmikuussa	-9.31348
▁lopussa	-9.31353
kat	-9.31403
tio	-9.31435
▁os	-9.31544
pal	-9.31636
▁jalkapallo	-9.31749
▁samaan	-9.31775
nd	-9.318
▁armeijan	-9.31817
kylä	-9.31829
▁tällöin	-9.31881
▁levi	-9.31992
inä	-9.32001
alueella	-9.3203
▁vastaa	-9.32082
kea	-9.32092
ise	-9.321
sivat	-9.32229
▁syyskuussa	-9.32262
teiden	-9.32398
nes	-9.32438
aja	-9.32493
▁seuraa	-9.32498
ossa	-9.32517
▁maali	-9.32549
luvulta	-9.32565
▁kesäkuussa	-9.32565
▁pelaa	-9.32607
▁hyvä	-9.32631
▁ottelun	-9.32794
▁jotta	-9.32796
ikko	-9.32952
▁kasvaa	-9.32969
llään	-9.33025
▁tanssi	-9.33126
▁tor	-9.33162
ppu	-9.33177
▁melko	-9.33199
siä	-9.33287
osta	-9.33289
▁ympäri	-9.33319
40	-9.33397
ime	-9.33412
▁ensimmäisenä	-9.33446
▁entinen	-9.3351
▁albumin	-9.33538
▁mai	-9.33563
▁elämä	-9.33652
▁erittäin	-9.33739
▁jätti	-9.33758
kausi	-9.33793
ryhmä	-9.33895
▁nuori	-9.34035
las	-9.34061
▁esitti	-9.34103
nnut	-9.34124
▁malli	-9.34143
ström	-9.34166
johtaja	-9.34179
▁palvelu	-9.34204
▁alueelle	-9.34313
rä	-9.34398
▁suomeen	-9.34509
▁sam	-9.34522
etti	-9.34545
ukseen	-9.34608
▁mer	-9.34617
▁katso	-9.34635
skin	-9.3466
que	-9.34803
▁valko	-9.34829
▁vaali	-9.34905
port	-9.34907
tter	-9.34955
tit	-9.35091
asia	-9.35163
▁päätteeksi	-9.35227
▁työn	-9.3524
▁robert	-9.35259
▁puhu	-9.35307
▁4.	-9.35355
▁teho	-9.35517
▁hankki	-9.35526
▁eu	-9.35549
▁mene	-9.35559
▁vil	-9.35812
▁huhtikuussa	-9.35843
malli	-9.35905
▁ker	-9.35956
▁juo	-9.36003
▁ranta	-9.3601
zi	-9.36069
▁maalia	-9.36115
▁kuvaa	-9.36244
vasta	-9.36251
▁2019	-9.36312
ola	-9.36322
▁siirto	-9.36329
ttaja	-9.36384
▁heinäkuussa	-9.36392
å	-9.36485
▁gi	-9.36488
ointi	-9.36661
tyksen	-9.3667
▁we	-9.36726
▁kappaletta	-9.36726
▁johdolla	-9.36742
tri	-9.36754
ami	-9.36799
▁koe	-9.36821
tyyppi	-9.36833
▁englannin	-9.3703
▁mies	-9.37051
tunut	-9.37187
ard	-9.37318
▁aine	-9.37321
▁puolueen	-9.37373
missa	-9.37387
én	-9.37391
järjestelmä	-9.37459
soi	-9.37466
▁käytti	-9.37528
dia	-9.37542
▁kappaleen	-9.37589
luku	-9.37604
▁15.	-9.37612
18	-9.37692
▁kertoi	-9.37747
vel	-9.37785
▁mc	-9.3779
che	-9.37952
▁gra	-9.3796
nnin	-9.37995
palkinnon	-9.38047
ig	-9.38061
▁hävisi	-9.38138
uri	-9.38161
▁palo	-9.38186
rakente	-9.38197
eissa	-9.38235
▁alusta	-9.38281
80	-9.38309
7	-9.38326
▁valmistu	-9.3836
ottelussa	-9.38471
▁pyrki	-9.38504
▁täysin	-9.38537
▁ter	-9.38611
▁ohella	-9.387
▁vanhemmat	-9.38711
▁heti	-9.38755
▁pidettiin	-9.3877
▁koske	-9.38898
▁meni	-9.38935
▁pääasiassa	-9.38953
ani	-9.38956
ham	-9.38991
▁11.	-9.39006
ensa	-9.39087
tion	-9.39157
▁vuodelta	-9.39163
stus	-9.39189
sch	-9.39218
ris	-9.39248
▁etenkin	-9.39313
aatti	-9.39322
▁mat	-9.39524
kot	-9.39568
60	-9.39622
▁cor	-9.39652
iko	-9.39707
▁yksilö	-9.39725
▁kielen	-9.39754
▁5.	-9.39811
▁kehitys	-9.3991
▁kala	-9.39923
▁ainoastaan	-9.39935
lon	-9.40041
▁vuo	-9.40306
17	-9.40359
gg	-9.40366
empi	-9.40532
▁es	-9.40548
▁helsingissä	-9.40594
▁suoja	-9.40654
▁ympäristö	-9.408
▁erilaisia	-9.40807
▁mahdollista	-9.40818
ari	-9.40885
ttamaan	-9.40893
ajo	-9.41006
▁jonkin	-9.41011
▁tarkoitus	-9.41016
▁1988	-9.41057
▁suoritti	-9.41092
uudesta	-9.41133
▁8.	-9.41134
vet	-9.41176
▁peri	-9.41189
mmat	-9.41225
niemi	-9.41313
▁sha	-9.41333
▁nimen	-9.41336
hl	-9.41375
ope	-9.41378
▁vähä	-9.41387
tapa	-9.41468
kkä	-9.415
▁italian	-9.41506
▁mitta	-9.41615
▁lind	-9.41643
▁osaa	-9.41646
▁7.	-9.41658
▁hol	-9.41791
▁tärkeä	-9.41896
q	-9.42092
laa	-9.42095
▁juoni	-9.42131
ld	-9.42146
mainen	-9.42169
▁uusia	-9.42215
piiri	-9.42249
▁piispa	-9.42261
ehdo	-9.42283
lö	-9.423
telu	-9.42491
▁tiede	-9.42514
▁raha	-9.42677
▁luu	-9.42691
▁toivo	-9.42697
▁1989	-9.42757
16	-9.42771
ikan	-9.42788
aine	-9.4279
tz	-9.42836
▁kaikkien	-9.42875
ida	-9.42926
perä	-9.42942
ou	-9.4306
▁12.	-9.43091
▁300	-9.43153
▁elämän	-9.4316
ineen	-9.43163
▁levinneisyys	-9.43205
jat	-9.43334
▁kolmas	-9.43444
▁tässä	-9.43478
▁kulta	-9.43493
▁tal	-9.43517
▁6.	-9.43572
▁400	-9.4366
▁mal	-9.43761
▁kasvu	-9.43873
asta	-9.43879
▁linna	-9.44062
hä	-9.44113
tonin	-9.4412
viin	-9.44133
tulo	-9.44133
▁kunnan	-9.44264
ok	-9.44273
▁por	-9.44315
kaudella	-9.44352
е	-9.44432
suo	-9.44466
▁metalli	-9.44508
isena	-9.44515
▁suora	-9.44539
▁kutsutaan	-9.44566
▁laske	-9.4474
▁1945	-9.44828
▁10.	-9.4493
isuus	-9.45164
moottori	-9.45176
iltä	-9.45199
▁hehtaaria	-9.45289
aari	-9.45316
▁1900-	-9.45378
päivä	-9.45391
8	-9.45474
▁suunta	-9.45528
▁bur	-9.45585
suom	-9.45621
ud	-9.45624
ee	-9.45648
▁1987	-9.45651
llisia	-9.45685
nos	-9.45729
▁kello	-9.45863
pol	-9.45926
oilla	-9.45966
uransa	-9.4601
hon	-9.46127
▁1944	-9.46147
▁kanna	-9.4618
▁pako	-9.46233
▁johtama	-9.46247
idi	-9.46265
▁uutta	-9.46268
ung	-9.46273
fer	-9.46361
▁pallo	-9.46381
ikki	-9.46397
▁pelin	-9.46408
lehden	-9.46419
▁vä	-9.46449
▁osallistu	-9.46486
hdi	-9.46511
▁satama	-9.46525
▁alkoivat	-9.46621
ze	-9.46636
aksi	-9.46639
väli	-9.46646
masta	-9.46667
▁laulaja	-9.46692
nimi	-9.46719
▁kansalais	-9.46753
▁korkeus	-9.46756
▁kasvoi	-9.46759
▁kuoleman	-9.46827
ude	-9.46849
▁koskaan	-9.46852
▁pitkään	-9.46905
▁asui	-9.47031
▁sul	-9.47094
▁anti	-9.47172
ttelu	-9.47193
▁pelannut	-9.47208
yr	-9.47225
▁sisältää	-9.47241
uh	-9.47285
▁kol	-9.4729
pohja	-9.47298
▁ale	-9.47307
▁saattaa	-9.47378
▁25.	-9.47437
kunnassa	-9.47482
manin	-9.47545
▁taso	-9.47554
läinen	-9.47561
▁neuvosto	-9.47596
ie	-9.47614
▁tavataan	-9.47619
versio	-9.47639
▁ihmisen	-9.47649
▁apu	-9.47672
▁maria	-9.47729
▁maahan	-9.47756
▁naimisissa	-9.47766
▁saaren	-9.48025
▁rajoi	-9.48068
hahmo	-9.48179
▁13.	-9.48219
▁video	-9.48226
ismi	-9.48342
▁alla	-9.48381
▁liikenne	-9.48381
▁antaa	-9.48413
elin	-9.48498
▁bro	-9.4853
▁otettiin	-9.48536
fo	-9.48585
lis	-9.48588
▁at	-9.48674
vansa	-9.48691
▁cha	-9.487
▁bra	-9.48701
▁kaupungissa	-9.48732
▁ravinto	-9.48766
▁1940	-9.48793
▁nimensä	-9.48811
▁puheenjohtaja	-9.48837
▁sija	-9.49014
▁jumala	-9.49017
▁alkuperäis	-9.49019
▁olympia	-9.49029
ium	-9.49102
!	-9.49124
ttavat	-9.49124
▁21.	-9.49187
oiden	-9.49255
▁monia	-9.49337
▁1986	-9.49359
rit	-9.49406
▁vai	-9.49426
tää	-9.49458
teri	-9.49475
omi	-9.49513
▁9.	-9.49532
▁säily	-9.49562
ü	-9.49586
ž	-9.49635
ologi	-9.49646
puu	-9.49667
rakennus	-9.49702
▁14.	-9.49726
▁kel	-9.49743
▁pen	-9.49762
▁sijaitsi	-9.49897
▁kehi	-9.4993
ltään	-9.49938
▁60	-9.49975
▁tähän	-9.49986
95	-9.50012
▁kolmi	-9.50037
koko	-9.50045
isesta	-9.50059
luo	-9.50105
zin	-9.50237
itse	-9.50299
holm	-9.50349
▁osti	-9.50395
▁saapui	-9.50407
▁muutama	-9.5042
▁suoraan	-9.50434
▁miesten	-9.50448
▁nyt	-9.50467
tut	-9.50481
▁20.	-9.50508
▁rakenne	-9.5053
teitä	-9.50629
ttanut	-9.50742
▁nykyisen	-9.50763
▁parhaan	-9.50787
onin	-9.50795
sson	-9.50862
järjestö	-9.50894
▁1950-	-9.50897
▁numero	-9.50936
▁filosofi	-9.51059
▁virka	-9.51062
▁tarina	-9.51082
▁tavoin	-9.51161
▁öljy	-9.51178
tai	-9.51182
uksissa	-9.51206
▁vei	-9.51219
llo	-9.5123
▁synty	-9.51238
13	-9.51305
mpia	-9.51346
ble	-9.51347
▁port	-9.51366
elokuva	-9.51376
▁viimeinen	-9.51381
▁1985	-9.5143
▁kaikkiaan	-9.51433
▁1939	-9.51444
puoli	-9.51488
▁kenraali	-9.51512
hr	-9.51547
▁rautatie	-9.51558
valtio	-9.51643
▁perusta	-9.51674
linja	-9.51695
▁tapahtuma	-9.51697
merkki	-9.51708
25	-9.51769
▁kilpa	-9.51836
▁1970	-9.51878
▁tappio	-9.51962
ey	-9.52054
▁bre	-9.52054
▁lähtee	-9.52057
▁palveli	-9.52076
▁kolmanneksi	-9.52106
▁harjoit	-9.52115
▁taiteilija	-9.52214
rak	-9.52257
▁romaani	-9.52282
▁opetus	-9.52311
gh	-9.52331
▁19.	-9.52441
▁28.	-9.52479
laiva	-9.52601
▁kirjan	-9.52699
▁laina	-9.52807
▁kesken	-9.52819
▁puhe	-9.52838
▁loppuun	-9.52901
▁viiden	-9.52907
vesi	-9.53013
▁johto	-9.53056
niemen	-9.53075
und	-9.53094
▁alettiin	-9.53097
era	-9.53275
ther	-9.5329
▁kapteeni	-9.53301
▁saksassa	-9.53324
▁viesti	-9.53346
▁osuus	-9.53356
▁teksti	-9.53462
▁yhdiste	-9.53484
matka	-9.53501
syy	-9.53636
▁rauhan	-9.53638
wi	-9.53664
itti	-9.53755
▁lait	-9.53802
▁uni	-9.53888
▁22.	-9.53921
▁päivää	-9.53946
39	-9.53973
▁23.	-9.53977
▁1941	-9.54012
▁selvi	-9.54044
rd	-9.54084
44	-9.54245
▁anna	-9.54273
tele	-9.54277
▁kuolema	-9.54322
▁sata	-9.54326
▁vaikea	-9.54351
▁myy	-9.54351
lei	-9.54365
▁1984	-9.54441
bb	-9.54457
▁syntynyt	-9.54466
▁päästä	-9.54504
▁järjestettiin	-9.54558
ling	-9.54641
▁ansiosta	-9.54653
▁1972	-9.54725
▁1979	-9.54738
kai	-9.5475
▁johan	-9.54755
▁oulun	-9.54842
määri	-9.54951
ika	-9.55116
▁tv	-9.55178
▁kari	-9.55232
▁pääministeri	-9.553
ria	-9.55313
uden	-9.5563
uk	-9.55651
res	-9.55717
kaup	-9.55888
isella	-9.55969
▁carl	-9.56009
ikä	-9.56029
▁joki	-9.56033
pp	-9.56065
▁1983	-9.56085
▁vali	-9.5609
huone	-9.56094
▁kulkee	-9.56111
neita	-9.56349
▁sovi	-9.56359
mieli	-9.56372
ban	-9.56375
▁runsaasti	-9.56385
▁puolustus	-9.56409
tsi	-9.56537
▁za	-9.5655
▁1975	-9.56552
▁espanjan	-9.56561
▁tähti	-9.56564
а	-9.56669
▁star	-9.5668
▁yhtiön	-9.56691
▁halu	-9.56739
▁pre	-9.56801
▁ranska	-9.5684
▁ag	-9.56856
▁korva	-9.56881
osasto	-9.56891
▁molemmat	-9.56905
▁rä	-9.56945
▁yhdisty	-9.56987
▁saksa	-9.57007
▁näytelmä	-9.57009
▁1968	-9.57035
▁henki	-9.57088
▁järjestä	-9.57109
oni	-9.57135
pro	-9.57185
▁min	-9.57208
▁26.	-9.57272
▁lyhyt	-9.57303
▁laivaston	-9.57319
▁olo	-9.57375
▁liian	-9.57379
▁lapsi	-9.57428
▁16.	-9.57474
utti	-9.57532
kov	-9.57584
▁verran	-9.57605
▁kunnia	-9.57685
▁suunnittelu	-9.57742
▁päivän	-9.57775
▁yhdeksän	-9.57837
▁euro	-9.57843
▁kuiva	-9.57879
▁etsi	-9.57925
tieteen	-9.57933
▁teo	-9.57933
vista	-9.57979
▁tehoilla	-9.58008
yhtye	-9.58072
▁tunnus	-9.58074
ppe	-9.58182
▁kirjasto	-9.58214
vy	-9.5822
▁laivasto	-9.58313
47	-9.58345
▁27.	-9.58415
▁kova	-9.58507
halli	-9.58528
ero	-9.58554
▁väi	-9.58678
▁paikalle	-9.58726
tsu	-9.58732
▁ah	-9.58776
▁matti	-9.58959
saaren	-9.58974
▁iii	-9.59024
▁kasva	-9.5919
ion	-9.5923
▁hauta	-9.59414
▁peru	-9.5942
▁main	-9.59496
▁1980	-9.5955
▁1978	-9.59612
▁juutalais	-9.59641
▁tytär	-9.5979
▁1976	-9.59811
▁suosi	-9.59904
▁valmis	-9.59924
kone	-9.59924
▁historian	-9.59987
▁24.	-9.60115
▁neljän	-9.60177
▁ruo	-9.60187
▁edusta	-9.60208
▁vuosittain	-9.60307
-19	-9.60324
56	-9.60362
▁z	-9.60374
▁tapahtui	-9.60376
▁nuorten	-9.60413
ers	-9.60462
▁puolella	-9.60548
▁poliittis	-9.60567
ira	-9.60658
ras	-9.60666
nu	-9.60676
▁29.	-9.60695
tes	-9.6073
ya	-9.60747
▁äiti	-9.60754
▁aikaisemmin	-9.60763
▁suunnitteli	-9.60829
sky	-9.60867
▁1974	-9.60868
▁saatiin	-9.60894
essään	-9.60978
▁luku	-9.60979
▁tausta	-9.61007
tse	-9.61069
tynyt	-9.61078
▁elin	-9.61123
▁temppeli	-9.61158
uksista	-9.61165
▁30.	-9.6121
▁sir	-9.61224
taso	-9.61256
ring	-9.61273
▁ollessa	-9.61367
▁siis	-9.61438
▁paikka	-9.6157
▁james	-9.61571
kappale	-9.61577
kesk	-9.61582
▁sar	-9.61587
▁david	-9.616
▁yrittä	-9.61623
▁eläin	-9.61623
llisten	-9.61657
kuntaan	-9.61692
▁istu	-9.61712
▁tan	-9.61713
▁george	-9.61758
▁toisaalta	-9.61772
▁21	-9.61805
laulu	-9.61809
kis	-9.61825
▁ruoka	-9.61839
42	-9.61842
▁tekemä	-9.61847
kulttuuri	-9.61922
▁1982	-9.61958
▁vuoro	-9.61977
yri	-9.61981
▁ulkonäkö	-9.61986
▁1973	-9.61995
▁teos	-9.62002
▁kuninkaan	-9.62012
ole	-9.62061
▁niissä	-9.62159
▁ly	-9.62163
35	-9.62185
▁er	-9.6219
kk	-9.62222
▁halli	-9.62249
▁puisto	-9.62254
▁maassa	-9.62255
kisoissa	-9.62331
vaihe	-9.62373
sonin	-9.62383
▁sano	-9.62417
vuotias	-9.62442
▁24	-9.62467
▁mitään	-9.62517
70	-9.6253
–2	-9.62567
ttänyt	-9.62591
▁risti	-9.626
▁ensimmäisessä	-9.62631
▁1971	-9.62666
▁ny	-9.62709
oksi	-9.62713
65	-9.62755
▁gal	-9.62781
▁1977	-9.62871
▁sii	-9.62894
▁ac	-9.62904
▁hyväksy	-9.62911
▁pah	-9.63007
ret	-9.63047
▁laskee	-9.6305
sko	-9.63055
ei	-9.63142
▁musiikin	-9.6318
▁näistä	-9.63181
▁del	-9.63183
alla	-9.6322
ros	-9.63245
gel	-9.63249
tš	-9.63263
tteja	-9.63548
▁syvä	-9.63598
mpaa	-9.63674
▁1960	-9.63688
von	-9.63717
▁vol	-9.63734
ketju	-9.63865
laitos	-9.63904
▁johtaa	-9.63933
ius	-9.63972
▁pienen	-9.64018
sel	-9.64027
▁solmi	-9.64132
▁ser	-9.64177
▁ensimmäisellä	-9.64208
▁tilalle	-9.64316
▁nimeltä	-9.64411
▁puheenjohtajana	-9.64442
misestä	-9.6448
kit	-9.64541
des	-9.64559
▁varsinkin	-9.6458
▁1967	-9.64616
▁ongelma	-9.64658
▁yllä	-9.64684
▁koulutus	-9.64739
isa	-9.64854
▁1930-	-9.64902
▁pur	-9.64943
▁historiaa	-9.64994
▁perustuu	-9.64996
▁euroopassa	-9.65073
kuntien	-9.65138
uksessa	-9.65139
▁siir	-9.65185
▁pyhä	-9.65292
nie	-9.65302
ttivat	-9.65327
▁yle	-9.65335
maali	-9.65375
om	-9.65425
män	-9.65438
moni	-9.65538
▁silmä	-9.65576
dd	-9.65589
▁hir	-9.65715
▁pommi	-9.65716
bin	-9.6579
▁19	-9.65842
isessa	-9.65888
▁lasta	-9.65981
90	-9.66005
jän	-9.66028
▁peter	-9.66037
▁filosofian	-9.66159
▁1917	-9.66183
▁tietokone	-9.66219
▁kunta	-9.66221
46	-9.66261
▁vähän	-9.6632
▁itsensä	-9.66327
▁eniten	-9.66345
ep	-9.66352
lie	-9.66354
▁tuomio	-9.66469
85	-9.66516
▁normaali	-9.66605
▁muinais	-9.66662
iki	-9.66685
▁can	-9.66727
kyl	-9.66736
▁huomattavasti	-9.66784
▁ottaa	-9.66786
▁vaimo	-9.66791
▁säveltäjä	-9.66831
52	-9.66835
▁pääosin	-9.66861
vaunu	-9.67004
▁ir	-9.67031
57	-9.67037
▁kiinan	-9.6705
▁väl	-9.67064
▁17.	-9.67122
ine	-9.67122
▁1964	-9.67124
▁jakso	-9.67157
▁kierroksella	-9.67198
▁palvelus	-9.67273
▁piispaksi	-9.67288
lliset	-9.67293
▁meren	-9.67294
chin	-9.6733
hti	-9.67345
▁omaa	-9.67407
▁mie	-9.67484
▁media	-9.67493
54	-9.67514
43	-9.67546
▁york	-9.67558
ttämään	-9.6761
45	-9.67666
▁ooppera	-9.67697
▁saksalais	-9.677
teeseen	-9.67751
qui	-9.67765
tal	-9.67818
pen	-9.67874
tävä	-9.67886
▁olemassa	-9.67933
▁heimo	-9.68089
▁erä	-9.68095
kia	-9.68123
ttuaan	-9.68142
▁william	-9.68169
▁1966	-9.68184
con	-9.68223
–1	-9.68277
tua	-9.68361
▁toimivat	-9.68375
▁siksi	-9.68421
▁erityis	-9.6845
21	-9.68464
▁talvi	-9.68622
▁elää	-9.68637
▁suurempi	-9.68645
▁2000-	-9.68662
miä	-9.6867
49	-9.68726
bergin	-9.68783
▁lintu	-9.68795
loi	-9.68818
▁johtajana	-9.6886
▁karl	-9.68883
▁elinympäristö	-9.68912
▁suomalaisen	-9.6905
oon	-9.69053
41	-9.69116
vuotia	-9.69135
ive	-9.6914
▁herä	-9.6916
▁tavalla	-9.69199
▁soitti	-9.69207
poja	-9.69351
▁myytiin	-9.69384
▁työväen	-9.6949
58	-9.6953
▁opettaja	-9.69551
▁je	-9.69613
▁kylän	-9.69616
▁pel	-9.69644
▁vanhan	-9.69662
▁1969	-9.69676
▁liitettiin	-9.69715
▁fre	-9.69745
▁neli	-9.69822
ttele	-9.69882
▁ak	-9.6991
▁laiva	-9.69923
▁pil	-9.6997
isissa	-9.7
etaan	-9.70044
cha	-9.70072
gar	-9.70142
▁muista	-9.7029
▁gar	-9.70293
▁1981	-9.70358
dal	-9.7038
▁(20	-9.70414
▁huippu	-9.70419
oppi	-9.70469
ologia	-9.70521
▁naimisiin	-9.7054
▁kerto	-9.70592
▁valtakunnan	-9.70669
tis	-9.70708
▁asunto	-9.7071
▁mark	-9.70796
▁los	-9.70801
mestaruuden	-9.70819
▁ruotsissa	-9.70844
osissa	-9.70859
vuo	-9.70864
▁hau	-9.70876
▁1919	-9.70898
poika	-9.70919
▁japanin	-9.70979
▁varus	-9.70984
▁len	-9.71008
mässä	-9.71072
▁erosi	-9.71084
▁lopetta	-9.71106
jev	-9.71165
▁arkkitehti	-9.71174
96	-9.71301
▁pidä	-9.71317
▁toimitusjohtaja	-9.71321
▁18.	-9.71337
aasi	-9.71348
ruu	-9.71435
▁joukot	-9.71455
mmaksi	-9.71475
ttyä	-9.71489
▁ihmisten	-9.71573
kosken	-9.71669
▁rata	-9.71702
▁käytännössä	-9.7172
▁rai	-9.71781
▁kam	-9.71808
▁1942	-9.7187
▁ze	-9.71897
meri	-9.71903
eltä	-9.71915
▁kär	-9.72014
▁keskustelu	-9.72063
lat	-9.72134
▁ulos	-9.72138
▁saattoi	-9.72139
▁lentokone	-9.72156
▁tarkoituksena	-9.72234
48	-9.72248
vuus	-9.72268
▁aiheuttaa	-9.7227
▁vaikutus	-9.72288
alta	-9.72344
▁päässä	-9.72363
▁ruotsi	-9.72404
▁keksi	-9.72451
▁mil	-9.72467
▁1965	-9.72513
ettiin	-9.72535
▁michael	-9.72603
▁näytteli	-9.72623
etta	-9.72662
museo	-9.72675
isuutta	-9.72684
▁vallan	-9.72765
lassa	-9.72776
kauppa	-9.72854
▁cupin	-9.72915
51	-9.72915
▁1948	-9.72933
▁maailmanmestar	-9.72939
9	-9.72947
▁tom	-9.72961
eille	-9.72987
▁taistelussa	-9.73053
▁nor	-9.73087
ford	-9.73097
▁martin	-9.73107
▁peräisin	-9.73166
ensä	-9.73178
haa	-9.73216
▁saira	-9.73275
▁rauha	-9.73276
▁yhteisö	-9.73294
koulun	-9.73304
▁1956	-9.73324
llin	-9.73339
▁neuvo	-9.73342
bert	-9.73363
▁nou	-9.73367
ph	-9.73405
▁lähetti	-9.73443
▁pri	-9.73499
64	-9.73504
▁hor	-9.73628
▁valmistus	-9.73647
veden	-9.73665
▁edustaja	-9.73673
▁tosin	-9.73753
▁britannian	-9.73757
▁sinne	-9.73774
▁talon	-9.73845
▁sin	-9.73851
▁pop	-9.73868
▁seuraava	-9.73892
▁1946	-9.73927
▁usea	-9.73954
▁lukuun	-9.73964
▁päätty	-9.74026
joh	-9.7408
kansa	-9.74091
vara	-9.74158
▁chi	-9.74197
▁ex	-9.74231
▁ykkös	-9.74233
▁puh	-9.74284
▁joulu	-9.74437
▁toimintaa	-9.74443
▁uudis	-9.74447
bor	-9.74528
alle	-9.74533
muodo	-9.74536
ula	-9.7458
▁dia	-9.74584
kaupunki	-9.74635
palkinto	-9.74654
▁mac	-9.7467
▁nousu	-9.74712
▁1952	-9.74733
rus	-9.74791
▁sijaitsevat	-9.74793
▁1963	-9.7483
▁col	-9.7484
88	-9.74846
▁yhteistyö	-9.7494
säätiö	-9.75038
iselle	-9.75049
▁halusi	-9.75082
ngin	-9.75085
ved	-9.75086
▁yritti	-9.7511
▁tuleva	-9.75117
▁yleisesti	-9.75122
▁energia	-9.75132
53	-9.75158
▁lain	-9.75181
asi	-9.75193
▁city	-9.7528
98	-9.75344
94	-9.75409
isessä	-9.75453
kla	-9.75525
udu	-9.75546
alueeseen	-9.75569
▁suunnitelma	-9.75587
▁heitä	-9.75599
▁korja	-9.75609
lento	-9.75618
mys	-9.75686
▁samoin	-9.75735
mitali	-9.7577
▁world	-9.75773
▁muuttu	-9.75818
▁sisällä	-9.75824
maatti	-9.75838
▁hevos	-9.75841
yksi	-9.75857
ija	-9.75887
reita	-9.759
о	-9.75905
alisti	-9.75914
▁voitto	-9.75927
▁koostuu	-9.76015
▁saha	-9.76019
29	-9.76035
▁nimeä	-9.76061
▁väestö	-9.76066
kau	-9.761
99	-9.76101
▁22	-9.76171
▁talli	-9.7619
▁tekee	-9.76201
▁varsin	-9.76203
jää	-9.7624
▁pelto	-9.76253
▁rantaviivan	-9.76279
▁aalto	-9.76282
▁kapina	-9.76285
miehen	-9.76304
▁paine	-9.76306
uma	-9.76338
▁sun	-9.76343
matta	-9.76369
tuksesta	-9.76375
vis	-9.76378
▁ottamatta	-9.7639
tettava	-9.76457
и	-9.76478
org	-9.76537
uuteen	-9.76554
▁joukkueessa	-9.76667
▁viittaa	-9.76733
▁kerro	-9.76806
▁sisar	-9.76828
tyi	-9.76831
▁80	-9.76843
▁heidät	-9.76844
▁sijoittu	-9.76861
tyä	-9.76871
▁materiaali	-9.76889
▁1943	-9.76919
▁pysy	-9.76955
▁ur	-9.76992
usten	-9.76997
▁1950	-9.77048
mas	-9.77099
kir	-9.77148
▁1958	-9.77172
vuotiaiden	-9.77233
sp	-9.77249
mestari	-9.77259
▁ystävä	-9.77284
▁kohtaan	-9.77316
fin	-9.7737
ilma	-9.77375
▁kri	-9.77378
ppo	-9.77413
yde	-9.77494
vuotis	-9.77544
▁pudo	-9.77591
▁koro	-9.77596
▁alkuperä	-9.77616
paa	-9.77634
lee	-9.77645
▁kuuluva	-9.77656
stein	-9.77676
▁maantietoa	-9.77708
▁eräs	-9.77782
fl	-9.77845
▁1938	-9.77849
▁toiminnan	-9.77857
▁lajin	-9.77903
▁löydetty	-9.77945
puolelta	-9.77982
▁ehkä	-9.77982
nus	-9.77983
▁kokoelma	-9.77985
tukset	-9.77989
kal	-9.7807
albumi	-9.7813
vaara	-9.7814
▁studio	-9.78173
▁ek	-9.78179
(	-9.78236
suomen	-9.78337
ow	-9.7835
ssin	-9.78367
▁toisessa	-9.78404
▁fc	-9.78417
▁mahdollisesti	-9.78443
▁1957	-9.785
▁vihittiin	-9.78544
nit	-9.78569
▁bal	-9.78588
24	-9.78598
isku	-9.78602
happo	-9.78621
olle	-9.78662
▁yrityksen	-9.78666
isto	-9.78683
vuori	-9.78764
for	-9.78787
esin	-9.78789
lah	-9.788
▁avaruus	-9.78866
75	-9.78886
tettua	-9.78889
▁pela	-9.78911
97	-9.78912
▁ehdot	-9.78971
▁1920	-9.7899
▁kuukauden	-9.79023
yhtiön	-9.79045
▁avo	-9.79061
,8	-9.79071
▁perä	-9.79082
ettu	-9.79135
▁toimittaja	-9.79136
▁vih	-9.79148
▁mukaisesti	-9.79235
▁teoria	-9.79284
logi	-9.79325
▁vastusta	-9.79325
▁itselleen	-9.7939
iv	-9.7942
▁edes	-9.79428
au	-9.79516
mal	-9.79539
oita	-9.79545
▁kokoonpano	-9.79545
▁paikalla	-9.79593
tek	-9.79619
ica	-9.79636
▁kreikkalais	-9.79637
ää	-9.79689
ryhmän	-9.79697
▁uutis	-9.79738
sal	-9.79739
,7	-9.79742
anin	-9.7975
▁ylioppilaaksi	-9.79786
eihin	-9.79808
▁red	-9.79836
kivi	-9.79884
▁1962	-9.79889
▁ohi	-9.79905
ssään	-9.79918
ovin	-9.7994
▁she	-9.7997
▁muutaman	-9.80053
▁kaasu	-9.80061
sopimukse	-9.8007
86	-9.80227
luu	-9.80251
▁muisto	-9.80299
▁seuraavan	-9.80378
alainen	-9.80401
hoito	-9.80454
uksiin	-9.80454
▁ruu	-9.80457
▁vastaava	-9.80541
änsä	-9.8055
por	-9.80613
utunut	-9.80632
misessa	-9.80658
▁kilpailun	-9.80662
▁kieltä	-9.8069
pla	-9.80744
▁perheen	-9.80755
▁aikuis	-9.80757
burg	-9.80779
lliseen	-9.80855
▁ohjelma	-9.80857
▁kul	-9.80876
▁lehto	-9.80876
▁koulun	-9.80896
▁pistettä	-9.80925
kiin	-9.80982
27	-9.80985
▁august	-9.80993
ds	-9.80996
▁jean	-9.81036
▁suosio	-9.81037
▁cla	-9.81107
risti	-9.81167
▁ranskassa	-9.81184
66	-9.81188
kasvi	-9.81193
▁1936	-9.81226
▁kuvi	-9.81234
▁nopea	-9.81256
työn	-9.81258
jon	-9.81285
22	-9.81312
▁pronssi	-9.8132
jista	-9.81375
▁1937	-9.81402
utuu	-9.81407
▁vastuu	-9.81466
▁sarjassa	-9.8147
▁venäläis	-9.81488
▁lukio	-9.81517
ttaessa	-9.81522
▁suuria	-9.81538
▁euroa	-9.8155
▁kas	-9.81579
▁pir	-9.81596
tavan	-9.81616
ttävät	-9.81674
72	-9.81734
▁maata	-9.81767
▁23	-9.81774
itu	-9.81775
veli	-9.8179
▁tavallisesti	-9.81804
▁hovi	-9.81816
▁black	-9.81819
▁ollen	-9.81845
▁1947	-9.81882
bra	-9.81941
▁ilmasto	-9.81942
76	-9.81943
▁laaj	-9.81962
▁löytä	-9.82011
▁järjestö	-9.82013
puisto	-9.82018
onia	-9.82066
▁lähtö	-9.821
hard	-9.82112
▁äitinsä	-9.82112
▁wal	-9.82173
▁kohta	-9.82189
yksen	-9.82286
▁valitsi	-9.82304
▁tunnetu	-9.82311
▁kuuden	-9.82325
poli	-9.82328
▁pitkin	-9.82406
▁ahl	-9.82434
▁nimettiin	-9.82437
▁varrella	-9.82479
▁lämpötila	-9.82583
▁samassa	-9.82591
▁1954	-9.82593
▁myynti	-9.82737
taistelu	-9.82744
kei	-9.8275
mur	-9.82773
järjestelmän	-9.82827
▁matala	-9.82907
▁600	-9.82926
▁toimiva	-9.82955
kala	-9.8299
tystä	-9.82995
pari	-9.83009
▁toiseen	-9.83074
avan	-9.83081
▁tulisi	-9.83101
toiminta	-9.8314
zz	-9.8316
dor	-9.83165
tilan	-9.83199
▁teollisuus	-9.83258
▁kolmannen	-9.83266
ohj	-9.8327
▁neuvostoliitto	-9.83287
ministeri	-9.83291
▁kemi	-9.83333
▁suori	-9.83338
▁eroa	-9.83346
▁vaihe	-9.83465
▁verkko	-9.83472
ör	-9.83548
vir	-9.83564
▁kaiken	-9.83567
eurooppa	-9.83592
▁aivo	-9.83657
tro	-9.83662
ttama	-9.83685
lau	-9.8372
kilpailussa	-9.83744
-1	-9.83753
mit	-9.83802
▁perustuva	-9.83835
ft	-9.83839
▁ääne	-9.83841
▁poikansa	-9.83864
uka	-9.83899
▁war	-9.8392
▁av	-9.8392
tiivis	-9.83928
saare	-9.83951
▁mel	-9.83973
▁teoksen	-9.84011
▁1955	-9.84011
▁vedenpinnan	-9.84059
sio	-9.84095
▁isku	-9.8418
dro	-9.84199
liike	-9.84258
naan	-9.84276
▁vaikuttaa	-9.84277
▁jäsenet	-9.84305
–20	-9.84338
▁jäl	-9.84373
▁amerikkalais	-9.84384
jö	-9.84407
▁mestari	-9.84439
▁sanottu	-9.84443
▁150	-9.84467
iitti	-9.84492
▁muuttui	-9.84501
▁nimeltään	-9.84525
▁osaksi	-9.84552
▁kutsu	-9.84576
▁para	-9.84588
▁paluu	-9.8463
▁anta	-9.84646
▁juhla	-9.84646
kari	-9.84661
▁osasto	-9.84668
lahti	-9.84669
▁mäki	-9.84678
▁charles	-9.84738
ohjelma	-9.84756
▁termi	-9.84759
▁pidetty	-9.84777
▁vene	-9.84792
▁näitä	-9.84808
kkaan	-9.84829
stra	-9.84874
▁richard	-9.84898
seksi	-9.8496
jät	-9.84966
▁air	-9.85033
▁trans	-9.8505
▁tapaan	-9.85058
28	-9.85071
▁puoliso	-9.85114
rei	-9.85163
78	-9.85192
cher	-9.85296
▁italia	-9.85325
▁alkoholi	-9.85354
▁ydin	-9.85362
▁jälki	-9.85373
tos	-9.85394
can	-9.85413
lk	-9.85485
tukseen	-9.85509
▁vas	-9.8554
▁kommunisti	-9.85566
kielinen	-9.85569
liigan	-9.85579
▁toisella	-9.85602
cen	-9.85607
▁kulu	-9.85657
bar	-9.85659
est	-9.85689
▁pekka	-9.85765
▁sol	-9.85784
ovi	-9.85823
laitoksen	-9.85919
bri	-9.85935
mitta	-9.8594
keskuksen	-9.85953
▁osittain	-9.85988
shi	-9.86054
87	-9.8606
paino	-9.86093
▁menetti	-9.86115
▁puola	-9.86137
38	-9.86152
käyttö	-9.86227
▁frank	-9.86235
▁aurinko	-9.86276
▁palvelukseen	-9.86298
▁vietti	-9.86336
▁esiintynyt	-9.86356
▁läänin	-9.86368
▁roman	-9.86397
historia	-9.86429
▁1953	-9.86451
▁mas	-9.86455
▁vuoristo	-9.86456
▁1949	-9.8647
teo	-9.86583
ak	-9.8663
eläimi	-9.86632
jäsen	-9.867
▁keho	-9.86747
ms	-9.86755
▁teko	-9.86774
▁operaatio	-9.86798
▁voittanut	-9.86804
67	-9.86807
▁terveys	-9.86822
▁tiedon	-9.86877
▁kartan	-9.86893
31	-9.86911
▁saatu	-9.86962
▁rooman	-9.87056
▁arabi	-9.87079
▁aivan	-9.87143
▁henrik	-9.87162
▁mag	-9.87175
▁kymmen	-9.87179
putki	-9.87181
well	-9.8721
▁liha	-9.87238
▁pieniä	-9.87256
▁tohtori	-9.87266
▁mikro	-9.87318
▁nuor	-9.87319
▁eteni	-9.87326
▁paina	-9.87332
henkilö	-9.87336
▁q	-9.87395
eista	-9.87422
pallo	-9.87502
▁sieltä	-9.87534
▁1961	-9.87566
silla	-9.87654
▁lopetti	-9.8766
▁tehdy	-9.87731
▁puolesta	-9.87746
tieto	-9.87749
▁com	-9.87772
▁ratkaisu	-9.87806
▁suosittu	-9.87807
ismin	-9.87938
lund	-9.88031
▁näyttely	-9.88051
tutkinnon	-9.88092
▁antiikin	-9.88147
not	-9.88175
▁koho	-9.88269
▁sopimuksella	-9.88271
68	-9.88274
▁nuoriso	-9.88323
26	-9.88325
▁vuodessa	-9.88334
▁grand	-9.88336
23	-9.88357
▁pika	-9.88378
luvulle	-9.88392
isista	-9.88401
mestaruus	-9.88427
kasta	-9.88433
nor	-9.88442
▁vuokra	-9.88493
nik	-9.885
villa	-9.88541
tuotanto	-9.88598
ukka	-9.88607
▁asutus	-9.88614
▁nykyinen	-9.88649
37	-9.8874
kuo	-9.88763
▁puolusta	-9.8877
▁ilme	-9.88845
ttamalla	-9.88877
way	-9.88908
▁muodo	-9.88919
77	-9.88949
▁itsenäis	-9.8896
▁800	-9.8896
vil	-9.88978
▁joukossa	-9.89058
▁johtava	-9.89087
▁aamu	-9.89142
▁tekemi	-9.8918
▁maatalous	-9.89211
▁poly	-9.89247
▁jonne	-9.8925
▁inter	-9.89256
neeseen	-9.89265
▁voisi	-9.8929
ple	-9.8931
otto	-9.89318
karjala	-9.8934
ill	-9.89378
tha	-9.8938
84	-9.89382
väri	-9.89416
,4	-9.89421
▁tyttö	-9.89478
uutensa	-9.89522
kirjoit	-9.89528
▁lukuisia	-9.89628
otti	-9.8964
▁jatkui	-9.89647
71	-9.89727
▁orkesteri	-9.89777
ec	-9.89781
▁ilmeisesti	-9.89821
▁vesistössä	-9.89821
-20	-9.89916
▁omistaja	-9.89964
74	-9.90002
▁odo	-9.9001
▁70	-9.90023
vuoren	-9.90034
sor	-9.90048
▁asuu	-9.9007
▁ryhtyi	-9.90098
opin	-9.9011
▁1959	-9.9013
suhtei	-9.9019
ttelee	-9.90212
▁erityisen	-9.90221
▁uskonnollis	-9.90237
▁suurimman	-9.90239
▁tunnettiin	-9.90265
piir	-9.90299
▁seuraaja	-9.90314
▁solu	-9.90331
34	-9.9037
▁dra	-9.90412
▁miehen	-9.90511
▁vaikutti	-9.90524
▁lammen	-9.90562
62	-9.90604
tutkimukse	-9.90614
vallan	-9.90643
▁27	-9.90674
cia	-9.90706
kur	-9.90709
▁kohtaa	-9.90727
milla	-9.90779
käy	-9.90784
▁organisaatio	-9.9079
▁aikoihin	-9.90796
▁ohjaaja	-9.90805
▁tuke	-9.90821
▁arvioi	-9.90881
▁ihmiset	-9.90909
▁1700-	-9.90961
solu	-9.90972
▁toisin	-9.91014
▁vetä	-9.91095
▁esittää	-9.91149
▁tau	-9.91167
▁art	-9.91241
▁parhaiten	-9.91244
▁muutettiin	-9.91263
▁1930	-9.9135
cin	-9.91381
▁vuori	-9.91397
36	-9.91412
▁paikan	-9.91418
▁useissa	-9.91437
▁1921	-9.91494
▁kulku	-9.91498
▁venäjällä	-9.91505
с	-9.91559
oista	-9.91591
,2	-9.91646
▁1951	-9.91669
uu	-9.91691
▁jär	-9.9172
▁edellis	-9.9173
uru	-9.91759
▁kos	-9.91777
keä	-9.91782
,6	-9.918
▁1933	-9.91824
nee	-9.91839
▁tapaa	-9.91842
▁mikäli	-9.91851
▁edustaa	-9.91853
reiden	-9.92041
yyli	-9.92055
▁mistä	-9.92057
▁säännö	-9.92114
saksa	-9.92161
?	-9.92209
▁ihmistä	-9.92213
▁lehden	-9.92245
▁posti	-9.92264
▁lasku	-9.92274
teatteri	-9.92291
▁jäsenenä	-9.92313
▁tarkoitettu	-9.92339
▁ohja	-9.92381
▁leh	-9.92398
mpana	-9.92438
▁jazz	-9.92452
▁siemen	-9.92497
▁31.	-9.92499
cy	-9.92505
▁norjan	-9.92511
▁jakoi	-9.92532
elokuvi	-9.9256
▁myi	-9.92593
▁ci	-9.92611
▁1935	-9.92613
maton	-9.92636
▁(1	-9.92674
toimisto	-9.92683
sivu	-9.92694
▁laaje	-9.92706
79	-9.92722
▁louis	-9.92723
yt	-9.9277
▁bri	-9.92795
▁jotkut	-9.92801
▁sisällissodan	-9.9284
ning	-9.92845
▁laakso	-9.92864
▁vahva	-9.92869
▁don	-9.92925
torni	-9.92944
▁kilpaili	-9.92984
▁1928	-9.92986
▁onnistu	-9.92994
▁sc	-9.93066
▁sijalle	-9.93096
katu	-9.93114
koi	-9.93115
metri	-9.93183
miehenä	-9.93186
yttä	-9.93188
asti	-9.93236
emmin	-9.93312
▁erään	-9.93328
yksiä	-9.93344
▁viron	-9.93406
win	-9.93413
ang	-9.93488
uli	-9.93534
▁kuun	-9.93543
▁yhdysvallat	-9.93555
▁rahoi	-9.93578
▁mielestä	-9.9359
▁dollaria	-9.93611
▁hopeaa	-9.93614
▁ikä	-9.93633
▁paperi	-9.93634
▁kla	-9.93665
▁lääkäri	-9.93729
▁aiheutti	-9.93753
koira	-9.93767
merkin	-9.93807
lain	-9.93869
isestä	-9.93878
yö	-9.9389
32	-9.93904
▁asukasta	-9.93921
▁lahden	-9.93965
mann	-9.93975
▁entisen	-9.94066
▁sairaala	-9.94096
luvuilla	-9.9412
sessa	-9.94131
koski	-9.94164
▁tro	-9.94201
▁selkä	-9.94266
▁lyö	-9.94329
▁tietoa	-9.94335
▁antti	-9.94354
istaan	-9.94357
▁ulkopuolella	-9.94369
enä	-9.94376
▁1927	-9.94383
▁vaikutta	-9.94385
ii	-9.94389
tunte	-9.94416
▁tien	-9.94435
▁viimeisen	-9.94479
▁laula	-9.9448
▁1931	-9.94524
▁bel	-9.94575
▁gran	-9.94589
▁tuote	-9.94592
%	-9.94661
▁internet	-9.94683
arin	-9.94744
▁saksalainen	-9.94745
▁bru	-9.94794
▁mpy	-9.94807
▁muodostaa	-9.94842
▁tuomi	-9.94862
liikkeen	-9.94935
▁yhdysvaltojen	-9.94939
▁puolustaja	-9.94942
▁luostari	-9.95069
▁juniori	-9.9507
▁kansainvälis	-9.95095
▁thomas	-9.95101
▁selvästi	-9.95157
ilija	-9.95158
▁lapsen	-9.95159
tom	-9.95175
▁tuottaja	-9.95231
▁koski	-9.95286
▁hall	-9.9529
▁vesistösuhte	-9.95298
▁veli	-9.95309
▁välissä	-9.95318
▁saavu	-9.95327
▁1934	-9.95351
liito	-9.95354
kär	-9.9538
asu	-9.95381
82	-9.95384
▁eläkkeelle	-9.95387
kilpailu	-9.95399
▁heikki	-9.95404
▁1924	-9.95413
▁paran	-9.95415
▁kartano	-9.95431
ttö	-9.95457
▁pappi	-9.95463
л	-9.95465
▁valmista	-9.95608
ttivät	-9.95645
ite	-9.95673
▁yksin	-9.95699
63	-9.95703
rik	-9.95715
teita	-9.9572
▁sopimus	-9.95726
▁tekijä	-9.95736
▁toimintansa	-9.95747
▁liiton	-9.95755
▁tasavallan	-9.95764
▁johannes	-9.95789
muksen	-9.95843
▁jääkäri	-9.95884
▁bor	-9.95892
kaise	-9.95914
mina	-9.95914
virta	-9.95927
▁1926	-9.95982
▁vastasi	-9.96064
н	-9.96201
▁1920-	-9.96219
▁kehitti	-9.96265
▁mukaansa	-9.96272
2.	-9.96368
▁hoito	-9.96392
▁tekemään	-9.96398
hal	-9.96408
mpänä	-9.96469
69	-9.96494
▁saadaan	-9.96503
king	-9.96533
▁jatkaa	-9.96548
▁sopiva	-9.96564
▁miten	-9.96575
▁smith	-9.96576
▁kysy	-9.9661
tuksi	-9.96634
▁kylässä	-9.9666
tämä	-9.96712
,3	-9.96733
▁sille	-9.96778
▁1932	-9.96802
iso	-9.96806
▁maasto	-9.96825
▁kuuluivat	-9.96839
lasku	-9.96847
▁sisään	-9.9685
raa	-9.96853
▁kisa	-9.96865
häiriö	-9.96885
▁vaimonsa	-9.96895
mun	-9.96903
tuksessa	-9.96921
▁tumma	-9.96931
▁perustivat	-9.96959
tehdas	-9.96985
▁seurakunta	-9.96999
▁keino	-9.97014
73	-9.97019
▁cas	-9.97031
▁kaupunkiin	-9.97048
▁heiko	-9.9707
los	-9.97081
▁yl	-9.97093
eg	-9.97098
▁liiga	-9.97136
ima	-9.97156
▁aikojen	-9.97193
lly	-9.97217
▁ana	-9.97301
lit	-9.97359
59	-9.97369
joita	-9.97372
▁paavi	-9.9738
kissa	-9.97388
▁hallitsija	-9.97392
▁kra	-9.97404
tyn	-9.97505
▁koillis	-9.97551
▁sini	-9.97551
–3	-9.97576
eh	-9.97601
▁maksa	-9.97608
▁kiina	-9.97662
ney	-9.97748
▁1925	-9.97757
▁vuodet	-9.97784
33	-9.97799
▁š	-9.97814
▁tre	-9.97822
teja	-9.97869
▁salo	-9.97875
▁muissa	-9.97881
▁om	-9.97881
▁venäjä	-9.97892
nis	-9.97897
▁kulje	-9.979
▁papiksi	-9.9792
form	-9.97925
▁tarkka	-9.97926
▁ya	-9.97937
oissa	-9.9795
▁vastaanotto	-9.97972
▁merkitys	-9.97984
▁ns	-9.98005
▁viipurin	-9.98041
lus	-9.98057
vahv	-9.98095
adi	-9.98114
▁saattue	-9.98124
▁inno	-9.98247
▁muihin	-9.98285
83	-9.98304
vesistöaluetunnu	-9.98308
▁kreikan	-9.98317
▁puolivälissä	-9.98371
▁panssari	-9.98379
gor	-9.98396
▁joseph	-9.98413
velje	-9.98421
▁cal	-9.98423
▁is	-9.98431
▁kirjoittama	-9.98461
▁rikos	-9.98469
81	-9.98478
opi	-9.98487
▁tör	-9.98515
▁kultaa	-9.98547
▁muodosta	-9.98568
▁vanhin	-9.98575
▁pääkaupunki	-9.98618
ranta	-9.98659
▁voiton	-9.98662
▁dan	-9.98711
▁palkinto	-9.98715
▁kärki	-9.98738
▁1922	-9.98756
vamma	-9.98834
▁pet	-9.98883
▁tehot	-9.98898
▁torni	-9.98908
amaan	-9.98919
▁poistettiin	-9.98929
eva	-9.98945
▁gp	-9.98966
sija	-9.9902
tyksiä	-9.99035
kautensa	-9.99053
▁tunnetuksi	-9.99055
▁säilynyt	-9.99056
yhdistys	-9.99079
cal	-9.99079
virasto	-9.99097
runkosarjaottelu	-9.99137
▁joihin	-9.9917
▁musiikkia	-9.99182
▁gri	-9.99207
▁liittyy	-9.99211
▁kahteen	-9.99213
▁projekti	-9.99248
▁sie	-9.9929
▁vaara	-9.99304
▁laati	-9.99314
▁virta	-9.99322
▁tavoitteena	-9.99349
▁fra	-9.99407
▁jun	-9.9941
▁sur	-9.99458
▁kauko	-9.99505
ym	-9.99519
kyvy	-9.99528
▁kirjoittanut	-9.99549
off	-9.99619
č	-9.99654
▁ihmisiä	-9.99711
▁maajoukkue	-9.99718
nimisen	-9.99725
ivät	-9.99736
▁kaarle	-9.99761
numero	-9.99797
▁teoksia	-9.99809
akatemian	-9.99825
▁peruste	-9.99829
▁nime	-9.99829
liikku	-9.99835
▁albert	-9.99866
kerho	-9.99899
▁täyden	-9.99964
▁ruotsalais	-9.99965
▁formula	-9.99975
stro	-9.99985
teollisuuden	-9.99988
dyn	-9.99991
▁päivi	-10
▁erilaisi	-10.0005
▁kutsuttiin	-10.0009
▁suojel	-10.0011
▁kro	-10.0013
▁seinä	-10.0013
▁saaria	-10.0016
55	-10.0017
dä	-10.0018
ev	-10.0021
▁rannikko	-10.0021
▁rap	-10.0023
vasti	-10.0023
▁palaa	-10.0023
nnasta	-10.0026
▁ilmesty	-10.0029
▁pesä	-10.003
uudella	-10.0031
93	-10.0033
▁hallitsi	-10.0036
jille	-10.0037
ukselle	-10.0037
cle	-10.0039
▁pohjalta	-10.0043
▁1929	-10.0044
llu	-10.0046
cc	-10.005
▁ajo	-10.005
▁kom	-10.005
▁heinä	-10.0051
▁elokuvissa	-10.0051
▁tapahtuu	-10.0059
▁kansainvälinen	-10.0061
ire	-10.0063
▁tuotti	-10.0064
▁haasta	-10.0064
zan	-10.0074
▁1923	-10.0075
▁hopea	-10.0078
ikon	-10.0081
▁jumalan	-10.0081
▁puolet	-10.0082
▁verrattuna	-10.0083
llistä	-10.0083
▁tunne	-10.0083
▁1916	-10.0086
▁välinen	-10.0088
hel	-10.009
▁yksityiselämä	-10.009
ottelu	-10.0092
▁un	-10.01
▁putosi	-10.0101
▁sk	-10.0101
▁des	-10.0101
▁veljensä	-10.0104
▁lapin	-10.0105
▁pul	-10.0109
imi	-10.0109
89	-10.0112
▁aar	-10.0114
▁nimetty	-10.0115
▁kylmä	-10.0122
kh	-10.0125
▁pääosa	-10.0125
▁35	-10.0129
juoksu	-10.013
opisto	-10.013
of	-10.0139
▁näkö	-10.0142
▁bio	-10.0148
gren	-10.0149
▁päälle	-10.015
▁west	-10.015
keen	-10.0153
▁terve	-10.0153
▁kre	-10.0154
puhe	-10.0155
yhtyeen	-10.0156
ist	-10.0156
▁lista	-10.0159
▁esitettiin	-10.0162
mpaan	-10.0165
▁myönnettiin	-10.0166
heimo	-10.0177
ah	-10.0178
ves	-10.0178
pelaaja	-10.0179
▁mus	-10.0191
valmentaja	-10.0192
▁pyöri	-10.0196
▁lippu	-10.02
olla	-10.02
▁py	-10.0204
▁poliitikko	-10.021
▁osin	-10.0211
▁pohjan	-10.0214
▁nar	-10.0214
borg	-10.0216
▁lyhy	-10.0217
61	-10.0218
▁ven	-10.0219
▁huomattava	-10.0221
▁suurta	-10.0221
avat	-10.0222
▁omista	-10.0223
▁sopi	-10.0231
▁tekivät	-10.0233
▁muisti	-10.0237
▁vieraili	-10.0237
mark	-10.0238
kadun	-10.0238
▁liigan	-10.0238
musiikki	-10.0239
▁surma	-10.0245
isilla	-10.025
▁tuottaa	-10.0251
▁päätös	-10.0254
▁arvostelu	-10.0256
▁shi	-10.0259
dis	-10.0263
▁vaiheessa	-10.0267
ez	-10.0269
▁luonto	-10.0274
▁af	-10.0278
▁historiallis	-10.028
liikenteen	-10.0281
alin	-10.0281
▁syntyy	-10.0283
rö	-10.0283
lajeja	-10.0289
▁muutamia	-10.0294
▁saint	-10.03
▁pääsarja	-10.03
ele	-10.0302
mille	-10.0304
▁tappa	-10.0306
▁elä	-10.0306
kulma	-10.0311
▁ros	-10.0311
▁nord	-10.0317
yk	-10.0317
korea	-10.0322
ejä	-10.0331
▁ste	-10.0339
▁pistemies	-10.0347
▁sig	-10.035
▁helposti	-10.0352
joiden	-10.0354
▁ehti	-10.0359
kien	-10.036
▁90	-10.0365
▁keskuudessa	-10.0372
tre	-10.0378
▁lauri	-10.0379
pinta	-10.0379
onen	-10.0381
▁kuinka	-10.0381
▁kap	-10.0386
▁menestys	-10.0387
otta	-10.0388
▁pat	-10.0389
▁sara	-10.0395
,9	-10.0397
▁heillä	-10.0398
▁yhteiskunta	-10.04
rad	-10.0402
stin	-10.0404
▁avattiin	-10.0408
aihe	-10.0408
pul	-10.041
▁japanilais	-10.0411
oikeus	-10.0414
▁opiskelija	-10.0415
lai	-10.0417
▁ilmiö	-10.0418
▁palkittiin	-10.0419
▁paitsi	-10.0422
▁hum	-10.0425
hm	-10.0431
▁vanhempi	-10.0433
ls	-10.0435
▁todennäköisesti	-10.0437
▁maailmaa	-10.0443
▁ram	-10.0443
field	-10.0444
▁kanadan	-10.0446
▁syn	-10.045
llisuus	-10.0457
▁suositu	-10.0458
▁yrittää	-10.0461
mma	-10.0461
▁cup	-10.0465
▁tyr	-10.0466
puolue	-10.0466
▁höyry	-10.0467
▁yleinen	-10.0469
▁muka	-10.047
▁kansainvälisen	-10.0474
rata	-10.0479
san	-10.048
og	-10.048
▁il	-10.0489
▁paremmin	-10.0498
05	-10.0501
▁huomiota	-10.0506
▁1914	-10.0507
bel	-10.0512
▁muistuttaa	-10.0513
91	-10.0515
▁raskaa	-10.0521
one	-10.0529
matto	-10.0532
▁pronssia	-10.0533
▁aleksanteri	-10.0536
uksi	-10.0536
▁kaiva	-10.0537
▁kitara	-10.0537
valo	-10.0537
▁rintama	-10.0538
▁suunnittelema	-10.0539
▁löytää	-10.0539
▁lasi	-10.0543
zer	-10.0546
▁vähintään	-10.0552
suku	-10.0552
▁johdosta	-10.0552
ike	-10.0557
▁tode	-10.0566
▁kristillis	-10.0568
ding	-10.0569
art	-10.0569
▁che	-10.057
92	-10.0573
ttoman	-10.0574
tieteilijä	-10.0574
▁matkalla	-10.0578
laki	-10.0579
▁vähemmän	-10.0579
rooli	-10.0579
meren	-10.058
▁kesti	-10.0581
taulu	-10.0587
▁pitkän	-10.0589
▁tulivat	-10.0589
▁maailma	-10.059
llisuuden	-10.0591
▁kotoisin	-10.0595
johtajana	-10.0597
án	-10.0598
puolen	-10.0599
eilla	-10.0601
▁ty	-10.0601
▁löysi	-10.0606
▁pietari	-10.0607
▁mad	-10.061
ón	-10.061
ib	-10.0611
▁luki	-10.0613
▁aloitettiin	-10.0617
▁blues	-10.0619
toimintaa	-10.062
▁neste	-10.0621
rich	-10.0621
com	-10.0622
р	-10.0622
▁der	-10.0623
▁all	-10.0631
▁useiden	-10.0633
▁mikko	-10.0635
time	-10.0635
▁osana	-10.0635
luokan	-10.0638
▁takana	-10.064
▁voittaja	-10.0641
järveen	-10.0643
▁karja	-10.0646
sien	-10.065
sivusto	-10.0651
ttavan	-10.0651
▁fredrik	-10.0656
▁kirjoit	-10.0657
▁kuoltua	-10.0658
ttäjä	-10.0659
raja	-10.0664
▁neljänneksi	-10.0665
▁halua	-10.0667
▁debytoi	-10.0667
▁rat	-10.0668
▁hai	-10.0674
▁pyhän	-10.0679
▁japani	-10.0679
▁700	-10.0682
▁vuosikymmen	-10.0683
▁pariisin	-10.0684
ova	-10.0688
▁liittyvä	-10.0693
teoria	-10.0694
kuri	-10.0696
▁omia	-10.0697
▁tutkija	-10.0697
nnassa	-10.0698
kokoelma	-10.0698
ice	-10.0698
▁jyväskylän	-10.0699
liikke	-10.07
▁roomalaiskatoli	-10.0701
telee	-10.0705
mes	-10.0706
vuoden	-10.0709
▁neljäs	-10.0711
▁presidentin	-10.0713
neitä	-10.0713
ckin	-10.0714
▁muodostuu	-10.0714
▁pysyi	-10.0717
aikana	-10.0719
▁liu	-10.0719
vanh	-10.072
▁elektroni	-10.0721
▁pai	-10.0725
retki	-10.0726
▁mieh	-10.073
▁espanja	-10.0731
▁sau	-10.0735
▁erillis	-10.0737
▁muodostui	-10.0739
zo	-10.0739
▁1910	-10.0741
ttuja	-10.0746
fal	-10.0747
▁maajoukkueessa	-10.0753
▁finn	-10.0757
gue	-10.0762
▁paksu	-10.0765
är	-10.0765
yrityksi	-10.0768
▁pystyi	-10.077
▁tee	-10.078
akseen	-10.078
mba	-10.0783
rai	-10.0784
kilpailun	-10.0785
pr	-10.0785
hor	-10.0785
▁sosialisti	-10.0787
elma	-10.0788
▁iha	-10.0789
▁vo	-10.0793
▁26	-10.0794
▁katu	-10.0795
▁suhteen	-10.0796
▁lee	-10.0799
в	-10.0803
lm	-10.0807
▁kuulunut	-10.0807
sesta	-10.0812
▁löytyy	-10.0812
car	-10.0816
liitti	-10.0819
▁ryhmän	-10.0827
▁lähte	-10.0827
▁henkeä	-10.0828
▁nuore	-10.0831
▁timo	-10.0832
▁edellä	-10.0833
▁top	-10.0835
▁synny	-10.0835
ré	-10.0836
▁iho	-10.0836
laatio	-10.0845
▁ban	-10.0846
teltiin	-10.0853
▁vihollis	-10.0857
▁pei	-10.0858
")	-10.0859
▁toista	-10.0859
leen	-10.0861
▁aktiivi	-10.0862
suun	-10.0862
pl	-10.0864
cu	-10.0864
ttely	-10.0871
teltu	-10.0873
vii	-10.0874
▁pojan	-10.0875
▁kil	-10.0875
▁kuukautta	-10.0875
▁(17	-10.0878
▁menesty	-10.0879
▁ok	-10.0881
▁kyseessä	-10.0881
▁käsite	-10.0891
▁käyttäjä	-10.0892
metsä	-10.0895
nopeus	-10.0896
ama	-10.0896
▁men	-10.0898
lammi	-10.0898
▁esiintymis	-10.0899
▁tavara	-10.0905
▁jatka	-10.0906
▁hank	-10.0906
]	-10.0911
isiksi	-10.0913
kos	-10.0914
▁vapautu	-10.0916
▁ranskalainen	-10.0916
▁reaktio	-10.0929
▁kirje	-10.0931
▁hyökkäys	-10.0932
rio	-10.0933
▁seka	-10.0935
▁koste	-10.0937
musta	-10.0938
▁sarjakuva	-10.0944
heim	-10.0945
tiivi	-10.0946
ila	-10.0946
▁vihreä	-10.0948
▁auton	-10.0951
▁tarkas	-10.0952
▁viikon	-10.0953
▁palatsi	-10.0954
gio	-10.0954
dit	-10.0959
▁kitaristi	-10.096
▁pii	-10.096
▁itseään	-10.0962
▁auringon	-10.0962
▁music	-10.0965
tetun	-10.0968
▁kannalta	-10.0969
tavat	-10.0971
▁koneen	-10.0971
lehdessä	-10.0972
▁muutos	-10.0973
puolelle	-10.0973
aattori	-10.0974
▁pit	-10.0975
▁silti	-10.0976
▁rotu	-10.0978
▁esitetty	-10.0979
▁ger	-10.0979
teatterissa	-10.098
▁lohko	-10.098
ale	-10.0981
▁jouko	-10.0982
▁amerikan	-10.0982
▁monien	-10.0984
▁28	-10.0985
▁komentaja	-10.0986
alismi	-10.0987
▁eurooppalais	-10.099
▁viere	-10.0992
▁tunnetuin	-10.0993
sista	-10.0994
▁saar	-10.0995
sopimuksen	-10.1001
▁tuhoa	-10.1006
▁parhai	-10.101
sarjaan	-10.1012
▁edel	-10.1014
▁järjestelmä	-10.1016
iste	-10.1016
▁real	-10.1018
▁veto	-10.1018
▁hill	-10.102
▁parissa	-10.102
salo	-10.1022
talon	-10.1023
▁rob	-10.1026
läis	-10.1026
▁kim	-10.1027
▁opettajana	-10.1027
▁valvo	-10.1029
ily	-10.1029
▁yksittäis	-10.1034
johtaj	-10.1037
▁minuuttia	-10.1037
▁vaihtoehto	-10.1038
▁huoma	-10.1038
▁pelissä	-10.1043
▁intian	-10.1053
▁matkustaja	-10.1053
istui	-10.1055
see	-10.1059
▁maissa	-10.1059
1-	-10.1062
▁estää	-10.1062
▁kahdesti	-10.1063
suunta	-10.1065
kkien	-10.1066
▁voimakkaasti	-10.1068
mana	-10.1075
́	-10.1075
▁keskellä	-10.108
▁muodostavat	-10.1081
▁rau	-10.1086
▁saarella	-10.1087
▁viha	-10.1087
pataljoona	-10.1089
ere	-10.109
▁nau	-10.1094
04	-10.1096
▁hyvän	-10.1097
▁juha	-10.1098
▁juu	-10.1099
ux	-10.11
perin	-10.1102
kanava	-10.1103
▁hiekka	-10.1104
luokka	-10.111
▁määrää	-10.111
llisiä	-10.111
▁mini	-10.1112
liikenne	-10.1114
▁jäänyt	-10.1115
▁joitakin	-10.1117
▁kuvattu	-10.1119
▁aiheuttama	-10.1123
▁jääkiekko	-10.1123
vuonna	-10.1129
▁school	-10.113
▁nimeksi	-10.1135
▁sisältä	-10.1135
käsi	-10.1141
▁olympialaisissa	-10.1144
▁tutkimuksen	-10.1145
▁ras	-10.1146
▁seitsemä	-10.1148
teista	-10.1149
−	-10.1156
lev	-10.1158
▁joukkojen	-10.1161
▁yleisö	-10.1163
kirkko	-10.1163
▁puolan	-10.1165
▁kehittämis	-10.1165
hol	-10.1165
mö	-10.1166
▁saavat	-10.1167
▁virallisesti	-10.1168
▁live	-10.1168
evä	-10.1173
▁valtaa	-10.1174
▁taistelun	-10.1181
▁spe	-10.1187
▁vaakuna	-10.1189
wer	-10.1191
täjä	-10.1191
▁yhdysvaltoihin	-10.1192
sis	-10.1195
▁lämpö	-10.1199
▁kutsuttu	-10.1202
▁brasilia	-10.121
▁savo	-10.1212
▁testa	-10.1212
kanta	-10.1215
▁karjalan	-10.1215
festivaali	-10.1216
▁korkein	-10.1222
laiseen	-10.1225
▁gro	-10.1226
▁suojelu	-10.1228
▁salli	-10.1229
pio	-10.1232
umin	-10.1235
▁huo	-10.1237
sha	-10.1237
▁puolelle	-10.1245
	-10.1246
▁esiin	-10.1249
uteen	-10.1249
▁este	-10.1249
▁ammattilais	-10.1251
lar	-10.1253
▁kie	-10.1255
▁kehittyi	-10.1257
rum	-10.1259
nnalla	-10.1262
▁ham	-10.1262
vuode	-10.1263
sota	-10.1264
▁jalka	-10.1266
▁miljoonan	-10.1269
▁pakko	-10.127
▁siviili	-10.1271
maista	-10.1277
▁heistä	-10.128
oihin	-10.1282
▁pyr	-10.1285
päällikkö	-10.1285
amo	-10.1286
ito	-10.1289
lf	-10.129
toiminnan	-10.1292
ef	-10.1294
▁ohjelmisto	-10.1295
▁chicago	-10.1298
è	-10.1301
▁monissa	-10.1303
seuran	-10.1309
▁isän	-10.1317
▁monta	-10.1318
▁muuttaa	-10.1318
▁nuo	-10.1322
ido	-10.1323
▁sisäisen	-10.1323
▁fri	-10.1326
ish	-10.1327
▁asian	-10.133
▁englantilais	-10.1331
▁olevansa	-10.1332
▁hui	-10.1334
aminen	-10.1337
vissa	-10.134
ystä	-10.134
▁suojaa	-10.1341
kylän	-10.1343
▁olevat	-10.1346
▁national	-10.1349
▁mit	-10.1349
▁massa	-10.1349
and	-10.1356
ity	-10.1363
if	-10.1373
str	-10.1378
▁kansanedustaja	-10.138
▁piano	-10.1385
▁juna	-10.1387
▁kenttä	-10.1394
▁karhu	-10.1394
nneksi	-10.1396
▁arvon	-10.1399
▁aleksandr	-10.14
▁järjesti	-10.14
▁harry	-10.1403
▁ce	-10.1408
▁muuten	-10.1409
▁kh	-10.1412
hko	-10.1414
▁nosta	-10.1421
olan	-10.1422
▁avioliitto	-10.1426
tic	-10.1426
▁250	-10.1432
▁uhri	-10.1434
▁kohtasi	-10.1435
▁varustettu	-10.1436
▁yk	-10.1437
α	-10.1439
kreik	-10.144
▁pelaajana	-10.1441
liigassa	-10.1442
▁king	-10.1451
▁useat	-10.1453
▁cu	-10.1457
puolueen	-10.1458
▁elo	-10.1459
▁sim	-10.1463
sali	-10.1463
▁käsky	-10.1471
▁paikkaa	-10.1472
wan	-10.1474
▁love	-10.1475
▁1912	-10.1478
gia	-10.1481
▁maalin	-10.1486
▁ark	-10.1486
▁sula	-10.1486
▁kohdalla	-10.1488
▁tuomari	-10.1489
▁rakentaa	-10.1491
▁hil	-10.1491
▁1915	-10.1492
▁jack	-10.1493
▁tehdas	-10.1496
▁joutuu	-10.1498
▁tiedo	-10.1499
▁fin	-10.1499
mpiin	-10.15
▁tärkein	-10.1502
oto	-10.151
kunnat	-10.1513
▁1600-	-10.1515
–6	-10.1517
sää	-10.1517
▁kahdesta	-10.152
nuorten	-10.1522
▁demo	-10.1522
▁32	-10.1525
▁pakeni	-10.1528
▁verta	-10.153
▁veren	-10.153
▁lumi	-10.1531
alis	-10.1531
▁metal	-10.1533
▁yksinkertais	-10.1536
pään	-10.1539
▁1906	-10.1541
▁heikko	-10.1542
▁rooma	-10.1544
oikeudet	-10.1549
▁kato	-10.1552
▁vasemmisto	-10.1552
▁ilmoitta	-10.1555
lyn	-10.1555
kaasu	-10.1556
sopimus	-10.1559
–4	-10.156
pito	-10.1563
▁linnan	-10.1565
▁mainos	-10.1567
neista	-10.1569
niminen	-10.1571
▁harmaa	-10.1572
▁päätyttyä	-10.1572
▁lajia	-10.1574
▁syntymä	-10.1576
roi	-10.1577
▁lou	-10.158
▁tietä	-10.1582
kilpailut	-10.1583
▁kou	-10.1592
▁jy	-10.1593
neensa	-10.1593
▁ansio	-10.1594
oksia	-10.1597
▁valokuva	-10.1601
til	-10.1601
uksella	-10.1602
yhteisö	-10.1603
▁2007.	-10.1603
▁sanoma	-10.1604
kuninka	-10.1604
ier	-10.1604
kol	-10.1605
▁reservi	-10.1607
ittain	-10.1608
▁taajama	-10.161
kamari	-10.1613
▁valmistunut	-10.1613
▁rikko	-10.1616
ute	-10.1617
vuosi	-10.1627
▁lin	-10.1628
▁tilanne	-10.163
ttaminen	-10.1631
▁ollessaan	-10.1632
▁sodassa	-10.1633
▁samaa	-10.1633
▁korkeakoulu	-10.1634
maailma	-10.1635
▁lap	-10.1639
sihteeri	-10.164
isä	-10.1642
divisioona	-10.1642
▁vaikutteita	-10.1646
▁toisistaan	-10.1646
▁tule	-10.1647
▁stra	-10.1653
▁bas	-10.1656
▁julkaisema	-10.1657
▁lämmi	-10.1657
▁hyp	-10.1659
▁°	-10.1659
hallituksen	-10.1661
▁iv	-10.1666
▁suunniteltu	-10.1668
paikan	-10.1669
▁piir	-10.1674
turnauksessa	-10.1675
isuuden	-10.1681
▁kiinnostu	-10.1685
pt	-10.1686
▁ikään	-10.169
let	-10.1695
▁muna	-10.1701
▁maasta	-10.1702
sing	-10.1705
▁sub	-10.1707
▁ravintola	-10.1708
▁rus	-10.1714
▁tha	-10.1722
▁kart	-10.1728
▁lounais	-10.1736
lää	-10.1737
▁kalli	-10.1739
oosi	-10.174
kojen	-10.1742
▁alkunsa	-10.1743
dassa	-10.1744
▁kyse	-10.1748
koulussa	-10.1749
▁kutsui	-10.1751
▁erot	-10.1753
▁ren	-10.1753
ttinen	-10.1755
09	-10.1758
taloude	-10.1761
fu	-10.1764
▁kuuluisa	-10.1764
▁paha	-10.1765
jakso	-10.1766
▁hedelmä	-10.1767
▁australian	-10.177
▁sade	-10.1772
joista	-10.1776
koti	-10.1779
tekniikan	-10.178
▁ampu	-10.1783
▁porin	-10.1784
▁rakenta	-10.1784
▁kg	-10.1796
2-	-10.1796
▁ruotsalainen	-10.1801
▁kuvaus	-10.1801
kainen	-10.1803
mpien	-10.1808
ntaa	-10.1816
ruots	-10.1822
▁merkki	-10.1825
▁vastustaja	-10.1829
▁kilpailussa	-10.1834
▁naapuri	-10.1834
elmi	-10.1838
udesta	-10.1838
▁joukkoon	-10.184
kieli	-10.1841
empää	-10.1842
väki	-10.1845
▁flo	-10.1845
▁avio	-10.1849
▁määrättiin	-10.185
▁polttoaine	-10.1856
▁lam	-10.1856
pit	-10.1857
▁kakkos	-10.1859
bul	-10.1861
kenttä	-10.1863
kirjailija	-10.1865
ähtä	-10.1866
väline	-10.1868
▁perustama	-10.187
▁keräsi	-10.1871
▁homo	-10.1872
▁viljely	-10.1875
koja	-10.1876
mie	-10.1877
▁2008.	-10.1878
▁miestä	-10.188
tely	-10.1883
turva	-10.1884
miehiä	-10.1887
▁alkuperäinen	-10.1888
mari	-10.189
▁maalintekijä	-10.1891
dra	-10.1891
laatu	-10.1897
▁uskonto	-10.1897
▁myöskään	-10.1909
▁kaakkois	-10.1912
▁täyttä	-10.1919
vyö	-10.1923
▁lääke	-10.1923
▁tuuli	-10.1923
▁vettä	-10.193
▁ritari	-10.1932
▁kulki	-10.1934
xi	-10.194
▁1907	-10.194
▁1905	-10.1945
”)	-10.1946
▁dar	-10.1946
▁kanava	-10.1947
jaksi	-10.195
lum	-10.1953
▁suhde	-10.1955
▁vaasan	-10.1958
▁valmistettu	-10.1958
sellä	-10.1962
dri	-10.1964
▁arkkitehtuuri	-10.1967
▁koriste	-10.1967
▁lentoasema	-10.197
▁mestaruus	-10.1971
▁pap	-10.1973
pon	-10.1978
oo	-10.198
▁vilja	-10.1981
lian	-10.1982
muka	-10.1984
ora	-10.1984
▁pariisissa	-10.199
ric	-10.1991
▁toimisto	-10.1993
▁keskimäärin	-10.1994
vyys	-10.1997
▁vierai	-10.1998
▁otto	-10.1999
▁kapea	-10.2001
sar	-10.2003
▁hoita	-10.2004
▁tampere	-10.2006
low	-10.2009
▁elokuvaa	-10.2009
,0	-10.201
▁maalais	-10.201
itta	-10.2016
ú	-10.2017
▁mainitaan	-10.2017
▁mega	-10.2017
▁(”	-10.202
▁washington	-10.202
▁osoitta	-10.202
▁kasvatti	-10.2024
6.	-10.2025
▁kerrotaan	-10.2026
▁alueilla	-10.2026
▁kulkeva	-10.2026
▁kiinalais	-10.2027
▁jussi	-10.2031
ministeriö	-10.2034
illaan	-10.2037
▁meta	-10.2047
kro	-10.2048
lii	-10.2054
▁silta	-10.2056
▁onkin	-10.2056
▁vapa	-10.2058
urin	-10.206
▁hallin	-10.2062
▁turvallisuus	-10.2063
▁lampi	-10.2066
▁les	-10.2068
joella	-10.207
▁suomalaisten	-10.2072
mää	-10.2074
▁suomea	-10.2075
ming	-10.2076
▁kid	-10.2076
pel	-10.2079
▁liikkeen	-10.2079
▁vapautta	-10.208
▁ääri	-10.2083
▁alkuun	-10.2085
▁avustivat	-10.2086
▁2010.	-10.2086
▁ph	-10.2091
▁luoda	-10.2092
▁opiskelu	-10.2092
▁asetta	-10.21
heit	-10.21
▁uran	-10.21
▁sydän	-10.2103
▁moskovan	-10.2104
▁tilasto	-10.2105
▁mylly	-10.2107
▁itävalta	-10.2107
▁matkusta	-10.2107
joille	-10.2109
▁tietty	-10.211
▁apulais	-10.211
▁neliökilometriä	-10.2111
kyky	-10.2112
▁you	-10.2113
selän	-10.2118
amerikassa	-10.2119
llisuutta	-10.2121
▁maiden	-10.2122
sella	-10.2128
▁matkan	-10.2129
▁alas	-10.213
▁toisinaan	-10.213
ye	-10.2136
rian	-10.2138
▁pohjoisessa	-10.2138
▁useimmiten	-10.2139
▁palkka	-10.2142
▁syyt	-10.2143
mpiä	-10.2144
▁kuluttua	-10.2145
tella	-10.215
▁klo	-10.215
▁yrjö	-10.2151
▁kah	-10.2153
▁edu	-10.2154
▁hyväksi	-10.2154
qvist	-10.2156
sana	-10.2164
tuki	-10.2169
tuotanno	-10.2172
▁2009.	-10.2175
vol	-10.2176
kkoja	-10.218
▁takaa	-10.218
▁hyödyn	-10.2183
▁santa	-10.2186
▁eteenpäin	-10.219
▁toteutta	-10.2192
▁juhli	-10.2192
▁mä	-10.2193
▁brittiläinen	-10.2193
yhdistyksen	-10.2195
line	-10.2195
verkosto	-10.22
▁yliopistosta	-10.22
▁paranta	-10.2201
elämä	-10.2202
apu	-10.2203
▁sävel	-10.2203
nainen	-10.2204
▁neuvottelu	-10.2206
▁ampuma	-10.2209
▁päätyi	-10.2215
osan	-10.2216
▁qu	-10.2218
▁henry	-10.2219
▁asukkaat	-10.222
▁fla	-10.2221
kra	-10.2222
▁juoksu	-10.2223
päällikkönä	-10.2229
▁kilo	-10.2231
kymmentä	-10.2232
▁vapaaehtois	-10.2232
▁johtoon	-10.2234
▁valmentaja	-10.2237
▁hiili	-10.2238
▁idea	-10.2239
▁far	-10.2242
toon	-10.2243
▁ohjaa	-10.2247
▁alueelta	-10.2248
▁tanskan	-10.2257
lander	-10.2258
ryn	-10.2264
htaa	-10.2268
▁eduskunta	-10.2269
päin	-10.2269
▁tykki	-10.227
▁bla	-10.2273
korkeakoulu	-10.2275
syö	-10.2276
▁vaihtelee	-10.2276
tch	-10.2276
suhteet	-10.2278
suomalais	-10.2278
selle	-10.2279
▁mieli	-10.228
▁leiri	-10.228
rs	-10.2282
▁uuteen	-10.229
▁tuomittiin	-10.2292
▁lähetys	-10.2293
xin	-10.2293
koon	-10.2294
gr	-10.2295
dun	-10.2296
▁ohjaama	-10.2298
▁viro	-10.2298
▁bon	-10.2299
▁daniel	-10.2302
yyden	-10.2304
ottelua	-10.2305
▁kirjoitus	-10.2307
▁steve	-10.2307
ttaneet	-10.2309
tejä	-10.2309
▁ihminen	-10.231
mos	-10.2314
bal	-10.2315
▁väkivalta	-10.2318
▁pankki	-10.2318
▁maakunta	-10.2325
▁hyöty	-10.2326
sääntö	-10.2329
▁oikeuden	-10.233
▁fysi	-10.2332
fors	-10.2334
▁college	-10.2334
kirjan	-10.2339
▁suhteellisen	-10.234
▁suuret	-10.234
ix	-10.2341
▁lava	-10.2341
▁kangas	-10.2341
▁fil	-10.2347
▁toteut	-10.2349
▁riste	-10.2351
▁matkaa	-10.2353
▁upo	-10.2353
▁aseman	-10.2356
▁viini	-10.2356
▁antama	-10.2357
▁konsertti	-10.2357
▁krist	-10.2358
▁tehdään	-10.236
amerikan	-10.236
▁päättää	-10.236
salmi	-10.2367
▁suuntaan	-10.2367
▁tapasi	-10.2368
back	-10.2371
ehto	-10.2375
3.	-10.2378
projekti	-10.238
▁harri	-10.238
▁tulla	-10.2381
yo	-10.2384
anti	-10.2386
▁sisälsi	-10.2386
row	-10.2388
miehi	-10.2391
▁afrikan	-10.2395
▁työskennellyt	-10.2396
▁jou	-10.2397
▁äly	-10.2397
neuvoston	-10.2397
▁niemimaa	-10.2398
▁australia	-10.2398
alus	-10.2399
▁maantie	-10.2399
ttien	-10.24
▁teh	-10.2401
▁perustaja	-10.2401
▁ilo	-10.2404
bon	-10.2409
▁rakennuksen	-10.2411
empaa	-10.2411
▁tam	-10.2412
▁liettua	-10.2412
–17	-10.2418
▁uudet	-10.2419
▁kreivi	-10.2423
▁villa	-10.2425
järjestelmää	-10.2425
▁esiintyvä	-10.2428
▁vuosia	-10.243
lé	-10.243
tina	-10.2432
▁2011.	-10.2433
▁metro	-10.2435
▁todista	-10.2436
▁haapa	-10.2436
▁maj	-10.2436
▁roomalais	-10.2439
▁entis	-10.2442
uko	-10.2447
lauta	-10.2452
▁hilja	-10.2452
▁kaikissa	-10.2458
teistä	-10.2459
ome	-10.246
▁pääsee	-10.2462
pur	-10.2462
age	-10.2465
▁kuukausi	-10.2466
9.	-10.2469
▁niihin	-10.2469
▁hur	-10.247
▁valkoinen	-10.2473
▁muualla	-10.2473
▁teräs	-10.2474
▁tilaa	-10.2474
kaali	-10.2475
eläime	-10.2475
kkia	-10.2475
▁kara	-10.2476
▁naara	-10.2477
▁1908	-10.2478
▁lukien	-10.2479
keri	-10.2483
shin	-10.2486
▁yorkin	-10.2488
▁tulkit	-10.2489
kunnasta	-10.249
▁varjo	-10.2492
mentti	-10.2493
▁herra	-10.2496
kautta	-10.2498
▁arkkipiispa	-10.2499
sc	-10.2502
cer	-10.2503
yyttä	-10.2506
▁virtaa	-10.2506
ç	-10.2507
▁tyypillisesti	-10.2511
tše	-10.2511
▁opti	-10.2515
▁järjestää	-10.2516
net	-10.2517
▁samo	-10.2518
▁piilo	-10.252
▁haja	-10.252
▁manner	-10.2525
▁voinut	-10.2526
▁kohde	-10.2534
▁kappaleita	-10.2538
jänä	-10.2539
▁vaunu	-10.2539
▁oscar	-10.2542
▁suostu	-10.2542
▁hans	-10.2542
▁berg	-10.2543
mati	-10.2545
▁tahansa	-10.2548
luonno	-10.2552
▁ominaisuudet	-10.2553
▁rinta	-10.2555
jel	-10.2556
gs	-10.2557
▁tul	-10.2566
▁katsoja	-10.2572
steri	-10.2573
▁45	-10.2575
▁miehistö	-10.2579
rat	-10.2579
musiik	-10.2581
▁turku	-10.2582
tuneen	-10.2583
▁taisteli	-10.2584
▁runoilija	-10.2585
teollisuus	-10.2587
yritys	-10.2589
▁ch	-10.2592
vär	-10.2596
stre	-10.2598
▁pyysi	-10.2602
voitto	-10.2606
▁1913	-10.2608
käs	-10.2609
▁taakse	-10.2611
▁jolle	-10.2614
rii	-10.262
▁kirjassa	-10.2623
▁hotelli	-10.2626
amalla	-10.2628
▁menetelmä	-10.263
▁park	-10.2633
▁viikkoa	-10.2635
rien	-10.2636
instituuti	-10.2639
▁mir	-10.2644
▁laski	-10.2644
ministeriön	-10.2645
alueiden	-10.2649
neuvosto	-10.2653
▁max	-10.2654
lliseksi	-10.2655
▁asuin	-10.2662
nov	-10.2662
laulaja	-10.2665
▁kulma	-10.2666
▁artikkeli	-10.2667
stettiin	-10.2668
▁asettui	-10.2669
sivät	-10.2669
▁ajatus	-10.267
▁aluetta	-10.2671
▁alan	-10.2672
▁bay	-10.2673
▁wo	-10.2674
kolle	-10.2676
vaaran	-10.2676
▁valmistaa	-10.2678
т	-10.268
▁tehtävänä	-10.268
hyökkä	-10.2682
iz	-10.2683
▁keskusta	-10.2685
▁2006.	-10.2686
▁pietarin	-10.2686
jouko	-10.2687
ui	-10.2688
iaan	-10.269
imen	-10.2691
▁terä	-10.2693
▁dokument	-10.2698
eb	-10.27
antti	-10.2706
▁italialais	-10.2707
▁lontoossa	-10.2707
landin	-10.2714
▁mars	-10.2714
korke	-10.2716
▁ob	-10.272
▁pohjoiseen	-10.2721
▁mielen	-10.2722
isellä	-10.2727
▁upseeri	-10.2727
ulo	-10.2729
gas	-10.2731
ympäristö	-10.2731
▁ammu	-10.2735
ikkaa	-10.2735
▁kovin	-10.2738
▁valtaan	-10.2738
tuottee	-10.274
osaston	-10.274
▁miljoona	-10.2742
tehtävissä	-10.2742
laisessa	-10.2744
▁pyy	-10.2744
▁joidenkin	-10.2745
kurssi	-10.2753
▁ep	-10.2756
kaudellaan	-10.2757
▁ilmestynyt	-10.2758
johto	-10.276
▁kuvan	-10.2762
iuksen	-10.277
peri	-10.2778
toihin	-10.2782
▁gre	-10.2783
▁kuudes	-10.2784
vier	-10.2786
maajoukkue	-10.279
▁paavo	-10.2792
yer	-10.2795
▁annettiin	-10.2796
tanssi	-10.2801
usko	-10.2803
rake	-10.2807
▁helpo	-10.2808
▁purka	-10.2808
näkö	-10.2811
vers	-10.2811
bre	-10.2813
▁pin	-10.2814
▁edessä	-10.2814
linna	-10.2814
▁1911	-10.2814
ore	-10.2816
▁zo	-10.2816
▁ele	-10.282
▁palveluksessa	-10.2824
▁vaihta	-10.2828
▁joutuivat	-10.2828
teknise	-10.2828
lanti	-10.2831
ttavaksi	-10.2834
tuista	-10.2836
7.	-10.2838
log	-10.284
pat	-10.284
kasvu	-10.2841
paikkoja	-10.2849
▁uima	-10.2849
▁pelata	-10.2851
▁kotka	-10.2854
eiksi	-10.2858
ilee	-10.2859
▁by	-10.2859
07	-10.2862
hau	-10.2864
▁avaus	-10.2865
merkkejä	-10.2868
▁ruumiin	-10.2868
▁huu	-10.2869
▁eks	-10.287
▁reuna	-10.2872
▁oulu	-10.2876
▁käyttävät	-10.2876
▁rakensi	-10.2878
fr	-10.288
▁sukellusvene	-10.288
▁mainittu	-10.2884
koh	-10.2885
cker	-10.2885
▁joukkueeseen	-10.2888
▁viita	-10.289
muut	-10.2895
▁vangit	-10.2896
yys	-10.2904
▁kartanon	-10.2912
▁itävallan	-10.2912
▁maailmassa	-10.2914
kampanja	-10.2914
politiikkaa	-10.2916
▁kahdeksa	-10.2918
uran	-10.2921
▁tii	-10.2922
▁dis	-10.2926
tutkimus	-10.293
01	-10.2932
miehet	-10.2933
vartio	-10.2935
▁herttua	-10.2935
▁american	-10.2944
▁julkaissut	-10.2945
▁hape	-10.2951
▁odotta	-10.2952
ū	-10.2954
▁useimmat	-10.2954
▁pra	-10.2955
▁mari	-10.2956
yli	-10.2958
▁tukea	-10.2961
▁merkitykse	-10.2963
▁hieno	-10.2965
▁avioitui	-10.2968
kaista	-10.2969
ohjelmassa	-10.297
▁tarvitse	-10.2973
turnaus	-10.2977
cho	-10.2978
maisia	-10.2981
▁osta	-10.2984
▁naisen	-10.2985
▁eh	-10.2985
▁argentiina	-10.2987
▁yhteistyötä	-10.2987
▁henkilöä	-10.2994
▁järjestetty	-10.2994
mättä	-10.2996
zu	-10.2996
▁käytiin	-10.2998
bro	-10.2999
paikkaa	-10.3
▁lontoon	-10.3002
ellin	-10.3003
verkko	-10.3004
▁pas	-10.3008
▁voimakas	-10.301
hydr	-10.301
voimien	-10.3012
▁puutarha	-10.3013
▁oike	-10.3018
aikainen	-10.302
▁laivan	-10.3021
▁myrky	-10.3022
▁hitler	-10.3027
1.	-10.303
▁fan	-10.3032
▁maantiede	-10.3032
▁ranskalais	-10.3034
▁kasvatta	-10.3035
▁lapset	-10.3036
vik	-10.3037
▁lähetettiin	-10.3038
▁omat	-10.304
käynti	-10.3042
taiteilija	-10.3045
▁mets	-10.3046
laittee	-10.3047
▁raa	-10.3051
▁luoteis	-10.3055
torin	-10.3058
rom	-10.3062
mio	-10.3062
▁pysyvä	-10.3065
sille	-10.3067
ksessä	-10.3067
hem	-10.3067
mel	-10.3068
gra	-10.3071
▁merkittäviä	-10.3072
▁miehet	-10.3073
neuvos	-10.3074
hoitaja	-10.3082
▁rumpali	-10.3083
▁olisivat	-10.3083
kkää	-10.3083
▁kahdessa	-10.3083
▁ul	-10.3084
komppania	-10.3089
wo	-10.3091
▁mahdollise	-10.3092
▁pienempi	-10.3094
tön	-10.3095
▁jään	-10.3096
▁mö	-10.31
▁uudeksi	-10.3102
etin	-10.3106
järjestön	-10.3108
hallinto	-10.3108
▁anton	-10.3109
vero	-10.311
8.	-10.3111
kuvia	-10.3114
▁korkeimma	-10.3115
ellinen	-10.3116
▁company	-10.3118
jaan	-10.3121
listalla	-10.3122
vina	-10.3122
väylä	-10.3128
08	-10.3131
paine	-10.3132
▁kuolemaansa	-10.3132
▁sijoitettu	-10.3133
▁international	-10.3133
▁gene	-10.3135
▁musti	-10.3136
▁nauhoi	-10.3139
▁kiertue	-10.314
▁muodossa	-10.3143
▁sport	-10.3145
liiga	-10.3146
mansa	-10.3146
▁peit	-10.3147
▁edward	-10.3148
debyyttinsä	-10.3149
▁italiassa	-10.3149
▁heille	-10.315
▁keskenään	-10.315
▁naaras	-10.3151
tehtaan	-10.3152
▁kuoro	-10.3153
kassa	-10.3156
▁intiaani	-10.3156
▁opetta	-10.3157
▁ympäröi	-10.3159
▁ulo	-10.3163
musiikin	-10.3169
▁syrjä	-10.3169
▁uus	-10.317
▁ant	-10.317
▁mukanaan	-10.3171
▁osalta	-10.3172
▁symboli	-10.3176
▁yorkissa	-10.3177
▁muni	-10.3177
▁belgia	-10.3178
ukseksi	-10.3181
joukkueessa	-10.3184
03	-10.3184
▁kukin	-10.3185
▁sankari	-10.3188
▁piirin	-10.319
hyödy	-10.3192
terin	-10.3194
rey	-10.3194
▁adam	-10.3198
▁urallaan	-10.32
▁aatelis	-10.32
▁(2	-10.3205
aaleja	-10.3209
joukot	-10.3211
▁cra	-10.3211
sekoit	-10.3213
mor	-10.3215
▁atlant	-10.3215
▁ympärille	-10.3216
vas	-10.3216
▁viipuri	-10.3218
sissä	-10.3223
maalaukse	-10.3226
▁vähitellen	-10.3229
▁kaksois	-10.3232
▁käytettävä	-10.3233
▁töitä	-10.3233
▁parlamentti	-10.3234
puolella	-10.3237
▁varasi	-10.324
ting	-10.3245
▁kier	-10.3248
▁andre	-10.3251
▁poista	-10.3253
▁onnistunut	-10.3261
▁kit	-10.3261
▁puolen	-10.3262
▁jatkosopimuksen	-10.3263
▁edistä	-10.3264
▁vaike	-10.3266
▁loh	-10.3267
▁will	-10.3269
▁koivu	-10.3274
▁nas	-10.3275
▁sveitsi	-10.3284
vaan	-10.3285
sano	-10.3286
▁vihkiminen	-10.3288
▁tiety	-10.3291
▁suunni	-10.3291
▁kaupungista	-10.3293
▁elämää	-10.3295
▁angeles	-10.3296
▁jäljellä	-10.3297
▁sitoutu	-10.3298
▁sho	-10.3299
▁hämeen	-10.3299
▁kappaleet	-10.3299
ioni	-10.33
tuotteita	-10.33
▁kerää	-10.3307
▁uhka	-10.3309
▁herätti	-10.3309
▁kaar	-10.3309
onsa	-10.331
kalla	-10.331
isille	-10.3311
▁täysi	-10.3316
▁maksu	-10.332
▁kana	-10.332
▁martti	-10.3321
▁royal	-10.3321
2)	-10.3322
kr	-10.3325
zar	-10.3326
näyttely	-10.3326
▁savi	-10.3327
▁tilan	-10.3327
impia	-10.3329
▁muodostu	-10.333
▁anne	-10.3335
▁kunnallis	-10.3335
▁tru	-10.3336
isuuteen	-10.3343
mästä	-10.3345
▁teloi	-10.3349
▁sanan	-10.3349
▁kuolemaan	-10.3351
▁maanviljely	-10.3352
▁yh	-10.3353
▁kuopion	-10.3356
isistä	-10.336
▁torju	-10.3361
▁high	-10.3362
ttaisi	-10.3364
ohjelman	-10.3368
teisiin	-10.3368
die	-10.337
▁vesistö	-10.3371
▁valtatie	-10.3375
teinen	-10.3375
isyys	-10.3375
▁laskettiin	-10.3379
ben	-10.3381
laan	-10.3381
▁hengen	-10.3382
ander	-10.3382
▁päin	-10.3384
▁finaali	-10.3385
▁käytöstä	-10.3388
▁pudotuspeleissä	-10.3389
▁mau	-10.339
käytö	-10.3393
▁lähde	-10.3394
oksidi	-10.3396
up	-10.3396
kentän	-10.3397
suhtee	-10.3402
▁vaaleissa	-10.3402
▁kirjoitettu	-10.3405
▁rannalla	-10.3408
telemaan	-10.3409
▁kanto	-10.3415
nimellä	-10.3416
utettu	-10.3417
▁varsinais	-10.3423
▁huolto	-10.3427
klubi	-10.3427
konsekraattorina	-10.3428
keita	-10.3428
politiikan	-10.343
▁hallussa	-10.3431
▁lakkautettiin	-10.3434
▁tarinan	-10.3434
▁perustu	-10.3436
ino	-10.3438
mmät	-10.344
main	-10.3443
bus	-10.3445
▁1500-	-10.3449
▁tapauksessa	-10.345
▁niinpä	-10.3453
▁hyökkäyksen	-10.3458
▁kokemäenjoen	-10.3458
▁äänen	-10.346
▁parhaimmillaan	-10.3461
▁voitiin	-10.3462
lampi	-10.3462
mannin	-10.3463
rho	-10.3466
▁cre	-10.3467
▁tehden	-10.347
▁senttimetriä	-10.347
▁tiuk	-10.347
▁seuraavalla	-10.3472
▁nai	-10.3474
▁20-	-10.3475
kirjasto	-10.3478
tieteiden	-10.3479
▁+	-10.3481
sihteerinä	-10.3484
▁edellisen	-10.3487
yh	-10.3487
▁varoi	-10.3487
▁ohjasi	-10.3491
▁»	-10.3491
oikeuden	-10.3492
▁japanissa	-10.3494
06	-10.3495
▁levyn	-10.3496
▁eivätkä	-10.3498
ardi	-10.3499
tason	-10.3504
▁valittu	-10.3505
cr	-10.3506
▁esikois	-10.3513
uro	-10.3515
osiin	-10.3517
vene	-10.3517
▁ryhmi	-10.3526
▁jones	-10.3527
▁taiteen	-10.353
dar	-10.3531
nnissa	-10.3533
isempi	-10.3535
peä	-10.3538
tyessä	-10.3541
▁emil	-10.3544
▁wilhelm	-10.3545
▁kiinteä	-10.3545
▁united	-10.3546
▁nähtiin	-10.3548
mätön	-10.3552
▁joutu	-10.3554
pula	-10.3556
▁laskuoja	-10.3558
▁vahvisti	-10.3558
mmän	-10.3558
▁sillan	-10.356
▁kierto	-10.3563
tettä	-10.3564
▁englannissa	-10.3566
▁julkaista	-10.3566
▁itsenäisty	-10.3568
kerro	-10.3571
ult	-10.3571
pitäjä	-10.3572
▁sairastu	-10.3574
▁viimeiset	-10.3576
lor	-10.3576
▁show	-10.3579
teessa	-10.3579
▁totesi	-10.3581
town	-10.3581
lasta	-10.3582
valmistaja	-10.3584
▁vis	-10.3584
gli	-10.3584
ilainen	-10.3585
▁jäivät	-10.3585
▁luokka	-10.3585
▁hidas	-10.3589
▁lahja	-10.3591
▁uudestaan	-10.3594
kkeet	-10.3595
bli	-10.3599
▁nimitys	-10.3601
▁italialainen	-10.3601
▁tote	-10.3602
▁jukka	-10.3604
menetelmä	-10.3607
kil	-10.3609
oitiin	-10.3612
▁ongelmia	-10.3614
ardin	-10.3614
▁kestää	-10.3615
▁hetkellä	-10.3616
▁kahta	-10.3617
tarha	-10.3619
▁luovutta	-10.3622
▁hava	-10.3626
▁sijoitettiin	-10.363
▁kolmesta	-10.363
linin	-10.3633
▁pelaajan	-10.3635
▁henkilökohtaise	-10.364
lähte	-10.364
raha	-10.3642
▁bob	-10.3645
▁wil	-10.3651
▁kirjoittaa	-10.3661
kalusto	-10.367
viksi	-10.367
▁palautta	-10.3671
▁poi	-10.3672
bol	-10.3673
tusten	-10.3681
▁yu	-10.3681
työhön	-10.3682
kalvo	-10.3684
▁saaneet	-10.3691
merellä	-10.3692
virallis	-10.3693
▁runsa	-10.3698
▁levisi	-10.37
▁käsitte	-10.3702
▁kirjoittami	-10.3707
salmen	-10.3709
puku	-10.3711
▁2012.	-10.3712
yy	-10.3713
▁ang	-10.3715
ttavia	-10.3721
▁mitat	-10.3724
lehteä	-10.3727
pide	-10.3728
sul	-10.3728
▁runko	-10.3729
rahasto	-10.3731
▁2005.	-10.3742
yhtymä	-10.3744
▁vale	-10.3744
▁riski	-10.3752
▁vahvista	-10.3753
kerros	-10.3753
akatemia	-10.3754
▁etelässä	-10.3755
▁päähän	-10.3757
▁sanotaan	-10.3761
▁tulokas	-10.3762
▁christ	-10.3765
▁kristinusko	-10.3766
▁sisältö	-10.3766
▁taju	-10.3766
▁määrin	-10.377
ttäneet	-10.3772
▁toisiinsa	-10.3775
▁komp	-10.3775
kee	-10.3779
▁kestä	-10.3782
yksikkö	-10.3785
teho	-10.3789
▁cy	-10.379
ture	-10.3791
utua	-10.3791
▁vanki	-10.3799
▁provinssi	-10.38
▁sand	-10.3802
▁green	-10.3805
-2	-10.3805
▁gustaf	-10.3809
▁käyttämä	-10.381
toveri	-10.3812
▁välille	-10.3813
▁nimet	-10.3813
kortti	-10.3815
ight	-10.3815
–5	-10.3815
materiaali	-10.3816
▁cap	-10.3819
▁mantere	-10.3819
▁xi	-10.3821
tauti	-10.3821
yliopisto	-10.3822
▁näyttää	-10.3823
▁tammi	-10.3823
▁tietää	-10.3827
▁hinta	-10.3828
yle	-10.3829
afrikassa	-10.383
vor	-10.383
liga	-10.3831
▁jaakko	-10.3839
▁kahdella	-10.384
▁aloit	-10.3841
▁valli	-10.3843
▁(14.2	-10.3844
▁osallistunut	-10.3846
kerta	-10.3846
▁järjestetään	-10.3846
kymmene	-10.3847
▁hart	-10.3848
▁ruskea	-10.3851
▁kirjallisuuden	-10.3853
tettävä	-10.3854
▁film	-10.3854
lyseo	-10.3854
rekisteri	-10.3856
virhe	-10.3859
▁määrän	-10.386
▁englanti	-10.386
▁muistuttava	-10.3861
kkiä	-10.3863
▁syyria	-10.3863
kaupungin	-10.3865
▁elinkeino	-10.3869
▁simon	-10.387
▁omistama	-10.3874
▁jatku	-10.3875
nutta	-10.3875
▁raaka	-10.3875
▁ihme	-10.3878
▁nosti	-10.3878
thin	-10.3878
ér	-10.3879
▁filip	-10.3879
▁moderni	-10.3882
▁seuraavaksi	-10.3883
▁saksalaisten	-10.3888
▁varaustilaisuud	-10.3889
▁matkailu	-10.389
▁radan	-10.3893
▁lyhyen	-10.3895
▁jakaa	-10.3902
▁tohtoriksi	-10.3905
leyn	-10.3907
▁natsi	-10.3909
▁käyttivät	-10.391
▁unkari	-10.3911
▁valmistetaan	-10.3913
▁palkinnon	-10.3914
talli	-10.3916
▁pelkästään	-10.3925
▁viides	-10.3926
▁latvia	-10.3929
malle	-10.3929
taito	-10.3931
▁may	-10.3933
▁hiippakunnan	-10.3934
▁brittiläis	-10.3936
neesta	-10.3936
▁mallin	-10.3938
▁suola	-10.394
▁1900	-10.3943
riitti	-10.3943
▁entistä	-10.3945
eita	-10.3946
piirin	-10.3948
synty	-10.3951
▁sijoitus	-10.3952
▁näkyy	-10.3954
näytö	-10.3954
▁kulttuurin	-10.3955
▁ori	-10.3956
▁ohje	-10.3959
▁vatsa	-10.3961
uta	-10.3963
▁lang	-10.3971
▁gor	-10.3972
ote	-10.3973
▁pitänyt	-10.3975
▁game	-10.3977
tyvät	-10.3978
ruskea	-10.3979
ania	-10.398
▁luultavasti	-10.3982
▁muodostama	-10.3985
pia	-10.3986
väestö	-10.3987
▁jokainen	-10.3988
noja	-10.3996
vuutta	-10.3998
ree	-10.3998
▁jumal	-10.4003
ajat	-10.4003
▁päällä	-10.4005
tekniikka	-10.4009
▁tuottama	-10.401
pankin	-10.4012
millä	-10.4013
▁noussut	-10.4013
▁pyhi	-10.4015
▁tol	-10.4018
▁poikki	-10.4019
▁helsinkiin	-10.4021
▁kiinteistö	-10.4022
all	-10.4026
▁dio	-10.4028
tykseen	-10.4028
mmer	-10.403
▁[	-10.403
▁koskeva	-10.403
vali	-10.4031
▁33	-10.4034
kri	-10.4035
itus	-10.4035
▁kirkkoherra	-10.4036
misessä	-10.4037
▁kestävä	-10.4038
▁korvasi	-10.4038
kola	-10.4039
▁records	-10.4041
▁joukkuetta	-10.4041
▁kieltäytyi	-10.4042
▁riippuen	-10.4044
lj	-10.4045
puna	-10.4047
▁tulos	-10.4051
д	-10.4055
▁kuluessa	-10.4059
▁char	-10.4063
▁täyde	-10.4067
▁keisarin	-10.4068
kallio	-10.4069
hai	-10.407
▁paa	-10.407
▁keskittyi	-10.4078
sion	-10.408
mpää	-10.4082
▁yhdistys	-10.4084
▁mihin	-10.4084
▁ajattelu	-10.4085
telty	-10.4086
▁erik	-10.4089
▁soolo	-10.4091
▁väliin	-10.4092
siirto	-10.4093
▁mol	-10.4094
▁houkut	-10.4095
▁hake	-10.4098
päivi	-10.4103
▁1909	-10.4103
▁lehdet	-10.4106
ologian	-10.4106
▁kohtalo	-10.4106
▁järvellä	-10.4108
▁enemmistö	-10.4111
▁ara	-10.4113
▁maajoukkueura	-10.4113
▁lupaa	-10.4115
▁toimia	-10.4116
▁romania	-10.4116
▁mary	-10.4121
▁soittaa	-10.4121
ā	-10.4122
vana	-10.4124
▁näyt	-10.4126
▁huomaa	-10.4134
▁hyväksyi	-10.4136
▁madrid	-10.4138
▁vasemma	-10.4142
▁alkupuolella	-10.4143
koo	-10.4143
▁etelään	-10.4144
▁vastusti	-10.4144
▁saavuttanut	-10.4145
▁löytyi	-10.4146
▁runkosarjassa	-10.4147
aluetta	-10.4156
▁iran	-10.4156
vaihdo	-10.416
▁arkeologi	-10.4162
▁kyky	-10.4164
▁jäsentä	-10.4165
das	-10.4167
rykmentti	-10.4168
jek	-10.4168
uudessa	-10.4169
▁maja	-10.4171
mbo	-10.4177
▁päävalmentaja	-10.4177
läiset	-10.4178
öö	-10.4183
▁korvaa	-10.4185
▁meksiko	-10.4187
▁perheeseen	-10.4188
▁kuvio	-10.4188
▁hävittäjä	-10.4191
etu	-10.4192
yl	-10.4195
▁määräsi	-10.4198
▁kansallispuisto	-10.4198
▁tampereella	-10.4199
▁mahdollisimman	-10.42
▁jäseniä	-10.4207
▁sanotu	-10.4208
▁rakentaminen	-10.4212
▁nainen	-10.4214
kilpailuun	-10.4214
▁("	-10.4214
ttamista	-10.4227
▁kuollut	-10.4228
▁sijoi	-10.423
kyy	-10.423
pommi	-10.4231
▁epi	-10.4231
ttyään	-10.4232
▁leveys	-10.4233
uuni	-10.4234
▁tehtaan	-10.4234
▁boy	-10.4236
kemia	-10.4237
▁stor	-10.4241
▁1904	-10.4245
viiva	-10.4249
▁punainen	-10.4251
▁lienee	-10.4253
utuvat	-10.4254
▁kuninkaallise	-10.4254
liini	-10.4262
out	-10.4263
kle	-10.4263
▁hermo	-10.4265
anssi	-10.4265
▁tunnettuja	-10.4267
▁jalkapalloilija	-10.4275
▁tou	-10.4276
▁kaivos	-10.428
▁tuhoutui	-10.4284
▁tiedustelu	-10.4285
▁williams	-10.4285
▁komm	-10.4287
teko	-10.4288
▁ec	-10.4288
▁auttaa	-10.4289
päälliköksi	-10.4291
▁31	-10.4295
listan	-10.4296
talous	-10.4298
oikeuksi	-10.4299
▁musiikkivideo	-10.4304
▁bou	-10.4307
▁professorina	-10.4311
▁kiista	-10.4314
▁2014.	-10.4314
▁päähenkilö	-10.4317
▁tunnista	-10.432
▁turussa	-10.4323
▁poliittinen	-10.4323
▁metrillä	-10.4324
▁maailmansota	-10.4327
▁sijainti	-10.4329
▁vallankumouksen	-10.4331
kum	-10.4333
pus	-10.4341
▁kymijoen	-10.4342
▁nähden	-10.4342
zen	-10.4346
▁parhaaksi	-10.4346
▁900	-10.4351
▁poistu	-10.4352
dž	-10.4352
▁vuodeksi	-10.4354
ttavissa	-10.4357
hopeaa	-10.4361
oire	-10.4364
▁29	-10.4365
luutnantti	-10.4367
tyypin	-10.4371
▁ylen	-10.4372
maisen	-10.4372
▁erkki	-10.4374
▁päi	-10.4376
tasolla	-10.4377
▁köy	-10.4378
▁pohjoispuolella	-10.438
tyypi	-10.4381
▁kirjallisuus	-10.4382
▁selvä	-10.4386
▁uudessa	-10.4387
hallinnon	-10.4388
▁yhdys	-10.4391
▁tappaa	-10.4392
▁up	-10.4396
▁savu	-10.4396
▁televisiosarja	-10.4397
ksessa	-10.4404
▁cro	-10.4404
▁koripallo	-10.4404
▁minu	-10.4406
▁tour	-10.4406
▁gen	-10.4406
▁poli	-10.441
▁rahaa	-10.4411
ction	-10.4412
▁klass	-10.4412
▁päätöksen	-10.4415
▁jatkuva	-10.4416
▁israelin	-10.4421
▁suurimmat	-10.4422
▁dr	-10.4427
▁liittyvät	-10.4427
▁36	-10.4428
▁säilyttä	-10.4432
pas	-10.4434
▁dj	-10.4434
gerin	-10.4434
▁maailmansodassa	-10.4435
▁kaupunkia	-10.4436
▁vaihtoi	-10.4439
tapahtuma	-10.4439
immillaan	-10.444
our	-10.4442
tyksessä	-10.4444
▁alaisuudessa	-10.4445
▁valmistettiin	-10.4446
▁vaihde	-10.4447
▁tykistö	-10.4451
suoja	-10.4452
tilat	-10.4453
▁ajoneuvo	-10.4453
▁näky	-10.4454
maat	-10.4455
▁kaupunginosa	-10.4458
▁bol	-10.4462
uudelle	-10.4464
▁kata	-10.4465
▁kaikkea	-10.4468
jun	-10.4471
▁lääni	-10.4471
5.	-10.4472
▁vankila	-10.4473
▁näki	-10.4478
järjestys	-10.4481
▁2013.	-10.4483
▁entise	-10.4484
tekijä	-10.4484
kokous	-10.4484
▁kevään	-10.4487
▁enimmäkseen	-10.4488
▁loput	-10.449
▁yhdistä	-10.449
▁keskeisi	-10.4491
▁joukkoja	-10.4492
▁nikolai	-10.4492
▁%)	-10.4493
▁mannerheim	-10.4495
▁rehtori	-10.4498
ksiä	-10.45
▁paljasta	-10.4501
▁harva	-10.4505
▁kääntä	-10.4505
lukujen	-10.4509
▁harras	-10.4513
tamaan	-10.4513
▁1890	-10.4514
lov	-10.4515
tinen	-10.4515
▁lenn	-10.4522
kunnissa	-10.4524
▁nah	-10.4529
tessaan	-10.4537
▁avoin	-10.4537
▁ominais	-10.4538
ted	-10.4538
▁biologi	-10.4539
jin	-10.454
perhe	-10.4541
henge	-10.4542
▁kuvernööri	-10.4543
▁jatkuvasti	-10.4544
jou	-10.4545
▁aho	-10.4545
politiikka	-10.4551
▁väestöstä	-10.4551
julkaisu	-10.4551
▁band	-10.4552
torjunta	-10.4554
chen	-10.4555
▁vakio	-10.4558
▁tieteellis	-10.456
ure	-10.4561
arvio	-10.4563
▁avusta	-10.4564
02	-10.4565
päässä	-10.4569
kkeen	-10.457
▁sv	-10.4572
uraansa	-10.4574
▁veh	-10.4579
▁valinta	-10.4581
▁julisti	-10.4583
▁veri	-10.4586
▁esittämä	-10.4586
kseksi	-10.459
ug	-10.4592
kisojen	-10.4593
▁tapio	-10.4595
toimittaja	-10.4595
▁pelastus	-10.4595
▁tiedetään	-10.4597
3-	-10.46
▁club	-10.4602
▁lännessä	-10.4605
sur	-10.4607
▁väestön	-10.4608
▁osavaltion	-10.461
aineita	-10.4611
läisen	-10.4613
liha	-10.4615
▁päätettiin	-10.4616
kiä	-10.4616
▁ilta	-10.4618
läisten	-10.4618
tian	-10.462
teihin	-10.462
▁riko	-10.4621
▁yhteiskunnallis	-10.4624
▁opinto	-10.4625
pyörä	-10.4625
▁vaadi	-10.4628
maksu	-10.4628
▁riippu	-10.4634
▁olli	-10.4636
▁israel	-10.4639
joukkojen	-10.4642
▁viidenneksi	-10.4642
uttaa	-10.4647
▁täytyy	-10.4649
asukka	-10.4652
kem	-10.4652
roll	-10.4652
silta	-10.4652
arki	-10.4654
▁löydettiin	-10.4659
luterilais	-10.4659
kulku	-10.466
▁alkuperäisen	-10.466
▁merkit	-10.4661
▁divisioona	-10.4664
immista	-10.4671
▁ap	-10.4672
▁sanoo	-10.4673
luvu	-10.4676
▁vel	-10.4681
▁lainkaan	-10.4681
▁ehdolla	-10.4682
▁riveissä	-10.4683
▁korkei	-10.4687
▁pyörä	-10.469
▁espanjalais	-10.4691
satama	-10.4693
▁kanada	-10.4694
yhtyeessä	-10.4696
▁merkittävi	-10.4697
nettiin	-10.4698
loista	-10.4699
▁uusien	-10.47
▁pisteen	-10.47
▁vaihto	-10.4701
▁wei	-10.4702
laisista	-10.4703
▁rivi	-10.4704
▁opetti	-10.4706
rock	-10.4712
ub	-10.4717
▁boo	-10.4721
▁ajatukse	-10.4724
▁kritisoi	-10.4725
päivänä	-10.4725
lopu	-10.4726
▁ukrainan	-10.4731
lik	-10.4732
uduttua	-10.4733
▁rakasta	-10.4734
▁2015.	-10.4738
▁liber	-10.4739
▁kaikkia	-10.4739
ajalla	-10.4743
bir	-10.4746
▁fen	-10.4747
▁kuningatar	-10.4747
▁loma	-10.4751
▁konkurssi	-10.4752
elokuvassa	-10.4755
▁kive	-10.476
▁naiset	-10.476
▁piirtä	-10.4761
▁taustalla	-10.4761
▁pitivät	-10.4766
kokouksessa	-10.4767
▁luokiteltu	-10.4768
joukko	-10.4768
jer	-10.477
käyttöön	-10.4777
4.	-10.4777
▁mauri	-10.4781
▁helppo	-10.4787
▁turkin	-10.4787
к	-10.4787
▁'	-10.4789
tilaa	-10.4789
yyteen	-10.4797
▁taidemaalari	-10.4799
▁julista	-10.4804
ø	-10.4804
▁prinssi	-10.4806
▁kaikista	-10.4807
▁yhdistää	-10.481
iiri	-10.4814
▁käyttöä	-10.4814
▁hollywood	-10.4816
▁tiedot	-10.4818
▁maine	-10.4818
▁liikennöi	-10.4819
animaatio	-10.4822
▁perään	-10.4825
▁saaristo	-10.4825
koiri	-10.4826
entsyymi	-10.4826
▁seurakunnan	-10.4834
tsin	-10.4836
ääri	-10.4836
aseman	-10.4837
▁katsoi	-10.4838
▁vaihte	-10.484
turi	-10.4841
▁yhdeksi	-10.4841
▁toiselle	-10.4841
oppila	-10.4841
wood	-10.4843
▁tim	-10.4843
▁turnauksen	-10.4845
▁osassa	-10.4846
hawk	-10.4847
ytti	-10.485
osia	-10.4851
anto	-10.4851
▁säilyi	-10.4852
▁näy	-10.4855
kuntaa	-10.4857
ath	-10.4857
foni	-10.4857
more	-10.486
▁merkittävästi	-10.4865
▁olavi	-10.4867
▁perustui	-10.4867
tutkija	-10.4867
järjestykse	-10.4869
▁katto	-10.4869
tiloja	-10.4871
▁tuntu	-10.4872
vall	-10.4874
▁rie	-10.4875
▁rajan	-10.4876
kkojen	-10.4879
▁psykologi	-10.4882
radalla	-10.4885
▁leo	-10.4889
▁tuntia	-10.4891
cul	-10.4893
press	-10.4895
▁reitti	-10.4895
▁elisabet	-10.4895
▁päässyt	-10.4895
▁muslimi	-10.4895
chu	-10.4899
ttomia	-10.4899
idän	-10.4899
key	-10.4902
▁venäläinen	-10.4906
▁matkusti	-10.4906
▁ryhty	-10.4907
musiikkia	-10.4908
kää	-10.4908
▁blue	-10.4911
▁nimityksen	-10.4913
▁vieras	-10.4914
▁muusikko	-10.4915
runo	-10.4917
▁oi	-10.4921
▁seuraavat	-10.4922
▁1940-	-10.4922
▁muuri	-10.4923
▁pääsy	-10.4932
ew	-10.4932
mmalla	-10.4932
▁ilmavoimien	-10.4933
▁kilpailija	-10.4935
▁erottaa	-10.4936
▁pystyy	-10.4936
▁wall	-10.4938
isyyden	-10.4938
ong	-10.4938
▁väliaikais	-10.4939
jumala	-10.4942
kkonen	-10.4942
mond	-10.4943
kaus	-10.4947
kapellimestari	-10.4947
▁free	-10.4948
▁2008–2009	-10.4948
▁maalaus	-10.495
emi	-10.4953
▁vah	-10.4954
▁sla	-10.4954
▁toimintaan	-10.4957
▁vetäytyi	-10.4958
▁kanne	-10.4959
▁alexander	-10.4962
liittymä	-10.4964
opettaja	-10.4965
radio	-10.4967
▁sijasta	-10.4967
tola	-10.4968
elämän	-10.497
ottelunsa	-10.4974
▁kertoja	-10.4974
▁suomeksi	-10.4976
▁pääte	-10.4976
ttuna	-10.4978
▁kirjoittaja	-10.4979
plo	-10.498
grafi	-10.498
jako	-10.4981
kaupungissa	-10.4981
ruo	-10.4982
armeija	-10.4982
▁hell	-10.4984
suunnittelija	-10.4985
▁portugali	-10.4985
▁huume	-10.4985
neessa	-10.4986
▁haka	-10.4986
mmu	-10.4986
▁fle	-10.4987
▁niska	-10.4988
isuudesta	-10.4988
▁ulkomailla	-10.4989
▁porvoo	-10.4993
sso	-10.4994
pre	-10.4998
▁kotiin	-10.5001
▁asukkaita	-10.5005
▁antautu	-10.5007
▁2010–2011	-10.5008
▁lake	-10.5009
▁läntise	-10.5011
▁tulevat	-10.5014
▁2009–2010	-10.5015
×	-10.5017
▁aloittaa	-10.502
▁jäseneksi	-10.502
▁ison	-10.5022
▁75	-10.5023
intiaan	-10.5026
▁rad	-10.5026
ij	-10.5029
siivi	-10.5034
▁tukholman	-10.5037
pelin	-10.5039
▁karva	-10.5039
kaivo	-10.5041
▁vin	-10.5042
▁yläpuolella	-10.5043
▁erotettiin	-10.5045
▁tele	-10.5047
tutkinto	-10.505
viranomais	-10.5051
suunnitelma	-10.5057
jään	-10.5061
▁muuttuu	-10.5062
▁omisti	-10.5064
gy	-10.5066
▁hautausmaa	-10.5071
▁asemaa	-10.5072
▁noudatta	-10.5073
dé	-10.5074
▁bell	-10.5082
nyk	-10.5084
komitea	-10.5086
olin	-10.5087
▁nuorena	-10.509
▁kongressi	-10.5091
▁sum	-10.5091
sarjoissa	-10.5093
▁työtä	-10.5095
aatin	-10.5095
▁ääntä	-10.5098
▁pelaamaan	-10.5099
▁tutustu	-10.5102
▁nimesi	-10.5102
▁suomalaiset	-10.5108
▁esitys	-10.5108
nimen	-10.5109
▁loukkaantu	-10.5112
▁toisiaan	-10.5113
suojelu	-10.5114
▁rekisteröi	-10.5116
▁luona	-10.5119
▁silloise	-10.512
▁kevye	-10.5121
▁jatkosodan	-10.5121
▁säteily	-10.5123
▁niillä	-10.5124
▁kantaa	-10.5124
▁idässä	-10.5125
lem	-10.5125
▁päätoimittaja	-10.5125
▁etä	-10.513
▁opet	-10.5132
▁kle	-10.5132
uutena	-10.5132
▁villi	-10.5135
tuminen	-10.514
mmäksi	-10.514
▁marja	-10.5141
▁teema	-10.5142
yan	-10.5144
sairaala	-10.5146
▁pitki	-10.5146
▁syystä	-10.5149
maiden	-10.5149
▁2011–2012	-10.5149
▁omaksu	-10.5149
tyminen	-10.5151
tyvä	-10.5151
rick	-10.5152
▁myöhempi	-10.5152
▁eteläpuolella	-10.5153
▁jaksossa	-10.5154
▁nuoruus	-10.5155
▁nokia	-10.5157
rc	-10.5158
oikeutta	-10.5159
▁soveltu	-10.5159
▁(3	-10.5161
▁sävelsi	-10.5161
urheilu	-10.5164
▁pitkiä	-10.5165
tausta	-10.5166
mahdollisuuksi	-10.5166
▁näkyvä	-10.5169
eitä	-10.517
▁gla	-10.5172
dre	-10.5173
▁ohjaus	-10.5175
▁napoleon	-10.5177
feld	-10.5177
valmiste	-10.5177
▁kop	-10.5178
▁kuvattiin	-10.5183
▁kisoissa	-10.5183
▁ulottuu	-10.5184
▁sanomalehti	-10.5185
tela	-10.5187
▁lahti	-10.5187
▁mahdollisuus	-10.5191
▁kalle	-10.5191
ttäessä	-10.5192
▁brown	-10.5199
▁loppupuolella	-10.52
▁osia	-10.5205
koodi	-10.5206
taide	-10.5206
varsi	-10.5207
aikais	-10.5208
▁harjoitus	-10.521
▁maanviljelijä	-10.5213
▁viimeiseksi	-10.5214
tetut	-10.5216
rannan	-10.5216
▁elävä	-10.5216
▁oppilaa	-10.5218
▁rautatieasema	-10.5219
jul	-10.522
▁hyökä	-10.5223
summa	-10.5224
▁käsittelevä	-10.5224
▁dollarin	-10.5227
kkö	-10.5229
valtuusto	-10.5229
▁kuopio	-10.523
▁tunnetuimpia	-10.5231
ttamiseen	-10.5232
▁halunnut	-10.5233
evan	-10.5234
▁north	-10.5235
▁myrsky	-10.5239
▁jaettu	-10.5239
▁tarkoi	-10.524
satelliitti	-10.5241
▁(35.7	-10.5241
fy	-10.5242
kehä	-10.5243
▁tunnin	-10.5244
▁olevia	-10.5246
armeijan	-10.5247
▁todella	-10.5249
▁kupari	-10.5249
alueilla	-10.525
▁group	-10.5252
▁olevien	-10.5253
▁bill	-10.5253
▁prosessi	-10.5253
näytte	-10.5257
keskeise	-10.5257
▁saksalaiset	-10.5262
▁britanniassa	-10.5263
▁asioita	-10.5264
▁180	-10.5265
▁palki	-10.5265
▁2016.	-10.5267
▁nähdä	-10.5267
▁2004.	-10.5269
▁finland	-10.527
▁lähelle	-10.5271
▁yhdistyksen	-10.5271
▁lyh	-10.5272
▁kohdistu	-10.5275
▁kunnassa	-10.5279
▁sielu	-10.528
eau	-10.5281
▁kustaa	-10.5281
tessa	-10.5281
▁mono	-10.5281
▁sotaan	-10.5283
lääkäri	-10.5284
hän	-10.5284
▁esitteli	-10.5285
eläke	-10.5286
ić	-10.5287
▁norja	-10.5287
itsi	-10.529
▁britannia	-10.529
▁basisti	-10.529
ür	-10.5291
▁keskustan	-10.5292
▁siipi	-10.5294
▁divisioonan	-10.5298
joukkueeseen	-10.53
▁voimaan	-10.5302
м	-10.5305
maalla	-10.5307
▁unionin	-10.5309
▁emä	-10.531
▁alueeseen	-10.531
koista	-10.5311
▁kirkonkylä	-10.5312
▁hannu	-10.5312
▁tapahtunee	-10.532
▁funktio	-10.5323
▁1903	-10.5325
▁eversti	-10.5326
▁aikoinaan	-10.5329
▁ateena	-10.5329
▁pelattiin	-10.5329
▁markkina	-10.5329
ministerinä	-10.533
elokuvan	-10.533
ominaisuuksi	-10.5334
▁syynä	-10.5336
▁white	-10.5338
▁pistepörssin	-10.5338
▁tavallisi	-10.5339
tyksestä	-10.5342
▁jaettiin	-10.5343
osio	-10.5345
▁aro	-10.5351
▁league	-10.5357
▁huomio	-10.5358
▁scott	-10.536
▁reagoi	-10.5364
▁otettu	-10.5366
▁boston	-10.5368
valko	-10.5369
▁lopullisesti	-10.5373
osien	-10.5375
▁yleistä	-10.5375
alalla	-10.5375
▁palveluksesta	-10.5375
▁käytön	-10.5379
▁jalo	-10.538
tv	-10.5382
▁muodostettiin	-10.5383
▁elämäkerta	-10.5383
▁ennätys	-10.5386
▁teologi	-10.5388
missä	-10.5389
vissä	-10.5389
▁sto	-10.5393
ffin	-10.5394
▁kuus	-10.5404
▁kuuluisi	-10.541
▁palattuaan	-10.541
▁rodu	-10.5411
kiertueen	-10.5411
kohd	-10.5413
▁dor	-10.5416
rakenne	-10.5416
ttujen	-10.5418
▁runkosarja	-10.542
▁stalin	-10.5424
▁onnettom	-10.5425
käärme	-10.5426
▁puutte	-10.5427
▁osoitti	-10.5428
skan	-10.5434
nauha	-10.5435
stetaan	-10.5436
▁suojeluskunta	-10.5437
▁virallinen	-10.5437
▁berliinin	-10.5438
▁lentopallo	-10.5439
▁veteen	-10.544
llisena	-10.5441
▁länteen	-10.5441
▁kasvanut	-10.5442
haara	-10.5446
ilun	-10.5447
▁kerä	-10.5447
▁are	-10.5449
paikasta	-10.545
▁vaalea	-10.545
▁osavaltio	-10.5452
muotoinen	-10.5453
▁selkeä	-10.5454
▁las	-10.5456
▁käsin	-10.5459
▁myönsi	-10.5459
utuneet	-10.5459
▁paris	-10.5463
▁edustanut	-10.5467
pello	-10.5467
▁kruunun	-10.5467
▁piirissä	-10.5468
▁viimeksi	-10.5469
▁syl	-10.5469
▁vaatii	-10.5471
▁yhdysvaltalais	-10.5472
▁arthur	-10.5474
▁liikunta	-10.5475
vänsä	-10.5477
ñ	-10.5481
konetta	-10.5483
▁paini	-10.5487
▁blo	-10.549
▁vallankumous	-10.5495
▁aikanaan	-10.5496
▁power	-10.5497
bot	-10.5497
▁tois	-10.5497
orin	-10.5498
kumppani	-10.5501
▁rikka	-10.5501
kaupan	-10.5502
eistä	-10.5505
у	-10.551
▁tonnia	-10.551
▁tulipalo	-10.5513
ν	-10.5514
▁digitaali	-10.5514
▁poliittisen	-10.5516
reuna	-10.5517
▁cur	-10.5522
▁osoittautui	-10.5524
oksella	-10.5528
▁ulkopuolelle	-10.5528
tiloissa	-10.5529
ttomaksi	-10.553
▁ruumii	-10.5532
▁muutoksia	-10.5533
stoon	-10.5534
▁epäonnistu	-10.5537
pelejä	-10.5547
–15	-10.5549
oksesta	-10.555
domin	-10.5553
ovski	-10.5555
▁unkarin	-10.5556
▁tarkoitetaan	-10.5556
▁itsemurha	-10.5557
▁psyko	-10.5558
▁asiasta	-10.5558
▁rep	-10.556
kvar	-10.5562
issaan	-10.5566
▁päällikkönä	-10.5566
puh	-10.5567
▁varsinainen	-10.557
▁parempi	-10.5571
▁big	-10.5574
tehtäviin	-10.5576
linnan	-10.5577
▁viidestä	-10.5578
▁käytety	-10.5578
vaikeuksi	-10.5578
▁tarjoaa	-10.5582
jyvä	-10.5583
▁vajaa	-10.5584
strömin	-10.5585
▁vaalean	-10.5585
▁prim	-10.5586
▁koki	-10.5586
▁somer	-10.5587
afrikka	-10.5587
tähti	-10.5587
▁2013–2014	-10.5592
▁rikollis	-10.5592
latina	-10.5594
▁johtuen	-10.5595
▁suvun	-10.5597
autojen	-10.5599
teille	-10.5601
▁taloudellise	-10.5603
▁suunnitellut	-10.5604
▁alueita	-10.5604
sie	-10.5612
▁kannattaja	-10.5613
▁todettiin	-10.5614
▁hö	-10.5614
pelaaji	-10.5614
este	-10.5615
▁aiko	-10.5616
▁34	-10.5617
▁cho	-10.5617
▁elävät	-10.562
▁harju	-10.5624
▁laskeutu	-10.5624
▁selvisi	-10.5626
▁pitäisi	-10.5629
▁alkanut	-10.5629
teillä	-10.5631
▁seurassa	-10.5638
▁jackson	-10.5638
alueet	-10.5641
▁luovutti	-10.5644
gly	-10.5645
▁rod	-10.5646
▁medi	-10.5647
eet	-10.5648
▁valmisti	-10.5648
▁puun	-10.565
▁ylös	-10.5651
▁taisteluun	-10.5652
ttömän	-10.5653
veisto	-10.5654
▁sat	-10.5654
chel	-10.5655
▁käsittely	-10.5656
▁olemassaolo	-10.5661
▁ministeri	-10.5663
▁insinööri	-10.5663
▁valmentajana	-10.5667
▁suhtautu	-10.5669
opetukse	-10.567
▁saarelle	-10.5671
▁jättää	-10.5672
▁välittömästi	-10.5672
▁nimitti	-10.5674
öljy	-10.5675
▁linnoi	-10.5677
vaali	-10.5677
▁sak	-10.5679
iltiin	-10.568
▁löyty	-10.5681
▁suju	-10.5682
▁thor	-10.5693
▁saattavat	-10.5695
▁angel	-10.5697
aktiivi	-10.5698
▁37	-10.57
▁kesän	-10.5706
▁ö	-10.5706
rm	-10.5707
viiko	-10.5707
▁vala	-10.5709
▁liigassa	-10.5711
▁turkki	-10.5713
vakuutus	-10.5713
aalinen	-10.5714
▁selviyty	-10.5714
▁autio	-10.5716
▁asunno	-10.5717
▁kasa	-10.5718
▁bändi	-10.5725
ette	-10.5726
▁luoma	-10.5727
▁kappaleesta	-10.5728
▁esillä	-10.5729
▁myöhäis	-10.573
▁=	-10.5731
insa	-10.5731
▁merkitystä	-10.5731
myöh	-10.5732
suon	-10.5733
tuma	-10.5735
hdu	-10.5738
kirjojen	-10.5738
insinööri	-10.5744
▁ravi	-10.5744
▁vakava	-10.5745
tussa	-10.5747
▁kalevan	-10.575
▁prix	-10.5751
sodan	-10.5754
suu	-10.5757
▁tavoi	-10.576
▁välisen	-10.5762
▁120	-10.5763
saks	-10.5763
▁havainto	-10.5764
▁ša	-10.5768
▁lupa	-10.5769
▁välttä	-10.5769
▁surmansa	-10.5772
öl	-10.5773
▁zi	-10.5774
▁vakiintu	-10.5776
fra	-10.5778
▁aktiivisesti	-10.5778
▁teknillise	-10.5778
▁britti	-10.5778
▁pentti	-10.5779
ex	-10.578
bur	-10.5781
▁rou	-10.5782
▁cru	-10.5782
sz	-10.5783
▁kimppuun	-10.5783
▁vastus	-10.5783
▁tunnusta	-10.5783
▁ludvig	-10.5787
ob	-10.579
▁serie	-10.5792
juure	-10.5793
▁kasvo	-10.5793
▁alkua	-10.5795
▁leve	-10.5795
▁lähettää	-10.58
▁sido	-10.5803
▁tähden	-10.5804
▁2007–2008	-10.5806
▁haki	-10.5808
kulu	-10.5809
kkari	-10.581
▁moskova	-10.5812
▁vit	-10.5813
3:	-10.5814
▁2012–2013	-10.5814
kentällä	-10.5814
▁toistaiseksi	-10.5816
▁kehä	-10.5817
valle	-10.5818
▁paka	-10.5822
▁tapahtunut	-10.5825
uuksia	-10.5826
▁muille	-10.5826
kalle	-10.5826
▁mou	-10.5826
▁väinö	-10.5828
virran	-10.5828
udi	-10.5843
linnu	-10.5846
joukkueen	-10.5847
ges	-10.585
▁kroatia	-10.5852
▁haltuunsa	-10.5853
▁englantilainen	-10.5857
sävel	-10.5862
koissa	-10.5862
▁tuloksena	-10.5864
▁kruunu	-10.5864
bach	-10.5864
slav	-10.5866
▁metsästys	-10.5869
▁osu	-10.587
▁ylioppilas	-10.5873
mella	-10.5873
▁2014–2015	-10.5874
llisuudesta	-10.5875
▁täyte	-10.5876
▁asettu	-10.5877
johdon	-10.5878
▁tapahtumat	-10.5879
lp	-10.5879
▁hc	-10.588
▁löytö	-10.5882
saarten	-10.5886
lock	-10.5888
▁hyökkääjä	-10.5891
lintu	-10.5891
▁kiinassa	-10.5891
ingin	-10.5894
▁itään	-10.5896
▁huolehti	-10.5899
▁valmenta	-10.59
tuhanne	-10.5904
▁georgia	-10.5906
dien	-10.5906
▁tutkijat	-10.5907
kosta	-10.591
laadu	-10.5911
▁kiven	-10.5917
afrikan	-10.5917
▁kolmeen	-10.5918
▁lapsia	-10.592
konserni	-10.5921
▁ohjelman	-10.5921
▁2003.	-10.5922
▁kotona	-10.5926
0-	-10.5926
kunnalle	-10.5927
huoneen	-10.5928
rang	-10.593
komitean	-10.593
kehit	-10.5933
mé	-10.5935
rie	-10.5935
hyppy	-10.5936
▁temp	-10.5937
komissio	-10.5938
▁taa	-10.594
ctor	-10.5941
senin	-10.5942
▁muodosti	-10.5947
▁adolf	-10.5947
työtä	-10.5953
▁kansi	-10.5955
▁komedia	-10.5961
▁dub	-10.5961
▁kustannus	-10.5964
aineena	-10.5964
▁asukkaista	-10.5967
▁tarjosi	-10.5967
perinteise	-10.5971
romaani	-10.5971
▁kierroksen	-10.5971
▁nopei	-10.5972
istinen	-10.5972
▁tehtävässä	-10.5974
2:	-10.5975
▁säveltä	-10.5976
trop	-10.5979
▁heino	-10.5982
kielto	-10.5984
lou	-10.5984
lerin	-10.5986
vistä	-10.5986
juna	-10.5986
▁mittaisen	-10.5986
mund	-10.599
▁joe	-10.5992
jina	-10.5994
▁nähty	-10.5997
▁koulussa	-10.5999
derin	-10.6
▁koostui	-10.6003
▁hyökkäsi	-10.6003
▁kaikille	-10.6005
▁purettiin	-10.6006
▁oppositio	-10.6009
▁merkittävin	-10.6011
▁ruotsiin	-10.6012
vaatimukse	-10.6013
proteiini	-10.6019
▁sisällissota	-10.6021
▁maihinnousu	-10.6021
tellen	-10.6022
iltaan	-10.6023
näyttelijä	-10.6023
▁lause	-10.6023
▁barcelona	-10.6024
▁make	-10.6025
▁arm	-10.6025
▁yhdeksä	-10.6027
▁riveihin	-10.6028
▁talvella	-10.6028
ttaisiin	-10.603
▁fort	-10.603
kaava	-10.6035
▁kumo	-10.6035
pper	-10.6039
löydö	-10.6044
▁esine	-10.6045
päävalmentajaksi	-10.6046
▁toronto	-10.6048
▁asiaa	-10.6049
▁1899	-10.605
▁tarpeeksi	-10.6052
▁florida	-10.6052
▁parlamentin	-10.6055
jarru	-10.6057
tarina	-10.606
ksesta	-10.606
kerin	-10.6061
▁apua	-10.6062
▁torpedo	-10.6063
suora	-10.6066
alueita	-10.6068
mäinen	-10.607
bour	-10.6072
▁irlanti	-10.6072
▁die	-10.6078
▁runkosarjan	-10.608
▁ajalla	-10.6081
▁nico	-10.6083
pesi	-10.6085
isenä	-10.6086
▁pienet	-10.6086
▁tanska	-10.6089
sian	-10.6089
▁lipun	-10.6094
jalka	-10.6095
▁muotoon	-10.6097
▁asiantuntija	-10.6097
▁väärin	-10.6099
tuo	-10.61
▁yhdysvaltalaise	-10.6101
▁kori	-10.6101
▁syty	-10.6107
kielisen	-10.6113
▁mtv	-10.6115
▁38	-10.6117
vari	-10.6117
vahti	-10.6117
tuksista	-10.6121
▁kaatui	-10.6121
▁ukraina	-10.6121
▁johnson	-10.6121
prosessi	-10.6124
▁oja	-10.6127
▁raunio	-10.6133
▁ensimmäiseen	-10.6134
▁näyttä	-10.6136
ique	-10.6137
albumin	-10.6137
▁münchen	-10.6138
▁päällikkö	-10.6138
kuntia	-10.6138
▁tapahtumia	-10.6138
▁albumia	-10.6139
▁intia	-10.6139
koneita	-10.614
juusto	-10.6141
▁grön	-10.6142
psi	-10.6143
▁yleisurheilu	-10.6143
▁kup	-10.6147
▁(16	-10.6148
▁liittyviä	-10.6148
day	-10.6152
▁tyttären	-10.6154
▁award	-10.6155
▁laite	-10.6155
▁pataljoonan	-10.6159
▁perinteisesti	-10.6162
▁sveitsin	-10.6163
▁kandidaatiksi	-10.6165
▁alfred	-10.6165
tiedosto	-10.6168
▁1,5	-10.6169
▁ui	-10.6169
hiukkas	-10.6169
▁toimittajana	-10.617
▁rah	-10.617
akti	-10.6175
▁eero	-10.6176
▁ennus	-10.6177
▁sijoitta	-10.6177
▁nykyaika	-10.6178
▁järjestön	-10.6179
elime	-10.6183
▁joissakin	-10.6183
▁valioliiga	-10.6185
ottelun	-10.6186
▁mänty	-10.6192
▁lukuisi	-10.6194
kista	-10.6194
▁prote	-10.6195
järjestely	-10.6195
oille	-10.6201
▁kokee	-10.6203
▁juhani	-10.6204
▁luokan	-10.621
▁ivan	-10.6212
▁1880	-10.6216
taloudellis	-10.6216
eria	-10.6218
▁kaudesta	-10.6224
miselle	-10.6228
▁moraali	-10.6232
▁antanut	-10.6232
▁rasva	-10.6234
▁joen	-10.6236
ι	-10.6236
▁sisko	-10.6237
isina	-10.6238
veri	-10.6239
ovitš	-10.6242
tajien	-10.6242
orkesteri	-10.6242
▁yhteys	-10.6245
▁ajaksi	-10.6246
tuivat	-10.6247
▁muilla	-10.6249
▁espoon	-10.6254
oidu	-10.6256
mul	-10.6256
▁lehdistö	-10.626
+1	-10.6262
▁chris	-10.6263
ootti	-10.6265
▁auttoi	-10.6265
▁yhteinen	-10.6265
ridge	-10.6266
mallin	-10.6266
▁maisema	-10.6269
▁keskeinen	-10.6272
▁laulun	-10.6277
sestä	-10.6278
▁vaasa	-10.6281
dom	-10.6282
г	-10.6284
▁keuhko	-10.6284
▁1902	-10.6285
qua	-10.6285
▁francisco	-10.6286
▁käyttäen	-10.6288
▁klassise	-10.6289
sylinteri	-10.6292
ruhtina	-10.6295
herr	-10.6296
▁siirtä	-10.6297
tuva	-10.6298
▁poikkea	-10.6299
▁saatavilla	-10.63
▁kiito	-10.6302
yhdist	-10.6303
▁pyrkii	-10.6305
▁tuhosi	-10.6308
hiippa	-10.6309
▁luonne	-10.6309
istettu	-10.6311
ough	-10.6311
▁35)	-10.6312
▁muodostivat	-10.6312
▁saapuu	-10.6315
▁tytö	-10.6315
▁muovi	-10.6315
▁nimitystä	-10.6318
▁night	-10.6318
light	-10.6318
bakteeri	-10.632
▁samoihin	-10.6321
eillä	-10.6321
tuaan	-10.6323
upseeri	-10.6324
▁yhteistyössä	-10.6326
▁osoittaa	-10.6328
▁avasi	-10.6328
päivän	-10.633
▁kauan	-10.6331
▁kuljettaja	-10.6334
ystävä	-10.6334
▁kirkossa	-10.6336
▁vastarinta	-10.6337
▁rot	-10.6337
▁vanhoi	-10.6338
▁mikael	-10.634
▁saksaan	-10.634
kasti	-10.6348
▁luopui	-10.6348
▁imm	-10.6352
kaarti	-10.6353
▁system	-10.6354
▁seksuaali	-10.6355
▁raamatun	-10.6356
beck	-10.6356
prosentti	-10.6357
ravinno	-10.6359
▁kuolleen	-10.6359
varo	-10.6359
tunto	-10.6359
▁leima	-10.636
mmassa	-10.6361
▁hyökkää	-10.6367
bia	-10.6369
▁emi	-10.6369
▁maapallo	-10.6372
▁omien	-10.6372
▁mala	-10.6372
tša	-10.6373
▁kolmio	-10.6374
uudet	-10.6377
▁brand	-10.6379
▁taisteluihin	-10.638
▁aka	-10.6382
▁syistä	-10.6383
▁lars	-10.6385
zy	-10.6389
▁kuvasi	-10.6391
▁jugoslavia	-10.6392
▁poliisin	-10.6392
▁piha	-10.6393
▁marie	-10.6394
pyy	-10.6398
dik	-10.6398
▁atomi	-10.6399
ration	-10.6404
▁gil	-10.6408
juhla	-10.6413
▁ympärillä	-10.6414
▁euron	-10.6415
▁melkein	-10.6417
järvellä	-10.6417
▁vähentä	-10.6418
▁yhteyttä	-10.642
▁kohden	-10.6421
vuoro	-10.6421
▁cam	-10.6424
▁soitto	-10.6425
egypti	-10.6425
▁akseli	-10.6426
paikkana	-10.6427
▁esimerkki	-10.6427
töiden	-10.6429
hallitus	-10.6431
▁näihin	-10.6433
▁elokuvasta	-10.6438
▁anni	-10.6441
té	-10.6442
▁omistaa	-10.6442
analyysi	-10.6443
▁sund	-10.6445
soitto	-10.6446
kers	-10.6449
▁arma	-10.6451
siiven	-10.6451
elius	-10.6455
lahteen	-10.6457
▁kli	-10.6458
▁tallinna	-10.6462
oida	-10.6462
▁mestarien	-10.6464
▁agent	-10.6465
taiteen	-10.6466
▁alueet	-10.6467
▁1901	-10.647
miesten	-10.647
tuksella	-10.647
▁uhkaa	-10.6471
▁mestaruutta	-10.6474
▁ensimmäisi	-10.6475
eläin	-10.6475
lyhenne	-10.6475
▁1898	-10.6475
▁sokeri	-10.6476
patsas	-10.648
▁1000	-10.6482
poliisi	-10.6483
vaiheen	-10.6483
▁2017.	-10.6483
▁gabriel	-10.6485
▁talouden	-10.6486
°	-10.6486
suomessa	-10.6496
laboratorio	-10.6497
▁element	-10.6499
▁kevät	-10.65
puolinen	-10.65
▁tietoja	-10.6502
tavoittee	-10.6506
▁havaittu	-10.6506
▁tyyty	-10.6507
koneen	-10.6512
▁toisi	-10.6513
head	-10.6514
▁näyttämö	-10.6516
▁linnun	-10.6518
▁väitti	-10.652
▁eteläosa	-10.652
enius	-10.6525
ktio	-10.6526
gö	-10.6529
▁asetettiin	-10.6529
kivääri	-10.6529
▁pysähty	-10.653
▁elämänsä	-10.653
▁yksikkö	-10.6531
▁varm	-10.6532
iltansa	-10.6534
▁maatila	-10.6538
▁laatu	-10.6539
össä	-10.654
▁dvd	-10.6542
▁punk	-10.6544
▁valon	-10.6545
teos	-10.6547
karsinta	-10.6547
▁venäläisten	-10.6547
▁seudun	-10.6552
lause	-10.6553
▁tieteen	-10.6555
▁kajaani	-10.6557
▁bull	-10.6558
▁islam	-10.6558
▁lit	-10.6558
▁espoo	-10.6558
▁väestönlaskenna	-10.6563
historioitsija	-10.6563
muun	-10.6565
▁muutto	-10.6565
▁mike	-10.6569
kirkon	-10.657
▁lep	-10.6573
▁leppä	-10.6573
▁kelta	-10.6576
▁lääketieteen	-10.6576
▁roger	-10.6577
ttia	-10.6578
merelle	-10.6579
hallin	-10.6581
▁hiihto	-10.6584
mittari	-10.6584
aineiden	-10.6586
gol	-10.6588
▁suhteessa	-10.6591
▁sukupuoli	-10.6591
ots	-10.6594
▁piirteitä	-10.6597
kuvio	-10.6598
▁kev	-10.6601
▁rakennutti	-10.6609
▁motor	-10.661
-3	-10.6611
▁salon	-10.6613
▁valmiiksi	-10.6613
▁kansallisen	-10.6614
burgin	-10.6615
▁tapaus	-10.6615
akatemiassa	-10.6615
▁josé	-10.662
▁1870	-10.6624
ml	-10.6625
kauppias	-10.6629
kierrokse	-10.663
▁kalastus	-10.663
▁stadion	-10.6633
▁rakentama	-10.6633
▁oppilas	-10.664
▁kehittää	-10.6646
▁järjestety	-10.665
▁juonta	-10.665
▁haluaa	-10.6651
▁kamppailu	-10.6653
lipu	-10.6653
▁fas	-10.6654
▁halo	-10.6654
▁sotien	-10.6654
▁wood	-10.6659
▁1897	-10.6659
▁eric	-10.6663
▁leon	-10.6664
ennätyksen	-10.6665
▁aikakaus	-10.6667
vuosina	-10.6669
▁ove	-10.6675
▁siirtomaa	-10.6677
▁roolissa	-10.6679
ín	-10.6682
kauteen	-10.6682
▁suurimmaksi	-10.6685
▁luola	-10.6685
vuuden	-10.6687
▁cd	-10.6687
▁käyttämään	-10.6687
▁ratsu	-10.6688
▁ensimmäisiä	-10.6689
▁indonesia	-10.669
energia	-10.6693
viesti	-10.6695
levi	-10.6695
▁mongoli	-10.6695
▁ystävänsä	-10.6695
▁aiemma	-10.6695
▁res	-10.6698
–16	-10.6702
neille	-10.6703
▁cou	-10.6705
▁luokse	-10.6706
kkaat	-10.6707
▁erilaiset	-10.6709
sula	-10.6709
▁maisteri	-10.671
▁kanadassa	-10.6713
poikkeuks	-10.6713
llisesta	-10.6716
▁kamera	-10.6716
tiikan	-10.6718
▁museon	-10.6719
▁imp	-10.6721
tajia	-10.6723
▁perustuslaki	-10.6724
▁ruoho	-10.6725
▁liikkuva	-10.6725
▁toiminnassa	-10.6728
phi	-10.6728
▁toimitus	-10.6729
▁linnoitus	-10.6732
▁tutustui	-10.6732
▁hieta	-10.6732
▁harha	-10.6732
miehe	-10.6733
▁puheen	-10.6733
seppä	-10.6733
esiintymi	-10.6735
▁pö	-10.6735
▁kuka	-10.6736
▁käsittelee	-10.6736
tettyä	-10.6737
▁tyk	-10.6737
▁pyrstö	-10.6737
▁äidin	-10.6738
tyneet	-10.6739
ahven	-10.6739
▁ari	-10.674
▁poltto	-10.6741
pukeutu	-10.6742
bas	-10.6743
▁väitteli	-10.6744
tensä	-10.6747
▁valtava	-10.6747
ismia	-10.6748
▁god	-10.675
▁vakuu	-10.6752
▁marssi	-10.6754
▁talle	-10.6757
▁vladimir	-10.6757
▁kielletty	-10.6762
▁18-	-10.6762
ttämällä	-10.6763
töissä	-10.6764
kaisi	-10.6767
▁levytti	-10.6767
▁(14.1	-10.6767
▁tasapaino	-10.6768
juh	-10.677
▁pyöreä	-10.677
kilpailuihin	-10.6771
▁edeltäjä	-10.6771
▁kiekko	-10.6772
kysymys	-10.6774
▁koulutuksen	-10.6776
yydestä	-10.6777
▁(4	-10.6777
▁vedet	-10.6778
ikassa	-10.6779
ram	-10.6785
ár	-10.6786
▁hallitseva	-10.6786
työkalu	-10.6788
▁kaava	-10.6789
▁satu	-10.6789
▁kerta	-10.6791
▁hockey	-10.6797
▁puolilla	-10.6802
▁kiinnostunut	-10.6803
ryhmään	-10.6804
▁luonte	-10.6806
teesta	-10.6806
neistä	-10.6806
jokeen	-10.6811
▁johtuu	-10.6812
vaihto	-10.6815
▁2015–2016	-10.6816
roth	-10.6816
▁seikkailu	-10.6819
▁menestyi	-10.682
aria	-10.6824
kriitikko	-10.6824
▁sanomien	-10.6825
▁magneetti	-10.6825
isoi	-10.6826
historian	-10.683
ttomasti	-10.6831
▁markkinoille	-10.6831
▁varapuheenjohta	-10.6832
▁olevaa	-10.6834
stedt	-10.6838
▁valmennus	-10.6838
▁toden	-10.6838
▁puhelin	-10.6839
▁chile	-10.6841
▁viktor	-10.6842
▁turkkilais	-10.6842
▁sanat	-10.6846
▁jousi	-10.6847
▁hallinnon	-10.6848
▁aik	-10.6848
▁miss	-10.6849
pöytä	-10.6849
▁reitin	-10.685
▁2:	-10.6852
▁ruusu	-10.6854
▁pääasialli	-10.6855
näyttelijänä	-10.6859
▁opinnot	-10.6862
▁testi	-10.6867
▁ruumis	-10.6872
velvollis	-10.6873
sey	-10.6875
▁pahoin	-10.6876
▁perheensä	-10.6876
▁rakenn	-10.688
▁vuosikymmenen	-10.6881
▁suuresti	-10.6882
pyr	-10.6882
▁itsenäisyys	-10.6884
▁ilmi	-10.6885
▁ympäröivä	-10.6887
kirjoja	-10.6888
lääkkei	-10.6889
rikko	-10.689
osakeyhtiö	-10.6894
▁vanhempansa	-10.69
▁teosta	-10.69
teilla	-10.6904
▁kome	-10.6905
tetyn	-10.6907
▁opiskel	-10.6907
tunnukse	-10.6907
▁joukkueensa	-10.6912
▁ottivat	-10.6914
tyivät	-10.6916
▁turk	-10.6916
▁partio	-10.6919
▁pila	-10.6919
▁nolla	-10.6919
▁annettu	-10.6921
▁emo	-10.6922
▁/	-10.6923
▁jatkuu	-10.6923
▁sito	-10.6925
▁väriltään	-10.6926
▁haara	-10.6927
▁helena	-10.6928
vartija	-10.6931
▁työstä	-10.6932
▁vieressä	-10.6936
pronssia	-10.6942
▁persoona	-10.6942
liikennettä	-10.6943
▁esko	-10.6949
▁street	-10.6949
▁suojasi	-10.6952
▁vaikuttanut	-10.6952
puolisko	-10.6954
▁sävellys	-10.6956
▁metsän	-10.6961
hevos	-10.6962
▁pariisi	-10.6969
▁bulgaria	-10.6972
▁basso	-10.6973
▁alta	-10.6975
▁alkujaan	-10.6976
▁teknologia	-10.6976
▁väärä	-10.6981
▁maaperä	-10.6982
▁rakennukset	-10.6986
▁matt	-10.6987
▁kron	-10.699
laisesta	-10.6996
vaattei	-10.6997
kohdan	-10.7
õ	-10.7002
televa	-10.7002
▁aiheuttava	-10.7003
▁kolmessa	-10.7003
syöpä	-10.7004
tekniikkaa	-10.7004
▁pidety	-10.7005
ttomuus	-10.7007
▁kevyt	-10.7009
▁sotilai	-10.701
hiihdo	-10.7011
koulutus	-10.7012
▁käsittää	-10.7013
▁maito	-10.7015
▁laajenta	-10.7017
▁jokin	-10.7017
▁jäte	-10.7017
tavia	-10.7018
suus	-10.7019
▁sparta	-10.702
esimerkiksi	-10.7022
▁christian	-10.7022
tarinoi	-10.7024
▁yhdistettiin	-10.7025
mmasta	-10.7027
▁lennon	-10.7027
п	-10.7028
salon	-10.7028
▁työskennel	-10.7032
▁edustava	-10.7034
▁serbia	-10.7034
▁aikansa	-10.7034
lentäjä	-10.7036
▁kuollei	-10.7037
▁harvoin	-10.7037
▁esim	-10.7042
kkaus	-10.7043
▁johtami	-10.7044
▁voiman	-10.7046
tekniika	-10.7047
▁jacob	-10.7047
▁vaikutuksesta	-10.7047
nyky	-10.7048
shire	-10.705
▁stone	-10.7052
▁hammas	-10.7054
▁miehensä	-10.7057
▁jim	-10.7062
kirjaime	-10.7066
ohjelmaa	-10.7066
▁version	-10.7067
tär	-10.7067
▁ominaisuuksia	-10.7068
seinä	-10.707
▁vilhelm	-10.7071
▁lewis	-10.7072
keli	-10.7072
▁johtanut	-10.7075
kara	-10.7083
iska	-10.7084
.»	-10.7088
suuri	-10.7092
stön	-10.7092
dale	-10.7094
▁lope	-10.7095
▁jaetaan	-10.7096
▁saamaan	-10.7097
▁rose	-10.7097
▁nuoren	-10.7102
▁prikaati	-10.7106
paikalta	-10.711
▁kannattaji	-10.7111
▁elämään	-10.7114
suihku	-10.7119
▁saarta	-10.7124
▁kansakoulun	-10.7125
▁pyritään	-10.7127
aasiassa	-10.7129
▁clark	-10.7129
laitoksi	-10.7132
▁kannatti	-10.7133
▁mika	-10.7136
▁metri	-10.7137
▁palm	-10.7137
▁parin	-10.714
▁lisätä	-10.7143
▁alppi	-10.7144
▁puhtaa	-10.7144
▁voittoon	-10.7149
▁vaale	-10.7151
▁albumilla	-10.7151
▁maisteriksi	-10.7152
▁draama	-10.7154
▁verra	-10.7155
ović	-10.7156
dista	-10.7159
▁vihki	-10.7162
päijänteen	-10.7162
▁esittävä	-10.7162
▁aikoina	-10.7166
▁väitöskirja	-10.7171
▁geeni	-10.7177
▁useimmi	-10.7177
rov	-10.7178
▁ball	-10.7182
▁lamp	-10.7183
▁jokaisen	-10.7185
teksti	-10.7185
sisällö	-10.7185
▁huomattavi	-10.7186
opiston	-10.7186
kohteita	-10.7187
▁rannikolla	-10.7188
▁luettelo	-10.719
ries	-10.7195
dynastian	-10.7195
tieteellinen	-10.7197
▁55	-10.7197
▁luopu	-10.7199
▁tasolla	-10.7204
▁siirtyivät	-10.7205
▁350	-10.7206
▁2006–2007	-10.7206
▁yo	-10.7207
▁luvan	-10.7208
mistaan	-10.7209
rangaistus	-10.721
▁sarjataso	-10.7214
tettuja	-10.7217
▁ulkomaalais	-10.722
▁pelo	-10.7222
ääni	-10.7223
▁sdp	-10.7223
parlament	-10.7223
studio	-10.7224
▁voittoa	-10.7226
▁kriisi	-10.7227
veto	-10.7228
▁1860	-10.7231
▁työntekijä	-10.7231
▁todellisuudessa	-10.7232
▁perustamassa	-10.7232
näyttelijöi	-10.7232
▁hallitsema	-10.7232
yp	-10.7233
▁tuotannon	-10.7237
▁yleisen	-10.7239
kalenteri	-10.724
rannikon	-10.7246
tellut	-10.7248
kkuus	-10.7248
▁terveyden	-10.7249
▁1896	-10.7252
▁koostuva	-10.7253
ios	-10.7253
istisen	-10.7254
töks	-10.7256
▁näkyvi	-10.7258
▁jäsenten	-10.7258
esineitä	-10.726
▁rö	-10.7262
▁neliö	-10.7263
irin	-10.7264
▁(15	-10.7265
▁vienti	-10.7266
▁opiskelemaan	-10.7267
▁kaste	-10.7268
cus	-10.727
▁vallankumoukse	-10.7272
moottorei	-10.7273
hur	-10.7273
▁sammu	-10.7275
neelle	-10.7275
–7	-10.7276
▁island	-10.7276
▁lisäsi	-10.728
▁neljännen	-10.728
▁joensuun	-10.7281
▁teatterin	-10.7281
▁viihty	-10.7282
▁suomalaisia	-10.7284
yritykset	-10.7284
▁vaiva	-10.7286
risteilijä	-10.7289
▁hoiti	-10.729
▁kuorma	-10.729
▁eino	-10.7291
tieteellisen	-10.7293
▁stanley	-10.7294
nuor	-10.73
osista	-10.73
▁tony	-10.7305
▁vastaavasti	-10.7305
▁tasavalta	-10.7306
▁varasto	-10.7309
▁taho	-10.731
▁loppuottelussa	-10.731
▁az	-10.7311
▁virallisen	-10.7311
▁esiteltiin	-10.7311
▁malmi	-10.7315
▁vanhoja	-10.7316
cor	-10.7317
▁virkaan	-10.7319
▁sadan	-10.7321
▁saatuaan	-10.7321
▁sound	-10.7322
isteja	-10.7324
kohdat	-10.7324
▁mestis	-10.7324
▁ahvenanmaa	-10.7324
▁kehittämä	-10.7324
▁vaihteessa	-10.7325
standardi	-10.7326
pri	-10.7326
ttäminen	-10.7326
ρ	-10.7328
▁avaa	-10.733
▁tauti	-10.7332
▁ajalta	-10.7333
tteleva	-10.7334
▁eurooppaan	-10.7334
▁anders	-10.7335
▁glo	-10.7335
▁mario	-10.7338
leikkaus	-10.7339
▁vahvasti	-10.7341
yksiköi	-10.7341
▁konservatiivi	-10.7342
▁venäläiset	-10.7343
▁omalla	-10.7343
▁lisääntyminen	-10.7346
▁kate	-10.7348
ο	-10.735
▁satoja	-10.7351
kaani	-10.7351
▁nautti	-10.7353
kkula	-10.7354
yhteydet	-10.7355
pha	-10.7359
▁nuorempi	-10.736
rooleja	-10.736
▁zu	-10.736
oikeisto	-10.7362
▁suorittaa	-10.7364
▁luis	-10.7365
ojan	-10.7365
▁määrittä	-10.7366
valtioiden	-10.7368
▁thi	-10.7369
koita	-10.7369
▁sup	-10.7371
▁ehdotti	-10.7371
ografia	-10.7377
▁työskentelee	-10.7377
▁osakilpailu	-10.738
onomi	-10.7385
▁ensimmäiseksi	-10.7386
▁suomesta	-10.7387
▁diplomaatti	-10.7391
tuksiin	-10.7391
▁lopuksi	-10.7392
llisyys	-10.7396
▁valloitta	-10.74
▁haavoittu	-10.74
▁kiss	-10.7403
▁ss	-10.7408
timen	-10.7417
▁koi	-10.7418
kolla	-10.7418
▁out	-10.7422
▁taito	-10.7423
▁kauhu	-10.7425
▁mainitu	-10.7426
▁whi	-10.7426
▁tehokkaa	-10.7427
▁ylivoima	-10.743
▁käydä	-10.7432
tekijöi	-10.7434
▁kuuba	-10.7435
amiraali	-10.7435
▁tukholma	-10.7436
vaihtelu	-10.7437
iselta	-10.744
kuume	-10.7447
tyneen	-10.7447
▁day	-10.7451
▁alex	-10.7454
kisoihin	-10.7455
▁rosen	-10.7455
▁onnistuu	-10.7459
sykl	-10.7462
▁sofia	-10.7464
maahan	-10.7465
▁käsitteli	-10.7467
hankkeen	-10.7472
rangaistukse	-10.7476
▁tyttärensä	-10.7476
tunnel	-10.7478
periaattee	-10.7478
▁master	-10.7479
▁kasvatus	-10.7483
ympyrä	-10.7485
▁rakennuksia	-10.7486
▁kanavan	-10.7486
▁nousee	-10.7487
murha	-10.7488
yama	-10.7488
▁aku	-10.749
vuotisen	-10.7491
▁kuljetus	-10.7493
isissä	-10.7495
▁valmistama	-10.7495
▁vähemmistö	-10.7497
▁sisältävä	-10.7498
töitä	-10.7502
kkeli	-10.7502
▁miina	-10.7503
▁peliä	-10.7504
▁patri	-10.7505
▁purjehti	-10.7508
▁pelastaa	-10.751
▁kuudenneksi	-10.7512
▁playoff	-10.7516
▁pyör	-10.7519
suhde	-10.7519
▁hot	-10.752
▁sukulais	-10.7522
▁runsas	-10.7525
kaari	-10.7525
▁valmii	-10.7526
oji	-10.7526
▁maajoukkueen	-10.7526
▁long	-10.7528
▁kolumbia	-10.753
dos	-10.753
luettelo	-10.7532
▁egyptin	-10.7533
▁prof	-10.7533
▁päävalmentajana	-10.7534
blo	-10.7534
kirjoitus	-10.7535
▁herman	-10.7537
vaiheessa	-10.7537
τ	-10.7538
ington	-10.7541
mania	-10.7543
ttamisen	-10.7544
toimiston	-10.7545
▁päämaja	-10.7545
▁juho	-10.7547
▁elämästä	-10.7548
▁välistä	-10.7549
tumista	-10.7553
100	-10.7553
far	-10.7553
teatterin	-10.7557
▁ano	-10.756
patteri	-10.7569
peleissä	-10.7571
▁rahoitus	-10.7577
▁kehitetty	-10.7577
▁nousivat	-10.758
▁keh	-10.7584
▁liittyvi	-10.7585
▁veljes	-10.7588
alusta	-10.7588
▁pitävät	-10.7589
▁lil	-10.759
tiedettä	-10.7592
kilometri	-10.7593
▁päättyy	-10.7593
▁näyte	-10.7593
▁läsnä	-10.7597
▁brittien	-10.7598
▁keikka	-10.7598
▁läpimurto	-10.7602
▁vihollisen	-10.7605
siirro	-10.7606
tulla	-10.7608
ippo	-10.761
▁talvisodan	-10.7612
▁tavoite	-10.7616
koneiden	-10.7616
▁porvari	-10.7617
▁tälle	-10.7618
▁tulen	-10.7619
▁haudattu	-10.7619
▁laivue	-10.762
3)	-10.7621
kilpailujen	-10.7622
▁pesäpallo	-10.7622
▁menestystä	-10.7622
▁kaula	-10.7623
▁lokakuun	-10.7624
cio	-10.7626
demokraattisen	-10.7628
▁sijaitsevan	-10.7631
rac	-10.7632
patsaa	-10.7632
▁osaston	-10.7637
▁perustaa	-10.7637
kaveri	-10.7638
potku	-10.7639
▁haudattiin	-10.7639
keskuksi	-10.764
neuvo	-10.764
gle	-10.764
▁monte	-10.7641
▁peruskoulu	-10.7641
▁valloitti	-10.7643
▁tulevan	-10.7644
▁yhdellä	-10.7648
gre	-10.765
venäjä	-10.7651
▁löytynyt	-10.7652
й	-10.7652
▁vaihtu	-10.7658
▁ortodoksi	-10.7659
makedonia	-10.7661
▁menee	-10.7662
laus	-10.7662
berliini	-10.7663
▁venäjälle	-10.7664
gal	-10.7669
blom	-10.7669
▁veturi	-10.7672
kkala	-10.7674
autoja	-10.7674
▁pyrkivät	-10.7674
я	-10.7675
▁ranskaan	-10.7676
pakka	-10.7678
kasveja	-10.768
▁liberaali	-10.7683
▁katsotaan	-10.7685
▁yhteiskoulu	-10.7689
šin	-10.7692
▁lukumäärä	-10.7694
raati	-10.7694
▁kääntyi	-10.7695
▁kaupan	-10.7695
uudistus	-10.7696
▁karsi	-10.7699
▁kirjeen	-10.77
▁urku	-10.77
▁arki	-10.7702
▁välimeren	-10.7703
▁saapuivat	-10.7704
▁luonnonsuojelu	-10.7704
tilanteessa	-10.7706
selkä	-10.771
▁tapahtuva	-10.7712
▁asukasluku	-10.7713
▁erässä	-10.7714
▁viikko	-10.7719
tsija	-10.7721
tekijöitä	-10.7722
▁australiassa	-10.7724
▁edustalla	-10.7725
▁geo	-10.7726
▁holl	-10.7727
▁valtasivat	-10.7729
▁edustusjoukkuee	-10.773
▁energian	-10.7731
tonta	-10.7733
▁hero	-10.7733
tellaan	-10.7733
▁kesäolympialais	-10.7735
ttejä	-10.7739
ssonin	-10.7739
korti	-10.774
▁saksalaisen	-10.7741
▁tarkoitukse	-10.7743
▁kuivu	-10.7746
▁perinteisen	-10.7748
▁venetsia	-10.7754
ping	-10.7755
tymisen	-10.7756
▁harja	-10.7757
▁apollo	-10.7759
▁muta	-10.7763
▁sijan	-10.7763
valtaa	-10.7765
▁ruotsalaisen	-10.7765
▁teini	-10.7766
▁turha	-10.7769
ord	-10.7771
▁miljardia	-10.7773
venäjän	-10.7774
▁chan	-10.7775
▁työläis	-10.7776
▁vaakunan	-10.7777
ffe	-10.7779
▁strateg	-10.778
▁vapaus	-10.7784
▁if	-10.7786
septi	-10.779
rajan	-10.7791
▁hätä	-10.7792
1:	-10.7792
avaruude	-10.7794
▁määritelmä	-10.7795
kkalan	-10.78
▁haar	-10.7803
puri	-10.7807
suunnitel	-10.781
–10	-10.7813
ruoka	-10.7814
▁antonio	-10.7815
▁rengas	-10.7815
▁jouduttiin	-10.7818
▁khl	-10.7818
▁armenia	-10.7818
▁aasian	-10.7823
▁tulokse	-10.7825
jiin	-10.783
▁jalkapallon	-10.7831
▁tiili	-10.7832
▁presidentinvaal	-10.7833
▁mak	-10.7837
▁voittaa	-10.784
gno	-10.7841
▁team	-10.7846
▁terva	-10.7846
▁esille	-10.7853
elimistö	-10.7853
▁house	-10.7854
maita	-10.7857
roos	-10.7861
laisille	-10.7861
tši	-10.7862
▁esikunta	-10.7864
▁muistomerkki	-10.7866
rou	-10.7873
▁valvonta	-10.7876
▁web	-10.7879
korkeakoulussa	-10.788
wick	-10.7881
▁samanaikaisesti	-10.7883
▁juoma	-10.7883
▁kehittynyt	-10.7883
polve	-10.7885
▁pori	-10.7886
ý	-10.7888
▁tultua	-10.789
▁eläinten	-10.789
dell	-10.7891
ness	-10.7891
järv	-10.7893
▁omistukseen	-10.7893
▁johtajaksi	-10.7895
reaktio	-10.7895
▁niille	-10.7896
▁johda	-10.7897
▁jona	-10.7899
▁edisty	-10.79
▁sab	-10.7906
▁konferenssi	-10.7907
▁tiheä	-10.7908
▁uskoi	-10.7909
▁sijalla	-10.7909
▁säännöllisesti	-10.7912
▁yhteiskunnan	-10.7913
▁välttämättä	-10.7916
▁aineisto	-10.7917
▁cupissa	-10.7922
keino	-10.7923
▁arkisto	-10.7924
▁korpi	-10.7925
▁sibelius	-10.7925
kelta	-10.7926
cca	-10.7929
μ	-10.793
▁tärkei	-10.7933
▁ray	-10.7934
seksuaali	-10.7935
▁slo	-10.7935
rakennuksessa	-10.7939
tuotteiden	-10.7941
▁luc	-10.7941
daan	-10.7942
video	-10.7942
▁raivo	-10.7943
roy	-10.7944
▁poikaa	-10.7944
▁1895	-10.7946
▁viestintä	-10.7948
▁sukua	-10.795
gur	-10.7952
iteetti	-10.7953
jäähdy	-10.7954
▁eteen	-10.7959
▁monen	-10.7961
kasvei	-10.7963
prosess	-10.7969
▁hämeenlinnan	-10.7969
▁tosi	-10.797
ces	-10.797
maata	-10.7971
hallinta	-10.7971
▁itäpuolella	-10.7972
▁young	-10.7972
▁irrot	-10.7972
▁frans	-10.7972
vietnam	-10.7975
▁kumma	-10.7978
▁saadakseen	-10.7979
▁miekka	-10.7979
harjoittelu	-10.7988
viiri	-10.7988
kurssin	-10.7988
hamin	-10.7989
▁end	-10.7992
▁maailmanlaajui	-10.7992
▁indi	-10.7992
▁kong	-10.7993
alojen	-10.7993
▁nokka	-10.7995
▁vierailu	-10.7996
▁vaihdettiin	-10.7997
▁muitakin	-10.7998
▁hää	-10.8
neeksi	-10.8002
öitä	-10.8004
itz	-10.8004
▁toiminnasta	-10.8006
kkeja	-10.8006
▁kip	-10.8007
▁tuhat	-10.801
uoma	-10.8012
▁puolisonsa	-10.8014
▁wild	-10.8014
▁ever	-10.8014
▁jr	-10.8014
raatti	-10.8017
▁senaatin	-10.8018
▁vaurioi	-10.8018
war	-10.8019
oksessa	-10.8019
▁kirjoituksi	-10.802
▁näkee	-10.802
▁kunto	-10.8025
▁uskotaan	-10.8026
ionin	-10.8027
▁paikkansa	-10.8029
▁not	-10.8029
akseli	-10.803
amino	-10.8031
isoitu	-10.8032
radan	-10.8032
▁neljästä	-10.8035
▁fox	-10.8035
konttori	-10.8036
uksien	-10.8036
kokouksen	-10.8039
suunnittelu	-10.8043
udet	-10.8043
▁koivisto	-10.8043
▁pidätettiin	-10.8043
pankki	-10.8046
▁ikkuna	-10.8046
ordin	-10.8049
uudistukse	-10.8049
▁kunniaksi	-10.8049
▁(5	-10.805
▁viimeisin	-10.8052
maailman	-10.8053
▁kehitettiin	-10.8055
▁yhdistelmä	-10.8057
б	-10.8058
▁hamilton	-10.8058
▁portugalin	-10.806
kkeiden	-10.8063
▁fred	-10.8065
graafi	-10.8066
▁ryhmään	-10.8069
▁palata	-10.807
▁musikaali	-10.807
▁kuningaskunnan	-10.8072
utuminen	-10.8075
meeri	-10.8081
▁philadelphia	-10.8081
▁tili	-10.8081
▁elokuvia	-10.8083
▁norjassa	-10.8084
▁swa	-10.8085
▁halv	-10.8087
aatto	-10.8088
▁tuore	-10.8089
▁nick	-10.8094
▁pinnan	-10.8094
▁kalifornia	-10.8094
▁jeesuksen	-10.8095
▁syyskuun	-10.8095
▁miehistön	-10.8096
▁hyönteis	-10.8098
▁ympäristön	-10.81
systeemi	-10.8101
▁osuude	-10.8106
▁vaikuttavat	-10.8106
▁sairaus	-10.8108
▁synnyttä	-10.8111
▁uskonnon	-10.8111
▁ankara	-10.8114
puut	-10.8115
▁etsimään	-10.8115
kali	-10.8119
kuore	-10.8121
loissa	-10.8122
oinnin	-10.8123
vapauden	-10.8124
okset	-10.8125
▁käyty	-10.8126
kielen	-10.8127
teoksen	-10.8132
▁kyseise	-10.8132
▁tähteä	-10.8134
pö	-10.8135
▁voimakkai	-10.8135
filosofi	-10.8138
operaatio	-10.8138
▁friedrich	-10.8139
▁minuutin	-10.8139
▁käännös	-10.8139
▁ajautui	-10.8141
dou	-10.8142
▁maihin	-10.8143
myös	-10.8144
▁evakuoi	-10.8148
ksu	-10.8153
▁osallistua	-10.8154
▁hyväksyttiin	-10.8158
▁englantiin	-10.816
▁kirjoja	-10.8162
▁komentajana	-10.8163
isyyttä	-10.8165
hyl	-10.8165
lohko	-10.8172
konservatorio	-10.8172
utuva	-10.8175
▁gy	-10.8176
▁win	-10.8176
▁rangers	-10.8176
▁mieltä	-10.8177
ryhmien	-10.8178
▁etnis	-10.8178
▁qua	-10.8179
▁espanjassa	-10.818
llisuuteen	-10.8182
▁kohteeksi	-10.8187
▁pääse	-10.8187
jap	-10.8187
▁äänestä	-10.8189
ohjaaja	-10.8192
▁kääpiö	-10.8196
▁sijainnut	-10.8197
▁voimassa	-10.8198
▁hirvi	-10.8199
iksen	-10.8201
▁leu	-10.8201
▁2005–2006	-10.8202
▁päätoimittajana	-10.8202
▁joku	-10.8208
▁valtasi	-10.8208
stock	-10.8211
käytävä	-10.8216
▁varsinaisen	-10.8219
lapse	-10.822
keski	-10.822
pala	-10.8221
▁mahdollisti	-10.8223
▁nur	-10.8223
kkaita	-10.8224
▁risto	-10.8225
▁perinteisi	-10.8225
▁televisiossa	-10.8227
▁huvi	-10.8227
▁maaottelu	-10.823
▁pakistan	-10.823
▁louhi	-10.8232
▁vaurioitu	-10.8235
▁huomioon	-10.8235
toimen	-10.8235
▁good	-10.8236
reitti	-10.8239
tumisen	-10.8242
▁proto	-10.8242
▁viher	-10.8245
▁sär	-10.8251
uksilla	-10.8254
äänestykse	-10.8255
▁kukaan	-10.8256
▁ilmoitettiin	-10.8259
▁with	-10.8262
ever	-10.8268
▁pisteitä	-10.8268
▁huole	-10.8269
▁taylor	-10.8269
▁jordan	-10.827
▁asuinalue	-10.8273
▁wilson	-10.828
illo	-10.8285
näyttö	-10.8286
▁tuhansia	-10.8289
allo	-10.8292
lahdessa	-10.8295
kertainen	-10.8297
mir	-10.8298
reeni	-10.8304
▁irakin	-10.8304
▁queen	-10.8304
ving	-10.8309
lisenssi	-10.831
1)	-10.8311
▁alukset	-10.8313
▁orja	-10.8315
▁alkavat	-10.8316
▁east	-10.8316
▁aito	-10.8316
▁edvard	-10.8318
lio	-10.8321
▁haitta	-10.8322
omistaja	-10.8323
▁phil	-10.8323
▁alkanee	-10.8326
▁kaikilla	-10.8328
▁järjestämä	-10.8328
▁aloittivat	-10.8331
▁sui	-10.8334
▁marian	-10.8337
▁valkea	-10.8338
neensä	-10.8339
▁häneltä	-10.8342
▁hydro	-10.8343
tettavaksi	-10.8343
▁kertonut	-10.8344
▁urheilija	-10.8345
hetki	-10.8346
▁ylennettiin	-10.8348
säiliö	-10.8348
▁useampi	-10.8348
▁edustus	-10.8349
kankaan	-10.835
▁magn	-10.835
▁lähteä	-10.8351
▁lemm	-10.8351
zel	-10.8352
tymistä	-10.8355
▁lauloi	-10.8356
▁2016–2017	-10.8357
wy	-10.8362
tulkin	-10.8367
▁aga	-10.8367
▁rannat	-10.837
vá	-10.8376
▁studioalbumi	-10.8378
▁vastaavan	-10.8382
bian	-10.8383
kuutio	-10.8383
▁kaudelle	-10.8383
▁tehtäviä	-10.8384
pohjanmaan	-10.8385
▁korvattiin	-10.8387
▁suosiota	-10.8389
▁näkemykse	-10.8391
kkoon	-10.8393
ilijoita	-10.8393
kappaleen	-10.8398
yksestä	-10.84
suutta	-10.84
▁punaisen	-10.8403
▁viulu	-10.8406
▁avoimi	-10.8409
varasto	-10.8409
▁kahvi	-10.841
▁vaate	-10.841
▁soti	-10.8413
kohde	-10.8419
▁yleisty	-10.842
uskonno	-10.8422
▁kukista	-10.8423
▁pelannee	-10.8423
▁ammattilaisura	-10.8426
▁tarvitaan	-10.8426
▁ulottuva	-10.8426
leiri	-10.8427
▁asuva	-10.8427
+2	-10.8428
▁irlannin	-10.8431
umia	-10.8434
▁painos	-10.8434
▁aero	-10.8435
▁yleisin	-10.8436
▁seppo	-10.8437
▁1894	-10.8439
▁ymmärtä	-10.8439
▁disney	-10.8442
▁kutsua	-10.8444
▁koostu	-10.8444
palo	-10.8445
fordin	-10.8445
▁pörssi	-10.845
▁sopimusta	-10.845
▁naisia	-10.845
mmista	-10.8453
▁käydy	-10.8455
▁golden	-10.8456
▁home	-10.8458
▁kuningaskunta	-10.8461
antaja	-10.8464
▁1892	-10.8465
ohjelmoi	-10.8465
▁sävy	-10.8466
fyysi	-10.8467
tehtävä	-10.8467
▁henri	-10.8468
▁franc	-10.8471
▁maku	-10.8474
paikat	-10.8474
mmissa	-10.848
▁renault	-10.848
-4	-10.8481
mattomia	-10.8482
▁ferr	-10.8484
▁kapinallis	-10.8488
myrkky	-10.849
▁walter	-10.8494
▁taidemuseo	-10.8494
▁mahdollistaa	-10.8494
▁todiste	-10.8495
▁potkut	-10.8497
▁erilaisten	-10.85
rintama	-10.85
aikaan	-10.8501
▁viimeisenä	-10.8503
▁julia	-10.8505
▁valtakunna	-10.8509
▁perhos	-10.851
▁ama	-10.8511
päästö	-10.8511
▁yleisön	-10.8511
▁siirtolais	-10.8513
roni	-10.8518
aukko	-10.8519
▁hyvää	-10.8521
▁veikko	-10.8521
▁oltuaan	-10.8521
▁kymmeniä	-10.8523
▁standard	-10.8523
single	-10.8523
▁kolo	-10.8523
▁piiriin	-10.8524
kuljettaja	-10.8525
ε	-10.8525
ppel	-10.8528
▁kosto	-10.8529
▁neuro	-10.8531
▁life	-10.8533
euroopassa	-10.854
▁inkeri	-10.8544
▁rungo	-10.8544
▁sukupolven	-10.8545
▁ottanut	-10.8548
hoido	-10.8549
▁napa	-10.8549
▁messu	-10.855
▁yllättäen	-10.855
suvun	-10.8551
ttäneen	-10.8552
▁antava	-10.8553
hirviö	-10.8554
▁elitserien	-10.8555
▁tukholmassa	-10.8555
▁varmista	-10.8558
▁tamme	-10.8558
▁luci	-10.8559
▁ateenan	-10.8559
sarjasta	-10.8561
ronin	-10.8563
▁lopun	-10.8563
▁vaihtui	-10.8563
netty	-10.8567
▁belgian	-10.8568
▁aukio	-10.8569
▁astui	-10.857
▁yliopistoon	-10.8573
▁purje	-10.8579
▁osake	-10.858
▁paavali	-10.8581
▁ympäristössä	-10.8581
gard	-10.8584
▁filmi	-10.8587
jääkäripataljoon	-10.8587
valtuuston	-10.8588
mättömi	-10.8591
▁ruhtinas	-10.8592
▁muodostunut	-10.8594
metsissä	-10.8594
▁merkitty	-10.8595
▁apostoli	-10.8595
numme	-10.86
▁asumaan	-10.8603
▁molekyyli	-10.8606
▁johdossa	-10.8606
▁joukon	-10.8607
▁tärkeimmät	-10.8608
kselle	-10.8609
▁inf	-10.8612
▁esp	-10.8612
▁osui	-10.8613
▁modern	-10.8613
tuottei	-10.8615
▁rauhoit	-10.8615
▁ulkomaan	-10.8616
öyh	-10.8617
▁valtaosa	-10.8619
euroopan	-10.8619
rü	-10.862
▁kytke	-10.8626
verko	-10.8626
200	-10.8631
tiede	-10.8632
jälkeise	-10.8632
▁tahto	-10.8632
▁avain	-10.8633
▁kehityksen	-10.8634
ukselta	-10.8636
ileva	-10.8637
▁länsipuolella	-10.8638
▁lisättiin	-10.8641
vö	-10.8642
▁jeff	-10.8643
▁käyttänyt	-10.8644
karva	-10.8646
▁finaalissa	-10.8646
udin	-10.8648
▁vesa	-10.865
kammio	-10.865
▁seurustel	-10.8651
▁haaste	-10.8656
▁tapauksissa	-10.8659
▁pelasta	-10.8659
työskentely	-10.866
arabia	-10.8661
▁muoti	-10.8662
▁irak	-10.8663
ratojen	-10.8664
▁1:	-10.8664
▁aikaansa	-10.8664
▁kaap	-10.8665
▁melodi	-10.867
grad	-10.8671
▁regi	-10.8672
▁oikean	-10.8673
▁valkoisen	-10.8673
▁nba	-10.8674
neisiin	-10.8674
▁sou	-10.8681
eiro	-10.8684
oka	-10.8685
▁rakastu	-10.8689
puheenjohtajaksi	-10.869
▁rakkaus	-10.869
▁michel	-10.8692
gro	-10.8693
▁avautu	-10.8695
▁1893	-10.8696
▁rytmi	-10.8697
▁brittiläisen	-10.8699
▁pani	-10.8701
▁kertova	-10.8701
kouluun	-10.8702
▁texas	-10.8702
yhteyden	-10.8706
▁teokset	-10.8707
▁saattoivat	-10.871
▁läheisyydessä	-10.8711
▁tietyn	-10.8711
▁hajosi	-10.8711
▁siirtää	-10.8712
yhteys	-10.8715
ence	-10.8724
▁markkinoi	-10.8724
▁alankomaiden	-10.8726
▁varsinaise	-10.8728
▁tokio	-10.8728
▁isäntä	-10.8729
oidi	-10.873
mmalle	-10.873
leikkaukse	-10.873
▁osto	-10.8731
käyttäji	-10.8732
ehdokkaana	-10.8732
aloitta	-10.8735
▁kuuma	-10.8735
▁kasvava	-10.8741
▁pär	-10.8742
▁taika	-10.8745
▁aikuisten	-10.8748
▁solmu	-10.8749
tuneita	-10.8749
kyrö	-10.8749
kah	-10.875
▁koulutukseltaan	-10.8752
▁elokuvien	-10.8753
▁brasilian	-10.8754
▁juan	-10.8757
▁1891	-10.8762
▁heinäkuun	-10.8762
▁meksikon	-10.8763
▁koto	-10.8765
▁twi	-10.8765
▁väkiluku	-10.8767
▁jur	-10.8768
▁tärkeää	-10.8771
▁muttei	-10.8772
▁ilmari	-10.8773
▁keskiarvo	-10.8778
▁pierre	-10.8779
soturi	-10.878
▁asteen	-10.8781
syksy	-10.8782
▁paikoin	-10.8783
puvu	-10.8787
▁sijoittuu	-10.8787
▁edustajana	-10.8789
▁jotkin	-10.879
yrityksen	-10.879
▁vieraa	-10.879
▁ash	-10.8791
▁petr	-10.8792
hauta	-10.8794
▁digi	-10.8794
▁sanasta	-10.8794
▁hamp	-10.8794
▁pyytää	-10.8796
▁ampui	-10.8803
▁raskas	-10.8804
▁suurten	-10.8804
kloori	-10.8805
metalli	-10.8806
▁olemaan	-10.8808
kielistä	-10.8809
▁bad	-10.8809
tutki	-10.8813
elämää	-10.8814
▁kihla	-10.8817
kuvaa	-10.8817
▁kuvataan	-10.8818
▁suomalaista	-10.8819
▁manchester	-10.8819
▁vastine	-10.882
▁sisältävät	-10.8821
osuus	-10.8823
▁pakenemaan	-10.8823
▁1889	-10.8823
sley	-10.8826
ruudu	-10.8826
box	-10.8828
▁kannatus	-10.8829
marin	-10.8829
▁siirtymä	-10.8831
kunto	-10.8837
▁toimitti	-10.8838
▁pakolais	-10.8839
guinea	-10.8841
wald	-10.8843
▁arvioitu	-10.8843
▁johtivat	-10.8843
▁näissä	-10.8843
▁hay	-10.8845
▁hoitaa	-10.8846
▁valtakunta	-10.8847
▁levittä	-10.8849
▁yhdistetty	-10.8849
▁soul	-10.8851
▁meno	-10.8852
▁voida	-10.8854
▁kaikkein	-10.8854
taidetta	-10.8858
ilmo	-10.8858
▁iske	-10.8859
▁kuuluvan	-10.8859
dahl	-10.8859
▁comp	-10.8859
▁viikossa	-10.8863
▁jerusalem	-10.8865
▁kalkki	-10.8865
▁alttari	-10.8865
▁nähdään	-10.8869
▁tähtien	-10.8872
▁tiedetä	-10.8874
▁rumpu	-10.8876
▁häiri	-10.8876
▁omaan	-10.8879
▁vahvistu	-10.8879
▁vanhimma	-10.8891
tilaisuuksi	-10.8891
kentälle	-10.8893
▁nuoret	-10.8893
▁kuulo	-10.8893
▁nostaa	-10.8895
▁laukaisu	-10.8896
▁huonosti	-10.89
▁wolf	-10.8902
▁tärkeitä	-10.8903
▁vaikutusta	-10.8912
elokuu	-10.8914
utus	-10.8915
▁loppui	-10.8915
▁vuosisadan	-10.8916
▁cli	-10.8918
▁gold	-10.8921
para	-10.8921
▁huomasi	-10.8924
▁maaottelua	-10.8928
eur	-10.8929
planeetta	-10.893
▁mahdollisuuden	-10.8931
mela	-10.8931
▁suunnattu	-10.8932
▁rakentei	-10.8936
huu	-10.8937
ilmiö	-10.8937
▁sisilia	-10.8937
▁pianisti	-10.8939
▁artisti	-10.8942
▁valmensi	-10.8942
▁ulkoministeri	-10.8945
&	-10.8947
▁1400-	-10.8948
▁mittaa	-10.8949
▁1888	-10.8956
▁käsityö	-10.8957
ł	-10.8958
▁näytellyt	-10.8958
▁ilmaisu	-10.8958
▁esikuva	-10.896
tapahtumassa	-10.8961
▁rub	-10.8962
▁presidentiksi	-10.8963
▁raportoi	-10.8964
kuoro	-10.897
tavara	-10.8974
ajojen	-10.8976
oikeuksien	-10.8979
hoidon	-10.8988
▁kööpenhamina	-10.8989
varuste	-10.8993
right	-10.8993
sara	-10.8994
▁leningrad	-10.8994
▁eduskunnan	-10.8994
kirurgi	-10.8994
000	-10.8995
ilijoiden	-10.8997
▁elintarvike	-10.9
▁palvele	-10.9
▁farm	-10.9001
media	-10.9001
▁society	-10.9005
▁tulli	-10.9005
pitoisuus	-10.9006
▁cent	-10.9007
▁käsikirjoittaja	-10.9011
llisiin	-10.9015
lämpö	-10.9018
neva	-10.9018
šev	-10.9018
▁pure	-10.9019
▁radikaali	-10.9021
tzin	-10.9021
▁nurmi	-10.9021
ttäisi	-10.9022
▁1200-	-10.9026
▁suvu	-10.9027
▁nils	-10.903
▁camp	-10.903
▁kuulla	-10.9031
▁luokit	-10.9034
kolan	-10.9035
▁kesäkuun	-10.9036
▁lakkautta	-10.9036
▁esiintyminen	-10.9037
tarkastaja	-10.9041
tunniste	-10.9041
esse	-10.9041
kama	-10.9041
▁tilanteen	-10.9042
▁otteeseen	-10.9043
▁kannus	-10.9047
▁asetti	-10.9052
▁otte	-10.9053
ikäisenä	-10.9054
▁valita	-10.9055
▁voitu	-10.9055
▁gustav	-10.9058
▁keula	-10.906
▁pormestari	-10.906
tiimi	-10.906
▁erikoistunut	-10.9062
▁markku	-10.9063
▁häviä	-10.9066
▁demokratia	-10.9068
▁tuotantoon	-10.9069
▁ilmailu	-10.9069
▁shar	-10.9069
▁organisoi	-10.907
ttamisesta	-10.9071
amiini	-10.9073
geeni	-10.9075
▁kooltaan	-10.9076
liigaan	-10.9078
▁savonlinna	-10.9084
▁epäonnistui	-10.9084
alueelle	-10.9085
yksistä	-10.9086
▁victor	-10.9089
▁valais	-10.909
▁lausu	-10.9093
▁saavuttaa	-10.9093
▁leski	-10.9095
▁vaalipiiri	-10.9095
verkon	-10.9095
ario	-10.9096
had	-10.9098
▁singapore	-10.9099
▁maksoi	-10.91
ikäinen	-10.9101
elo	-10.9101
▁ostaa	-10.9102
iltu	-10.9104
▁vastoin	-10.9105
à	-10.9115
lähdö	-10.9115
ioita	-10.9115
▁manageri	-10.9116
▁ilmestyy	-10.9116
▁paidassa	-10.9116
koihin	-10.9119
▁kylään	-10.9129
▁välisenä	-10.913
▁tutkimuksessa	-10.913
▁opettaji	-10.913
▁bry	-10.9131
▁kansallinen	-10.9132
▁folk	-10.9132
▁tavattu	-10.9134
▁käytännön	-10.9135
vaatimuksi	-10.9135
▁tekevät	-10.9135
▁nouseva	-10.9137
▁kuuli	-10.9138
▁perintö	-10.9138
▁elintavat	-10.9139
cz	-10.9141
▁levinnyt	-10.9142
▁kaatu	-10.9144
▁yhdistynee	-10.9144
järjestöjen	-10.9148
▁allekirjoitti	-10.9149
tulle	-10.9154
▁valitaan	-10.9157
puhdistu	-10.9157
▁riihi	-10.9157
▁kardinaali	-10.9158
▁keskiajalla	-10.9158
▁kielellä	-10.9158
▁miehittä	-10.9158
vig	-10.9162
▁liittyä	-10.9163
▁lontoo	-10.9164
–8	-10.9168
▁virhee	-10.9169
▁kyseisen	-10.917
muotoja	-10.9172
▁suunniteltiin	-10.9174
▁elektro	-10.9175
ennätyksensä	-10.9176
▁ruoan	-10.9177
kokemus	-10.9178
▁1885	-10.9178
kangas	-10.9179
▁yhtään	-10.9181
lanka	-10.9187
▁talossa	-10.9187
▁sydney	-10.9189
▁unioni	-10.9192
▁pont	-10.9192
isillä	-10.9195
′	-10.9195
▁roomassa	-10.9195
aluksen	-10.92
▁nostettiin	-10.92
itten	-10.9201
pesä	-10.9203
▁joutunut	-10.9204
haltija	-10.9204
▁jes	-10.9205
▁slovakia	-10.9205
lannin	-10.9206
▁riippuva	-10.9213
▁asiakas	-10.9213
▁kasvavat	-10.9217
tilassa	-10.9218
ory	-10.9218
▁sarjatasolla	-10.9219
▁pelaajat	-10.9219
▁millimetriä	-10.9221
▁nobel	-10.9222
▁hallituksessa	-10.9223
-18	-10.9224
luokassa	-10.9224
▁oskar	-10.9225
ytime	-10.9225
▁lainalla	-10.9226
▁maalivahti	-10.9228
▁erää	-10.9232
hir	-10.9232
yksikön	-10.9235
▁valtakunnallise	-10.9235
laisiin	-10.9236
arvoja	-10.9238
kirjoissa	-10.9238
eissä	-10.9239
tilojen	-10.924
▁14)	-10.9241
matonta	-10.9242
gård	-10.9243
▁cri	-10.9243
▁tehokkain	-10.9245
▁mg	-10.9251
▁kokkola	-10.9252
▁lapsena	-10.9255
nimistä	-10.9255
▁pimeä	-10.9257
käsittely	-10.9257
▁tuloksella	-10.9259
▁uss	-10.926
▁islamilais	-10.9261
istien	-10.9262
maisten	-10.9263
▁wu	-10.9263
▁opiskellut	-10.9264
ohjelmia	-10.9264
▁tehopistettä	-10.927
ryhmi	-10.9271
▁kappeli	-10.9271
aktivisti	-10.9271
hankinta	-10.9274
luistelu	-10.9274
ytys	-10.9275
▁(35.4	-10.9275
▁laajeni	-10.9278
▁pitäjän	-10.9278
▁menehtyi	-10.9282
▁persian	-10.9285
britannian	-10.9287
vyyttä	-10.9289
▁georgian	-10.929
▁tarvittava	-10.9291
huolto	-10.9293
▁britit	-10.9294
▁muura	-10.9297
▁force	-10.9299
▁2,5	-10.9301
▁vety	-10.9301
▁kiinnostui	-10.9307
▁myöten	-10.9307
▁kodi	-10.9307
▁taustaa	-10.9309
▁päättivät	-10.931
tuoli	-10.931
neuvoksen	-10.9311
cross	-10.9311
▁tuttu	-10.9312
▁henkilöitä	-10.9312
▁evankelis	-10.9313
▁täys	-10.9314
▁maansa	-10.9314
▁opas	-10.9316
lehde	-10.9317
ersin	-10.9317
child	-10.9321
▁hämeenlinna	-10.9323
▁laajalti	-10.9324
sukuun	-10.9324
▁taivaan	-10.9325
ère	-10.9326
▁arvonimen	-10.9328
▁hanna	-10.9328
▁tähdistökentä	-10.9329
▁pelaajaksi	-10.933
▁tuoda	-10.9332
▁francis	-10.9332
▁mans	-10.9332
tuomari	-10.9333
▁dur	-10.9335
sammal	-10.9337
▁vietiin	-10.9338
lainsäädäntö	-10.934
▁jersey	-10.934
▁pienempiä	-10.9342
vision	-10.9343
fried	-10.9345
aalto	-10.9345
▁kansainvälistä	-10.9346
▁kuolee	-10.9348
ello	-10.9348
kaudesta	-10.9349
lääkkee	-10.9351
▁pariisiin	-10.9352
stelu	-10.9354
▁kielsi	-10.9354
▁data	-10.9356
▁paavin	-10.9356
vey	-10.9362
viljely	-10.9363
▁milj	-10.9366
▁viihde	-10.9367
soitta	-10.937
▁muotoilu	-10.937
▁perustetun	-10.9371
▁eroon	-10.9371
▁molempien	-10.9372
▁huhu	-10.9375
▁emma	-10.9375
kello	-10.9376
▁hallintaan	-10.9378
▁(10	-10.9379
▁mittaisella	-10.9381
isivat	-10.9383
▁samuel	-10.9383
▁seudulla	-10.9383
siipi	-10.9386
▁laajentu	-10.9387
▁kemian	-10.9387
▁jokaisella	-10.9387
▁leijona	-10.9389
▁hyvät	-10.939
▁aiheuttami	-10.9396
▁paikallisen	-10.9399
▁jatkamaan	-10.94
▁henkilöstö	-10.94
siperia	-10.9401
palkinnolla	-10.9405
▁ruokaa	-10.9407
tuottaja	-10.9408
▁vapaasti	-10.941
▁säveltämä	-10.9412
▁virolais	-10.942
▁kukkula	-10.9422
mattomana	-10.9422
illut	-10.9424
▁yleisradion	-10.9425
metyyli	-10.9426
▁arviolta	-10.9427
onnettomuudessa	-10.9427
▁aktiivinen	-10.9428
▁käänne	-10.9428
▁malta	-10.9429
▁legenda	-10.9429
laisuus	-10.943
tule	-10.9431
dö	-10.9431
▁betoni	-10.9432
avio	-10.9432
▁katedraali	-10.9432
periaate	-10.9432
▁pitämään	-10.9433
▁ilmaise	-10.9437
▁sydämen	-10.9437
▁lammella	-10.9438
▁toiset	-10.9439
laisuuden	-10.944
▁jyp	-10.9443
tupa	-10.9446
▁siirsi	-10.9447
▁lopetettiin	-10.9452
▁tulevi	-10.9453
dorf	-10.9453
▁sca	-10.9454
▁bundesliiga	-10.9454
▁berliinissä	-10.9455
▁minä	-10.9456
▁ilvekse	-10.946
järvestä	-10.9461
▁intiassa	-10.9462
malleja	-10.9468
▁lapsille	-10.9469
▁yritysten	-10.947
tyttäre	-10.947
▁muuttivat	-10.9476
▁pojat	-10.9477
järvelle	-10.9477
▁tuntee	-10.9481
▁elokuun	-10.9482
kansainvälisesti	-10.9485
ryhmää	-10.9487
▁gau	-10.9489
haud	-10.9491
▁tappoi	-10.9493
päivää	-10.9494
▁todellise	-10.9494
▁paremma	-10.9496
nyrkkeily	-10.9498
käytäntö	-10.9498
▁hifk	-10.9498
▁lensi	-10.9498
oikeuteen	-10.9501
▁konstantin	-10.9503
▁tyypillinen	-10.9509
lentokone	-10.951
varr	-10.9514
▁irto	-10.9516
urheilija	-10.9516
wich	-10.9516
tuule	-10.9517
▁helmi	-10.9518
ë	-10.952
mekanismi	-10.952
▁rasi	-10.9525
▁kykeni	-10.9526
tuli	-10.9526
paikoilla	-10.9527
ward	-10.9532
laitteisto	-10.9536
▁edellyttä	-10.9537
bury	-10.9537
▁pohjoismaiden	-10.9537
▁helmikuun	-10.9538
▁wester	-10.9541
muisti	-10.9541
▁potilaa	-10.9542
▁pääsivät	-10.9543
kokemukse	-10.9545
sop	-10.9545
▁rikki	-10.9547
▁ensimmäisestä	-10.9547
▁pohjola	-10.9547
▁sulttaani	-10.9547
työssä	-10.9548
▁aseita	-10.9548
▁selville	-10.9552
riste	-10.9553
▁kv	-10.9553
vaikutus	-10.9557
mmille	-10.9558
▁tapani	-10.9558
▁keskittynyt	-10.9558
▁susan	-10.9559
▁yhtyeeseen	-10.9559
▁asiakkai	-10.9559
▁seitsemänneksi	-10.956
▁sovelta	-10.956
▁soli	-10.9561
▁opera	-10.9561
kierros	-10.9566
teollisuutta	-10.957
▁tällaisia	-10.9573
bird	-10.9573
▁näytti	-10.9574
▁1882	-10.9576
▁toteuttaa	-10.9583
▁praha	-10.9586
▁otteli	-10.959
▁times	-10.959
rakentamis	-10.9591
pedagogi	-10.9592
▁lähtevät	-10.9592
▁sotilaat	-10.9592
▁450	-10.9594
hämähäk	-10.9597
ttaneen	-10.9598
▁rohke	-10.9598
▁oikein	-10.96
markkinoilla	-10.9602
▁tulokset	-10.9603
puolustus	-10.9603
▁post	-10.9607
▁luonnollise	-10.961
llisessa	-10.9612
ttämistä	-10.9612
opettajana	-10.9613
▁teoksessa	-10.9613
▁alkaessa	-10.9614
▁parta	-10.9618
▁rahti	-10.962
▁komento	-10.9621
▁riittävän	-10.9623
▁tammikuun	-10.9629
▁rinnalla	-10.9631
▁kattava	-10.9632
▁latinan	-10.9632
▁sik	-10.9633
ystävi	-10.9635
▁tarttu	-10.9636
▁loppukauden	-10.9636
▁ylläpitä	-10.9637
▁parantaa	-10.9638
▁vic	-10.9641
▁halki	-10.9642
▁vaativat	-10.9645
▁sco	-10.9647
▁käyttämi	-10.9648
▁komentajaksi	-10.965
▁saarna	-10.9651
▁hitaasti	-10.9654
▁seuraura	-10.9654
▁taistele	-10.9655
▁värvä	-10.9656
pela	-10.9657
saaressa	-10.9657
taloutta	-10.9658
▁typ	-10.9659
▁valkoiset	-10.9661
▁kappaleella	-10.9664
▁monimutkais	-10.9664
▁seutu	-10.9666
▁sellaisen	-10.9666
▁poikien	-10.9671
▁viedä	-10.9672
▁hyvi	-10.9672
lapsi	-10.9674
▁parti	-10.9682
▁viisa	-10.9683
otetta	-10.9685
avun	-10.9686
▁valkoisten	-10.9688
▁tutkimusta	-10.9689
laakso	-10.9689
▁aino	-10.969
bla	-10.9691
▁reaali	-10.9692
▁maalipörssin	-10.9692
▁pelkä	-10.9694
wall	-10.9694
▁vakaa	-10.9698
piirros	-10.9701
▁peräti	-10.9701
▁usa	-10.9702
menetelmi	-10.9703
pido	-10.9705
matkalla	-10.9706
▁open	-10.9707
▁lopullise	-10.9717
▁asennettiin	-10.9717
▁vähentää	-10.9718
ikasta	-10.9721
▁hajoa	-10.9721
▁hevosen	-10.9724
▁honka	-10.9724
sijoitukse	-10.9727
▁aiempi	-10.9731
▁university	-10.9731
▁ratkaiseva	-10.9731
▁kuule	-10.9731
▁innostu	-10.9731
▁tyhjä	-10.9732
▁annetaan	-10.9733
▁davis	-10.9736
λ	-10.9737
▁hylkäsi	-10.9737
▁syöttö	-10.974
▁tukeva	-10.974
amerikkaan	-10.9741
▁moskovassa	-10.9741
lehdet	-10.9743
▁aisti	-10.9744
▁mr	-10.9745
▁river	-10.9745
▁saama	-10.9747
laivasto	-10.9747
mieheksi	-10.9749
▁tuoma	-10.9751
▁korkeimmalla	-10.9753
▁lasketaan	-10.9753
skaja	-10.9754
▁edistää	-10.9756
mmilla	-10.9757
▁maksaa	-10.9758
▁aura	-10.9759
▁mikkelin	-10.9759
ders	-10.9759
järjeste	-10.9761
tunnus	-10.9764
▁mahdollisi	-10.9764
▁caesar	-10.9765
▁mäkelä	-10.9765
▁eliö	-10.9765
▁1886	-10.9768
▁viimeisessä	-10.9769
ssel	-10.9771
kuitu	-10.9772
▁lännen	-10.9775
▁valu	-10.9777
manni	-10.9777
▁clo	-10.9779
▁kaksivuotisen	-10.978
ál	-10.978
säännö	-10.9781
▁batman	-10.9783
▁lähettä	-10.9785
▁keskustassa	-10.9785
▁käynyt	-10.9787
▁saaneen	-10.9787
lehdissä	-10.9788
▁thaimaa	-10.979
ttäviä	-10.979
ryhmässä	-10.9792
liikettä	-10.9794
lahdella	-10.9799
▁erikseen	-10.9803
areena	-10.9804
▁nykyistä	-10.9805
▁walesi	-10.9807
ico	-10.9809
▁poiketen	-10.981
neuvostoliitossa	-10.981
▁venäjää	-10.9811
▁mielestään	-10.9817
▁audi	-10.9818
▁prinsessa	-10.9827
▁kalifornian	-10.9832
▁iron	-10.9834
pujottelu	-10.9836
ryhmiä	-10.9838
yhteyksi	-10.9839
▁markkinointi	-10.9841
ray	-10.9844
▁varma	-10.9846
▁hyökkäsivät	-10.9848
sulku	-10.9849
▁golf	-10.985
▁kilpi	-10.9852
mmistä	-10.9855
taiteilijoi	-10.9856
▁pääsarjassa	-10.9859
▁trump	-10.9861
▁osavaltiossa	-10.9863
▁esitetään	-10.9864
▁samankaltais	-10.9866
▁kutsutu	-10.9869
▁minnesota	-10.9873
▁arvioidaan	-10.9873
listalle	-10.9874
▁liiku	-10.9874
kitara	-10.9875
▁juurikaan	-10.9877
ко	-10.9879
pé	-10.988
▁simo	-10.9881
tutkimuksi	-10.9884
κ	-10.989
▁myyty	-10.9893
suoritus	-10.9894
▁toukokuun	-10.9894
▁geologi	-10.9894
▁pääoma	-10.9895
▁yhdisti	-10.9896
▁päivässä	-10.9897
▁kerrottiin	-10.9899
▁maailmancupin	-10.9901
▁alba	-10.9902
▁johnny	-10.9904
▁south	-10.9906
▁tyypillisiä	-10.9909
▁kapinoi	-10.991
käytössä	-10.991
▁1887	-10.9915
▁seuraavaa	-10.9917
soittaja	-10.9917
▁yhdestä	-10.9919
▁brian	-10.9922
▁carlos	-10.9924
▁perustamis	-10.9928
▁pietarissa	-10.9932
▁jakob	-10.9934
▁milano	-10.9935
suhteiden	-10.9938
▁bil	-10.9939
▁song	-10.994
pussi	-10.9946
▁asunut	-10.9947
imperiumi	-10.9948
▁asiassa	-10.9948
▁sov	-10.995
▁irti	-10.995
▁perustuslain	-10.9956
room	-10.9956
tettaessa	-10.9957
päällikön	-10.9958
▁kappaleista	-10.996
▁kielten	-10.9964
▁söder	-10.9964
töntä	-10.9966
▁perustaminen	-10.997
▁elinvoimaiseksi	-10.997
▁millimetrin	-10.997
▁tappara	-10.9975
▁skotlannin	-10.9976
▁pauli	-10.9979
▁lawrence	-10.9982
▁ellei	-10.9983
dō	-10.9983
▁oslo	-10.9985
▁hv	-10.9986
▁vähäise	-10.9988
▁tuotiin	-10.9988
▁osaltaan	-10.9997
▁latinalais	-10.9998
▁helpotta	-10.9999
▁tuohon	-11.0002
▁detroit	-11.0005
hang	-11.0006
▁tps	-11.0008
kohtia	-11.0009
▁vartalo	-11.001
▁vancouver	-11.001
▁liittyivät	-11.0015
▁rauman	-11.0017
tapoja	-11.0019
kiertueella	-11.0019
▁vaikutuksen	-11.002
politiikassa	-11.0022
▁leonard	-11.0022
▁arvioita	-11.0025
kesäkuu	-11.0025
▁nap	-11.0025
mmiksi	-11.0026
▁link	-11.0029
▁maakunnan	-11.003
▁leikki	-11.0031
ð	-11.0034
▁komppanian	-11.0038
ksestä	-11.0039
▁ajoittain	-11.0047
piha	-11.0048
▁ferdinand	-11.0051
jäätikö	-11.0051
paita	-11.0052
erson	-11.0054
▁hunt	-11.0056
▁center	-11.0056
utumisen	-11.0057
▁taru	-11.006
▁kiertä	-11.0067
▁urho	-11.0068
▁pudotuspeli	-11.0069
▁lyy	-11.0069
kanavalla	-11.0071
▁komenta	-11.0072
▁(35.3	-11.0075
▁atlantin	-11.0075
president	-11.0076
▁punakaarti	-11.0076
▁kieltäyty	-11.0077
▁ohjus	-11.0085
▁marraskuun	-11.0089
▁löi	-11.0092
juoksija	-11.0097
▁toive	-11.0097
▁ajettiin	-11.0098
sektori	-11.0099
▁korjaus	-11.01
▁jorma	-11.0104
▁andrew	-11.0107
lupa	-11.0108
▁evankeliumi	-11.0109
▁yhteyteen	-11.0109
uuskilpailut	-11.0112
näytelmä	-11.0113
kieko	-11.0116
▁olevaan	-11.0121
▁play	-11.0122
ohjelmaan	-11.0122
sseja	-11.0123
zon	-11.0125
“	-11.0127
▁menestynei	-11.013
▁kukat	-11.013
▁laura	-11.0131
kerto	-11.0135
laite	-11.0137
▁serbi	-11.0138
▁suostui	-11.0138
▁kuvanveistäjä	-11.0139
▁syöttöpistettä	-11.0139
▁pic	-11.0139
▁syöksy	-11.0139
moto	-11.0143
▁skotlanti	-11.0144
▁harvinaise	-11.0145
renka	-11.0145
▁bbc	-11.0147
▁muutettu	-11.015
▁yhtyeestä	-11.0152
▁julius	-11.0152
▁dna	-11.0153
▁vaihtelevat	-11.0154
dow	-11.0155
▁katolisen	-11.0155
▁windows	-11.0156
▁kuninkaaksi	-11.0156
▁riita	-11.0158
merkit	-11.0158
▁sinfonia	-11.0158
instrument	-11.0161
▁terävä	-11.0162
▁joensuu	-11.0163
▁pehmeä	-11.0164
▁perinteinen	-11.0165
▁ylsi	-11.0167
▁puolustukse	-11.017
debyytti	-11.017
â	-11.0174
▁esiintyä	-11.0175
otteluun	-11.0179
▁mestaruussarja	-11.0181
▁protestant	-11.0186
▁konekivääri	-11.0187
▁merkitsi	-11.0188
▁hop	-11.0189
▁montreal	-11.0191
▁pitkälti	-11.0192
▁englanninkielis	-11.0193
renkaa	-11.0194
▁johanna	-11.0195
▁hollantilais	-11.0197
ttelevä	-11.0197
▁dosentti	-11.0197
tiivinen	-11.0198
▁lattia	-11.0198
cel	-11.0201
tilaan	-11.0202
▁rajoittuu	-11.0203
harjun	-11.0204
▁kokonaisuudessa	-11.0205
▁dol	-11.0205
kamera	-11.0205
täplä	-11.0207
idien	-11.0208
oikeudenkäynni	-11.021
▁koskevi	-11.021
▁pienois	-11.0211
▁neljään	-11.0215
▁pysäyttä	-11.0215
▁stefan	-11.0215
▁arviot	-11.0218
▁tuomas	-11.0221
▁1884	-11.0222
luoki	-11.0227
▁titulaaripiispa	-11.0227
▁uudista	-11.0232
▁myöntä	-11.0232
▁2017–2018	-11.0233
▁tällainen	-11.0233
▁veljekset	-11.0233
▁kehu	-11.0233
▁isoisä	-11.0234
▁nato	-11.0236
▁esittänyt	-11.0236
syyskuu	-11.0243
▁arvosteli	-11.0248
puro	-11.025
▁paalu	-11.0251
▁persialais	-11.0253
kkuutta	-11.0253
▁alaisuuteen	-11.0256
▁syksyn	-11.0257
▁wor	-11.0259
▁käsitys	-11.026
▁talvehti	-11.0262
▁julkaisemi	-11.0262
kompleksi	-11.0263
▁senaattori	-11.0263
▁astetta	-11.0264
lasti	-11.0266
▁maalaiskunta	-11.0267
bäck	-11.0268
▁slovenia	-11.0268
cast	-11.0269
▁itsestään	-11.0269
▁toimineen	-11.027
ongelma	-11.0271
toimet	-11.0273
▁yleisölle	-11.0274
▁terrori	-11.0275
▁tulva	-11.0277
vastuu	-11.0278
▁rakentamisen	-11.028
▁gru	-11.028
▁teoksensa	-11.0281
▁leino	-11.0283
▁rykmentin	-11.0286
▁alumiini	-11.0286
▁1300-	-11.0286
▁hetken	-11.0287
vauhti	-11.0288
▁tšekkoslovakia	-11.0292
▁tietojen	-11.0294
▁gall	-11.0294
▁bond	-11.0296
filmi	-11.0297
himo	-11.0299
▁lada	-11.0301
carolina	-11.0304
ô	-11.0304
▁harvinainen	-11.0304
▁lordi	-11.0305
keskuksessa	-11.0308
tuote	-11.0313
illy	-11.0315
äppä	-11.0316
▁maaliskuun	-11.0319
▁vasten	-11.0322
▁sebastian	-11.0328
▁kyseenalais	-11.0328
▁mihail	-11.0328
▁kiersi	-11.0328
▁uhra	-11.0329
▁välein	-11.0329
muusikko	-11.033
▁110	-11.0331
kkola	-11.0332
▁yleisiä	-11.0338
▁osumallaan	-11.0341
▁todettu	-11.0343
▁kymmenes	-11.0345
▁pesi	-11.0349
sinfoniaorkester	-11.035
▁hyviä	-11.035
▁kanadalainen	-11.0353
tilanne	-11.0354
▁keisarikunnan	-11.0358
voimistelu	-11.0358
mattoman	-11.0359
▁vastaanoton	-11.0364
▁käsikirjoitus	-11.0366
▁suru	-11.0367
teorioi	-11.0367
organisaatio	-11.0368
▁uudenmaan	-11.037
myymälä	-11.037
leg	-11.0371
valikoima	-11.0373
▁tuhota	-11.0374
▁hengitys	-11.0374
▁sininen	-11.0374
▁puto	-11.0375
\	-11.0376
▁luovutettiin	-11.0376
laituri	-11.0376
▁kukisti	-11.0376
▁viri	-11.0377
▁toistuva	-11.0377
urheilijoi	-11.0378
▁voitaisiin	-11.0382
vaikuttei	-11.0387
▁anthony	-11.0388
▁riippuu	-11.0389
puolustusvoimien	-11.039
vantaa	-11.0391
tasango	-11.0392
vihreä	-11.0393
▁etiopia	-11.0394
▁algeria	-11.0394
▁huvila	-11.0395
▁bush	-11.0395
mpel	-11.0399
korva	-11.04
▁recordsin	-11.0401
johtajaksi	-11.0406
▁kertovat	-11.0407
▁itämeren	-11.0409
▁metsää	-11.041
▁välityksellä	-11.0412
kaudelta	-11.0413
▁hope	-11.0413
▁peräkkäin	-11.0418
▁puolustajien	-11.0422
kiertue	-11.0423
suure	-11.0423
▁keskeytti	-11.0424
▁paikallinen	-11.0424
▁haus	-11.0425
▁suorittama	-11.0429
▁virginia	-11.043
▁carol	-11.0431
ume	-11.0432
▁laivueen	-11.0433
läisiä	-11.0433
kkila	-11.0434
▁kiinnitetty	-11.0438
tahti	-11.044
nousu	-11.0445
–12	-11.0447
▁1,2	-11.0447
▁kolmannella	-11.0448
▁muumi	-11.0449
▁bah	-11.0449
▁vapautettiin	-11.046
▁yrittivät	-11.046
▁toteutettu	-11.0462
▁syvyys	-11.0464
▁eräät	-11.0474
▁yksilöä	-11.0474
▁liikemies	-11.0475
▁tunturi	-11.0475
lundin	-11.0485
▁prince	-11.0485
tavoittei	-11.0485
▁soittanut	-11.0485
turnauksen	-11.0488
neestä	-11.0489
—	-11.049
▁stephen	-11.049
esiintymisensä	-11.0491
▁tei	-11.0494
▁sanoen	-11.0496
▁määritelty	-11.0496
▁päällys	-11.0497
▁ernst	-11.0497
▁krimin	-11.0501
▁vaaka	-11.0502
▁tulleet	-11.0504
▁beau	-11.0505
asunto	-11.0507
mäellä	-11.0507
▁jyrkä	-11.0508
▁sergei	-11.0509
▁havaitsi	-11.0509
▁taiteellise	-11.051
▁erinomais	-11.051
nnoista	-11.0511
ttomien	-11.0511
pelissä	-11.0511
▁haltuun	-11.0512
teissä	-11.0516
▁valitu	-11.0519
utumis	-11.052
▁tulleen	-11.052
rakennuksen	-11.0521
jalostus	-11.0522
eettinen	-11.0522
▁juhana	-11.0524
▁asukkaiden	-11.0527
ongelmien	-11.0527
▁taitava	-11.053
luvut	-11.0531
▁mennä	-11.0535
▁tarkasti	-11.0535
▁lisääntymis	-11.0537
▁kansallissosial	-11.0539
▁juutalaisten	-11.0543
mail	-11.0545
▁raitio	-11.0545
▁death	-11.0546
▁130	-11.0549
▁kuvaava	-11.0553
▁korean	-11.0555
▁näkemys	-11.0557
tekevä	-11.0562
▁jäähy	-11.0563
æ	-11.0569
▁matali	-11.057
▁lentävä	-11.0574
▁tunkeutu	-11.0576
▁etteivät	-11.0576
▁kadu	-11.0579
▁täten	-11.058
harju	-11.0581
▁virkamies	-11.0581
▁morris	-11.0582
mahdollisuude	-11.0583
▁nova	-11.0584
▁saaga	-11.059
▁käyttäytymis	-11.0592
▁2004–2005	-11.0595
▁ymmärtää	-11.0595
▁venäläisiä	-11.0598
▁jatkoivat	-11.0599
▁tennis	-11.0599
▁franz	-11.0601
▁ottamaan	-11.0601
▁kopioi	-11.0602
▁höyhen	-11.0606
▁pelkkä	-11.0606
▁armeijaan	-11.0608
▁loppuottelu	-11.061
▁tehtävästä	-11.061
tier	-11.0612
▁tarvittaessa	-11.0612
yytensä	-11.0613
vaurio	-11.0613
▁pelipaikalta	-11.0616
brook	-11.0618
▁pelattu	-11.0623
▁epäily	-11.0624
ttomat	-11.0624
▁palautettiin	-11.0625
kiina	-11.0625
lá	-11.0626
▁ranskalaiset	-11.0627
yhde	-11.0628
▁peto	-11.0628
▁tukee	-11.0629
▁neljännes	-11.0631
▁poissa	-11.0632
▁kaupallise	-11.0633
▁katariina	-11.0637
oph	-11.064
▁ranger	-11.0643
▁miljardi	-11.0644
lajeista	-11.0645
spektr	-11.0645
▁yorkiin	-11.0652
▁sopeutu	-11.0652
▁kestänee	-11.0656
ratkaisu	-11.0656
▁perinne	-11.0657
▁nukku	-11.0658
▁seuraavassa	-11.0658
▁katsottu	-11.0659
▁koulutusta	-11.066
▁luonnossa	-11.066
▁ross	-11.0661
▁fall	-11.0662
▁väre	-11.0663
▁kansakoulu	-11.0671
▁reittien	-11.0672
▁svenska	-11.0674
▁markkaa	-11.0674
▁jäljelle	-11.0675
kansojen	-11.0688
juuri	-11.0688
▁retke	-11.0689
▁runoja	-11.0689
▁keskimääräinen	-11.0692
▁enintään	-11.0693
▁teosten	-11.0694
planeeta	-11.0694
▁keisarillise	-11.0694
demokraattien	-11.0695
▁piirustus	-11.0699
vaikutukse	-11.07
▁elokuvaohjaaja	-11.0703
▁sairaalassa	-11.0703
teknologia	-11.0707
▁salama	-11.071
esiintymä	-11.0711
▁pasi	-11.0711
▁puoleen	-11.0713
▁torjui	-11.0713
▁fyysise	-11.0714
oikeudessa	-11.0717
▁aloittanut	-11.0718
▁kulutta	-11.0718
▁puhutaan	-11.0719
hé	-11.0722
▁ensimmäisten	-11.0723
▁pakotti	-11.073
▁käännetty	-11.0732
▁jääkiekon	-11.0736
kunnioit	-11.0738
▁marc	-11.074
▁alkulohko	-11.0744
▁monesti	-11.0745
▁suunnilleen	-11.0745
utumista	-11.0746
jokea	-11.0747
korkeus	-11.0748
▁novelli	-11.0749
▁paikalliset	-11.0749
▁kummi	-11.0749
▁metropoli	-11.0751
ööri	-11.0751
▁menestynyt	-11.0751
galleria	-11.0753
kokoonpano	-11.0753
▁veljen	-11.0754
▁epäilty	-11.0755
negatiivi	-11.0755
arab	-11.0758
lestadiolais	-11.0761
▁alusten	-11.0762
vahinko	-11.0765
▁lupasi	-11.0765
silmä	-11.0766
▁ristiriita	-11.0767
yhteis	-11.0768
kierto	-11.077
ennätys	-11.0772
▁pystynyt	-11.0772
▁vakavasti	-11.0776
tasku	-11.0776
helikopteri	-11.0779
▁historiallinen	-11.078
tietokone	-11.0781
▁työvoima	-11.0783
▁sauna	-11.0783
tietä	-11.0784
▁johtuva	-11.0786
▁norjalais	-11.0787
▁lähtivät	-11.0789
▁tont	-11.0792
▁kauha	-11.0794
▁tuomitsi	-11.0797
▁varhainen	-11.0797
▁kirkkoon	-11.0798
kärki	-11.08
katso	-11.0802
raita	-11.0806
liitosta	-11.0809
▁amb	-11.0811
▁katsottiin	-11.0811
▁investoi	-11.0811
nopeuden	-11.0811
kuvernööri	-11.0813
lääke	-11.0814
äiti	-11.0815
kanavi	-11.0817
kaupassa	-11.0821
▁johdettu	-11.083
synteesi	-11.083
ihmis	-11.0834
▁punaisten	-11.0836
▁muuttunut	-11.0836
joukkoja	-11.0837
▁happi	-11.0839
▁dag	-11.0841
kuntiin	-11.0842
▁apo	-11.0845
impana	-11.0846
aineet	-11.0849
▁wol	-11.0852
yhtiöiden	-11.0855
▁sekuntia	-11.0856
▁billy	-11.0858
▁raiva	-11.086
tyyppiä	-11.0863
riffi	-11.0865
▁ydinvoima	-11.0865
▁kuivi	-11.0865
▁russell	-11.0868
kautena	-11.0869
▁tytäryhtiö	-11.087
σ	-11.0873
▁ulkomaille	-11.0874
▁sissi	-11.0874
laissyntyinen	-11.0875
klo	-11.0876
iseltä	-11.0878
kriisi	-11.0878
käytännö	-11.0879
▁kommunistisen	-11.0883
voittaen	-11.0884
suunnassa	-11.0885
▁räjähdys	-11.0886
▁informaatio	-11.0886
▁jokaisessa	-11.0889
huoneeseen	-11.089
▁suurimpia	-11.0892
▁tyynenmeren	-11.0892
▁1881	-11.0899
kkeita	-11.0901
lokakuu	-11.0903
▁mate	-11.0904
▁kirkollis	-11.0905
▁liverpool	-11.0905
▁alapuolella	-11.0905
tyttö	-11.0907
▁prosentin	-11.0909
▁tavallista	-11.0918
▁hankala	-11.0919
▁aktivoi	-11.092
laitteita	-11.092
▁haavoittui	-11.0923
▁saamelais	-11.0923
▁suljettiin	-11.0924
▁ystävyys	-11.0924
▁kalo	-11.0925
▁kaliforniassa	-11.0927
▁selittää	-11.0927
▁tänä	-11.0928
▁lapsuus	-11.0931
år	-11.0932
▁panos	-11.0942
loita	-11.0945
▁vantaan	-11.0945
▁huomioi	-11.0947
▁pientä	-11.0948
luoto	-11.0949
taipale	-11.0952
▁tekstiili	-11.0954
▁1883	-11.0956
▁hag	-11.0958
▁astro	-11.096
▁alanko	-11.0962
▁kruuna	-11.0962
▁general	-11.0962
▁omistettu	-11.0963
▁samannimise	-11.0966
▁malesia	-11.097
▁kehittynee	-11.097
▁sada	-11.0974
hiihtäjä	-11.0975
▁parhaasta	-11.0975
▁alalaji	-11.0975
▁kotiseutu	-11.0975
▁tuhka	-11.0976
▁mielessä	-11.0976
hoitajana	-11.0977
▁siipien	-11.0977
▁yhdystie	-11.0977
säteily	-11.0979
▁dark	-11.0986
▁tape	-11.0988
▁kartta	-11.0989
▁kaupunginosassa	-11.0991
▁katolis	-11.0993
▁nivel	-11.0996
▁tuntei	-11.0996
▁valmistautu	-11.0998
▁tuntemattoma	-11.1001
▁160	-11.1001
▁ihastu	-11.1004
▁toisesta	-11.1006
▁nähtävyyksi	-11.1013
▁useisiin	-11.1013
▁etenemis	-11.1013
▁roomalaiset	-11.1014
▁varhain	-11.1014
▁julkisesti	-11.1019
▁elävi	-11.1026
tiettävästi	-11.1026
▁app	-11.1028
▁kenraalimajuri	-11.1032
▁tarkoitti	-11.1033
▁juli	-11.1034
järveä	-11.1037
▁pyrittiin	-11.1039
▁syytä	-11.1039
laiselle	-11.1039
huollo	-11.1039
tuuri	-11.1042
▁oulussa	-11.1044
▁novgorod	-11.1045
▁liitetty	-11.1045
kloridi	-11.1045
ehdokka	-11.1049
▁hallinnoi	-11.1049
satelliiti	-11.1052
_	-11.1052
osoittee	-11.1052
▁osmanien	-11.1052
▁luottamus	-11.1054
▁palaamaan	-11.1058
▁polvi	-11.1059
▁haju	-11.1059
▁vieraissa	-11.106
▁laivastoon	-11.1064
▁keskittyy	-11.1065
▁erilaista	-11.1067
▁1850	-11.1067
▁kolmos	-11.1069
kielisiä	-11.1069
festivaaleilla	-11.1069
*	-11.1071
▁propaganda	-11.1071
▁kristity	-11.1072
atomi	-11.1079
▁johtokunnan	-11.1081
maiset	-11.1083
tumis	-11.1084
▁vahvistettiin	-11.1084
norsu	-11.1087
▁vaihdossa	-11.1088
▁haastattelussa	-11.109
uuksien	-11.1092
▁valituksi	-11.1092
ppeja	-11.1092
▁juri	-11.1094
tteihin	-11.1097
▁uusinta	-11.1099
kirje	-11.11
▁billboard	-11.1103
▁british	-11.1103
reaktori	-11.1103
▁theodor	-11.1103
▁niko	-11.1106
lähde	-11.1108
zzi	-11.1109
harmaa	-11.1113
hof	-11.1114
▁liiketoiminta	-11.1116
▁viranomaiset	-11.1117
kohtei	-11.1121
▁kaunii	-11.1121
▁anderson	-11.1122
▁bosnia	-11.1122
▁rip	-11.1128
▁pudotuspelien	-11.1129
▁pääjohtaja	-11.1129
▁jääneet	-11.113
niitty	-11.113
▁näkökulmasta	-11.1131
felt	-11.1131
▁englanniksi	-11.1135
▁gibraltari	-11.1135
terapia	-11.1149
▁1863	-11.1149
▁pelko	-11.115
▁ortodoksise	-11.1151
▁tapana	-11.1151
arkkiteht	-11.1155
paperi	-11.1156
oppilaitokse	-11.1157
▁perässä	-11.1157
▁sveitsissä	-11.1162
▁kokoontu	-11.1164
▁siltä	-11.1165
ennettu	-11.1166
▁tuntematon	-11.1169
▁kesäisin	-11.1169
matkoja	-11.1169
niel	-11.1176
▁erotti	-11.118
▁putoamis	-11.1182
preussi	-11.1184
▁siirtynyt	-11.1184
▁raketti	-11.1185
pinnoi	-11.1185
▁kirjallisuutta	-11.1187
▁käsitti	-11.119
▁hyper	-11.1191
▁murska	-11.1192
pitoisuude	-11.1193
▁keskeyty	-11.1194
▁une	-11.1196
▁kolmannessa	-11.1198
▁arvioitiin	-11.1201
▁syytti	-11.1201
zio	-11.1203
▁teologian	-11.1205
▁sotilaita	-11.1207
▁wienin	-11.121
▁patrick	-11.1211
pähkinä	-11.1213
▁renessanssi	-11.1213
toime	-11.1214
▁japanilainen	-11.122
▁ärsy	-11.1227
lehteen	-11.1228
ranska	-11.1228
jakelu	-11.123
▁toimintaansa	-11.1233
solujen	-11.1237
▁merkittävää	-11.1237
▁victoria	-11.124
▁islamin	-11.1241
▁todellinen	-11.1241
▁suosittuja	-11.1242
uhka	-11.1249
▁taloudellisesti	-11.1249
▁dave	-11.125
▁preussin	-11.1251
▁vaikutusvalta	-11.1255
▁tunisia	-11.1257
ς	-11.1259
▁perustamisen	-11.1259
▁kerätä	-11.1262
▁mainetta	-11.1265
▁lauluja	-11.1265
▁margaret	-11.1266
▁suurimmista	-11.1267
▁karjalais	-11.1268
▁lohikäärme	-11.1272
▁paikallisten	-11.1273
–9	-11.1275
▁ainut	-11.1279
nopeutta	-11.128
▁farmijoukkue	-11.128
kadulla	-11.1281
▁asemansa	-11.1282
▁kuollee	-11.1284
▁evoluutio	-11.1285
▁tuottanut	-11.1286
▁hyvinkää	-11.129
▁nag	-11.129
▁petri	-11.129
▁levo	-11.1291
sodasta	-11.1291
▁erillinen	-11.1292
▁yleisradio	-11.1296
▁selviytyi	-11.1297
▁pistepörssissä	-11.1298
▁keramiikka	-11.1298
pöydä	-11.1298
▁nimestä	-11.13
tetyt	-11.1303
toukokuu	-11.1303
▁useaan	-11.1305
▁mennei	-11.1305
▁puolusti	-11.1305
▁muistetaan	-11.1305
▁itsenäinen	-11.1305
valvonta	-11.1306
▁valtiopäivä	-11.1307
▁lahjoitti	-11.1308
▁hitti	-11.1308
▁vaikut	-11.1309
▁saalista	-11.1309
britannia	-11.131
▁ihmisoikeus	-11.131
▁siirtyy	-11.131
▁kaupallis	-11.1311
▁asianajaja	-11.1312
divisioonassa	-11.1312
▁näyttävä	-11.1313
▁periyty	-11.1317
▁down	-11.1318
▁tanskassa	-11.1321
▁laskevat	-11.1323
▁jeesus	-11.1325
kansleri	-11.1326
▁arti	-11.133
▁multi	-11.1331
▁bernard	-11.1333
▁tienoilla	-11.1335
▁hamina	-11.134
▁suuressa	-11.134
▁erosivat	-11.1342
▁ruutu	-11.1342
▁puolalais	-11.1344
▁johansson	-11.1345
▁etsivä	-11.1348
lähtö	-11.1348
▁ottaen	-11.1348
▁toipu	-11.1348
▁kesto	-11.1349
▁surmasi	-11.1352
▁omistus	-11.1353
▁hautajais	-11.1353
▁ilves	-11.1357
▁havaittiin	-11.1358
mobil	-11.1359
raporti	-11.1359
▁kape	-11.136
lisä	-11.1363
iläis	-11.1363
▁ikuis	-11.1363
tellyt	-11.1364
▁nimenomaan	-11.1365
▁2003–2004	-11.1365
▁keltainen	-11.1369
▁kokoomuksen	-11.1371
kansanedustajana	-11.1372
istettiin	-11.1372
muuri	-11.1373
▁samp	-11.1375
▁outo	-11.1376
▁astu	-11.1379
luokkaan	-11.1383
hö	-11.1384
▁aiempaa	-11.1387
▁voittanee	-11.1388
▁kritiikkiä	-11.1391
kaisu	-11.1392
▁maalasi	-11.1393
lyönti	-11.1393
▁elossa	-11.1394
▁guy	-11.1395
▁oltava	-11.1397
▁munuais	-11.1398
annon	-11.1405
▁poikkeava	-11.1406
pohjanmaa	-11.141
▁köyhä	-11.1411
worth	-11.1413
gger	-11.1417
ffer	-11.1417
▁ranskalaisen	-11.142
näyttelyssä	-11.1423
televisio	-11.1424
▁vakavi	-11.1427
▁parhaat	-11.1431
hjelm	-11.1434
▁siirtymistä	-11.1438
▁vankilaan	-11.1442
▁pioneeri	-11.1444
ка	-11.1446
▁diesel	-11.1446
π	-11.1451
▁galli	-11.1451
▁suunnitella	-11.1452
▁hugo	-11.1452
▁syöttäjä	-11.1453
▁laine	-11.1454
▁sami	-11.1455
▁aleksi	-11.1456
▁käynnistyi	-11.1459
▁käyttämällä	-11.1459
▁140	-11.1463
▁iski	-11.1466
▁marx	-11.1469
▁työväenpuolue	-11.1469
▁1877	-11.1473
merkillä	-11.148
▁jäädä	-11.1486
aikaisen	-11.1491
viikko	-11.1492
▁arvosana	-11.1492
▁suomalaisessa	-11.1493
ometri	-11.1493
▁levytys	-11.1494
▁kehitystä	-11.1494
vauhdi	-11.1499
▁1879	-11.1506
tuomio	-11.1507
kaivokse	-11.1509
kaudelle	-11.1511
▁muuttanut	-11.1512
▁ennakko	-11.1512
▁tilapäis	-11.1517
gul	-11.1517
▁dog	-11.1518
▁noud	-11.1518
▁hoitoon	-11.1522
▁kappaleiden	-11.1522
▁viimeistään	-11.1524
▁työnantaja	-11.1526
▁valmistuttuaan	-11.1528
▁kalevala	-11.1532
▁itäosa	-11.1532
▁basil	-11.1536
▁carr	-11.1539
▁magnus	-11.154
tiikkaa	-11.1544
▁kasvattajaseura	-11.1545
▁your	-11.1547
▁1876	-11.1548
▁johtui	-11.1551
▁vanhojen	-11.1552
▁kontra	-11.1555
koli	-11.1557
▁puhui	-11.1558
▁rikkoi	-11.1558
▁lähistöllä	-11.1558
unkari	-11.1562
käsikirjoituksen	-11.1563
▁toisten	-11.1564
▁from	-11.1564
▁kotelo	-11.1565
▁halusivat	-11.1567
▁tunsi	-11.157
▁palloseura	-11.157
▁keskustasta	-11.157
▁tutkimuksia	-11.1572
▁kyseinen	-11.1578
▁budapest	-11.1579
▁vankilassa	-11.158
▁state	-11.158
▁velka	-11.1581
tuomioistuime	-11.1585
▁jäsenistä	-11.1591
▁virossa	-11.1591
▁tyypillistä	-11.1592
▁ohitta	-11.1594
▁maksimi	-11.1595
▁kaarlo	-11.1595
▁ylläpitää	-11.1595
▁kings	-11.1598
▁arvokkai	-11.16
telema	-11.1601
▁kerrallaan	-11.1604
huoneessa	-11.1606
▁havu	-11.1607
▁katosi	-11.1607
▁muualle	-11.1608
▁tuotto	-11.1608
harrastaja	-11.1608
▁hampuri	-11.1609
▁tilattiin	-11.1609
▁norman	-11.1609
▁marin	-11.161
italia	-11.161
▁moore	-11.1611
▁muhammad	-11.1612
karsinnoissa	-11.1612
▁göteborg	-11.1612
▁swe	-11.1613
▁kuvaili	-11.1615
prosenti	-11.1617
▁amatööri	-11.1619
▁itsenäisyyden	-11.162
tribu	-11.1621
pyöri	-11.1624
▁käynnistä	-11.1624
▁kristian	-11.1625
afrika	-11.1626
▁liittoutuneiden	-11.1626
▁koottu	-11.1627
▁siirtyä	-11.1629
▁arvonimi	-11.1629
▁voitettuaan	-11.1633
▁vähenty	-11.1634
▁teoksissa	-11.1635
▁spr	-11.1636
ransk	-11.1637
kaupunkeja	-11.164
▁cover	-11.1641
ogeeni	-11.1641
tuhansi	-11.1641
vahingo	-11.1643
▁toimeenpan	-11.1646
з	-11.1646
paketti	-11.1649
▁ylittää	-11.1652
▁bysantin	-11.1653
▁kommentoi	-11.1653
▁köyhi	-11.1657
▁jokerei	-11.1658
▁angelesissa	-11.1658
▁tehneet	-11.166
▁viimeisellä	-11.1663
▁ohl	-11.1663
tappio	-11.1663
▁valtakuntaa	-11.1667
▁kertyi	-11.1667
maajoukkueessa	-11.1669
▁hauki	-11.167
▁kaunis	-11.1672
▁kalpa	-11.1673
▁bruce	-11.1673
▁hyväksytty	-11.1675
▁tahdo	-11.1675
▁bab	-11.1679
▁hiilidioksidi	-11.1681
laiseksi	-11.1681
▁kahdeksanneksi	-11.1682
apteek	-11.1685
▁tapahtumista	-11.1687
▁pöly	-11.1688
▁jakaantu	-11.1689
▁vainio	-11.169
▁voimakkaan	-11.1692
▁tarkoittava	-11.1693
kuningattar	-11.1694
▁sisu	-11.1698
muutos	-11.1699
▁vega	-11.1701
▁eräässä	-11.1703
▁jne	-11.1705
serv	-11.1706
vaaleissa	-11.1706
▁lyijy	-11.1708
vre	-11.1708
rahoi	-11.1714
▁teoksista	-11.1717
▁puhdas	-11.1718
laivue	-11.1718
▁länsiosa	-11.1721
▁viidennen	-11.1728
lahjoi	-11.1728
▁selittä	-11.1729
▁hylättiin	-11.1735
▁tanskalais	-11.1737
avustaja	-11.1739
▁rinne	-11.174
▁varastoi	-11.1743
päähän	-11.1744
kainuu	-11.1747
▁paju	-11.1748
juontaja	-11.175
remont	-11.1752
▁jääpallo	-11.1754
fosf	-11.1756
▁taloudellinen	-11.1763
▁kreeta	-11.1768
blad	-11.1768
▁kunnanvaltuusto	-11.1768
▁kaupungit	-11.1776
▁mytologiassa	-11.1776
aatteja	-11.1777
▁joutuvat	-11.1777
kykyä	-11.1777
rajoit	-11.178
▁tutkimusten	-11.1781
▁turkis	-11.1783
▁laskettu	-11.1784
▁komppaniaan	-11.1785
britanniassa	-11.1785
oran	-11.179
▁association	-11.179
kapasiteetti	-11.179
morf	-11.1793
▁skp	-11.1794
kerttu	-11.1796
arkisto	-11.1799
▁esittämi	-11.1804
▁piirikunta	-11.1804
▁little	-11.1805
▁pelaajauransa	-11.1805
pistooli	-11.1805
▁ideoi	-11.1806
▁senaatti	-11.1806
▁lahjo	-11.1806
ohjukse	-11.1809
hapon	-11.1809
▁brad	-11.1812
▁gregori	-11.1812
▁vaikuttivat	-11.1813
▁ilmatorjunta	-11.1813
▁antoivat	-11.1815
instituutti	-11.1818
▁säilytti	-11.1821
▁kru	-11.1822
▁avioliiton	-11.1823
tilasto	-11.1826
telleet	-11.1827
▁saatava	-11.1828
▁laskeva	-11.1829
▁eugen	-11.1832
ы	-11.1832
▁kohteena	-11.1832
▁1878	-11.1835
▁suh	-11.1839
ß	-11.1839
menetelmiä	-11.1842
▁tornion	-11.1844
▁vieraileva	-11.1847
▁eräänä	-11.1847
▁munkki	-11.1847
kuningas	-11.1847
▁luokittelu	-11.1847
ooppera	-11.1848
▁perustuslai	-11.185
▁aki	-11.185
▁punaiset	-11.1854
▁tiedotus	-11.1854
kirjoittaja	-11.1854
artisti	-11.1855
▁osuma	-11.1857
▁virtsa	-11.1858
rikos	-11.1858
▁aallon	-11.1859
▁piikki	-11.186
▁pyytä	-11.1861
▁asutta	-11.1861
gram	-11.1863
isyydestä	-11.1866
▁sanojen	-11.1866
rauhas	-11.1867
▁aristo	-11.1868
▁syödä	-11.1868
▁kiinnitty	-11.1869
putken	-11.187
▁tarkoitetu	-11.1872
cum	-11.1874
▁tauon	-11.1877
▁huumori	-11.1881
▁kristuksen	-11.1883
hkö	-11.1884
▁philip	-11.1885
▁arkki	-11.1886
ş	-11.1888
aineisto	-11.1888
▁rakennusten	-11.1891
▁kykenee	-11.1892
▁raskai	-11.1892
▁suljettu	-11.1895
▁maxim	-11.1899
lähetys	-11.1901
▁virtanen	-11.1901
▁tärkeimpiä	-11.1902
▁keltaise	-11.1903
▁kylästä	-11.1904
ttömiä	-11.1909
▁ohjannut	-11.1912
▁road	-11.1913
hyökkääjä	-11.1914
valiokunnan	-11.1916
kuvien	-11.1918
isaatio	-11.1922
▁buddhalais	-11.1922
▁hehtaarin	-11.1923
▁messi	-11.1925
▁pelaajia	-11.193
▁selvittää	-11.193
▁muuhun	-11.1933
▁kävivät	-11.1936
ttavien	-11.1937
metsästäjä	-11.1937
▁voittamassa	-11.1937
▁kirkolliskokou	-11.1937
▁ilkka	-11.1938
▁yhtyy	-11.1939
▁huhtikuun	-11.194
ennusta	-11.1941
tykistö	-11.195
▁ultra	-11.1951
▁división	-11.1951
albumei	-11.1951
▁finlandia	-11.1955
ē	-11.1958
ə	-11.1958
▁oxford	-11.1958
puolueeseen	-11.1961
laivoi	-11.1962
stadt	-11.1963
stadion	-11.1966
rauha	-11.1966
tex	-11.1972
tiainen	-11.1972
▁kyennyt	-11.1972
▁virassa	-11.1973
bé	-11.1973
pyöräily	-11.1973
–30	-11.1975
▁oranssi	-11.1977
▁matematiikan	-11.1979
▁menestyksekkää	-11.1979
▁nigeria	-11.1979
▁miltei	-11.1979
hävittäjä	-11.1981
▁lontooseen	-11.1982
nimeä	-11.1983
▁kipu	-11.1987
▁toukka	-11.1987
jääkiekkoilija	-11.1987
▁tutkittu	-11.1992
▁mittaus	-11.1998
▁virallisi	-11.1999
ahde	-11.2002
▁tšekki	-11.2003
▁baletti	-11.2004
▁joulukuun	-11.2007
▁monipuolis	-11.2012
vaikuttaja	-11.2014
▁telakalle	-11.2014
▁kuluttaja	-11.2016
▁kyllä	-11.2017
▁seurajoukkueura	-11.2021
▁päivittäin	-11.2021
▁julistettiin	-11.2025
▁sieni	-11.2031
▁hautausmaalle	-11.2034
▁axel	-11.2036
▁pelaajien	-11.2036
▁sakari	-11.2037
▁1830	-11.2038
ship	-11.2042
▁levyllä	-11.2042
▁rukous	-11.2043
▁keskiosa	-11.2043
▁kw	-11.2046
▁kunnossa	-11.2046
▁vartioi	-11.2048
▁joutsen	-11.205
▁venezuela	-11.205
yksissä	-11.2051
▁valkoista	-11.2052
hevonen	-11.2054
▁lukemalla	-11.2056
}	-11.2056
štš	-11.2056
ør	-11.2057
monument	-11.2057
▁peräkkäis	-11.2057
▁ohio	-11.2061
aikoina	-11.2061
▁herää	-11.2063
▁pesii	-11.2063
▁lappeenrannan	-11.2064
kapteeni	-11.207
terminaali	-11.207
uinti	-11.2071
esitys	-11.2072
▁girl	-11.2072
päivien	-11.2072
▁linnoituksen	-11.2074
{	-11.2078
wing	-11.2078
▁arvostetu	-11.2079
▁havaitse	-11.208
▁ohut	-11.2083
▁laajasti	-11.2094
▁pidemmä	-11.2094
▁beat	-11.2095
▁näkyi	-11.2097
okselle	-11.2097
kuljetus	-11.2099
▁mahdollinen	-11.2099
▁laajennettiin	-11.2099
▁imatra	-11.21
▁tyyne	-11.2102
▁hauto	-11.2104
▁leikkaa	-11.2107
▁kiova	-11.2111
▁vanno	-11.2113
▁beach	-11.2114
▁france	-11.2117
▁hajoamis	-11.2118
▁tilannetta	-11.2119
▁lempinime	-11.212
▁vihkipiispaksi	-11.2121
▁lihas	-11.2121
aukea	-11.2122
▁laajensi	-11.2123
kerroksen	-11.2125
▁tammikuu	-11.2127
järje	-11.2129
asento	-11.213
▁aarne	-11.2133
▁1840	-11.2135
▁howard	-11.2138
на	-11.2144
▁tulkinta	-11.2146
järjestelmässä	-11.2146
▁hiihtotava	-11.2146
▁ehtinyt	-11.2152
vyyden	-11.2154
▁kiertää	-11.2154
thing	-11.2154
rå	-11.2156
▁colorado	-11.2156
▁perustamisesta	-11.2161
toiminto	-11.2162
▁menestyksen	-11.2165
▁pohjoisosassa	-11.2166
▁syrjäyttä	-11.2167
pisteissä	-11.2169
▁muodoltaan	-11.2169
kaltaise	-11.217
>	-11.2171
▁käden	-11.2172
▁sosiali	-11.2173
ttäjänä	-11.2178
▁vangiksi	-11.2178
▁kanka	-11.2178
▁korkeampi	-11.2178
lippu	-11.2179
▁hyödyntää	-11.218
champ	-11.2182
▁syntyneen	-11.2182
paikalle	-11.2183
▁josef	-11.2187
tehtävistä	-11.2187
▁positiivise	-11.219
ا	-11.2192
▁nintendo	-11.2192
▁institute	-11.2199
akvaario	-11.2199
sarvi	-11.22
▁jokeri	-11.22
▁aktiivise	-11.2205
asutus	-11.2205
▁kotimaassaan	-11.2207
▁valkoisia	-11.2207
▁oikeudenkäynti	-11.2208
▁poistui	-11.2211
hyvä	-11.2214
▁lämpimä	-11.2214
▁saaret	-11.2214
jaosto	-11.2215
▁afrikkalais	-11.2216
iberi	-11.2216
▁tukemaan	-11.2218
▁bud	-11.2219
▁gott	-11.2221
▁katsel	-11.2222
▁koru	-11.2223
▁islanti	-11.2224
marraskuu	-11.2227
▁pelaaminen	-11.2229
suur	-11.2232
▁eduskuntavaalei	-11.2233
▁mukaise	-11.2233
witz	-11.2234
divisioonaan	-11.2234
▁kiertävä	-11.2238
▁muusiko	-11.2238
huipu	-11.2238
▁paljastu	-11.2238
▁liukenee	-11.2243
▁bussi	-11.2243
▁kataja	-11.2249
maaliskuu	-11.225
syöpään	-11.2251
kartano	-11.2251
▁pysyvästi	-11.2251
▁douglas	-11.2257
pekka	-11.2261
▁maksamaan	-11.2261
▁pohjoisosa	-11.2261
▁poro	-11.2263
▁nimekseen	-11.2265
tiloihin	-11.2266
▁puhuu	-11.2272
▁väkivalla	-11.2274
▁selitys	-11.2277
peruste	-11.2277
peite	-11.2279
▁kultainen	-11.2282
▁missään	-11.2283
▁raju	-11.2283
päällikö	-11.2285
toiminno	-11.2285
▁alaska	-11.2287
▁monaco	-11.229
▁korkeuteen	-11.2293
▁heikentä	-11.2294
hankkei	-11.2294
▁tekemistä	-11.2294
▁huuto	-11.2294
▁kiihty	-11.2302
sävellykse	-11.2303
▁lauantai	-11.2308
varoja	-11.2313
▁1871	-11.2317
▁lähtenyt	-11.232
▁menivät	-11.2324
▁aloittama	-11.2324
ttämisestä	-11.2325
▁sotatoimi	-11.233
zzo	-11.233
▁charlie	-11.2332
▁siuna	-11.2333
riini	-11.2334
▁vallasta	-11.2334
▁järjestyksessä	-11.2335
puoleise	-11.2337
▁luennoi	-11.2338
▁ferrari	-11.2338
▁perustajajäsen	-11.2338
▁albania	-11.2339
▁maailmancupissa	-11.2339
kilpailuja	-11.2339
▁seuratasolla	-11.2343
▁satunnais	-11.2343
▁suurempaa	-11.2344
▁puhuja	-11.2344
–14	-11.2347
▁palkkasi	-11.2347
▁opintojaan	-11.2347
töistä	-11.2348
▁sellaisia	-11.2349
▁tarpeen	-11.2352
▁rakentamista	-11.2357
ohjelmien	-11.2359
▁esimerkkinä	-11.2361
▁paljastuu	-11.2365
▁suureen	-11.2367
▁arvostettu	-11.2368
jännite	-11.2369
budjet	-11.2373
▁seututie	-11.2378
▁logo	-11.2379
kkeri	-11.2381
▁liikkeelle	-11.2381
▁kattaa	-11.2386
▁tutkijoiden	-11.2387
viro	-11.2387
▁kiinnosta	-11.2388
▁käynnisty	-11.2396
▁fly	-11.2396
▁1869	-11.2397
▁tieltä	-11.2397
rá	-11.2397
▁junior	-11.2398
toimittaji	-11.2399
▁mainitsee	-11.2403
▁jättiläis	-11.2403
▁sortavala	-11.2403
–1991	-11.2404
▁muutokset	-11.2406
▁intialais	-11.2407
ttaren	-11.2407
▁mikään	-11.2408
▁talven	-11.241
▁dick	-11.241
▁väheni	-11.241
▁tuulen	-11.2412
▁säveltänyt	-11.2416
ampuja	-11.2421
▁kumpu	-11.2421
▁radi	-11.2424
maalari	-11.2424
▁eura	-11.2425
▁luonteeltaan	-11.2425
ilmoitukse	-11.2425
▁hyökkäystä	-11.2426
▁valitsema	-11.2426
▁albuminsa	-11.2431
8)	-11.2431
▁asioista	-11.2433
▁putin	-11.2436
tehtaalla	-11.244
▁justin	-11.2441
▁vangittiin	-11.2445
▁suosikki	-11.2447
▁rekisteröity	-11.2447
potentiaali	-11.2447
▁legioona	-11.2447
▁paikallisia	-11.2448
▁apple	-11.2449
▁ign	-11.245
▁arvellaan	-11.2455
seremonia	-11.2455
skandaali	-11.2455
gramma	-11.2455
▁välisellä	-11.2456
sarjakuva	-11.2461
▁pitämä	-11.2463
▁steel	-11.2463
chester	-11.2465
▁pääsihteeri	-11.2469
▁eräiden	-11.247
▁huolta	-11.247
kunnista	-11.247
tieteessä	-11.2474
▁teoksessaan	-11.2474
minuutti	-11.2476
rakentaja	-11.2478
▁kustanta	-11.2479
▁syytetty	-11.248
▁aiheesta	-11.2481
maalaus	-11.2482
▁vietnamin	-11.2482
yhtälö	-11.2483
▁molemmissa	-11.2484
▁päämäärä	-11.2488
▁loukkaantui	-11.2489
ammatti	-11.2491
tarkastus	-11.2496
kysely	-11.2498
▁tuotannossa	-11.2499
▁tiivii	-11.2499
laivojen	-11.2507
▁puuttuu	-11.2507
▁tunnetuimma	-11.2508
▁asuivat	-11.2511
▁espanjalainen	-11.2513
▁hävittä	-11.2515
▁pelatussa	-11.2515
väkeä	-11.2517
▁korkeintaan	-11.2518
aktiv	-11.2518
▁edustajia	-11.2519
▁dream	-11.2522
▁alkuvaiheessa	-11.2524
▁syövät	-11.2527
▁piirre	-11.2527
pensai	-11.2529
▁riippumatta	-11.253
▁syntyneet	-11.2531
▁andré	-11.2534
tiheys	-11.2536
▁ulottui	-11.2537
▁täällä	-11.2539
▁sinä	-11.2542
▁giovanni	-11.2543
▁näkemyksi	-11.2543
–1992	-11.2545
▁1,3	-11.2545
▁dialogi	-11.2548
▁kultti	-11.2549
▁diplomi	-11.2551
elektr	-11.2553
käyttäyty	-11.2553
liikkeessä	-11.2554
▁sallittu	-11.2556
▁titteli	-11.2556
voiton	-11.2556
▁konflikti	-11.2558
▁vatikaani	-11.2558
kustannuksi	-11.2558
▁kumpikin	-11.2558
▁tilaus	-11.2559
esiintyjä	-11.2561
▁osallistuu	-11.2561
▁vaihteleva	-11.2561
▁palautu	-11.2563
▁kantava	-11.2563
▁natrium	-11.2566
pihlaja	-11.2566
▁teloitettiin	-11.2566
▁norr	-11.2567
runko	-11.257
▁kuvaukset	-11.2572
▁alkuvuodesta	-11.2573
▁molemmilla	-11.2581
▁saudi	-11.2582
▁havaita	-11.2583
▁useista	-11.2584
turnaukseen	-11.2586
▁corporation	-11.2588
▁kiellettiin	-11.2588
▁anteeksi	-11.2588
▁kerrostalo	-11.2589
▁romu	-11.2593
▁muuttamaan	-11.2594
▁seurannee	-11.2596
▁reilu	-11.2599
▁epävarm	-11.2601
▁hajotta	-11.2601
missio	-11.2601
täydellise	-11.2603
▁ensimmäisistä	-11.2603
▁seinäjoen	-11.2611
▁tarvitsi	-11.2611
▁jatkettiin	-11.2611
▁raamattu	-11.2611
▁kunnioitta	-11.2618
▁heinrich	-11.2619
▁kuole	-11.2627
▁kreikassa	-11.2634
▁synk	-11.2635
▁uhkasi	-11.2641
rooppi	-11.2641
▁myöntää	-11.2643
▁kannattaa	-11.2644
▁1872	-11.2644
myrsky	-11.2646
▁broadway	-11.2648
▁1873	-11.2649
▁tyypillise	-11.2653
▁mereen	-11.2654
▁rossi	-11.2654
karhu	-11.2656
vaikutuksi	-11.2659
▁armo	-11.2659
▁nauti	-11.266
▁palkintoja	-11.2661
▁varsova	-11.2664
▁johdatti	-11.267
▁valokuvaaja	-11.2671
▁keskilämpötila	-11.2671
▁sisältyy	-11.2671
▁menettää	-11.2674
▁käyttöönsä	-11.2675
▁homer	-11.2678
▁keihää	-11.2679
▁engel	-11.268
▁muutoin	-11.2682
▁vahvi	-11.2682
▁tasaise	-11.2683
kirjoituksen	-11.2685
▁1862	-11.2688
▁tukema	-11.2689
▁täynnä	-11.2694
▁fyysis	-11.2696
▁aikalais	-11.2697
kauppiai	-11.2698
juova	-11.2698
▁rakennetta	-11.2699
▁lange	-11.2701
▁kennedy	-11.2701
▁kadetti	-11.2701
▁irtisano	-11.2702
▁varsinaisesti	-11.2704
▁karu	-11.2708
▁fair	-11.271
▁taiwan	-11.2711
▁kaksinkertais	-11.2716
▁välttää	-11.2717
työläis	-11.2718
▁tutkimuksissa	-11.2723
▁poikaset	-11.2723
▁latva	-11.2726
▁nav	-11.2727
▁korruptio	-11.2731
▁unescon	-11.2731
kenraali	-11.2733
▁water	-11.2734
▁marcus	-11.2738
▁tšekin	-11.2741
▁viimeistä	-11.2742
▁seuraavien	-11.2744
▁kertoma	-11.2746
▁vankeuteen	-11.2747
▁eerik	-11.2747
▁syntyvä	-11.2748
kuulu	-11.2749
▁suostunut	-11.275
▁departementi	-11.2754
▁maaherra	-11.2755
▁poliittisia	-11.2759
▁myydään	-11.2761
ball	-11.2761
niity	-11.2761
▁microsoft	-11.2762
lääkärinä	-11.2765
joelle	-11.2765
demokraattinen	-11.2767
▁lasse	-11.2768
osoitus	-11.2769
huhtikuu	-11.2769
▁vastakkais	-11.2771
▁luonnehti	-11.2771
▁mü	-11.2773
kustantamo	-11.2775
▁turvin	-11.2777
▁matemaattis	-11.2777
▁kauppala	-11.2777
palveluita	-11.2785
▁oireita	-11.2787
▁kaikkialla	-11.2791
▁hiukan	-11.2793
▁kolmasosa	-11.2795
▁murto	-11.2797
▁pelaavaa	-11.2798
▁everstiluutnant	-11.2799
▁chl	-11.2799
▁ruokavalio	-11.28
▁sijaitsevi	-11.28
▁kadonnut	-11.28
tunnustukse	-11.2802
▁teoksesta	-11.2806
▁merirosvo	-11.2808
▁maaseutu	-11.2808
historiallisesti	-11.2814
▁frankfurt	-11.2815
vuorten	-11.2816
<	-11.2823
▁sävellyksi	-11.2823
▁750	-11.2829
▁myönnetty	-11.2831
▁1874	-11.2833
▁verho	-11.2834
yymi	-11.2835
▁mietti	-11.2836
▁sanonut	-11.2836
upseerina	-11.2839
laidall	-11.2841
▁tunnustus	-11.2841
liigajoukkue	-11.2843
liittoon	-11.2844
▁kehittäjä	-11.2845
▁oireyhtymä	-11.2846
▁uhat	-11.2848
▁1867	-11.2849
guer	-11.285
▁1866	-11.285
▁sijoittunut	-11.285
▁sap	-11.2853
veteraani	-11.2854
▁hullu	-11.2854
▁tsaari	-11.2855
▁libya	-11.2858
tilanteissa	-11.2862
▁london	-11.2863
▁sinu	-11.2866
liigaottelu	-11.2871
▁työntekijää	-11.2874
house	-11.2876
▁amerikkalainen	-11.2877
▁adrian	-11.288
▁taistelemaan	-11.2882
▁napoli	-11.2886
juniori	-11.2886
▁1865	-11.2891
▁hitaa	-11.2892
ń	-11.2892
▁vaikuttava	-11.2894
osaur	-11.2895
kapina	-11.2896
cord	-11.2897
piireissä	-11.2897
▁längelmäveden	-11.29
ehdokkuude	-11.29
tulehdus	-11.2903
▁kulutus	-11.2904
hild	-11.2905
sankari	-11.2906
ï	-11.2908
▁useamman	-11.2912
▁tyhji	-11.2915
▁eurooppalaisten	-11.2921
▁demokraattis	-11.2921
▁syytettiin	-11.2922
▁populaari	-11.2923
liikkeitä	-11.2925
▁tuuman	-11.2927
▁fantasia	-11.2931
▁550	-11.2932
▁pelastu	-11.2936
▁poikkeus	-11.2939
core	-11.2939
▁lintujen	-11.2941
▁1848	-11.2944
▁rakennustyöt	-11.2945
▁arveltu	-11.2946
▁science	-11.2946
▁lukko	-11.295
▁uraani	-11.2951
▁lähtöisin	-11.2952
ttömäksi	-11.2953
valli	-11.2954
jälje	-11.2958
▁asukas	-11.2959
▁great	-11.2962
▁sukupolvi	-11.2962
▁suhtautui	-11.2966
kuormi	-11.2967
sopimuksi	-11.2967
ajoissa	-11.2971
▁uppo	-11.2975
▁kreikkalainen	-11.2977
▁pituinen	-11.2978
▁enkeli	-11.2978
▁etupäässä	-11.298
▁2018–2019	-11.2985
▁tultaessa	-11.2985
toimenpitei	-11.2986
muisto	-11.2986
laskenta	-11.2987
▁karkea	-11.2988
fluori	-11.2988
▁wright	-11.2988
afganistan	-11.2989
toverei	-11.2989
▁kunnosta	-11.299
+3	-11.299
▁taudin	-11.2992
▁konstantinopoli	-11.2993
lauluntekijä	-11.2993
▁pääkaupungin	-11.3001
▁uhanalais	-11.3001
▁saajaksi	-11.3001
▁kirjallise	-11.3005
▁kahtia	-11.3005
▁nykyaikaise	-11.3006
▁kirve	-11.3006
räjähdyks	-11.3008
▁wel	-11.3009
▁hollannin	-11.301
libanon	-11.3012
▁suuremman	-11.3016
▁samanlainen	-11.3017
▁heikenty	-11.3018
▁ahti	-11.3019
vaihteisto	-11.3021
menettely	-11.3021
▁uskoo	-11.3024
teollisuudessa	-11.3024
▁pelasti	-11.3025
jämsä	-11.3025
/10	-11.3026
▁pohti	-11.3026
▁perustamista	-11.3026
▁tango	-11.3027
▁dallas	-11.3028
ı	-11.3032
▁church	-11.3032
slaavi	-11.3034
ро	-11.3034
isointi	-11.3035
▁puuvilla	-11.3042
▁vaikutuksia	-11.3042
tekstei	-11.3042
▁kääntäjä	-11.3043
▁suhteita	-11.3043
paini	-11.305
vuotinen	-11.305
–1990	-11.305
▁luther	-11.3051
liikkeeseen	-11.3052
▁onnettomuuden	-11.3057
koneisto	-11.3057
näkymä	-11.3058
▁tutkimukset	-11.306
▁entertainment	-11.3063
▁alexandr	-11.3064
ikkö	-11.3065
▁1868	-11.3066
laitteiden	-11.3066
▁myydä	-11.3067
asenno	-11.3069
▁asukkaan	-11.307
▁egyptiläis	-11.307
▁tehotilaston	-11.3071
▁useilla	-11.3073
▁1875	-11.3075
virra	-11.3076
▁julkisuuteen	-11.3076
kustannukset	-11.3079
▁korhonen	-11.3079
▁estämään	-11.3082
▁monenlaisi	-11.3083
▁maakunnassa	-11.3086
tiedot	-11.3087
▁keskiajan	-11.3089
▁shu	-11.3091
▁artist	-11.3095
rauta	-11.3095
▁entisestään	-11.3097
▁veistos	-11.3099
ohjaukse	-11.3099
▁sotilaskoulutu	-11.3103
▁glu	-11.3106
▁mutka	-11.3106
▁julkisivu	-11.3111
▁heavy	-11.3111
▁merkittävimpiä	-11.3111
haukka	-11.3114
▁satakunnan	-11.3115
pano	-11.3116
▁juuret	-11.3119
▁markus	-11.3121
▁kiire	-11.3122
tilaisuudessa	-11.313
ografi	-11.313
▁nykyiseen	-11.3131
▁poltta	-11.3132
menestys	-11.3134
▁päätökseen	-11.3134
▁paljasti	-11.3135
perheeseen	-11.3136
▁hiipu	-11.3137
▁hauhon	-11.3139
▁tutu	-11.314
▁virasta	-11.3141
|	-11.3142
tuhatta	-11.3145
▁kove	-11.3151
▁vakuutta	-11.3151
▁vaikutukset	-11.3152
▁maailmanperintö	-11.3158
▁amsterdam	-11.3158
▁jälkeinen	-11.3158
▁nykypäivä	-11.3158
palkinno	-11.3158
▁iässä	-11.316
▁uskottiin	-11.3162
tarvikkeita	-11.3164
▁mauste	-11.3165
▁milloin	-11.3166
▁luetaan	-11.3173
▁beatles	-11.3175
▁käyttävä	-11.3178
▁jättämään	-11.318
▁columbia	-11.3182
▁tommy	-11.3189
▁vul	-11.319
tekijöiden	-11.319
▁lentää	-11.3195
▁näillä	-11.3198
▁tiibet	-11.3198
▁petro	-11.3199
▁viitataan	-11.32
▁sotilaallis	-11.32
▁normaalisti	-11.3205
▁johtavi	-11.3208
▁jonkun	-11.3208
komentaja	-11.3208
▁oireet	-11.3208
komedia	-11.3211
▁kutsuu	-11.3211
tarpei	-11.3212
▁artikkeleita	-11.3213
▁baseball	-11.3213
▁ennalta	-11.3214
etsintä	-11.3217
misella	-11.3221
▁aikaisemma	-11.3222
▁luopumaan	-11.3223
▁kirkkaa	-11.3223
▁karsiutui	-11.3223
vuotena	-11.3224
palloilija	-11.3224
▁ranskalaisten	-11.3229
▁jacques	-11.3229
periaattei	-11.323
▁pitkäaikainen	-11.323
▁huoli	-11.323
–1993	-11.3233
▁painopiste	-11.3237
▁milli	-11.3238
▁toistensa	-11.3239
harrastus	-11.3239
▁baltian	-11.3239
romanttis	-11.324
aluksi	-11.3242
▁1864	-11.3242
kisoista	-11.3243
▁trophy	-11.3245
▁jälkeläisi	-11.3246
▁jälkimmäinen	-11.3253
▁uefa	-11.3254
▁korkeudella	-11.3261
▁rudolf	-11.3261
▁manga	-11.3262
▁äänestys	-11.3262
▁vuorokauden	-11.3268
opintoja	-11.3275
▁suureksi	-11.3275
▁lääketieteellis	-11.3278
▁edeltävä	-11.328
▁jenni	-11.3281
▁dru	-11.3284
▁lähteiden	-11.3284
▁kokoontui	-11.3285
▁muistutti	-11.3285
julistukse	-11.3287
▁mill	-11.3288
▁televisiosarjoi	-11.3289
▁liuku	-11.329
▁kuollessa	-11.3294
▁gordon	-11.3299
▁tupla	-11.3299
▁lähettämä	-11.3299
levinneisyysalue	-11.3304
▁diego	-11.3305
▁romutettavaksi	-11.331
▁luontais	-11.331
▁käänsi	-11.3311
▁väsy	-11.3312
ravintola	-11.3312
▁liittymis	-11.3312
▁läheltä	-11.3314
trofi	-11.3317
urallaan	-11.3319
▁hallitukseen	-11.3321
pylväs	-11.3326
▁asiakirja	-11.3327
▁viranomaisten	-11.3327
▁kirjapaino	-11.3329
kuljettaji	-11.3332
▁cambridge	-11.3334
▁käyttäytyminen	-11.3334
▁vertailu	-11.3335
▁sanoitukse	-11.3336
▁dragon	-11.3338
▁lautta	-11.3341
▁valtiovarain	-11.3342
▁aloite	-11.3344
▁tarvitsee	-11.3345
▁selviää	-11.3346
▁asenne	-11.3349
▁jääneen	-11.3351
▁nälkä	-11.3352
▁toteaa	-11.3356
▁jääkauden	-11.3357
▁ajankohtais	-11.3358
▁2002–2003	-11.3359
▁saapumis	-11.3363
▁piel	-11.3363
▁otetaan	-11.3364
▁lisensiaatiksi	-11.3366
▁hylkää	-11.3366
▁nikola	-11.3366
vedellä	-11.3367
▁hyväkseen	-11.3367
▁legend	-11.337
neuvostoliittoon	-11.3371
▁pastori	-11.3375
▁650	-11.3375
▁shakki	-11.3376
dynastia	-11.3376
▁rauma	-11.3381
▁merkitsee	-11.3383
▁sairauden	-11.3386
syyttäjä	-11.3389
▁vampyyri	-11.339
mylly	-11.339
▁1100-	-11.3391
lähet	-11.3394
▁tarinoita	-11.3396
▁neutr	-11.3396
▁myöhemmät	-11.3398
velji	-11.3399
▁kirjoitettiin	-11.3401
▁laser	-11.3401
▁torino	-11.3406
▁tuotannosta	-11.3406
▁liittynyt	-11.3407
craft	-11.3407
▁asemakaava	-11.3409
▁ober	-11.341
▁käsikirjoitta	-11.3412
▁paljastui	-11.3412
paikaksi	-11.3414
δ	-11.3415
▁määriä	-11.3416
▁väliset	-11.3417
▁jere	-11.3418
▁lempi	-11.342
▁hpk	-11.3423
nuorissa	-11.3425
▁charlotte	-11.3431
tuomioistuin	-11.3431
▁aloitteesta	-11.3431
▁museum	-11.3439
▁altistu	-11.3441
▁syöttöpörssin	-11.3447
▁mineraali	-11.3447
▁abraham	-11.3447
todistus	-11.3448
▁pinnalla	-11.345
tekniikoi	-11.3455
euroopasta	-11.3455
taajuus	-11.3457
▁125	-11.3458
▁indus	-11.3458
▁upposi	-11.346
trilogia	-11.3461
vuotisjuhla	-11.3462
▁andersson	-11.3463
▁loppuvuodesta	-11.3464
▁pidempi	-11.3469
▁jyrki	-11.3472
–2007	-11.3474
graph	-11.3476
▁turkuun	-11.3478
▁väitetty	-11.3479
▁michigan	-11.348
▁hong	-11.3482
▁ilmenee	-11.3482
▁synnytti	-11.3483
▁riisi	-11.3486
▁miller	-11.3486
gari	-11.3486
▁kappaleessa	-11.349
▁major	-11.3491
▁toimeen	-11.3493
hormoni	-11.3494
amerikka	-11.3497
▁aloittami	-11.3501
▁kaarina	-11.3503
▁esimerkkejä	-11.3503
ttömyyde	-11.3504
opettajaksi	-11.3506
haita	-11.3506
▁moottoritie	-11.3508
▁hyvinvointi	-11.3513
sarjoja	-11.3518
▁avioliitosta	-11.3519
▁kuljetti	-11.352
▁kärppien	-11.3521
▁liittyen	-11.3521
▁petsamo	-11.3521
▁olympialaisiin	-11.3522
▁lauren	-11.3524
professori	-11.3526
▁sotilaallise	-11.3527
tapahtumiin	-11.3529
đ	-11.3529
▁ludwig	-11.3529
▁yhdistyivät	-11.3532
kohdista	-11.3536
▁kalevi	-11.3537
▁levytyssopimuks	-11.3539
▁raiska	-11.3545
seurue	-11.3547
asemia	-11.3551
konsoli	-11.3553
▁hongkong	-11.3554
fysiikka	-11.3555
▁valmistava	-11.3558
ajoneuvo	-11.3559
▁1,4	-11.3562
▁pennsylvania	-11.3562
▁iskelmä	-11.3562
▁avoimen	-11.3564
▁muistutta	-11.3566
▁ruotsinkielise	-11.3567
▁ydinase	-11.3568
▁kyprokse	-11.357
▁luotto	-11.3571
palestiina	-11.3572
aliupseeri	-11.3573
seurojen	-11.3576
▁alice	-11.3576
▁kypsy	-11.3578
ttomuuden	-11.3578
▁edetessä	-11.3579
maaottelu	-11.3581
▁tunnusti	-11.3584
veturi	-11.3587
▁kerralla	-11.3589
▁lähetystö	-11.3592
ttömyys	-11.3592
▁yoshi	-11.3593
määräykse	-11.3594
▁lisätty	-11.3595
▁lämmön	-11.3595
▁racing	-11.3596
–1970	-11.3597
▁heart	-11.3605
▁kestänyt	-11.3605
▁osoittautu	-11.3605
▁tyve	-11.3607
▁maatalouden	-11.3612
ни	-11.3614
▁omistuksessa	-11.3615
▁nykyisessä	-11.3617
▁rinnakkais	-11.362
▁palmu	-11.3623
–13	-11.3628
▁massachusetts	-11.3628
miehistö	-11.3629
tytär	-11.363
▁ympäristöön	-11.3631
ão	-11.3634
▁työllistä	-11.3635
▁naantali	-11.3637
▁haluttiin	-11.3638
▁tuotantokausi	-11.3638
pitkä	-11.3639
ongelmista	-11.364
▁paransi	-11.3641
▁luotiin	-11.3642
ttomuutta	-11.3643
▁(35.6	-11.3645
▁dollari	-11.3646
▁maalaa	-11.3647
kunnalla	-11.365
▁toteutti	-11.3652
▁keskelle	-11.3654
▁toteutettiin	-11.3655
▁laitteen	-11.3655
positiivis	-11.3656
▁baby	-11.3656
kemiallise	-11.3658
▁lincoln	-11.3661
▁suuriruhtinas	-11.3661
▁huonekalu	-11.3662
▁kehittämään	-11.3673
▁kullan	-11.3674
▁taantu	-11.3674
oppilaitos	-11.3677
kategoria	-11.3678
▁kustantaja	-11.3679
▁kriitikot	-11.3683
▁passi	-11.3683
shima	-11.3684
efekti	-11.3686
▁neuvostotasaval	-11.3686
jauho	-11.3689
ammatillis	-11.3694
etiikka	-11.3694
stipendi	-11.3695
▁annetu	-11.3699
▁turve	-11.3702
▁merenpinnan	-11.3703
▁myytti	-11.3705
▁suoritettu	-11.3712
▁todisteita	-11.3713
▁kallo	-11.3716
▁vokaali	-11.3722
▁parvi	-11.3722
2009	-11.3722
▁sellainen	-11.3722
▁akusti	-11.3723
murhi	-11.3727
▁whl	-11.3727
▁röntgen	-11.3728
▁kotimaahansa	-11.3728
▁rafael	-11.3728
▁aikakauden	-11.3729
▁1,1	-11.3731
▁potilas	-11.3732
▁kaltaisi	-11.3732
▁0,0	-11.3732
▁miehitys	-11.3733
▁hallinnollinen	-11.3737
▁wienissä	-11.3737
seuroi	-11.3745
▁aluksella	-11.3746
laukaus	-11.3746
▁cook	-11.3748
▁moose	-11.375
messu	-11.3751
/19	-11.3752
ă	-11.3753
▁katolinen	-11.3754
▁myydy	-11.3755
▁pelicans	-11.3755
▁kimmo	-11.3762
kehitys	-11.3765
liitte	-11.3766
▁mielenkiinto	-11.377
▁wind	-11.3771
▁puhdista	-11.3772
–2000	-11.3773
hammer	-11.3778
▁räjähtä	-11.3779
▁talviolympiala	-11.3779
▁riittävästi	-11.3779
yhdisteitä	-11.3779
▁manuel	-11.3779
▁pesimä	-11.3779
▁ajanjakso	-11.378
▁ibn	-11.3782
taidon	-11.3783
edustaja	-11.3784
kirjallisuudessa	-11.3785
▁keto	-11.3786
kävijä	-11.3786
paikkojen	-11.3792
prikaati	-11.3795
berger	-11.3796
mekaniik	-11.3796
▁poliittisesti	-11.3797
syvyyde	-11.3797
▁opiskella	-11.3798
▁european	-11.3804
▁kaukana	-11.3805
▁ylimääräise	-11.3807
▁valentin	-11.3807
▁vaikeuksia	-11.3809
korvaus	-11.3813
▁epäselvä	-11.3813
▁kohoaa	-11.3814
▁kolmivuotisen	-11.3814
▁välierä	-11.3814
esityksiä	-11.3819
▁kaartin	-11.3824
▁julkisuudessa	-11.3824
▁vanhempiensa	-11.3825
▁siika	-11.3826
▁haave	-11.3829
▁debyyttialbumi	-11.383
kriitiko	-11.3833
▁austin	-11.3842
▁aikoo	-11.3847
▁who	-11.3847
▁salamurha	-11.3849
▁kiusa	-11.3853
▁vapautti	-11.3858
▁greg	-11.3858
–2009	-11.3858
▁käytettävissä	-11.3859
▁järjestettävä	-11.3872
myynti	-11.3875
▁kahvila	-11.3879
▁ymmärret	-11.388
▁varustetu	-11.3881
▁yhdeksänneksi	-11.3882
juhlien	-11.3887
▁paikassa	-11.3891
karsintaottelu	-11.3894
▁käynnisti	-11.3896
▁shl	-11.3896
▁marcel	-11.39
▁fossiili	-11.3906
▁mahdollisuutta	-11.3906
▁1861	-11.3906
▁tulevaisuuden	-11.3908
käsitykse	-11.3911
▁baijeri	-11.3915
cock	-11.3916
kiveä	-11.3919
▁julkaisee	-11.3923
suurpujottelussa	-11.3923
▁kannattava	-11.3923
rautatie	-11.3924
▁tullessa	-11.3929
ος	-11.3932
▁norjalainen	-11.3934
▁capital	-11.3934
▁saavuttama	-11.3937
▁pahasti	-11.3941
▁kilpaileva	-11.3942
teltava	-11.395
▁poikkeuksellise	-11.3952
▁auttamaan	-11.3954
▁2020	-11.3955
soittime	-11.3956
▁bryssel	-11.3958
▁sony	-11.3958
▁olympialaisten	-11.3959
kunnaksi	-11.3962
mestaruutensa	-11.3962
▁oppimis	-11.3963
η	-11.3966
▁väittää	-11.3966
helmikuu	-11.397
▁sukunime	-11.3971
–1989	-11.3971
▁vaalipiiristä	-11.3972
televisiosarja	-11.3973
▁virtuaali	-11.3975
paikoista	-11.3975
▁muodostuva	-11.3976
huoneenlämpötila	-11.3983
▁salibandy	-11.3983
maalauksia	-11.3989
▁suisto	-11.3989
▁panama	-11.3992
▁siv	-11.3993
▁yläosa	-11.3996
▁aiheena	-11.3999
▁sellaista	-11.4001
lähettiläs	-11.4005
▁morgan	-11.4005
▁pomp	-11.4009
–2003	-11.4009
omistukse	-11.4009
▁lähtemään	-11.4011
▁rinnalle	-11.4018
▁sopivi	-11.4019
▁virtaava	-11.4019
sauva	-11.4024
▁paeta	-11.4028
▁työttömyys	-11.403
▁grammaa	-11.4031
▁best	-11.4033
▁björk	-11.4043
paikalla	-11.4044
poikia	-11.405
▁riittävä	-11.4051
▁hankittiin	-11.4052
▁alettua	-11.4055
pilve	-11.4057
▁juliste	-11.4058
kirjoista	-11.4059
▁carter	-11.406
▁ensisijaisesti	-11.4061
istetty	-11.4062
vuoteen	-11.4063
–2006	-11.4063
▁kukistu	-11.4063
hallintoalue	-11.4067
▁elizabeth	-11.4069
▁loviisa	-11.407
▁vahingossa	-11.4072
▁levittäyty	-11.4072
▁velho	-11.4079
▁muutoksen	-11.4079
▁avioero	-11.4081
▁fight	-11.4082
tarpeell	-11.4084
▁linnut	-11.4084
▁ritarikunnan	-11.4085
▁mennyt	-11.4086
▁kristiina	-11.4089
▁kierrä	-11.409
vaatimus	-11.409
lappa	-11.4094
▁benjamin	-11.4096
▁asetettu	-11.41
▁ilmaantu	-11.4101
▁kuljettaa	-11.4103
▁calgary	-11.4104
käyrä	-11.4105
▁mikkeli	-11.4109
▁viettää	-11.4109
suuntaise	-11.4112
▁lahjoitta	-11.4114
▁kielet	-11.4115
▁scar	-11.4121
▁academy	-11.4122
▁pääsääntöisesti	-11.4122
▁komennettiin	-11.4122
demokraatti	-11.4123
▁jäyk	-11.4124
johdo	-11.4127
▁marvel	-11.4127
▁särki	-11.4128
laivoja	-11.4132
▁vapaaehtoisena	-11.4133
▁miehitti	-11.4136
nopeudella	-11.4139
vyöhyke	-11.4139
ř	-11.4139
▁google	-11.4148
–2004	-11.4149
▁talonpoikais	-11.4157
▁uppsala	-11.4165
pituude	-11.4166
▁jimmy	-11.4168
▁kanadalais	-11.417
kitaristi	-11.4175
▁nelson	-11.4176
▁warner	-11.4176
▁pohjautuva	-11.4176
▁palvo	-11.4177
▁kärkeen	-11.4177
▁suoritettiin	-11.4181
lehto	-11.4183
ê	-11.4183
▁perjantai	-11.4183
▁joukkuekilpailu	-11.4184
pörssi	-11.4184
▁rakentamiseen	-11.4185
demokraat	-11.4185
sointu	-11.4186
▁kykene	-11.4186
2008	-11.4186
leirei	-11.4195
▁merc	-11.4196
▁planeetan	-11.4199
▁sisällissodassa	-11.42
▁syrjäytti	-11.4202
▁öster	-11.4205
▁roolistaan	-11.4207
▁terroristi	-11.4215
ång	-11.422
▁kreikkalaisessa	-11.4222
▁boris	-11.4223
amerikkalais	-11.423
▁laulukilpailu	-11.4232
▁kuuluneen	-11.4235
▁tupakka	-11.4235
▁korostaa	-11.4241
▁halkaisija	-11.4243
ч	-11.4245
▁tuotteen	-11.4251
osaurus	-11.4255
▁laajennus	-11.4264
▁pitkäaikais	-11.4265
▁sulautu	-11.4267
▁kab	-11.4267
kaupunkeihin	-11.4271
▁omaisuuden	-11.4276
–2005	-11.4289
▁egyptissä	-11.429
▁pääkonttori	-11.4292
liuska	-11.4292
▁palkat	-11.4295
▁harrasti	-11.4297
▁siirretty	-11.4298
▁ylöspäin	-11.4299
▁aikaisempi	-11.4303
▁yhdistävä	-11.4303
▁edustajainhuone	-11.4305
▁hakemaan	-11.4306
▁hyväksynyt	-11.4308
kuorma	-11.4309
yhdys	-11.4313
selv	-11.4313
laivueeseen	-11.4314
▁alkuperäisestä	-11.4316
▁2001–2002	-11.4316
▁tuotantokauden	-11.4321
toimikunnan	-11.4322
aatit	-11.4325
▁kadonnee	-11.4326
▁vastakkain	-11.4329
▁nopeammin	-11.4329
▁korkeudessa	-11.4333
▁maaseudun	-11.4333
tilaisuus	-11.4336
ра	-11.4336
▁globe	-11.4338
▁vangittu	-11.4339
augh	-11.434
▁viivästy	-11.4342
▁itävallassa	-11.4342
venttiili	-11.4342
▁valikoi	-11.4342
▁sosiologi	-11.4343
▁3000	-11.4343
mestaruuteen	-11.4347
▁yläpuolelle	-11.4347
▁kasvaessa	-11.435
▁vähenn	-11.435
▁kahdeksi	-11.4351
▁kulkeutu	-11.4353
▁glen	-11.4355
▁firenze	-11.436
▁itärintamalla	-11.436
▁keskustaajama	-11.436
▁energ	-11.4361
▁menettänyt	-11.4365
llisyyttä	-11.4368
▁tarkemmin	-11.4369
▁kirkas	-11.4371
sosialismi	-11.4373
▁edeltäjänsä	-11.4376
▁elokuvista	-11.4377
owski	-11.4378
zero	-11.4379
▁avajais	-11.438
▁cooper	-11.438
lautakunnan	-11.4384
▁rouva	-11.4392
▁merenpinnasta	-11.4396
▁zürich	-11.4396
▁käsityksen	-11.4398
▁pääsevät	-11.4399
▁tehneen	-11.4403
▁rovaniemen	-11.4405
▁sijainneen	-11.4405
▁katolise	-11.4405
▁mielipitei	-11.4406
▁arvion	-11.4406
▁hovioikeuden	-11.4406
▁palkattiin	-11.4407
▁rukoil	-11.4408
▁muotokuva	-11.441
▁tyrmäyksellä	-11.4414
▁konepaja	-11.4414
recht	-11.4417
kiellon	-11.4417
▁majakka	-11.4418
▁kisko	-11.442
▁pakenee	-11.4423
hävittäji	-11.4424
lkaväkirykmentti	-11.4428
jauhe	-11.4429
▁sotilaan	-11.4429
vaihtoehdo	-11.443
▁pittsburgh	-11.4432
▁perheineen	-11.4433
▁helsingistä	-11.4441
▁kellari	-11.4443
asioissa	-11.4443
vaiht	-11.4449
▁tyhjen	-11.445
▁vedestä	-11.4453
▁köli	-11.4453
▁tehokas	-11.4456
▁vainaja	-11.4458
housu	-11.446
▁ilmavoimat	-11.446
▁hiero	-11.4466
iitin	-11.4469
▁syyllisty	-11.447
velvollisuus	-11.4471
▁eddie	-11.4475
▁nisäkkäi	-11.4477
rauda	-11.4477
▁päiväkirja	-11.448
▁parantu	-11.4484
▁velvoit	-11.4485
ст	-11.4487
–2008	-11.4489
▁julkinen	-11.4489
▁keskittyvä	-11.4492
▁vakituise	-11.4495
kattila	-11.4496
paljas	-11.4497
▁ammuttiin	-11.45
▁tšer	-11.4502
▁skandinavia	-11.4504
▁kanslia	-11.4504
▁palannut	-11.4506
▁musiikillise	-11.4508
▁tapauksen	-11.451
mestaruutta	-11.4512
▁loistava	-11.4515
▁kelly	-11.4517
▁raimo	-11.4518
▁donald	-11.4522
palatsi	-11.4527
▁esitety	-11.453
▁jyväskylässä	-11.4531
▁lämpimi	-11.4531
▁hjk	-11.4531
vuoto	-11.4533
▁antero	-11.4534
▁tuntumassa	-11.4536
▁iltapäivä	-11.454
funktio	-11.4542
basso	-11.4545
▁alkamis	-11.4545
▁elänyt	-11.4547
▁maaleja	-11.4552
▁sonic	-11.4553
▁suurelta	-11.4554
▁tiger	-11.4555
▁ifk	-11.4558
jono	-11.4559
matkailija	-11.456
▁purkautu	-11.4561
▁bruno	-11.4562
▁opiskelijoiden	-11.4565
▁saalii	-11.4565
liikenteessä	-11.4568
▁testamentin	-11.4568
▁houston	-11.4568
▁reunus	-11.4573
▁schumacher	-11.4577
▁fosfori	-11.4577
▁keskittyä	-11.4579
▁1,6	-11.4579
järjestelmiä	-11.458
▁kolmannes	-11.4581
formaati	-11.4584
▁schw	-11.4584
▁asennettu	-11.4586
nitro	-11.4592
▁nummi	-11.4595
	-11.4597
opintonsa	-11.4598
▁gootti	-11.4599
avioliito	-11.46
▁olymp	-11.4601
sähkö	-11.4604
▁snellman	-11.4604
▁havaiji	-11.4605
▁köln	-11.4605
▁ratkaista	-11.4606
peleistä	-11.4607
▁robot	-11.4607
nurme	-11.4608
eläkkee	-11.4611
▁työskentelevä	-11.4613
▁komensi	-11.4616
▁pelastamaan	-11.4621
▁jätetty	-11.4622
▁useimpi	-11.4623
▁marco	-11.4624
vuotensa	-11.4625
▁wayne	-11.4627
▁videopeli	-11.4629
viikonloppu	-11.463
asutukse	-11.4631
khos	-11.4631
ί	-11.4632
▁neitsyt	-11.4632
▁tehokkaasti	-11.4632
▁tehtävistään	-11.4632
sukunimi	-11.4634
▁loppuotteluun	-11.4636
▁tiedä	-11.4638
▁analysoi	-11.4641
▁perehty	-11.4642
▁darwin	-11.4643
▁kantatie	-11.4648
uutis	-11.4655
▁eeva	-11.4656
▁raahe	-11.4656
▁valokuvi	-11.4665
▁pelkäsi	-11.4668
▁championship	-11.4668
▁kolmantena	-11.4668
▁tarvittiin	-11.4668
▁täytty	-11.4669
lammen	-11.4677
ohjelmisto	-11.4677
saksofoni	-11.4678
järjestelmien	-11.4679
▁yksinkertainen	-11.4679
▁lisääntyi	-11.4679
vitamiini	-11.4689
▁saavuttua	-11.4692
▁vallitseva	-11.4696
▁humanisti	-11.4698
▁vanhoillis	-11.4698
▁perustetu	-11.4705
▁rakenteeltaan	-11.4705
▁täytyi	-11.4705
▁åbo	-11.4706
▁hengi	-11.4707
rø	-11.4709
▁liikkumis	-11.4712
▁lähteissä	-11.4712
tehtail	-11.4712
▁sierra	-11.4715
▁tallenta	-11.4717
▁näyttelee	-11.4726
▁koliko	-11.4729
▁ulkoministeriö	-11.4733
▁laajoja	-11.4733
▁johtanee	-11.4734
kuljetukse	-11.4739
2007	-11.4742
▁välieriin	-11.4743
▁miami	-11.4743
▁varmasti	-11.475
▁pääsiäis	-11.4751
▁1859	-11.4753
▁ohessa	-11.4753
▁käyttötarkoitu	-11.476
▁törmäsi	-11.4761
▁jakautuu	-11.4762
▁point	-11.4763
▁hävittyä	-11.4764
▁syttyi	-11.4765
▁alkuaine	-11.4765
▁evans	-11.4765
▁mytologia	-11.4772
▁laatima	-11.4773
▁hengissä	-11.4773
▁kekkonen	-11.4776
harjoituksi	-11.4776
▁moottoripyörä	-11.4779
malmi	-11.4781
▁sääntöjen	-11.4781
liikenteeseen	-11.4781
▁pakkas	-11.4782
▁kuntoutu	-11.4783
uudeksi	-11.4787
▁yhdysvaltoja	-11.4789
turbiini	-11.4789
▁four	-11.4791
но	-11.4792
▁mahdotonta	-11.4798
katalyyt	-11.4799
▁maalauksi	-11.4799
▁maininta	-11.4801
▁jalkaväki	-11.4804
▁käänny	-11.4807
▁yhdysvalloista	-11.4808
yhteistyö	-11.4808
fosfaatti	-11.4818
▁prototyyppi	-11.4822
muokka	-11.4824
mattomat	-11.4824
rakennukseen	-11.4826
kosketinsoittaja	-11.4826
▁kvantti	-11.4827
elämäkerr	-11.4828
▁tosiasia	-11.4828
▁varatuomari	-11.483
▁blood	-11.4831
▁suhteellis	-11.4831
▁lentokenttä	-11.4832
▁vincent	-11.4836
▁kylmi	-11.4836
▁hoidossa	-11.484
▁hakeutu	-11.4843
▁philipp	-11.4844
▁journalisti	-11.4847
▁pietar	-11.4848
–2011	-11.4848
▁jäänteitä	-11.4848
ilmoitus	-11.4849
▁berlin	-11.485
▁arviointi	-11.4853
▁asteroidi	-11.4854
▁knight	-11.4855
▁uskonnollinen	-11.4855
▁vallata	-11.4855
▁paleo	-11.4857
–2010	-11.4858
▁christopher	-11.4864
työntekijä	-11.4865
uuskilpailuissa	-11.4872
▁hämäläinen	-11.4873
▁räikkönen	-11.4873
▁syöttöpisteen	-11.4873
indeksi	-11.4873
▁design	-11.4873
traditio	-11.4874
▁liikevaihto	-11.4875
ucci	-11.4881
▁tulevaisuudessa	-11.4883
▁leipzig	-11.4883
▁tarjoama	-11.4886
matkoilla	-11.4887
▁periaatteessa	-11.4887
sarve	-11.4888
▁väittee	-11.4889
valtuutettu	-11.4892
▁1855	-11.4892
▁valmistetu	-11.4894
▁pisteellä	-11.4896
kummu	-11.4899
▁valuutta	-11.4907
▁julki	-11.4916
reich	-11.492
▁aristoteleen	-11.492
▁valitsee	-11.492
▁pariskunta	-11.4921
muiste	-11.4927
▁pitämi	-11.4928
▁yhteyksiä	-11.4929
▁telakalla	-11.493
▁sekunnin	-11.493
taajuude	-11.493
▁islannin	-11.4931
▁viidessä	-11.4934
▁polveutu	-11.4936
▁aikataulu	-11.4937
▁ystäviä	-11.4939
▁orji	-11.4941
▁käsitellään	-11.4943
▁nukke	-11.4943
▁metsästykse	-11.4947
bü	-11.4954
▁siperian	-11.4954
▁winter	-11.4956
▁loukkaa	-11.4956
[...]
