{
  "version": "1.0",
  "truncation": null,
  "padding": null,
  "added_tokens": [],
  "normalizer": null,
  "pre_tokenizer": {
    "type": "Metaspace",
    "replacement": "▁",
    "add_prefix_space": true
  },
  "post_processor": null,
  "decoder": null,
  "model": {
    "type": "BPE",
    "dropout": null,
    "unk_token": null,
    "continuing_subword_prefix": null,
    "end_of_word_suffix": null,
    "fuse_unk": false,
    "vocab": {
      "a": 0,
      "b": 1,
      "c": 2,
      "d": 3,
      "e": 4,
      "f": 5,
      "g": 6,
      "h": 7,
      "i": 8,
      "j": 9,
      "k": 10,
      "l": 11,
      "m": 12,
      "n": 13,
      "o": 14,
      "p": 15,
      "q": 16,
      "r": 17,
      "s": 18,
      "t": 19,
      "u": 20,
      "v": 21,
      "w": 22,
      "x": 23,
      "y": 24,
      "z": 25,
      "▁": 26,
      "▁t": 27,
      "▁a": 28,
      "in": 29,
      "he": 30,
      "▁o": 31,
      "er": 32,
      "▁s": 33,
      "▁the": 34,
      "re": 35,
      "▁c": 36,
      "on": 37,
      "▁f": 38,
      "en": 39,
      "is": 40,
      "at": 41,
      "an": 42,
      "▁b": 43,
      "▁w": 44,
      "▁p": 45,
      "it": 46,
      "▁m": 47,
      "ed": 48,
      "▁of": 49,
      "es": 50,
      "or": 51,
      "al": 52,
      "▁in": 53,
      "▁n": 54,
      "ar": 55,
      "▁an": 56,
      "▁on": 57,
      "ic": 58,
      "▁d": 59,
      "▁e": 60,
      "ou": 61,
      "▁and": 62,
      "▁h": 63,
      "ion": 64,
      "▁l": 65,
      "▁one": 66,
      "ing": 67,
      "as": 68,
      "▁th": 69,
      "▁to": 70,
      "ro": 71,
      "ine": 72,
      "le": 73,
      "ve": 74,
      "▁g": 75,
      "ent": 76,
      "▁z": 77,
      "ig": 78,
      "▁re": 79,
      "ero": 80,
      "▁zero": 81,
      "om": 82,
      "▁nine": 83,
      "ly": 84,
      "us": 85,
      "ct": 86,
      "il": 87,
      "▁se": 88,
      "▁is": 89,
      "▁be": 90,
      "ol": 91,
      "am": 92,
      "▁tw": 93,
      "st": 94,
      "▁two": 95,
      "ht": 96,
      "un": 97,
      "im": 98,
      "ive": 99,
      "ation": 100,
      "ce": 101,
      "ra": 102,
      "▁st": 103,
      "ight": 104,
      "▁for": 105,
      "ch": 106,
      "id": 107,
      "ver": 108,
      "▁as": 109,
      "ot": 110,
      "ut": 111,
      "ur": 112,
      "et": 113,
      "our": 114,
      "▁al": 115,
      "ir": 116,
      "ist": 117,
      "el": 118,
      "ow": 119,
      "ree": 120,
      "▁con": 121,
      "ad": 122,
      "ul": 123,
      "ven": 124,
      "▁eight": 125,
      "▁he": 126,
      "ter": 127,
      "ith": 128,
      "▁k": 129,
      "▁wh": 130,
      "▁was": 131,
      "▁de": 132,
      "▁j": 133,
      "▁five": 134,
      "▁r": 135,
      "▁three": 136,
      "▁it": 137,
      "▁by": 138,
      "ix": 139,
      "ay": 140,
      "▁or": 141,
      "os": 142,
      "▁four": 143,
      "▁that": 144,
      "▁com": 145,
      "▁with": 146,
      "her": 147,
      "▁pro": 148,
      "▁v": 149,
      "▁six": 150,
      "▁ch": 151,
      "and": 152,
      "um": 153,
      "▁mo": 154,
      "▁seven": 155,
      "▁un": 156,
      "ers": 157,
      "ge": 158,
      "if": 159,
      "op": 160,
      "▁ex": 161,
      "ri": 162,
      "rom": 163,
      "em": 164,
      "▁are": 165,
      "th": 166,
      "▁su": 167,
      "est": 168,
      "oun": 169,
      "▁at": 170,
      "res": 171,
      "ac": 172,
      "ain": 173,
      "ate": 174,
      "ab": 175,
      "ity": 176,
      "qu": 177,
      "ian": 178,
      "ies": 179,
      "pe": 180,
      "od": 181,
      "▁from": 182,
      "se": 183,
      "▁us": 184,
      "▁ne": 185,
      "ment": 186,
      "ich": 187,
      "ld": 188,
      "▁ar": 189,
      "oc": 190,
      "ess": 191,
      "ical": 192,
      "▁en": 193,
      "iv": 194,
      "art": 195,
      "ill": 196,
      "ant": 197,
      "▁his": 198,
      "ia": 199,
      "▁y": 200,
      "ort": 201,
      "ial": 202,
      "ud": 203,
      "▁le": 204,
      "all": 205,
      "og": 206,
      "▁not": 207,
      "▁this": 208,
      "ap": 209,
      "ard": 210,
      "▁which": 211,
      "ish": 212,
      "ak": 213,
      "ag": 214,
      "▁wor": 215,
      "ther": 216,
      "pp": 217,
      "ber": 218,
      "der": 219,
      "▁sh": 220,
      "▁pl": 221,
      "▁ha": 222,
      "▁comp": 223,
      "▁am": 224,
      "ction": 225,
      "ure": 226,
      "ated": 227,
      "so": 228,
      "ary": 229,
      "ie": 230,
      "pt": 231,
      "ame": 232,
      "ip": 233,
      "▁man": 234,
      "ome": 235,
      "ous": 236,
      "ast": 237,
      "▁cl": 238,
      "▁also": 239,
      "oug": 240,
      "▁ad": 241,
      "rit": 242,
      "ere": 243,
      "▁cont": 244,
      "cl": 245,
      "▁ab": 246,
      "ire": 247,
      "per": 248,
      "ong": 249,
      "age": 250,
      "ust": 251,
      "▁can": 252,
      "ran": 253,
      "▁int": 254,
      "ell": 255,
      "▁sp": 256,
      "▁have": 257,
      "ect": 258,
      "cc": 259,
      "ks": 260,
      "▁has": 261,
      "▁were": 262,
      "▁whe": 263,
      "▁other": 264,
      "ition": 265,
      "▁all": 266,
      "ore": 267,
      "end": 268,
      "ally": 269,
      "iz": 270,
      "▁im": 271,
      "ound": 272,
      "ence": 273,
      "ib": 274,
      "▁af": 275,
      "▁part": 276,
      "▁u": 277,
      "ations": 278,
      "ry": 279,
      "▁ro": 280,
      "▁but": 281,
      "▁comm": 282,
      "ory": 283,
      "ide": 284,
      "fer": 285,
      "tern": 286,
      "ult": 287,
      "erm": 288,
      "du": 289,
      "▁sc": 290,
      "ub": 291,
      "ass": 292,
      "ough": 293,
      "▁te": 294,
      "ren": 295,
      "ign": 296,
      "▁its": 297,
      "▁dis": 298,
      "ang": 299,
      "av": 300,
      "▁ind": 301,
      "ru": 302,
      "ph": 303,
      "act": 304,
      "▁sy": 305,
      "▁i": 306,
      "pl": 307,
      "ould": 308,
      "ars": 309,
      "vers": 310,
      "▁their": 311,
      "▁res": 312,
      "▁new": 313,
      "▁some": 314,
      "▁go": 315,
      "ke": 316,
      "▁ra": 317,
      "▁fir": 318,
      "▁me": 319,
      "ord": 320,
      "out": 321,
      "land": 322,
      "▁no": 323,
      "▁bec": 324,
      "▁mar": 325,
      "▁col": 326,
      "ime": 327,
      "ican": 328,
      "ount": 329,
      "▁co": 330,
      "▁had": 331,
      "ates": 332,
      "▁first": 333,
      "vel": 334,
      "▁so": 335,
      "orm": 336,
      "▁form": 337,
      "▁they": 338,
      "ism": 339,
      "▁gen": 340,
      "▁ph": 341,
      "▁most": 342,
      "are": 343,
      "ces": 344,
      "▁ag": 345,
      "own": 346,
      "▁bo": 347,
      "ue": 348,
      "ice": 349,
      "ress": 350,
      "able": 351,
      "ater": 352,
      "▁po": 353,
      "ack": 354,
      "▁more": 355,
      "▁per": 356,
      "▁there": 357,
      "▁pr": 358,
      "▁amer": 359,
      "ions": 360,
      "▁tra": 361,
      "▁who": 362,
      "▁des": 363,
      "ose": 364,
      "▁gr": 365,
      "ach": 366,
      "ict": 367,
      "▁we": 368,
      "▁ye": 369,
      "ics": 370,
      "con": 371,
      "▁cent": 372,
      "▁cons": 373,
      "▁spe": 374,
      "▁been": 375,
      "▁ser": 376,
      "ite": 377,
      "ile": 378,
      "▁rel": 379,
      "ff": 380,
      "ens": 381,
      "ace": 382,
      "▁em": 383,
      "▁ele": 384,
      "▁pe": 385,
      "▁such": 386,
      "▁qu": 387,
      "olog": 388,
      "▁pre": 389,
      "▁eng": 390,
      "ok": 391,
      "▁many": 392,
      "▁kn": 393,
      "clud": 394,
      "▁rec": 395,
      "ors": 396,
      "ath": 397,
      "▁act": 398,
      "ance": 399,
      "ational": 400,
      "te": 401,
      "▁fe": 402,
      "ited": 403,
      "▁pol": 404,
      "▁used": 405,
      "▁after": 406,
      "ase": 407,
      "one": 408,
      "les": 409,
      "ular": 410,
      "port": 411,
      "ts": 412,
      "▁includ": 413,
      "▁bl": 414,
      "▁how": 415,
      "hed": 416,
      "▁over": 417,
      "▁american": 418,
      "ubl": 419,
      "▁li": 420,
      "▁inf": 421,
      "we": 422,
      "▁ear": 423,
      "▁see": 424,
      "▁may": 425,
      "▁app": 426,
      "▁ma": 427,
      "ced": 428,
      "▁when": 429,
      "▁do": 430,
      "▁la": 431,
      "amp": 432,
      "▁out": 433,
      "ten": 434,
      "wn": 435,
      "▁time": 436,
      "low": 437,
      "▁into": 438,
      "reat": 439,
      "ans": 440,
      "▁pres": 441,
      "ual": 442,
      "ious": 443,
      "▁play": 444,
      "▁these": 445,
      "ft": 446,
      "ind": 447,
      "▁hist": 448,
      "stem": 449,
      "▁jo": 450,
      "ents": 451,
      "▁war": 452,
      "▁inter": 453,
      "▁up": 454,
      "▁world": 455,
      "▁only": 456,
      "▁than": 457,
      "aus": 458,
      "ied": 459,
      "ug": 460,
      "▁bet": 461,
      "ved": 462,
      "▁mus": 463,
      "▁acc": 464,
      "▁system": 465,
      "▁under": 466,
      "▁reg": 467,
      "ings": 468,
      "▁off": 469,
      "▁char": 470,
      "▁pop": 471,
      "▁gener": 472,
      "ative": 473,
      "▁sub": 474,
      "▁ass": 475,
      "▁att": 476,
      "▁num": 477,
      "int": 478,
      "▁ap": 479,
      "▁ev": 480,
      "very": 481,
      "▁will": 482,
      "▁count": 483,
      "▁call": 484,
      "uring": 485,
      "▁ed": 486,
      "▁mon": 487,
      "▁ac": 488,
      "▁would": 489,
      "▁car": 490,
      "▁def": 491,
      "rib": 492,
      "ys": 493,
      "▁fl": 494,
      "rans": 495,
      "▁bas": 496,
      "▁uni": 497,
      "▁hig": 498,
      "ll": 499,
      "▁rep": 500,
      "▁lar": 501,
      "ific": 502,
      "vern": 503,
      "▁trans": 504,
      "ons": 505,
      "▁met": 506,
      "dition": 507,
      "▁min": 508,
      "▁dif": 509,
      "▁produ": 510,
      "ds": 511,
      "ade": 512,
      "ever": 513,
      "ck": 514,
      "ution": 515,
      "ject": 516,
      "oth": 517,
      "▁her": 518,
      "▁art": 519,
      "▁lin": 520,
      "▁govern": 521,
      "ric": 522,
      "ists": 523,
      "▁par": 524,
      "▁them": 525,
      "iet": 526,
      "▁however": 527,
      "▁inst": 528,
      "ween": 529,
      "▁lo": 530,
      "▁between": 531,
      "iss": 532,
      "▁peop": 533,
      "ident": 534,
      "ep": 535,
      "gr": 536,
      "red": 537,
      "▁about": 538,
      "gan": 539,
      "▁ob": 540,
      "▁use": 541,
      "▁states": 542,
      "▁inc": 543,
      "▁work": 544,
      "ake": 545,
      "▁x": 546,
      "▁sim": 547,
      "▁lang": 548,
      "erman": 549,
      "▁mem": 550,
      "▁publ": 551,
      "ays": 552,
      "▁if": 553,
      "ron": 554,
      "oup": 555,
      "▁years": 556,
      "▁eu": 557,
      "orn": 558,
      "ient": 559,
      "▁him": 560,
      "▁writ": 561,
      "▁thr": 562,
      "ood": 563,
      "▁people": 564,
      "▁pos": 565,
      "io": 566,
      "cial": 567,
      "ail": 568,
      "▁during": 569,
      "ince": 570,
      "▁langu": 571,
      "als": 572,
      "ities": 573,
      "ild": 574,
      "ually": 575,
      "▁united": 576,
      "ily": 577,
      "▁known": 578,
      "▁rem": 579,
      "▁fol": 580,
      "lish": 581,
      "▁inv": 582,
      "▁called": 583,
      "▁any": 584,
      "cept": 585,
      "ower": 586,
      "▁fil": 587,
      "▁where": 588,
      "cy": 589,
      "ral": 590,
      "ert": 591,
      "▁sm": 592,
      "urn": 593,
      "ury": 594,
      "old": 595,
      "▁fin": 596,
      "▁aut": 597,
      "hes": 598,
      "▁univers": 599,
      "ife": 600,
      "▁gu": 601,
      "ond": 602,
      "▁br": 603,
      "▁bel": 604,
      "ology": 605,
      "▁brit": 606,
      "▁german": 607,
      "▁sch": 608,
      "▁var": 609,
      "ause": 610,
      "▁sa": 611,
      "▁supp": 612,
      "▁through": 613,
      "ating": 614,
      "ne": 615,
      "▁state": 616,
      "ward": 617,
      "▁sou": 618,
      "▁dist": 619,
      "▁ent": 620,
      "ures": 621,
      "▁often": 622,
      "▁pers": 623,
      "▁cap": 624,
      "li": 625,
      "▁ext": 626,
      "ible": 627,
      "▁term": 628,
      "▁est": 629,
      "hem": 630,
      "ments": 631,
      "ale": 632,
      "▁const": 633,
      "▁fran": 634,
      "▁main": 635,
      "ames": 636,
      "▁group": 637,
      "▁fam": 638,
      "▁history": 639,
      "velop": 640,
      "▁mat": 641,
      "cess": 642,
      "raph": 643,
      "▁bro": 644,
      "ick": 645,
      "imes": 646,
      "ise": 647,
      "ically": 648,
      "uc": 649,
      "▁ge": 650,
      "▁differ": 651,
      "▁elect": 652,
      "▁euro": 653,
      "rist": 654,
      "form": 655,
      "▁king": 656,
      "ins": 657,
      "▁intern": 658,
      "▁while": 659,
      "▁soc": 660,
      "▁city": 661,
      "▁set": 662,
      "▁high": 663,
      "▁develop": 664,
      "▁nor": 665,
      "▁well": 666,
      "▁like": 667,
      "▁refer": 668,
      "▁med": 669,
      "▁orig": 670,
      "▁follow": 671,
      "▁again": 672,
      "▁found": 673,
      "▁fun": 674,
      "ah": 675,
      "▁exp": 676,
      "▁english": 677,
      "▁she": 678,
      "▁being": 679,
      "▁then": 680,
      "▁number": 681,
      "▁ty": 682,
      "tle": 683,
      "ages": 684,
      "▁made": 685,
      "man": 686,
      "▁end": 687,
      "▁both": 688,
      "ble": 689,
      "ost": 690,
      "ished": 691,
      "uss": 692,
      "▁imp": 693,
      "▁air": 694,
      "hip": 695,
      "fore": 696,
      "ctions": 697,
      "ider": 698,
      "▁bu": 699,
      "▁joh": 700,
      "▁disc": 701,
      "▁mil": 702,
      "▁government": 703,
      "iel": 704,
      "▁rom": 705,
      "▁hum": 706,
      "ines": 707,
      "▁christ": 708,
      "▁law": 709,
      "ians": 710,
      "ather": 711,
      "▁stud": 712,
      "▁common": 713,
      "ted": 714,
      "▁prov": 715,
      "▁europe": 716,
      "▁polit": 717,
      "▁long": 718,
      "▁eff": 719,
      "▁later": 720,
      "its": 721,
      "ract": 722,
      "▁film": 723,
      "ature": 724,
      "▁dire": 725,
      "▁cur": 726,
      "▁sur": 727,
      "▁dep": 728,
      "other": 729,
      "ton": 730,
      "▁mu": 731,
      "▁loc": 732,
      "bers": 733,
      "ized": 734,
      "▁cre": 735,
      "▁name": 736,
      "ural": 737,
      "▁origin": 738,
      "▁arm": 739,
      "▁national": 740,
      "omet": 741,
      "▁sign": 742,
      "▁commun": 743,
      "▁john": 744,
      "▁since": 745,
      "▁class": 746,
      "▁sever": 747,
      "▁dec": 748,
      "▁str": 749,
      "ful": 750,
      "▁maj": 751,
      "▁je": 752,
      "▁century": 753,
      "iew": 754,
      "▁cor": 755,
      "▁ret": 756,
      "ty": 757,
      "▁dem": 758,
      "▁cal": 759,
      "▁because": 760,
      "▁music": 761,
      "ving": 762,
      "▁lead": 763,
      "az": 764,
      "▁colle": 765,
      "rent": 766,
      "ision": 767,
      "▁ke": 768,
      "▁leg": 769,
      "▁life": 770,
      "▁great": 771,
      "▁university": 772,
      "▁early": 773,
      "row": 774,
      "ork": 775,
      "ined": 776,
      "ann": 777,
      "conom": 778,
      "▁contro": 779,
      "ample": 780,
      "▁british": 781,
      "▁major": 782,
      "▁year": 783,
      "▁partic": 784,
      "▁mod": 785,
      "▁day": 786,
      "▁large": 787,
      "arch": 788,
      "▁even": 789,
      "▁sing": 790,
      "led": 791,
      "▁power": 792,
      "▁right": 793,
      "▁econom": 794,
      "▁consider": 795,
      "▁own": 796,
      "▁same": 797,
      "chn": 798,
      "▁list": 799,
      "ros": 800,
      "▁lit": 801,
      "ograph": 802,
      "ility": 803,
      "ues": 804,
      "▁comple": 805,
      "▁secon": 806,
      "▁including": 807,
      "gram": 808,
      "▁charact": 809,
      "ger": 810,
      "xt": 811,
      "▁became": 812,
      "▁equ": 813,
      "▁ir": 814,
      "▁contin": 815,
      "▁gre": 816,
      "▁op": 817,
      "▁example": 818,
      "▁es": 819,
      "▁each": 820,
      "▁el": 821,
      "▁val": 822,
      "▁comput": 823,
      "▁god": 824,
      "ium": 825,
      "▁oper": 826,
      "▁language": 827,
      "▁desc": 828,
      "▁occ": 829,
      "ulation": 830,
      "ier": 831,
      "▁alth": 832,
      "elf": 833,
      "▁death": 834,
      "ves": 835,
      "ives": 836,
      "ences": 837,
      "▁general": 838,
      "▁although": 839,
      "ik": 840,
      "▁sl": 841,
      "▁spec": 842,
      "▁island": 843,
      "▁direct": 844,
      "▁moder": 845,
      "▁several": 846,
      "▁pri": 847,
      "▁second": 848,
      "▁import": 849,
      "ters": 850,
      "▁different": 851,
      "▁det": 852,
      "ange": 853,
      "pect": 854,
      "▁fre": 855,
      "▁appe": 856,
      "ning": 857,
      "▁stand": 858,
      "▁techn": 859,
      "rench": 860,
      "▁organ": 861,
      "▁ant": 862,
      "▁small": 863,
      "▁very": 864,
      "▁bat": 865,
      "▁phil": 866,
      "▁much": 867,
      "▁har": 868,
      "▁french": 869,
      "▁sw": 870,
      "▁before": 871,
      "▁result": 872,
      "▁south": 873,
      "▁ins": 874,
      "▁offic": 875,
      "▁program": 876,
      "ience": 877,
      "urch": 878,
      "▁what": 879,
      "▁now": 880,
      "atic": 881,
      "▁conf": 882,
      "▁gl": 883,
      "gy": 884,
      "ock": 885,
      "▁north": 886,
      "▁ii": 887,
      "▁design": 888,
      "▁er": 889,
      "ool": 890,
      "hen": 891,
      "vent": 892,
      "▁aust": 893,
      "▁public": 894,
      "▁cult": 895,
      "▁old": 896,
      "de": 897,
      "▁pa": 898,
      "els": 899,
      "ica": 900,
      "ought": 901,
      "▁could": 902,
      "▁land": 903,
      "▁rev": 904,
      "▁against": 905,
      "ants": 906,
      "▁modern": 907,
      "ital": 908,
      "▁my": 909,
      "ternal": 910,
      "▁gra": 911,
      "▁dr": 912,
      "▁links": 913,
      "▁fact": 914,
      "ruct": 915,
      "rop": 916,
      "ains": 917,
      "▁belie": 918,
      "▁cour": 919,
      "▁bar": 920,
      "▁based": 921,
      "ional": 922,
      "▁those": 923,
      "gest": 924,
      "▁back": 925,
      "ouse": 926,
      "▁port": 927,
      "▁order": 928,
      "aim": 929,
      "▁person": 930,
      "ained": 931,
      "ov": 932,
      "▁mark": 933,
      "ob": 934,
      "ute": 935,
      "ina": 936,
      "aking": 937,
      "▁cr": 938,
      "▁unt": 939,
      "ave": 940,
      "▁president": 941,
      "osed": 942,
      "▁hand": 943,
      "up": 944,
      "▁div": 945,
      "▁another": 946,
      "ived": 947,
      "olution": 948,
      "▁external": 949,
      "ries": 950,
      "▁poss": 951,
      "way": 952,
      "ull": 953,
      "▁record": 954,
      "▁lat": 955,
      "ting": 956,
      "▁game": 957,
      "▁show": 958,
      "▁human": 959,
      "▁auth": 960,
      "▁non": 961,
      "▁popular": 962,
      "▁country": 963,
      "▁somet": 964,
      "oy": 965,
      "▁ref": 966,
      "ode": 967,
      "ccess": 968,
      "▁pat": 969,
      "get": 970,
      "▁series": 971,
      "▁hy": 972,
      "▁mag": 973,
      "▁you": 974,
      "ield": 975,
      "▁expl": 976,
      "▁free": 977,
      "▁av": 978,
      "▁support": 979,
      "▁still": 980,
      "ament": 981,
      "▁requ": 982,
      "▁book": 983,
      "▁tradition": 984,
      "ared": 985,
      "▁effect": 986,
      "▁international": 987,
      "▁until": 988,
      "▁ter": 989,
      "▁conc": 990,
      "ged": 991,
      "▁milit": 992,
      "▁vers": 993,
      "enn": 994,
      "▁prot": 995,
      "ased": 996,
      "▁serv": 997,
      "▁did": 998,
      "bert": 999,
      "▁run": 1000,
      "▁sec": 1001,
      "ense": 1002,
      "▁mid": 1003,
      "oph": 1004,
      "ired": 1005,
      "▁rad": 1006,
      "▁line": 1007,
      "▁mill": 1008,
      "ason": 1009,
      "▁just": 1010,
      "▁infl": 1011,
      "▁tr": 1012,
      "▁stat": 1013,
      "▁church": 1014,
      "que": 1015,
      "iod": 1016,
      "min": 1017,
      "▁success": 1018,
      "ently": 1019,
      "▁dom": 1020,
      "▁inform": 1021,
      "▁add": 1022,
      "▁process": 1023,
      "▁compan": 1024,
      "ization": 1025,
      "▁net": 1026,
      "ret": 1027,
      "▁artic": 1028,
      "▁school": 1029,
      "ley": 1030,
      "▁fo": 1031,
      "▁way": 1032,
      "▁jew": 1033,
      "ided": 1034,
      "ius": 1035,
      "▁political": 1036,
      "ner": 1037,
      "▁opp": 1038,
      "▁party": 1039,
      "▁pass": 1040,
      "▁arg": 1041,
      "▁sk": 1042,
      "▁character": 1043,
      "▁west": 1044,
      "air": 1045,
      "▁rele": 1046,
      "▁point": 1047,
      "ories": 1048,
      "▁real": 1049,
      "▁prop": 1050,
      "▁allow": 1051,
      "▁relig": 1052,
      "▁usually": 1053,
      "▁incre": 1054,
      "ank": 1055,
      "▁bir": 1056,
      "▁di": 1057,
      "▁roman": 1058,
      "▁bre": 1059,
      "▁down": 1060,
      "▁crit": 1061,
      "▁among": 1062,
      "ices": 1063,
      "ised": 1064,
      "▁phys": 1065,
      "▁typ": 1066,
      "mber": 1067,
      "co": 1068,
      "ene": 1069,
      "por": 1070,
      "▁adv": 1071,
      "ness": 1072,
      "▁bi": 1073,
      "ister": 1074,
      "▁eas": 1075,
      "▁open": 1076,
      "▁gree": 1077,
      "iation": 1078,
      "ms": 1079,
      "▁histor": 1080,
      "bo": 1081,
      "▁last": 1082,
      "ides": 1083,
      "ator": 1084,
      "au": 1085,
      "ross": 1086,
      "▁official": 1087,
      "▁theory": 1088,
      "ified": 1089,
      "▁area": 1090,
      "▁near": 1091,
      "▁around": 1092,
      "▁fore": 1093,
      "ark": 1094,
      "day": 1095,
      "▁every": 1096,
      "▁nat": 1097,
      "▁arch": 1098,
      "▁include": 1099,
      "▁short": 1100,
      "▁period": 1101,
      "yn": 1102,
      "ata": 1103,
      "me": 1104,
      "ilar": 1105,
      "▁coun": 1106,
      "▁author": 1107,
      "dom": 1108,
      "▁view": 1109,
      "ases": 1110,
      "▁claim": 1111,
      "bs": 1112,
      "▁child": 1113,
      "▁left": 1114,
      "▁tri": 1115,
      "ball": 1116,
      "▁let": 1117,
      "▁repres": 1118,
      "▁sol": 1119,
      "▁move": 1120,
      "▁military": 1121,
      "▁members": 1122,
      "inc": 1123,
      "▁far": 1124,
      "▁population": 1125,
      "▁similar": 1126,
      "▁head": 1127,
      "ash": 1128,
      "▁exper": 1129,
      "▁using": 1130,
      "▁though": 1131,
      "ese": 1132,
      "▁gi": 1133,
      "▁russ": 1134,
      "amed": 1135,
      "ets": 1136,
      "ably": 1137,
      "▁jap": 1138,
      "ware": 1139,
      "▁ep": 1140,
      "iety": 1141,
      "▁mean": 1142,
      "▁particular": 1143,
      "▁press": 1144,
      "▁east": 1145,
      "▁ide": 1146,
      "ze": 1147,
      "▁following": 1148,
      "▁dra": 1149,
      "▁ri": 1150,
      "son": 1151,
      "▁japan": 1152,
      "yl": 1153,
      "▁vol": 1154,
      "▁within": 1155,
      "▁ang": 1156,
      "▁current": 1157,
      "▁bod": 1158,
      "▁tele": 1159,
      "▁bra": 1160,
      "iving": 1161,
      "▁prof": 1162,
      "ued": 1163,
      "▁mic": 1164,
      "imate": 1165,
      "ec": 1166,
      "▁house": 1167,
      "▁canad": 1168,
      "▁rest": 1169,
      "▁tem": 1170,
      "▁bus": 1171,
      "▁lab": 1172,
      "▁ste": 1173,
      "ize": 1174,
      "ax": 1175,
      "▁hol": 1176,
      "▁influ": 1177,
      "▁hel": 1178,
      "▁standard": 1179,
      "erv": 1180,
      "▁due": 1181,
      "iction": 1182,
      "▁ve": 1183,
      "▁hun": 1184,
      "▁beg": 1185,
      "▁important": 1186,
      "▁appro": 1187,
      "▁light": 1188,
      "ript": 1189,
      "▁del": 1190,
      "▁christian": 1191,
      "▁perform": 1192,
      "▁mac": 1193,
      "▁less": 1194,
      "▁considered": 1195,
      "ane": 1196,
      "▁alb": 1197,
      "▁social": 1198,
      "▁mal": 1199,
      "▁vi": 1200,
      "▁civ": 1201,
      "▁exist": 1202,
      "▁computer": 1203,
      "▁water": 1204,
      "amm": 1205,
      "▁cir": 1206,
      "▁accord": 1207,
      "▁pract": 1208,
      "▁home": 1209,
      "▁sour": 1210,
      "ertain": 1211,
      "▁family": 1212,
      "▁start": 1213,
      "rodu": 1214,
      "▁jud": 1215,
      "▁word": 1216,
      "ths": 1217,
      "▁information": 1218,
      "ended": 1219,
      "▁philos": 1220,
      "ony": 1221,
      "▁european": 1222,
      "epend": 1223,
      "akes": 1224,
      "▁wes": 1225,
      "▁independ": 1226,
      "▁ann": 1227,
      "▁sometimes": 1228,
      "▁win": 1229,
      "ument": 1230,
      "▁does": 1231,
      "▁assoc": 1232,
      "▁dev": 1233,
      "▁civil": 1234,
      "▁republ": 1235,
      "▁meth": 1236,
      "▁mor": 1237,
      "▁sym": 1238,
      "▁times": 1239,
      "▁cy": 1240,
      "▁control": 1241,
      "▁miss": 1242,
      "▁without": 1243,
      "ography": 1244,
      "▁make": 1245,
      "hing": 1246,
      "ler": 1247,
      "▁ber": 1248,
      "▁given": 1249,
      "▁present": 1250,
      "par": 1251,
      "▁represent": 1252,
      "▁place": 1253,
      "▁lim": 1254,
      "▁read": 1255,
      "▁estab": 1256,
      "▁proble": 1257,
      "▁ital": 1258,
      "ster": 1259,
      "▁cle": 1260,
      "▁born": 1261,
      "tal": 1262,
      "▁appl": 1263,
      "▁fur": 1264,
      "▁thir": 1265,
      "▁addition": 1266,
      "▁describ": 1267,
      "▁top": 1268,
      "▁good": 1269,
      "na": 1270,
      "▁level": 1271,
      "▁few": 1272,
      "▁emp": 1273,
      "ither": 1274,
      "▁space": 1275,
      "▁hal": 1276,
      "▁austral": 1277,
      "▁should": 1278,
      "▁mass": 1279,
      "▁black": 1280,
      "▁case": 1281,
      "▁team": 1282,
      "▁union": 1283,
      "▁cat": 1284,
      "▁red": 1285,
      "▁age": 1286,
      "▁central": 1287,
      "che": 1288,
      "▁pur": 1289,
      "oss": 1290,
      "▁vis": 1291,
      "empt": 1292,
      "▁rul": 1293,
      "lect": 1294,
      "▁york": 1295,
      "amb": 1296,
      "oks": 1297,
      "▁led": 1298,
      "ison": 1299,
      "▁circ": 1300,
      "bn": 1301,
      "eng": 1302,
      "read": 1303,
      "ological": 1304,
      "▁thus": 1305,
      "▁various": 1306,
      "▁wom": 1307,
      "une": 1308,
      "▁science": 1309,
      "▁earth": 1310,
      "ential": 1311,
      "ency": 1312,
      "ration": 1313,
      "▁aff": 1314,
      "▁become": 1315,
      "▁systems": 1316,
      "ps": 1317,
      "less": 1318,
      "▁ho": 1319,
      "▁isbn": 1320,
      "▁countries": 1321,
      "▁mot": 1322,
      "▁super": 1323,
      "istic": 1324,
      "ination": 1325,
      "▁ca": 1326,
      "▁comb": 1327,
      "▁western": 1328,
      "▁da": 1329,
      "▁must": 1330,
      "▁best": 1331,
      "▁mult": 1332,
      "▁others": 1333,
      "▁ver": 1334,
      "▁return": 1335,
      "▁according": 1336,
      "▁article": 1337,
      "▁men": 1338,
      "▁mer": 1339,
      "▁chang": 1340,
      "▁rece": 1341,
      "▁player": 1342,
      "▁special": 1343,
      "▁tit": 1344,
      "ried": 1345,
      "▁languages": 1346,
      "▁hen": 1347,
      "▁treat": 1348,
      "cing": 1349,
      "▁resp": 1350,
      "ling": 1351,
      "▁der": 1352,
      "▁du": 1353,
      "▁never": 1354,
      "ple": 1355,
      "▁indust": 1356,
      "tic": 1357,
      "▁song": 1358,
      "ats": 1359,
      "▁object": 1360,
      "▁began": 1361,
      "ots": 1362,
      "▁camp": 1363,
      "▁foot": 1364,
      "▁former": 1365,
      "▁proper": 1366,
      "▁method": 1367,
      "▁test": 1368,
      "▁kill": 1369,
      "▁generally": 1370,
      "▁cop": 1371,
      "▁original": 1372,
      "urg": 1373,
      "▁anim": 1374,
      "▁need": 1375,
      "ways": 1376,
      "ink": 1377,
      "▁iss": 1378,
      "▁struct": 1379,
      "iam": 1380,
      "▁sum": 1381,
      "▁written": 1382,
      "over": 1383,
      "▁den": 1384,
      "▁works": 1385,
      "▁sal": 1386,
      "ones": 1387,
      "▁development": 1388,
      "▁force": 1389,
      "ivid": 1390,
      "▁imm": 1391,
      "lo": 1392,
      "ott": 1393,
      "▁eth": 1394,
      "▁turn": 1395,
      "ae": 1396,
      "▁geor": 1397,
      "▁introdu": 1398,
      "▁attempt": 1399,
      "gress": 1400,
      "▁post": 1401,
      "▁single": 1402,
      "eder": 1403,
      "▁prim": 1404,
      "▁constit": 1405,
      "▁france": 1406,
      "▁further": 1407,
      "ality": 1408,
      "▁low": 1409,
      "ai": 1410,
      "▁know": 1411,
      "ior": 1412,
      "▁anc": 1413,
      "▁che": 1414,
      "uted": 1415,
      "aced": 1416,
      "▁band": 1417,
      "▁individ": 1418,
      "ming": 1419,
      "▁km": 1420,
      "▁log": 1421,
      "▁pet": 1422,
      "▁vir": 1423,
      "line": 1424,
      "▁groups": 1425,
      "▁relations": 1426,
      "▁wide": 1427,
      "ring": 1428,
      "▁ident": 1429,
      "▁event": 1430,
      "▁late": 1431,
      "▁report": 1432,
      "▁cell": 1433,
      "ove": 1434,
      "▁obs": 1435,
      "▁dav": 1436,
      "▁et": 1437,
      "▁kingdom": 1438,
      "alth": 1439,
      "▁liter": 1440,
      "lex": 1441,
      "▁along": 1442,
      "▁engine": 1443,
      "▁england": 1444,
      "▁jan": 1445,
      "▁son": 1446,
      "▁fa": 1447,
      "▁build": 1448,
      "self": 1449,
      "▁repl": 1450,
      "▁aug": 1451,
      "▁body": 1452,
      "▁mathem": 1453,
      "ively": 1454,
      "▁rather": 1455,
      "▁function": 1456,
      "ival": 1457,
      "▁data": 1458,
      "▁position": 1459,
      "▁individual": 1460,
      "ances": 1461,
      "▁greek": 1462,
      "yle": 1463,
      "olic": 1464,
      "▁invol": 1465,
      "▁court": 1466,
      "cially": 1467,
      "▁games": 1468,
      "▁base": 1469,
      "wards": 1470,
      "▁named": 1471,
      "▁field": 1472,
      "▁germany": 1473,
      "ges": 1474,
      "▁beh": 1475,
      "tt": 1476,
      "▁lond": 1477,
      "▁scient": 1478,
      "▁soft": 1479,
      "▁liber": 1480,
      "▁ara": 1481,
      "▁anal": 1482,
      "▁sea": 1483,
      "▁star": 1484,
      "▁said": 1485,
      "▁ju": 1486,
      "ague": 1487,
      "▁battle": 1488,
      "▁version": 1489,
      "▁london": 1490,
      "▁million": 1491,
      "▁decl": 1492,
      "ches": 1493,
      "▁nort": 1494,
      "▁company": 1495,
      "▁natural": 1496,
      "▁capital": 1497,
      "▁economic": 1498,
      "app": 1499,
      "cul": 1500,
      "▁published": 1501,
      "▁army": 1502,
      "▁project": 1503,
      "rael": 1504,
      "▁strong": 1505,
      "aster": 1506,
      "▁bal": 1507,
      "▁rese": 1508,
      "▁occur": 1509,
      "▁fem": 1510,
      "▁certain": 1511,
      "by": 1512,
      "ma": 1513,
      "▁pal": 1514,
      "ote": 1515,
      "ites": 1516,
      "▁interest": 1517,
      "▁sun": 1518,
      "ogn": 1519,
      "▁caus": 1520,
      "▁news": 1521,
      "▁hard": 1522,
      "▁product": 1523,
      "▁mater": 1524,
      "▁either": 1525,
      "▁sov": 1526,
      "▁take": 1527,
      "▁fr": 1528,
      "▁empire": 1529,
      "▁grow": 1530,
      "cil": 1531,
      "work": 1532,
      "ention": 1533,
      "▁soviet": 1534,
      "▁bill": 1535,
      "aining": 1536,
      "han": 1537,
      "▁service": 1538,
      "ends": 1539,
      "ern": 1540,
      "▁care": 1541,
      "▁developed": 1542,
      "▁israel": 1543,
      "▁syn": 1544,
      "▁wal": 1545,
      "raft": 1546,
      "▁republic": 1547,
      "▁college": 1548,
      "▁full": 1549,
      "▁cath": 1550,
      "▁william": 1551,
      "▁total": 1552,
      "most": 1553,
      "ilt": 1554,
      "mer": 1555,
      "▁youn": 1556,
      "aps": 1557,
      "▁educ": 1558,
      "ipp": 1559,
      "▁today": 1560,
      "▁held": 1561,
      "▁america": 1562,
      "▁local": 1563,
      "ule": 1564,
      "▁ill": 1565,
      "▁river": 1566,
      "ification": 1567,
      "▁means": 1568,
      "aw": 1569,
      "▁sat": 1570,
      "▁espe": 1571,
      "ured": 1572,
      "▁separ": 1573,
      "▁father": 1574,
      "▁norm": 1575,
      "ctor": 1576,
      "▁third": 1577,
      "aken": 1578,
      "▁august": 1579,
      "▁sug": 1580,
      "itive": 1581,
      "etic": 1582,
      "ids": 1583,
      "dle": 1584,
      "▁white": 1585,
      "idence": 1586,
      "▁chem": 1587,
      "▁ce": 1588,
      "▁especially": 1589,
      "▁forces": 1590,
      "lin": 1591,
      "▁ps": 1592,
      "▁town": 1593,
      "gen": 1594,
      "▁hom": 1595,
      "▁concept": 1596,
      "▁material": 1597,
      "▁rock": 1598,
      "▁mount": 1599,
      "ication": 1600,
      "▁dest": 1601,
      "▁prev": 1602,
      "▁society": 1603,
      "▁sound": 1604,
      "ruction": 1605,
      "arian": 1606,
      "▁books": 1607,
      "anish": 1608,
      "▁subject": 1609,
      "▁possible": 1610,
      "▁side": 1611,
      "be": 1612,
      "▁center": 1613,
      "▁frequ": 1614,
      "rew": 1615,
      "▁philosoph": 1616,
      "▁enc": 1617,
      "▁famous": 1618,
      "ught": 1619,
      "▁text": 1620,
      "▁instit": 1621,
      "▁took": 1622,
      "▁ast": 1623,
      "▁tru": 1624,
      "▁democ": 1625,
      "▁lib": 1626,
      "▁deb": 1627,
      "▁meas": 1628,
      "osition": 1629,
      "iated": 1630,
      "yal": 1631,
      "▁novel": 1632,
      "▁mach": 1633,
      "uary": 1634,
      "▁oct": 1635,
      "▁transl": 1636,
      "▁bor": 1637,
      "▁children": 1638,
      "▁regard": 1639,
      "▁having": 1640,
      "▁complete": 1641,
      "▁defin": 1642,
      "▁activ": 1643,
      "▁plan": 1644,
      "▁ball": 1645,
      "▁appear": 1646,
      "verse": 1647,
      "ergy": 1648,
      "▁begin": 1649,
      "ox": 1650,
      "▁story": 1651,
      "▁princ": 1652,
      "▁came": 1653,
      "▁diff": 1654,
      "idge": 1655,
      "▁himself": 1656,
      "▁princip": 1657,
      "ember": 1658,
      "iness": 1659,
      "▁islands": 1660,
      "▁broad": 1661,
      "ability": 1662,
      "▁sex": 1663,
      "▁wind": 1664,
      "▁don": 1665,
      "vision": 1666,
      "▁days": 1667,
      "▁card": 1668,
      "▁anti": 1669,
      "▁q": 1670,
      "▁tro": 1671,
      "emb": 1672,
      "▁fall": 1673,
      "▁itself": 1674,
      "▁little": 1675,
      "▁seen": 1676,
      "▁uk": 1677,
      "▁avail": 1678,
      "▁vict": 1679,
      "▁culture": 1680,
      "ander": 1681,
      "ops": 1682,
      "▁council": 1683,
      "▁words": 1684,
      "▁dece": 1685,
      "▁tre": 1686,
      "▁express": 1687,
      "▁accept": 1688,
      "reme": 1689,
      "▁above": 1690,
      "▁emper": 1691,
      "▁fra": 1692,
      "ored": 1693,
      "▁type": 1694,
      "▁key": 1695,
      "▁largest": 1696,
      "▁find": 1697,
      "▁upon": 1698,
      "▁region": 1699,
      "▁software": 1700,
      "mit": 1701,
      "▁created": 1702,
      "▁final": 1703,
      "▁prom": 1704,
      "▁role": 1705,
      "▁references": 1706,
      "▁init": 1707,
      "▁rich": 1708,
      "ications": 1709,
      "▁foreign": 1710,
      "und": 1711,
      "▁march": 1712,
      "▁profess": 1713,
      "▁almost": 1714,
      "▁image": 1715,
      "ising": 1716,
      "hern": 1717,
      "▁territ": 1718,
      "▁code": 1719,
      "yr": 1720,
      "▁sel": 1721,
      "▁mov": 1722,
      "ission": 1723,
      "osp": 1724,
      "▁once": 1725,
      "▁album": 1726,
      "▁nav": 1727,
      "craft": 1728,
      "▁james": 1729,
      "▁jewish": 1730,
      "▁help": 1731,
      "ief": 1732,
      "▁ren": 1733,
      "▁league": 1734,
      "▁study": 1735,
      "▁religious": 1736,
      "▁gold": 1737,
      "▁january": 1738,
      "▁site": 1739,
      "val": 1740,
      "▁cross": 1741,
      "acks": 1742,
      "sequ": 1743,
      "ille": 1744,
      "▁numbers": 1745,
      "▁member": 1746,
      "▁thought": 1747,
      "▁mart": 1748,
      "inal": 1749,
      "▁areas": 1750,
      "▁minister": 1751,
      "▁tur": 1752,
      "ensive": 1753,
      "▁movement": 1754,
      "▁living": 1755,
      "▁exam": 1756,
      "aces": 1757,
      "ino": 1758,
      "▁community": 1759,
      "cer": 1760,
      "▁bc": 1761,
      "▁hit": 1762,
      "▁tour": 1763,
      "▁played": 1764,
      "▁source": 1765,
      "▁production": 1766,
      "▁fire": 1767,
      "▁david": 1768,
      "▁close": 1769,
      "▁tal": 1770,
      "iate": 1771,
      "▁released": 1772,
      "▁dou": 1773,
      "▁cost": 1774,
      "▁rights": 1775,
      "rict": 1776,
      "▁related": 1777,
      "▁ess": 1778,
      "umb": 1779,
      "ators": 1780,
      "go": 1781,
      "sel": 1782,
      "▁stre": 1783,
      "▁dig": 1784,
      "oms": 1785,
      "▁meaning": 1786,
      "▁quest": 1787,
      "▁ancient": 1788,
      "ril": 1789,
      "▁terms": 1790,
      "▁alex": 1791,
      "▁change": 1792,
      "▁northern": 1793,
      "here": 1794,
      "rian": 1795,
      "ending": 1796,
      "▁research": 1797,
      "▁pain": 1798,
      "▁won": 1799,
      "▁admin": 1800,
      "▁market": 1801,
      "▁establ": 1802,
      "▁becom": 1803,
      "cle": 1804,
      "▁fri": 1805,
      "▁exec": 1806,
      "▁middle": 1807,
      "inese": 1808,
      "side": 1809,
      "▁redu": 1810,
      "▁radio": 1811,
      "bol": 1812,
      "▁sent": 1813,
      "▁os": 1814,
      "ploy": 1815,
      "▁energy": 1816,
      "▁priv": 1817,
      "let": 1818,
      "▁making": 1819,
      "▁actor": 1820,
      "▁style": 1821,
      "ca": 1822,
      "▁produced": 1823,
      "rug": 1824,
      "▁next": 1825,
      "▁december": 1826,
      "ows": 1827,
      "▁women": 1828,
      "asing": 1829,
      "▁died": 1830,
      "▁polic": 1831,
      "▁japanese": 1832,
      "▁feder": 1833,
      "ify": 1834,
      "▁available": 1835,
      "ingu": 1836,
      "▁model": 1837,
      "ead": 1838,
      "▁forms": 1839,
      "▁canada": 1840,
      "▁chinese": 1841,
      "ificant": 1842,
      "▁complex": 1843,
      "ray": 1844,
      "▁might": 1845,
      "▁conn": 1846,
      "▁parli": 1847,
      "ald": 1848,
      "aries": 1849,
      "ford": 1850,
      "▁pap": 1851,
      "▁recogn": 1852,
      "▁earli": 1853,
      "▁prob": 1854,
      "hers": 1855,
      "ples": 1856,
      "atures": 1857,
      "▁television": 1858,
      "ints": 1859,
      "▁sept": 1860,
      "▁latin": 1861,
      "▁cover": 1862,
      "▁lou": 1863,
      "▁say": 1864,
      "ected": 1865,
      "ude": 1866,
      "to": 1867,
      "▁china": 1868,
      "▁half": 1869,
      "▁constitution": 1870,
      "▁hor": 1871,
      "oint": 1872,
      "▁established": 1873,
      "▁mathemat": 1874,
      "ham": 1875,
      "▁doc": 1876,
      "▁significant": 1877,
      "▁domin": 1878,
      "▁ship": 1879,
      "▁eastern": 1880,
      "▁env": 1881,
      "▁arab": 1882,
      "▁parliament": 1883,
      "▁july": 1884,
      "ining": 1885,
      "put": 1886,
      "▁toget": 1887,
      "chan": 1888,
      "ria": 1889,
      "▁george": 1890,
      "▁micro": 1891,
      "▁built": 1892,
      "▁inte": 1893,
      "▁together": 1894,
      "▁note": 1895,
      "▁green": 1896,
      "thern": 1897,
      "▁get": 1898,
      "▁abs": 1899,
      "▁ur": 1900,
      "▁suggest": 1901,
      "▁ox": 1902,
      "▁cann": 1903,
      "▁paul": 1904,
      "▁bur": 1905,
      "arily": 1906,
      "▁except": 1907,
      "▁viol": 1908,
      "▁condition": 1909,
      "▁charles": 1910,
      "▁que": 1911,
      "▁compet": 1912,
      "▁catholic": 1913,
      "ych": 1914,
      "▁parts": 1915,
      "▁instead": 1916,
      "▁indian": 1917,
      "▁pot": 1918,
      "lam": 1919,
      "▁business": 1920,
      "▁football": 1921,
      "▁subst": 1922,
      "▁heav": 1923,
      "▁trade": 1924,
      "▁neg": 1925,
      "▁india": 1926,
      "▁account": 1927,
      "face": 1928,
      "▁deg": 1929,
      "▁fail": 1930,
      "iron": 1931,
      "▁june": 1932,
      "▁traditional": 1933,
      "▁underst": 1934,
      "ka": 1935,
      "▁included": 1936,
      "mon": 1937,
      "uel": 1938,
      "▁big": 1939,
      "rican": 1940,
      "orts": 1941,
      "used": 1942,
      "▁revolution": 1943,
      "▁live": 1944,
      "▁least": 1945,
      "▁attack": 1946,
      "▁nove": 1947,
      "▁aud": 1948,
      "▁fight": 1949,
      "▁young": 1950,
      "▁stri": 1951,
      "▁altern": 1952,
      "▁cast": 1953,
      "▁capt": 1954,
      "▁dut": 1955,
      "utions": 1956,
      "▁prime": 1957,
      "▁commit": 1958,
      "ems": 1959,
      "br": 1960,
      "ering": 1961,
      "omb": 1962,
      "▁coast": 1963,
      "▁dan": 1964,
      "▁economy": 1965,
      "▁love": 1966,
      "▁range": 1967,
      "▁entire": 1968,
      "▁mich": 1969,
      "ched": 1970,
      "▁put": 1971,
      "▁always": 1972,
      "▁sit": 1973,
      "▁sold": 1974,
      "▁november": 1975,
      "▁emperor": 1976,
      "▁pen": 1977,
      "▁italian": 1978,
      "▁food": 1979,
      "▁environ": 1980,
      "▁past": 1981,
      "edia": 1982,
      "▁cro": 1983,
      "▁determ": 1984,
      "rote": 1985,
      "▁players": 1986,
      "▁cit": 1987,
      "▁spir": 1988,
      "apt": 1989,
      "▁trib": 1990,
      "▁april": 1991,
      "▁access": 1992,
      "▁secret": 1993,
      "▁ben": 1994,
      "ental": 1995,
      "▁san": 1996,
      "ront": 1997,
      "▁nature": 1998,
      "uth": 1999,
      "▁sain": 2000,
      "▁september": 2001,
      "▁creat": 2002,
      "▁cho": 2003,
      "icult": 2004,
      "▁taken": 2005,
      "ban": 2006,
      "▁lost": 2007,
      "ror": 2008,
      "▁previous": 2009,
      "ama": 2010,
      "▁southern": 2011,
      "▁self": 2012,
      "ober": 2013,
      "▁jour": 2014,
      "com": 2015,
      "▁ic": 2016,
      "▁season": 2017,
      "▁technology": 2018,
      "ta": 2019,
      "rie": 2020,
      "▁spanish": 2021,
      "burg": 2022,
      "▁rate": 2023,
      "ateg": 2024,
      "▁desp": 2025,
      "▁october": 2026,
      "▁commer": 2027,
      "▁recent": 2028,
      "ara": 2029,
      "rica": 2030,
      "▁fig": 2031,
      "▁grand": 2032,
      "▁relative": 2033,
      "ery": 2034,
      "▁ach": 2035,
      "ked": 2036,
      "rary": 2037,
      "▁constant": 2038,
      "▁our": 2039,
      "ana": 2040,
      "▁sen": 2041,
      "▁squ": 2042,
      "▁royal": 2043,
      "▁network": 2044,
      "▁true": 2045,
      "▁reform": 2046,
      "▁lower": 2047,
      "▁feb": 2048,
      "▁value": 2049,
      "▁russian": 2050,
      "ered": 2051,
      "▁uses": 2052,
      "ffic": 2053,
      "▁ta": 2054,
      "selves": 2055,
      "ux": 2056,
      "ira": 2057,
      "▁interp": 2058,
      "▁invest": 2059,
      "▁bud": 2060,
      "▁coll": 2061,
      "▁problem": 2062,
      "eth": 2063,
      "▁impro": 2064,
      "▁africa": 2065,
      "▁mur": 2066,
      "▁mechan": 2067,
      "oney": 2068,
      "▁lord": 2069,
      "▁wrote": 2070,
      "uf": 2071,
      "▁administ": 2072,
      "▁vide": 2073,
      "▁temper": 2074,
      "▁names": 2075,
      "▁ever": 2076,
      "▁whose": 2077,
      "▁gal": 2078,
      "▁rule": 2079,
      "▁fund": 2080,
      "▁sam": 2081,
      "▁feature": 2082,
      "▁historical": 2083,
      "▁come": 2084,
      "▁prote": 2085,
      "▁psych": 2086,
      "▁difficult": 2087,
      "pr": 2088,
      "▁distin": 2089,
      "▁distrib": 2090,
      "▁australia": 2091,
      "▁hon": 2092,
      "ien": 2093,
      "▁dam": 2094,
      "▁respect": 2095,
      "▁minor": 2096,
      "▁structure": 2097,
      "▁particularly": 2098,
      "ii": 2099,
      "▁frank": 2100,
      "▁thom": 2101,
      "ption": 2102,
      "▁african": 2103,
      "▁sil": 2104,
      "acy": 2105,
      "▁hold": 2106,
      "▁evidence": 2107,
      "▁symbol": 2108,
      "arn": 2109,
      "▁techni": 2110,
      "▁robert": 2111,
      "▁brother": 2112,
      "▁hyd": 2113,
      "▁themselves": 2114,
      "▁fut": 2115,
      "▁cases": 2116,
      "▁reason": 2117,
      "ceed": 2118,
      "▁adop": 2119,
      "▁influence": 2120,
      "ume": 2121,
      "ael": 2122,
      "▁phot": 2123,
      "▁referred": 2124,
      "af": 2125,
      "▁convent": 2126,
      "▁done": 2127,
      "▁too": 2128,
      "ucle": 2129,
      "▁multip": 2130,
      "▁rail": 2131,
      "▁continued": 2132,
      "▁nations": 2133,
      "uments": 2134,
      "▁ten": 2135,
      "▁below": 2136,
      "ney": 2137,
      "▁color": 2138,
      "▁host": 2139,
      "▁here": 2140,
      "gypt": 2141,
      "▁colon": 2142,
      "ky": 2143,
      "▁office": 2144,
      "▁throughout": 2145,
      "▁title": 2146,
      "▁hop": 2147,
      "▁egypt": 2148,
      "▁female": 2149,
      "▁therefore": 2150,
      "▁travel": 2151,
      "▁speed": 2152,
      "▁step": 2153,
      "▁magn": 2154,
      "▁febru": 2155,
      "▁bit": 2156,
      "▁independent": 2157,
      "key": 2158,
      "▁environment": 2159,
      "▁cities": 2160,
      "▁peace": 2161,
      "▁instr": 2162,
      "▁definition": 2163,
      "▁february": 2164,
      "▁ec": 2165,
      "▁night": 2166,
      "▁critic": 2167,
      "▁species": 2168,
      "▁education": 2169,
      "▁fav": 2170,
      "▁ground": 2171,
      "▁electron": 2172,
      "▁irish": 2173,
      "▁philosophy": 2174,
      "▁democr": 2175,
      "bit": 2176,
      "▁park": 2177,
      "rad": 2178,
      "▁command": 2179,
      "▁higher": 2180,
      "▁originally": 2181,
      "▁award": 2182,
      "▁legal": 2183,
      "▁internet": 2184,
      "▁ut": 2185,
      "▁bank": 2186,
      "▁sn": 2187,
      "ques": 2188,
      "ym": 2189,
      "▁wee": 2190,
      "▁laws": 2191,
      "▁successful": 2192,
      "▁acad": 2193,
      "▁amount": 2194,
      "asc": 2195,
      "▁vo": 2196,
      "▁clear": 2197,
      "▁writer": 2198,
      "ula": 2199,
      "▁films": 2200,
      "lim": 2201,
      "▁nucle": 2202,
      "▁elements": 2203,
      "▁male": 2204,
      "▁specific": 2205,
      "▁whether": 2206,
      "▁islam": 2207,
      "ledge": 2208,
      "▁despite": 2209,
      "▁tar": 2210,
      "▁eventually": 2211,
      "▁agree": 2212,
      "▁action": 2213,
      "ially": 2214,
      "den": 2215,
      "bon": 2216,
      "istics": 2217,
      "▁ire": 2218,
      "▁discuss": 2219,
      "▁described": 2220,
      "▁practice": 2221,
      "erous": 2222,
      "▁characters": 2223,
      "itz": 2224,
      "ached": 2225,
      "of": 2226,
      "▁chief": 2227,
      "▁mother": 2228,
      "▁max": 2229,
      "▁necess": 2230,
      "▁events": 2231,
      "▁web": 2232,
      "▁purp": 2233,
      "▁formed": 2234,
      "▁wat": 2235,
      "▁cry": 2236,
      "▁commonly": 2237,
      "▁bul": 2238,
      "gor": 2239,
      "▁able": 2240,
      "ania": 2241,
      "▁maint": 2242,
      "▁problems": 2243,
      "▁received": 2244,
      "ires": 2245,
      "ply": 2246,
      "oll": 2247,
      "▁disp": 2248,
      "▁jews": 2249,
      "king": 2250,
      "▁speak": 2251,
      "▁schol": 2252,
      "usion": 2253,
      "isc": 2254,
      "▁discover": 2255,
      "▁compos": 2256,
      "▁belief": 2257,
      "▁typically": 2258,
      "▁lay": 2259,
      "▁indic": 2260,
      "▁types": 2261,
      "▁club": 2262,
      "▁ze": 2263,
      "▁includes": 2264,
      "▁outside": 2265,
      "duct": 2266,
      "▁look": 2267,
      "ounced": 2268,
      "rick": 2269,
      "▁contrib": 2270,
      "▁personal": 2271,
      "uation": 2272,
      "▁physical": 2273,
      "▁page": 2274,
      "imately": 2275,
      "iding": 2276,
      "▁actually": 2277,
      "lands": 2278,
      "ari": 2279,
      "▁fiction": 2280,
      "▁transport": 2281,
      "asion": 2282,
      "istan": 2283,
      "aves": 2284,
      "▁deaths": 2285,
      "▁followed": 2286,
      "▁dri": 2287,
      "▁blood": 2288,
      "▁fac": 2289,
      "▁henry": 2290,
      "aring": 2291,
      "▁dial": 2292,
      "▁basic": 2293,
      "▁leader": 2294,
      "ards": 2295,
      "▁widely": 2296,
      "▁went": 2297,
      "ours": 2298,
      "atives": 2299,
      "▁controvers": 2300,
      "▁ord": 2301,
      "▁academ": 2302,
      "▁conserv": 2303,
      "rap": 2304,
      "▁nob": 2305,
      "▁relationship": 2306,
      "ams": 2307,
      "aged": 2308,
      "isl": 2309,
      "▁front": 2310,
      "nal": 2311,
      "▁quant": 2312,
      "▁mind": 2313,
      "ston": 2314,
      "ste": 2315,
      "ung": 2316,
      "▁champ": 2317,
      "▁inde": 2318,
      "▁leaders": 2319,
      "▁wall": 2320,
      "itect": 2321,
      "▁beginning": 2322,
      "inary": 2323,
      "oses": 2324,
      "anted": 2325,
      "▁offer": 2326,
      "▁defe": 2327,
      "▁elected": 2328,
      "▁mess": 2329,
      "lement": 2330,
      "itor": 2331,
      "▁tex": 2332,
      "▁ven": 2333,
      "▁movie": 2334,
      "▁building": 2335,
      "▁alph": 2336,
      "▁flow": 2337,
      "▁detail": 2338,
      "▁ib": 2339,
      "▁emb": 2340,
      "▁independence": 2341,
      "wor": 2342,
      "igh": 2343,
      "▁pow": 2344,
      "▁canadian": 2345,
      "▁aircraft": 2346,
      "▁blue": 2347,
      "▁spirit": 2348,
      "ades": 2349,
      "▁future": 2350,
      "▁hall": 2351,
      "▁orth": 2352,
      "▁occup": 2353,
      "▁architect": 2354,
      "▁surv": 2355,
      "▁births": 2356,
      "oted": 2357,
      "▁louis": 2358,
      "▁video": 2359,
      "▁birth": 2360,
      "▁consist": 2361,
      "▁electric": 2362,
      "▁wood": 2363,
      "▁mary": 2364,
      "▁dyn": 2365,
      "utes": 2366,
      "▁scientific": 2367,
      "▁simply": 2368,
      "▁size": 2369,
      "▁jes": 2370,
      "ha": 2371,
      "▁defined": 2372,
      "▁bran": 2373,
      "▁calif": 2374,
      "uck": 2375,
      "▁webs": 2376,
      "▁extreme": 2377,
      "▁experim": 2378,
      "▁industry": 2379,
      "ties": 2380,
      "▁cause": 2381,
      "▁edition": 2382,
      "▁examples": 2383,
      "▁approx": 2384,
      "the": 2385,
      "rial": 2386,
      "▁californ": 2387,
      "urity": 2388,
      "▁dead": 2389,
      "▁increasing": 2390,
      "▁myth": 2391,
      "▁mis": 2392,
      "▁employ": 2393,
      "▁leng": 2394,
      "hib": 2395,
      "▁believe": 2396,
      "▁respons": 2397,
      "▁stra": 2398,
      "▁your": 2399,
      "cript": 2400,
      "▁health": 2401,
      "▁services": 2402,
      "▁road": 2403,
      "▁idea": 2404,
      "▁tim": 2405,
      "▁soon": 2406,
      "iers": 2407,
      "ands": 2408,
      "bc": 2409,
      "ago": 2410,
      "▁points": 2411,
      "▁introduced": 2412,
      "▁cut": 2413,
      "▁manuf": 2414,
      "▁intell": 2415,
      "ression": 2416,
      "▁letter": 2417,
      "▁gun": 2418,
      "▁manufact": 2419,
      "▁deal": 2420,
      "▁britain": 2421,
      "▁achie": 2422,
      "▁federal": 2423,
      "▁features": 2424,
      "▁dim": 2425,
      "▁majority": 2426,
      "▁organization": 2427,
      "▁separate": 2428,
      "▁cannot": 2429,
      "▁ireland": 2430,
      "▁bab": 2431,
      "▁designed": 2432,
      "▁sense": 2433,
      "▁classical": 2434,
      "▁pun": 2435,
      "▁media": 2436,
      "ico": 2437,
      "▁collect": 2438,
      "hol": 2439,
      "▁writing": 2440,
      "▁franc": 2441,
      "atory": 2442,
      "▁required": 2443,
      "▁associated": 2444,
      "▁hydro": 2445,
      "▁address": 2446,
      "ump": 2447,
      "odes": 2448,
      "▁mix": 2449,
      "▁cam": 2450,
      "▁foc": 2451,
      "▁knowledge": 2452,
      "▁private": 2453,
      "▁yet": 2454,
      "roy": 2455,
      "▁located": 2456,
      "▁california": 2457,
      "▁changes": 2458,
      "▁mel": 2459,
      "aut": 2460,
      "ement": 2461,
      "ibility": 2462,
      "ises": 2463,
      "▁unit": 2464,
      "▁religion": 2465,
      "wer": 2466,
      "▁rh": 2467,
      "▁liberal": 2468,
      "▁believed": 2469,
      "▁sequ": 2470,
      "▁resour": 2471,
      "▁away": 2472,
      "▁started": 2473,
      "▁chemical": 2474,
      "▁reb": 2475,
      "▁aver": 2476,
      "▁integr": 2477,
      "▁fle": 2478,
      "▁meet": 2479,
      "▁nation": 2480,
      "▁assemb": 2481,
      "▁poet": 2482,
      "▁county": 2483,
      "▁poly": 2484,
      "ysis": 2485,
      "▁rob": 2486,
      "▁element": 2487,
      "▁rules": 2488,
      "▁studies": 2489,
      "▁understand": 2490,
      "▁congress": 2491,
      "▁mole": 2492,
      "▁gas": 2493,
      "▁intellig": 2494,
      "▁depart": 2495,
      "▁jose": 2496,
      "▁policy": 2497,
      "▁chann": 2498,
      "▁corn": 2499,
      "▁working": 2500,
      "▁sem": 2501,
      "▁founded": 2502,
      "itch": 2503,
      "▁currently": 2504,
      "cent": 2505,
      "iff": 2506,
      "▁saw": 2507,
      "▁hung": 2508,
      "▁election": 2509,
      "berg": 2510,
      "▁provide": 2511,
      "▁brought": 2512,
      "▁thomas": 2513,
      "ole": 2514,
      "▁weap": 2515,
      "hab": 2516,
      "▁corpor": 2517,
      "▁australian": 2518,
      "▁cart": 2519,
      "▁muse": 2520,
      "▁labor": 2521,
      "uit": 2522,
      "ols": 2523,
      "▁alle": 2524,
      "ension": 2525,
      "wh": 2526,
      "▁sus": 2527,
      "▁russia": 2528,
      "▁sup": 2529,
      "▁continu": 2530,
      "▁allowed": 2531,
      "omp": 2532,
      "▁greater": 2533,
      "▁earlier": 2534,
      "▁limited": 2535,
      "hel": 2536,
      "▁tax": 2537,
      "▁online": 2538,
      "istry": 2539,
      "▁quick": 2540,
      "▁kind": 2541,
      "▁pict": 2542,
      "▁ban": 2543,
      "▁association": 2544,
      "▁mi": 2545,
      "▁iv": 2546,
      "▁nar": 2547,
      "rated": 2548,
      "▁autom": 2549,
      "▁document": 2550,
      "▁mostly": 2551,
      "ilities": 2552,
      "▁displ": 2553,
      "▁evolution": 2554,
      "▁citiz": 2555,
      "cast": 2556,
      "▁across": 2557,
      "uk": 2558,
      "action": 2559,
      "vin": 2560,
      "▁emer": 2561,
      "▁prec": 2562,
      "▁added": 2563,
      "▁things": 2564,
      "▁atl": 2565,
      "med": 2566,
      "▁simple": 2567,
      "▁mc": 2568,
      "▁ham": 2569,
      "▁question": 2570,
      "▁chap": 2571,
      "▁require": 2572,
      "cies": 2573,
      "▁commercial": 2574,
      "▁saint": 2575,
      "rest": 2576,
      "▁singer": 2577,
      "▁effects": 2578,
      "▁sources": 2579,
      "▁growth": 2580,
      "sh": 2581,
      "▁legisl": 2582,
      "▁remains": 2583,
      "▁bound": 2584,
      "▁vari": 2585,
      "▁protest": 2586,
      "▁probably": 2587,
      "▁swed": 2588,
      "▁gar": 2589,
      "▁gave": 2590,
      "▁longer": 2591,
      "▁freed": 2592,
      "▁richard": 2593,
      "▁reference": 2594,
      "▁break": 2595,
      "▁oil": 2596,
      "▁pron": 2597,
      "▁drug": 2598,
      "▁dise": 2599,
      "▁map": 2600,
      "▁appoint": 2601,
      "▁killed": 2602,
      "▁career": 2603,
      "ened": 2604,
      "▁tom": 2605,
      "▁hyp": 2606,
      "▁round": 2607,
      "enced": 2608,
      "▁museum": 2609,
      "▁division": 2610,
      "▁cub": 2611,
      "cles": 2612,
      "ulf": 2613,
      "▁musical": 2614,
      "▁prince": 2615,
      "▁nom": 2616,
      "bor": 2617,
      "ey": 2618,
      "▁give": 2619,
      "▁etc": 2620,
      "▁security": 2621,
      "▁counter": 2622,
      "▁obser": 2623,
      "ishing": 2624,
      "▁length": 2625,
      "▁behav": 2626,
      "use": 2627,
      "isms": 2628,
      "▁better": 2629,
      "▁confl": 2630,
      "▁prevent": 2631,
      "▁machine": 2632,
      "▁expect": 2633,
      "▁stories": 2634,
      "▁rat": 2635,
      "▁keep": 2636,
      "▁imper": 2637,
      "▁epis": 2638,
      "▁money": 2639,
      "ician": 2640,
      "ctr": 2641,
      "▁holy": 2642,
      "ij": 2643,
      "▁ethn": 2644,
      "▁id": 2645,
      "▁actress": 2646,
      "▁lake": 2647,
      "ga": 2648,
      "ls": 2649,
      "▁theore": 2650,
      "▁spain": 2651,
      "▁larger": 2652,
      "▁leading": 2653,
      "▁becomes": 2654,
      "▁rout": 2655,
      "▁opt": 2656,
      "isions": 2657,
      "▁prize": 2658,
      "▁parties": 2659,
      "▁scott": 2660,
      "▁products": 2661,
      "▁muslim": 2662,
      "▁pred": 2663,
      "▁website": 2664,
      "ground": 2665,
      "▁remained": 2666,
      "▁fort": 2667,
      "▁cultural": 2668,
      "ffer": 2669,
      "ulated": 2670,
      "▁months": 2671,
      "▁territory": 2672,
      "▁lines": 2673,
      "hest": 2674,
      "▁wife": 2675,
      "▁hill": 2676,
      "▁moved": 2677,
      "▁pie": 2678,
      "▁politics": 2679,
      "ready": 2680,
      "iting": 2681,
      "▁largely": 2682,
      "▁cust": 2683,
      "▁categ": 2684,
      "▁fell": 2685,
      "▁dutch": 2686,
      "▁tor": 2687,
      "▁oce": 2688,
      "▁makes": 2689,
      "▁famil": 2690,
      "▁companies": 2691,
      "▁contains": 2692,
      "ference": 2693,
      "▁destroy": 2694,
      "rast": 2695,
      "▁kar": 2696,
      "haps": 2697,
      "▁perhaps": 2698,
      "▁lack": 2699,
      "ights": 2700,
      "▁establish": 2701,
      "▁na": 2702,
      "stein": 2703,
      "▁already": 2704,
      "▁iii": 2705,
      "▁library": 2706,
      "▁mars": 2707,
      "▁rap": 2708,
      "▁corre": 2709,
      "▁agric": 2710,
      "▁ey": 2711,
      "▁mex": 2712,
      "▁appeared": 2713,
      "antic": 2714,
      "▁mas": 2715,
      "▁happ": 2716,
      "▁matter": 2717,
      "▁era": 2718,
      "▁graph": 2719,
      "onic": 2720,
      "▁bene": 2721,
      "▁subsequ": 2722,
      "aign": 2723,
      "wood": 2724,
      "▁letters": 2725,
      "▁italy": 2726,
      "▁whole": 2727,
      "▁results": 2728,
      "▁wil": 2729,
      "▁fair": 2730,
      "▁pan": 2731,
      "▁jer": 2732,
      "▁laun": 2733,
      "▁particip": 2734,
      "▁produce": 2735,
      "▁bow": 2736,
      "▁journal": 2737,
      "▁fif": 2738,
      "men": 2739,
      "▁pay": 2740,
      "▁hot": 2741,
      "▁guit": 2742,
      "▁calcul": 2743,
      "▁subs": 2744,
      "▁directly": 2745,
      "▁latter": 2746,
      "odox": 2747,
      "▁loss": 2748,
      "▁board": 2749,
      "▁surface": 2750,
      "▁van": 2751,
      "▁status": 2752,
      "▁highly": 2753,
      "▁glob": 2754,
      "ura": 2755,
      "▁fer": 2756,
      "▁ult": 2757,
      "▁ax": 2758,
      "▁district": 2759,
      "▁caused": 2760,
      "itude": 2761,
      "▁measure": 2762,
      "reg": 2763,
      "ables": 2764,
      "▁campaign": 2765,
      "▁native": 2766,
      "aching": 2767,
      "▁director": 2768,
      "▁michael": 2769,
      "▁release": 2770,
      "lying": 2771,
      "▁metal": 2772,
      "▁treaty": 2773,
      "▁authority": 2774,
      "▁ww": 2775,
      "▁lic": 2776,
      "urs": 2777,
      "▁virt": 2778,
      "▁double": 2779,
      "▁tv": 2780,
      "▁conver": 2781,
      "▁consum": 2782,
      "va": 2783,
      "▁scot": 2784,
      "like": 2785,
      "▁asia": 2786,
      "ris": 2787,
      "▁implement": 2788,
      "▁washing": 2789,
      "kn": 2790,
      "win": 2791,
      "▁concern": 2792,
      "da": 2793,
      "▁anth": 2794,
      "▁portug": 2795,
      "▁moon": 2796,
      "▁programming": 2797,
      "ya": 2798,
      "▁date": 2799,
      "ift": 2800,
      "▁faith": 2801,
      "▁brown": 2802,
      "ips": 2803,
      "▁regular": 2804,
      "▁invent": 2805,
      "▁magaz": 2806,
      "otes": 2807,
      "▁whom": 2808,
      "▁creation": 2809,
      "▁playing": 2810,
      "▁agricult": 2811,
      "▁wik": 2812,
      "▁mad": 2813,
      "▁conflict": 2814,
      "view": 2815,
      "col": 2816,
      "resp": 2817,
      "ini": 2818,
      "▁married": 2819,
      "▁towards": 2820,
      "▁memory": 2821,
      "▁course": 2822,
      "▁orthodox": 2823,
      "asons": 2824,
      "onents": 2825,
      "▁sha": 2826,
      "▁issues": 2827,
      "▁cand": 2828,
      "▁heart": 2829,
      "ores": 2830,
      "ithm": 2831,
      "▁basis": 2832,
      "▁cele": 2833,
      "ging": 2834,
      "▁queen": 2835,
      "▁enough": 2836,
      "▁primary": 2837,
      "▁alexander": 2838,
      "▁rare": 2839,
      "▁remain": 2840,
      "▁sac": 2841,
      "▁dark": 2842,
      "▁kh": 2843,
      "ream": 2844,
      "▁digital": 2845,
      "▁rome": 2846,
      "icated": 2847,
      "▁functions": 2848,
      "▁provided": 2849,
      "uries": 2850,
      "▁cd": 2851,
      "▁demon": 2852,
      "can": 2853,
      "▁analysis": 2854,
      "▁hero": 2855,
      "aff": 2856,
      "▁think": 2857,
      "▁claims": 2858,
      "▁literature": 2859,
      "▁replaced": 2860,
      "▁peter": 2861,
      "▁joseph": 2862,
      "ee": 2863,
      "▁divided": 2864,
      "ding": 2865,
      "▁likely": 2866,
      "▁average": 2867,
      "▁medical": 2868,
      "▁property": 2869,
      "▁vill": 2870,
      "ivity": 2871,
      "▁smith": 2872,
      "▁students": 2873,
      "iles": 2874,
      "▁street": 2875,
      "▁wars": 2876,
      "▁los": 2877,
      "▁smaller": 2878,
      "oura": 2879,
      "▁degree": 2880,
      "▁elections": 2881,
      "oid": 2882,
      "het": 2883,
      "▁claimed": 2884,
      "▁performance": 2885,
      "▁alternative": 2886,
      "▁progress": 2887,
      "▁draw": 2888,
      "wise": 2889,
      "▁camb": 2890,
      "▁washington": 2891,
      "▁slow": 2892,
      "▁user": 2893,
      "▁controll": 2894,
      "▁carbon": 2895,
      "itation": 2896,
      "▁columb": 2897,
      "▁flag": 2898,
      "bi": 2899,
      "▁fal": 2900,
      "ection": 2901,
      "ously": 2902,
      "▁nearly": 2903,
      "for": 2904,
      "▁schools": 2905,
      "▁paris": 2906,
      "▁saf": 2907,
      "▁jesus": 2908,
      "▁gradu": 2909,
      "▁baseball": 2910,
      "utive": 2911,
      "▁industrial": 2912,
      "▁collection": 2913,
      "edy": 2914,
      "porary": 2915,
      "▁thous": 2916,
      "▁corresp": 2917,
      "fl": 2918,
      "▁daught": 2919,
      "riage": 2920,
      "▁finan": 2921,
      "▁commission": 2922,
      "▁quar": 2923,
      "▁review": 2924,
      "▁contem": 2925,
      "▁ideas": 2926,
      "▁changed": 2927,
      "▁section": 2928,
      "▁programs": 2929,
      "▁distinct": 2930,
      "ush": 2931,
      "▁records": 2932,
      "▁station": 2933,
      "ope": 2934,
      "izations": 2935,
      "▁frequently": 2936,
      "▁increase": 2937,
      "izing": 2938,
      "▁highest": 2939,
      "▁pac": 2940,
      "▁finally": 2941,
      "▁ira": 2942,
      "▁notable": 2943,
      "▁dog": 2944,
      "▁methods": 2945,
      "▁table": 2946,
      "▁recently": 2947,
      "uge": 2948,
      "▁paper": 2949,
      "▁heavy": 2950,
      "fect": 2951,
      "▁assum": 2952,
      "cks": 2953,
      "▁heb": 2954,
      "cycl": 2955,
      "▁border": 2956,
      "▁democratic": 2957,
      "▁bay": 2958,
      "▁variety": 2959,
      "▁involved": 2960,
      "▁intel": 2961,
      "▁mun": 2962,
      "▁served": 2963,
      "▁observ": 2964,
      "▁kore": 2965,
      "▁cred": 2966,
      "arent": 2967,
      "field": 2968,
      "▁bon": 2969,
      "▁inn": 2970,
      "thing": 2971,
      "▁sexual": 2972,
      "▁ple": 2973,
      "pper": 2974,
      "▁nuclear": 2975,
      "cher": 2976,
      "▁operation": 2977,
      "ields": 2978,
      "▁objects": 2979,
      "▁deli": 2980,
      "hood": 2981,
      "mar": 2982,
      "▁increased": 2983,
      "bra": 2984,
      "▁bish": 2985,
      "▁medic": 2986,
      "iter": 2987,
      "iant": 2988,
      "▁windows": 2989,
      "▁die": 2990,
      "▁astron": 2991,
      "▁relatively": 2992,
      "ech": 2993,
      "gin": 2994,
      "▁create": 2995,
      "▁returned": 2996,
      "well": 2997,
      "▁bbc": 2998,
      "▁conditions": 2999,
      "▁sens": 3000,
      "▁mos": 3001,
      "▁ice": 3002,
      "▁takes": 3003,
      "▁mand": 3004,
      "▁adopted": 3005,
      "▁perm": 3006,
      "▁plat": 3007,
      "▁ocean": 3008,
      "▁pack": 3009,
      "▁woman": 3010,
      "▁immed": 3011,
      "▁file": 3012,
      "▁poor": 3013,
      "▁electr": 3014,
      "olf": 3015,
      "off": 3016,
      "▁dialect": 3017,
      "onia": 3018,
      "▁appears": 3019,
      "ners": 3020,
      "▁gn": 3021,
      "▁committe": 3022,
      "ont": 3023,
      "omy": 3024,
      "agement": 3025,
      "▁ans": 3026,
      "▁guitar": 3027,
      "▁burn": 3028,
      "▁animals": 3029,
      "▁existence": 3030,
      "▁units": 3031,
      "cell": 3032,
      "▁discovered": 3033,
      "▁assembly": 3034,
      "▁immediate": 3035,
      "▁philosop": 3036,
      "▁incor": 3037,
      "▁prior": 3038,
      "▁reported": 3039,
      "▁box": 3040,
      "▁active": 3041,
      "▁assist": 3042,
      "▁mention": 3043,
      "▁deep": 3044,
      "▁chic": 3045,
      "ying": 3046,
      "▁universe": 3047,
      "▁htt": 3048,
      "▁encycl": 3049,
      "▁angel": 3050,
      "▁behind": 3051,
      "▁normal": 3052,
      "▁algor": 3053,
      "▁numerous": 3054,
      "▁construction": 3055,
      "▁scale": 3056,
      "▁diss": 3057,
      "▁professional": 3058,
      "▁lad": 3059,
      "▁operating": 3060,
      "▁wa": 3061,
      "▁tend": 3062,
      "▁dar": 3063,
      "▁unlike": 3064,
      "ridge": 3065,
      "▁airport": 3066,
      "▁institute": 3067,
      "▁iron": 3068,
      "▁taking": 3069,
      "▁naz": 3070,
      "▁pressure": 3071,
      "▁centre": 3072,
      "▁experience": 3073,
      "▁week": 3074,
      "▁amb": 3075,
      "oe": 3076,
      "▁od": 3077,
      "▁ros": 3078,
      "▁sett": 3079,
      "▁estim": 3080,
      "▁concent": 3081,
      "▁stage": 3082,
      "▁conte": 3083,
      "▁monarch": 3084,
      "▁issue": 3085,
      "▁troops": 3086,
      "▁recorded": 3087,
      "▁resist": 3088,
      "▁primarily": 3089,
      "▁math": 3090,
      "▁hebrew": 3091,
      "iance": 3092,
      "▁notes": 3093,
      "▁org": 3094,
      "▁tun": 3095,
      "▁bad": 3096,
      "▁exch": 3097,
      "▁neigh": 3098,
      "▁pope": 3099,
      "ibly": 3100,
      "▁something": 3101,
      "▁square": 3102,
      "▁print": 3103,
      "▁descript": 3104,
      "▁encyclop": 3105,
      "▁defense": 3106,
      "▁aspect": 3107,
      "▁potential": 3108,
      "▁insp": 3109,
      "▁accepted": 3110,
      "▁powers": 3111,
      "anced": 3112,
      "▁select": 3113,
      "illa": 3114,
      "▁mathematics": 3115,
      "umn": 3116,
      "▁pattern": 3117,
      "▁cel": 3118,
      "▁race": 3119,
      "▁mission": 3120,
      "▁resources": 3121,
      "▁stop": 3122,
      "▁compar": 3123,
      "▁cru": 3124,
      "oting": 3125,
      "▁kil": 3126,
      "▁essential": 3127,
      "▁gro": 3128,
      "igned": 3129,
      "▁acqu": 3130,
      "▁running": 3131,
      "▁applied": 3132,
      "▁derived": 3133,
      "astic": 3134,
      "▁sin": 3135,
      "ately": 3136,
      "▁calend": 3137,
      "orial": 3138,
      "▁francis": 3139,
      "▁additional": 3140,
      "▁master": 3141,
      "idents": 3142,
      "▁formal": 3143,
      "ken": 3144,
      "▁lived": 3145,
      "▁ens": 3146,
      "▁equival": 3147,
      "▁shows": 3148,
      "▁nobel": 3149,
      "▁freedom": 3150,
      "inated": 3151,
      "▁conqu": 3152,
      "▁placed": 3153,
      "▁instance": 3154,
      "▁http": 3155,
      "▁roll": 3156,
      "▁impl": 3157,
      "▁bomb": 3158,
      "▁script": 3159,
      "▁purpose": 3160,
      "▁frac": 3161,
      "▁dia": 3162,
      "▁twent": 3163,
      "ba": 3164,
      "▁jul": 3165,
      "▁broadcast": 3166,
      "▁magazine": 3167,
      "wa": 3168,
      "▁budd": 3169,
      "▁target": 3170,
      "▁scholars": 3171,
      "▁hab": 3172,
      "▁suffer": 3173,
      "▁equal": 3174,
      "▁gall": 3175,
      "▁serious": 3176,
      "▁boy": 3177,
      "▁respon": 3178,
      "▁channel": 3179,
      "▁scre": 3180,
      "▁governor": 3181,
      "▁engineering": 3182,
      "▁citizens": 3183,
      "ios": 3184,
      "orph": 3185,
      "▁rise": 3186,
      "clus": 3187,
      "ki": 3188,
      "▁mainly": 3189,
      "▁spread": 3190,
      "oon": 3191,
      "round": 3192,
      "dp": 3193,
      "▁arts": 3194,
      "▁phen": 3195,
      "▁cos": 3196,
      "▁seem": 3197,
      "ita": 3198,
      "▁mont": 3199,
      "▁threat": 3200,
      "▁versions": 3201,
      "▁ip": 3202,
      "▁operations": 3203,
      "▁interpret": 3204,
      "▁settle": 3205,
      "att": 3206,
      "iences": 3207,
      "▁quite": 3208,
      "▁dip": 3209,
      "▁marriage": 3210,
      "▁older": 3211,
      "gon": 3212,
      "tered": 3213,
      "▁mut": 3214,
      "▁applications": 3215,
      "▁ethnic": 3216,
      "▁proposed": 3217,
      "▁bible": 3218,
      "▁contain": 3219,
      "▁nd": 3220,
      "▁shown": 3221,
      "▁hund": 3222,
      "▁bass": 3223,
      "▁police": 3224,
      "▁obt": 3225,
      "▁rank": 3226,
      "▁consists": 3227,
      "▁cells": 3228,
      "▁instrument": 3229,
      "▁transform": 3230,
      "▁sir": 3231,
      "▁alge": 3232,
      "▁articles": 3233,
      "hi": 3234,
      "▁writers": 3235,
      "rative": 3236,
      "imum": 3237,
      "▁volume": 3238,
      "▁cens": 3239,
      "▁fast": 3240,
      "▁exact": 3241,
      "▁scotland": 3242,
      "▁arri": 3243,
      "▁ways": 3244,
      "▁lu": 3245,
      "▁hell": 3246,
      "▁apparent": 3247,
      "▁regions": 3248,
      "▁levels": 3249,
      "▁dat": 3250,
      "▁albert": 3251,
      "▁rand": 3252,
      "▁construct": 3253,
      "▁possess": 3254,
      "▁properties": 3255,
      "▁quickly": 3256,
      "▁duke": 3257,
      "▁uns": 3258,
      "▁try": 3259,
      "▁fundament": 3260,
      "▁cas": 3261,
      "▁comment": 3262,
      "▁songs": 3263,
      "▁convention": 3264,
      "▁conne": 3265,
      "▁techniques": 3266,
      "aria": 3267,
      "ola": 3268,
      "▁plant": 3269,
      "▁extra": 3270,
      "ads": 3271,
      "▁dance": 3272,
      "▁ris": 3273,
      "▁ability": 3274,
      "▁communist": 3275,
      "back": 3276,
      "omen": 3277,
      "▁passed": 3278,
      "▁introduction": 3279,
      "▁chicago": 3280,
      "eter": 3281,
      "▁animal": 3282,
      "▁navy": 3283,
      "▁friends": 3284,
      "▁approximately": 3285,
      "hic": 3286,
      "▁bapt": 3287,
      "▁surround": 3288,
      "▁composer": 3289,
      "▁apple": 3290,
      "▁chron": 3291,
      "isation": 3292,
      "▁wr": 3293,
      "▁appointed": 3294,
      "ned": 3295,
      "▁pra": 3296,
      "▁jac": 3297,
      "▁centuries": 3298,
      "▁committee": 3299,
      "▁path": 3300,
      "▁forced": 3301,
      "▁cra": 3302,
      "▁usa": 3303,
      "▁compl": 3304,
      "▁percent": 3305,
      "▁mit": 3306,
      "▁martin": 3307,
      "▁hous": 3308,
      "rupt": 3309,
      "ients": 3310,
      "▁places": 3311,
      "▁month": 3312,
      "▁individuals": 3313,
      "▁learn": 3314,
      "soft": 3315,
      "▁distingu": 3316,
      "▁focus": 3317,
      "▁face": 3318,
      "ker": 3319,
      "▁refers": 3320,
      "rief": 3321,
      "▁bib": 3322,
      "▁wit": 3323,
      "▁kings": 3324,
      "aches": 3325,
      "▁sho": 3326,
      "ager": 3327,
      "▁values": 3328,
      "▁comes": 3329,
      "▁via": 3330,
      "▁afg": 3331,
      "▁agreement": 3332,
      "▁response": 3333,
      "▁speech": 3334,
      "▁temperature": 3335,
      "mp": 3336,
      "ship": 3337,
      "elling": 3338,
      "▁www": 3339,
      "▁climate": 3340,
      "▁acid": 3341,
      "erson": 3342,
      "▁jack": 3343,
      "▁bridge": 3344,
      "▁protect": 3345,
      "▁carry": 3346,
      "▁champions": 3347,
      "▁daughter": 3348,
      "▁repe": 3349,
      "▁internal": 3350,
      "▁labour": 3351,
      "▁murder": 3352,
      "▁von": 3353,
      "▁rot": 3354,
      "omm": 3355,
      "▁demonst": 3356,
      "anian": 3357,
      "▁reflect": 3358,
      "▁search": 3359,
      "pped": 3360,
      "▁contract": 3361,
      "▁friend": 3362,
      "gers": 3363,
      "▁fel": 3364,
      "▁pil": 3365,
      "abet": 3366,
      "▁branch": 3367,
      "yth": 3368,
      "▁consequ": 3369,
      "▁cold": 3370,
      "▁motion": 3371,
      "eral": 3372,
      "▁lie": 3373,
      "▁flight": 3374,
      "▁depend": 3375,
      "▁forest": 3376,
      "▁lingu": 3377,
      "▁sav": 3378,
      "▁fix": 3379,
      "zz": 3380,
      "▁stars": 3381,
      "▁noted": 3382,
      "▁microsoft": 3383,
      "▁shot": 3384,
      "▁summer": 3385,
      "igr": 3386,
      "▁unique": 3387,
      "▁voc": 3388,
      "▁content": 3389,
      "▁supported": 3390,
      "▁brain": 3391,
      "▁bey": 3392,
      "▁clos": 3393,
      "▁arth": 3394,
      "▁billion": 3395,
      "▁ful": 3396,
      "▁miles": 3397,
      "▁treatment": 3398,
      "onent": 3399,
      "▁computers": 3400,
      "▁christianity": 3401,
      "▁rapid": 3402,
      "▁plann": 3403,
      "▁correspond": 3404,
      "ett": 3405,
      "▁management": 3406,
      "▁promin": 3407,
      "▁direction": 3408,
      "mark": 3409,
      "▁mob": 3410,
      "aker": 3411,
      "▁flu": 3412,
      "▁calendar": 3413,
      "overy": 3414,
      "▁write": 3415,
      "▁remo": 3416,
      "▁lith": 3417,
      "▁performed": 3418,
      "▁necessary": 3419,
      "ville": 3420,
      "▁spl": 3421,
      "hens": 3422,
      "▁intended": 3423,
      "olved": 3424,
      "▁cab": 3425,
      "aled": 3426,
      "ales": 3427,
      "▁transfer": 3428,
      "▁benef": 3429,
      "▁fat": 3430,
      "▁affair": 3431,
      "▁conduct": 3432,
      "▁rang": 3433,
      "anded": 3434,
      "▁diam": 3435,
      "aur": 3436,
      "▁disease": 3437,
      "▁worked": 3438,
      "▁vehic": 3439,
      "▁recon": 3440,
      "▁imperial": 3441,
      "nes": 3442,
      "▁sets": 3443,
      "▁users": 3444,
      "▁luc": 3445,
      "▁gene": 3446,
      "▁attrib": 3447,
      "▁atom": 3448,
      "▁acts": 3449,
      "▁lands": 3450,
      "▁physics": 3451,
      "▁reading": 3452,
      "▁multiple": 3453,
      "▁sports": 3454,
      "▁gramm": 3455,
      "▁afghan": 3456,
      "▁figure": 3457,
      "▁fan": 3458,
      "▁speaking": 3459,
      "▁iraq": 3460,
      "▁motor": 3461,
      "▁export": 3462,
      "▁signed": 3463,
      "▁critical": 3464,
      "▁haw": 3465,
      "▁prefer": 3466,
      "xual": 3467,
      "▁contrast": 3468,
      "▁cer": 3469,
      "▁location": 3470,
      "▁translation": 3471,
      "▁regarded": 3472,
      "▁mathematical": 3473,
      "▁wild": 3474,
      "▁connect": 3475,
      "▁reject": 3476,
      "zil": 3477,
      "▁gir": 3478,
      "phas": 3479,
      "▁tree": 3480,
      "▁jean": 3481,
      "itors": 3482,
      "▁inhab": 3483,
      "▁enem": 3484,
      "▁infin": 3485,
      "▁circum": 3486,
      "rents": 3487,
      "▁beyond": 3488,
      "▁orient": 3489,
      "▁province": 3490,
      "ny": 3491,
      "▁arran": 3492,
      "icted": 3493,
      "▁medicine": 3494,
      "och": 3495,
      "pap": 3496,
      "▁alco": 3497,
      "ws": 3498,
      "▁approach": 3499,
      "har": 3500,
      "▁spok": 3501,
      "▁polish": 3502,
      "▁skill": 3503,
      "▁reached": 3504,
      "▁stock": 3505,
      "▁brief": 3506,
      "▁lif": 3507,
      "▁fant": 3508,
      "▁remaining": 3509,
      "▁display": 3510,
      "▁financial": 3511,
      "▁why": 3512,
      "▁adm": 3513,
      "▁provides": 3514,
      "la": 3515,
      "▁il": 3516,
      "▁track": 3517,
      "▁notably": 3518,
      "▁administration": 3519,
      "▁jur": 3520,
      "▁guide": 3521,
      "▁cup": 3522,
      "▁les": 3523,
      "▁feel": 3524,
      "▁mm": 3525,
      "▁candid": 3526,
      "▁inj": 3527,
      "▁actual": 3528,
      "▁opposition": 3529,
      "outh": 3530,
      "▁distribution": 3531,
      "▁logic": 3532,
      "icit": 3533,
      "▁alt": 3534,
      "▁block": 3535,
      "▁joined": 3536,
      "▁rain": 3537,
      "▁prison": 3538,
      "▁bring": 3539,
      "▁conservative": 3540,
      "▁theories": 3541,
      "▁bob": 3542,
      "▁prem": 3543,
      "▁catal": 3544,
      "eria": 3545,
      "oration": 3546,
      "▁models": 3547,
      "▁coal": 3548,
      "▁custom": 3549,
      "▁mr": 3550,
      "▁aim": 3551,
      "▁distance": 3552,
      "▁influenced": 3553,
      "ada": 3554,
      "▁format": 3555,
      "▁pit": 3556,
      "▁intelligence": 3557,
      "▁correct": 3558,
      "osis": 3559,
      "rane": 3560,
      "▁doctr": 3561,
      "▁victor": 3562,
      "▁greece": 3563,
      "board": 3564,
      "▁department": 3565,
      "▁context": 3566,
      "▁hands": 3567,
      "▁celebr": 3568,
      "▁stren": 3569,
      "inian": 3570,
      "▁universal": 3571,
      "▁sell": 3572,
      "▁humans": 3573,
      "▁activity": 3574,
      "▁pacific": 3575,
      "▁algebra": 3576,
      "isters": 3577,
      "▁global": 3578,
      "▁mom": 3579,
      "▁executive": 3580,
      "mas": 3581,
      "gn": 3582,
      "▁previously": 3583,
      "▁powerful": 3584,
      "▁coup": 3585,
      "▁quality": 3586,
      "otic": 3587,
      "▁ran": 3588,
      "▁brazil": 3589,
      "ida": 3590,
      "▁restrict": 3591,
      "▁synt": 3592,
      "▁share": 3593,
      "▁abb": 3594,
      "▁needed": 3595,
      "rison": 3596,
      "▁bond": 3597,
      "▁jim": 3598,
      "elled": 3599,
      "▁extremely": 3600,
      "▁ell": 3601,
      "racy": 3602,
      "▁ga": 3603,
      "▁legend": 3604,
      "▁phenomen": 3605,
      "enth": 3606,
      "▁vote": 3607,
      "▁edward": 3608,
      "▁gard": 3609,
      "▁completely": 3610,
      "ody": 3611,
      "aph": 3612,
      "▁string": 3613,
      "▁allows": 3614,
      "▁berlin": 3615,
      "▁virgin": 3616,
      "uls": 3617,
      "▁investig": 3618,
      "▁contemporary": 3619,
      "▁advent": 3620,
      "▁advanced": 3621,
      "cious": 3622,
      "oke": 3623,
      "▁cook": 3624,
      "▁newspap": 3625,
      "▁doub": 3626,
      "▁rab": 3627,
      "gian": 3628,
      "osh": 3629,
      "lor": 3630,
      "ocol": 3631,
      "ortun": 3632,
      "▁gives": 3633,
      "head": 3634,
      "▁shar": 3635,
      "▁stated": 3636,
      "▁poland": 3637,
      "ona": 3638,
      "▁advant": 3639,
      "▁becoming": 3640,
      "▁tas": 3641,
      "▁regional": 3642,
      "azz": 3643,
      "▁justice": 3644,
      "▁ign": 3645,
      "▁crown": 3646,
      "▁streng": 3647,
      "▁fourth": 3648,
      "▁guard": 3649,
      "▁enter": 3650,
      "where": 3651,
      "▁foundation": 3652,
      "▁crim": 3653,
      "▁nether": 3654,
      "▁turned": 3655,
      "▁heat": 3656,
      "▁ott": 3657,
      "▁difference": 3658,
      "▁weapons": 3659,
      "▁episode": 3660,
      "bour": 3661,
      "▁critics": 3662,
      "▁purch": 3663,
      "▁paral": 3664,
      "▁standards": 3665,
      "▁mountain": 3666,
      "▁kong": 3667,
      "▁chur": 3668,
      "▁electronic": 3669,
      "▁sand": 3670,
      "▁dun": 3671,
      "▁contact": 3672,
      "▁screen": 3673,
      "▁ded": 3674,
      "▁ba": 3675,
      "▁argument": 3676,
      "▁favor": 3677,
      "ua": 3678,
      "pg": 3679,
      "▁fans": 3680,
      "▁musician": 3681,
      "▁greatest": 3682,
      "▁usage": 3683,
      "ounds": 3684,
      "▁featured": 3685,
      "▁fields": 3686,
      "▁vow": 3687,
      "▁training": 3688,
      "asy": 3689,
      "gal": 3690,
      "▁hours": 3691,
      "▁link": 3692,
      "▁inside": 3693,
      "▁application": 3694,
      "▁exchange": 3695,
      "▁useful": 3696,
      "▁else": 3697,
      "▁initial": 3698,
      "▁ships": 3699,
      "▁domest": 3700,
      "▁moving": 3701,
      "▁describe": 3702,
      "fficient": 3703,
      "▁wing": 3704,
      "▁rough": 3705,
      "mann": 3706,
      "▁resulting": 3707,
      "▁oxford": 3708,
      "▁behavior": 3709,
      "▁suc": 3710,
      "▁honor": 3711,
      "▁churches": 3712,
      "▁effic": 3713,
      "▁arabic": 3714,
      "▁fundamental": 3715,
      "▁urban": 3716,
      "▁slight": 3717,
      "▁netherlands": 3718,
      "ias": 3719,
      "isp": 3720,
      "▁pair": 3721,
      "▁quarter": 3722,
      "▁theat": 3723,
      "▁supreme": 3724,
      "oo": 3725,
      "▁fest": 3726,
      "▁diction": 3727,
      "▁spring": 3728,
      "▁weight": 3729,
      "▁horse": 3730,
      "▁impact": 3731,
      "▁artist": 3732,
      "▁failed": 3733,
      "▁arthur": 3734,
      "▁reasons": 3735,
      "▁carried": 3736,
      "▁folk": 3737,
      "▁upper": 3738,
      "ieties": 3739,
      "▁molec": 3740,
      "▁reve": 3741,
      "▁continue": 3742,
      "▁unf": 3743,
      "▁cp": 3744,
      "▁dro": 3745,
      "▁rd": 3746,
      "oca": 3747,
      "▁going": 3748,
      "▁emphas": 3749,
      "usal": 3750,
      "▁competition": 3751,
      "▁responsible": 3752,
      "▁compil": 3753,
      "▁occasion": 3754,
      "▁opposed": 3755,
      "▁perman": 3756,
      "▁stone": 3757,
      "▁decision": 3758,
      "▁islamic": 3759,
      "rich": 3760,
      "tical": 3761,
      "erve": 3762,
      "▁voice": 3763,
      "▁technical": 3764,
      "▁planet": 3765,
      "▁architecture": 3766,
      "what": 3767,
      "▁mexico": 3768,
      "▁incorpor": 3769,
      "▁scottish": 3770,
      "▁nap": 3771,
      "▁beat": 3772,
      "▁starting": 3773,
      "imal": 3774,
      "▁somewhat": 3775,
      "▁negative": 3776,
      "mitted": 3777,
      "▁equip": 3778,
      "my": 3779,
      "ml": 3780,
      "▁oly": 3781,
      "▁dang": 3782,
      "▁swe": 3783,
      "▁views": 3784,
      "▁materials": 3785,
      "▁activities": 3786,
      "▁spoken": 3787,
      "▁biography": 3788,
      "▁doll": 3789,
      "▁linear": 3790,
      "icip": 3791,
      "▁protection": 3792,
      "log": 3793,
      "reed": 3794,
      "▁gh": 3795,
      "▁signal": 3796,
      "▁follows": 3797,
      "west": 3798,
      "▁ones": 3799,
      "▁attempts": 3800,
      "▁generation": 3801,
      "▁indeed": 3802,
      "▁vary": 3803,
      "aving": 3804,
      "▁charge": 3805,
      "▁declared": 3806,
      "▁winter": 3807,
      "▁cambridge": 3808,
      "vert": 3809,
      "▁decided": 3810,
      "▁olymp": 3811,
      "ram": 3812,
      "▁chall": 3813,
      "▁ended": 3814,
      "▁composed": 3815,
      "ressed": 3816,
      "ulations": 3817,
      "▁growing": 3818,
      "▁appearance": 3819,
      "lom": 3820,
      "▁specif": 3821,
      "rate": 3822,
      "▁ly": 3823,
      "▁succeed": 3824,
      "▁lut": 3825,
      "▁ring": 3826,
      "sec": 3827,
      "▁geography": 3828,
      "▁represented": 3829,
      "▁anarch": 3830,
      "▁grav": 3831,
      "▁oppos": 3832,
      "▁juda": 3833,
      "writ": 3834,
      "rm": 3835,
      "ests": 3836,
      "▁encyclopedia": 3837,
      "▁possibly": 3838,
      "▁bell": 3839,
      "hesis": 3840,
      "▁pure": 3841,
      "▁goal": 3842,
      "▁families": 3843,
      "▁seems": 3844,
      "▁cham": 3845,
      "▁dna": 3846,
      "▁christians": 3847,
      "met": 3848,
      "ati": 3849,
      "▁zeal": 3850,
      "lines": 3851,
      "za": 3852,
      "encies": 3853,
      "▁jun": 3854,
      "▁classic": 3855,
      "▁dynast": 3856,
      "▁fuel": 3857,
      "▁adj": 3858,
      "ographic": 3859,
      "▁ku": 3860,
      "▁pick": 3861,
      "▁discip": 3862,
      "▁terror": 3863,
      "▁stations": 3864,
      "▁palest": 3865,
      "▁improve": 3866,
      "▁easily": 3867,
      "▁identity": 3868,
      "▁academy": 3869,
      "▁bah": 3870,
      "▁assass": 3871,
      "▁principle": 3872,
      "▁alphabet": 3873,
      "▁equipment": 3874,
      "erc": 3875,
      "▁giving": 3876,
      "▁comic": 3877,
      "▁marx": 3878,
      "▁phr": 3879,
      "▁armed": 3880,
      "▁tell": 3881,
      "vey": 3882,
      "▁und": 3883,
      "▁ak": 3884,
      "aging": 3885,
      "▁extended": 3886,
      "▁golden": 3887,
      "▁tou": 3888,
      "▁doctor": 3889,
      "▁announced": 3890,
      "sp": 3891,
      "▁got": 3892,
      "▁compared": 3893,
      "ils": 3894,
      "▁kenn": 3895,
      "▁positive": 3896,
      "▁causes": 3897,
      "▁unkn": 3898,
      "▁income": 3899,
      "▁expans": 3900,
      "izes": 3901,
      "▁choice": 3902,
      "▁reign": 3903,
      "▁simpl": 3904,
      "▁technique": 3905,
      "▁fish": 3906,
      "▁nick": 3907,
      "▁medie": 3908,
      "▁advoc": 3909,
      "▁apart": 3910,
      "▁mathematic": 3911,
      "▁medieval": 3912,
      "▁pier": 3913,
      "▁attacks": 3914,
      "▁drive": 3915,
      "inate": 3916,
      "▁stan": 3917,
      "▁immediately": 3918,
      "eds": 3919,
      "▁directed": 3920,
      "iah": 3921,
      "▁feet": 3922,
      "tar": 3923,
      "▁flo": 3924,
      "▁championship": 3925,
      "era": 3926,
      "▁belong": 3927,
      "▁capac": 3928,
      "▁efforts": 3929,
      "▁fully": 3930,
      "▁truth": 3931,
      "▁initially": 3932,
      "▁composition": 3933,
      "▁perfect": 3934,
      "▁alf": 3935,
      "oper": 3936,
      "▁exists": 3937,
      "▁organizations": 3938,
      "▁nic": 3939,
      "aded": 3940,
      "▁traditionally": 3941,
      "▁extensive": 3942,
      "▁conv": 3943,
      "▁presence": 3944,
      "inet": 3945,
      "▁plants": 3946,
      "▁equivalent": 3947,
      "▁provin": 3948,
      "book": 3949,
      "▁illust": 3950,
      "▁chance": 3951,
      "rees": 3952,
      "agan": 3953,
      "gment": 3954,
      "kes": 3955,
      "▁argued": 3956,
      "▁austria": 3957,
      "▁reaction": 3958,
      "▁valley": 3959,
      "▁background": 3960,
      "▁holid": 3961,
      "▁frame": 3962,
      "▁encoura": 3963,
      "▁combat": 3964,
      "▁combined": 3965,
      "▁achieve": 3966,
      "▁alone": 3967,
      "▁serve": 3968,
      "▁occurs": 3969,
      "▁controlled": 3970,
      "▁hin": 3971,
      "▁proved": 3972,
      "▁audio": 3973,
      "▁hus": 3974,
      "▁neut": 3975,
      "▁student": 3976,
      "▁atm": 3977,
      "▁understanding": 3978,
      "don": 3979,
      "▁aid": 3980,
      "▁situation": 3981,
      "ex": 3982,
      "nel": 3983,
      "bed": 3984,
      "▁az": 3985,
      "▁fit": 3986,
      "▁ford": 3987,
      "▁cod": 3988,
      "onian": 3989,
      "rier": 3990,
      "▁differences": 3991,
      "▁nothing": 3992,
      "▁brand": 3993,
      "▁glass": 3994,
      "ologist": 3995,
      "▁pu": 3996,
      "ching": 3997,
      "ulate": 3998,
      "gra": 3999,
      "▁enj": 4000,
      "iar": 4001,
      "claim": 4002,
      "▁paralle": 4003,
      "iform": 4004,
      "▁pc": 4005,
      "anta": 4006,
      "▁meant": 4007,
      "▁solution": 4008,
      "lection": 4009,
      "▁effective": 4010,
      "▁allowing": 4011,
      "▁seat": 4012,
      "▁limit": 4013,
      "▁mentioned": 4014,
      "▁replace": 4015,
      "▁expected": 4016,
      "▁device": 4017,
      "▁portugues": 4018,
      "▁fict": 4019,
      "▁secretary": 4020,
      "▁prin": 4021,
      "▁actions": 4022,
      "▁jacks": 4023,
      "ava": 4024,
      "▁lincol": 4025,
      "▁debate": 4026,
      "ensity": 4027,
      "▁classes": 4028,
      "▁lincoln": 4029,
      "teen": 4030,
      "▁communities": 4031,
      "▁victory": 4032,
      "▁unknown": 4033,
      "inations": 4034,
      "▁unp": 4035,
      "▁curren": 4036,
      "▁portuguese": 4037,
      "▁eg": 4038,
      "▁ko": 4039,
      "▁finland": 4040,
      "ador": 4041,
      "▁chrom": 4042,
      "▁artists": 4043,
      "▁gained": 4044,
      "▁sport": 4045,
      "▁poll": 4046,
      "▁mere": 4047,
      "▁turk": 4048,
      "▁sort": 4049,
      "cape": 4050,
      "▁recognized": 4051,
      "▁judaism": 4052,
      "▁oh": 4053,
      "▁cla": 4054,
      "▁batt": 4055,
      "▁entirely": 4056,
      "▁conference": 4057,
      "anda": 4058,
      "▁ath": 4059,
      "▁teams": 4060,
      "▁connected": 4061,
      "▁ht": 4062,
      "▁laure": 4063,
      "▁environmental": 4064,
      "▁domestic": 4065,
      "▁carl": 4066,
      "▁dram": 4067,
      "▁prep": 4068,
      "▁writings": 4069,
      "▁politician": 4070,
      "▁begins": 4071,
      "▁ll": 4072,
      "▁gdp": 4073,
      "▁geomet": 4074,
      "▁completed": 4075,
      "▁drum": 4076,
      "▁vel": 4077,
      "▁ts": 4078,
      "▁otherwise": 4079,
      "▁wealth": 4080,
      "▁bulg": 4081,
      "nam": 4082,
      "▁apol": 4083,
      "▁convers": 4084,
      "▁bishop": 4085,
      "▁bol": 4086,
      "▁asc": 4087,
      "▁ruled": 4088,
      "vi": 4089,
      "▁copyr": 4090,
      "mers": 4091,
      "more": 4092,
      "▁sites": 4093,
      "▁cards": 4094,
      "▁fill": 4095,
      "▁datab": 4096,
      "wan": 4097,
      "▁stor": 4098,
      "▁attract": 4099,
      "▁arms": 4100,
      "▁trial": 4101,
      "ologists": 4102,
      "▁controversy": 4103,
      "▁earliest": 4104,
      "▁experiment": 4105,
      "usalem": 4106,
      "▁containing": 4107,
      "▁attention": 4108,
      "▁suggested": 4109,
      "ique": 4110,
      "▁workers": 4111,
      "▁output": 4112,
      "▁alcohol": 4113,
      "▁esc": 4114,
      "▁physic": 4115,
      "▁solid": 4116,
      "▁cycle": 4117,
      "▁sequence": 4118,
      "▁jerusalem": 4119,
      "▁penn": 4120,
      "▁hong": 4121,
      "▁leban": 4122,
      "▁temple": 4123,
      "▁principles": 4124,
      "▁anne": 4125,
      "▁han": 4126,
      "▁literary": 4127,
      "▁interview": 4128,
      "▁scientists": 4129,
      "▁reduced": 4130,
      "wide": 4131,
      "▁hug": 4132,
      "▁americans": 4133,
      "▁officially": 4134,
      "▁figures": 4135,
      "aven": 4136,
      "ala": 4137,
      "▁popularity": 4138,
      "▁fighting": 4139,
      "▁prominent": 4140,
      "▁typical": 4141,
      "▁instruments": 4142,
      "▁cu": 4143,
      "▁scene": 4144,
      "mun": 4145,
      "▁jackson": 4146,
      "hold": 4147,
      "▁argent": 4148,
      "▁winning": 4149,
      "igan": 4150,
      "▁structures": 4151,
      "▁increasingly": 4152,
      "actions": 4153,
      "▁entry": 4154,
      "▁requires": 4155,
      "igration": 4156,
      "▁intellect": 4157,
      "▁liqu": 4158,
      "▁israeli": 4159,
      "▁cond": 4160,
      "acher": 4161,
      "▁statement": 4162,
      "ota": 4163,
      "▁sax": 4164,
      "▁avoid": 4165,
      "ns": 4166,
      "▁says": 4167,
      "▁algorithm": 4168,
      "▁jazz": 4169,
      "▁daily": 4170,
      "▁moment": 4171,
      "▁bott": 4172,
      "▁lives": 4173,
      "▁barb": 4174,
      "▁frequency": 4175,
      "▁flat": 4176,
      "▁images": 4177,
      "▁buddh": 4178,
      "ded": 4179,
      "iders": 4180,
      "▁exc": 4181,
      "▁satell": 4182,
      "▁specifically": 4183,
      "▁zealand": 4184,
      "▁discussion": 4185,
      "▁split": 4186,
      "▁atlantic": 4187,
      "itable": 4188,
      "▁gib": 4189,
      "ception": 4190,
      "▁confeder": 4191,
      "▁domain": 4192,
      "▁texas": 4193,
      "▁adult": 4194,
      "▁expansion": 4195,
      "rim": 4196,
      "inger": 4197,
      "▁mountains": 4198,
      "ione": 4199,
      "▁harv": 4200,
      "▁dynasty": 4201,
      "▁ft": 4202,
      "unt": 4203,
      "▁jones": 4204,
      "▁genetic": 4205,
      "▁price": 4206,
      "▁depending": 4207,
      "▁senate": 4208,
      "▁description": 4209,
      "▁importance": 4210,
      "▁georg": 4211,
      "▁criticism": 4212,
      "▁pray": 4213,
      "▁las": 4214,
      "▁severe": 4215,
      "▁gosp": 4216,
      "▁elev": 4217,
      "▁wave": 4218,
      "▁lear": 4219,
      "▁qual": 4220,
      "▁destroyed": 4221,
      "▁inspired": 4222,
      "▁opin": 4223,
      "▁staff": 4224,
      "▁sweden": 4225,
      "iro": 4226,
      "▁lun": 4227,
      "▁analog": 4228,
      "abor": 4229,
      "▁closed": 4230,
      "▁boston": 4231,
      "▁invasion": 4232,
      "▁entered": 4233,
      "▁devices": 4234,
      "▁closely": 4235,
      "▁anthrop": 4236,
      "light": 4237,
      "▁texts": 4238,
      "works": 4239,
      "▁hydrogen": 4240,
      "▁fru": 4241,
      "▁pp": 4242,
      "▁bush": 4243,
      "▁mythology": 4244,
      "▁wid": 4245,
      "iced": 4246,
      "▁toward": 4247,
      "▁dimens": 4248,
      "arc": 4249,
      "▁hur": 4250,
      "▁beaut": 4251,
      "▁diplom": 4252,
      "▁removed": 4253,
      "▁afghanistan": 4254,
      "atically": 4255,
      "▁marked": 4256,
      "▁bern": 4257,
      "▁killing": 4258,
      "▁corporation": 4259,
      "▁juris": 4260,
      "▁fu": 4261,
      "orter": 4262,
      "▁conscious": 4263,
      "▁apollo": 4264,
      "▁ages": 4265,
      "▁cha": 4266,
      "ogen": 4267,
      "▁helped": 4268,
      "dr": 4269,
      "▁runs": 4270,
      "▁quantum": 4271,
      "▁recip": 4272,
      "▁infant": 4273,
      "▁hence": 4274,
      "▁slightly": 4275,
      "▁presidential": 4276,
      "▁wikip": 4277,
      "▁fixed": 4278,
      "▁flor": 4279,
      "▁judge": 4280,
      "▁attempted": 4281,
      "▁plays": 4282,
      "▁kept": 4283,
      "▁asked": 4284,
      "▁dictionary": 4285,
      "icate": 4286,
      "▁agreed": 4287,
      "▁connection": 4288,
      "gs": 4289,
      "▁cooper": 4290,
      "▁republican": 4291,
      "▁determined": 4292,
      "war": 4293,
      "ening": 4294,
      "ansas": 4295,
      "itan": 4296,
      "▁proced": 4297,
      "ested": 4298,
      "rence": 4299,
      "▁dynam": 4300,
      "▁protestant": 4301,
      "▁lee": 4302,
      "▁phase": 4303,
      "▁communications": 4304,
      "▁traditions": 4305,
      "▁buildings": 4306,
      "▁absol": 4307,
      "▁copyright": 4308,
      "ounder": 4309,
      "▁controversial": 4310,
      "▁lithu": 4311,
      "▁luther": 4312,
      "▁none": 4313,
      "▁existing": 4314,
      "▁substant": 4315,
      "▁wis": 4316,
      "▁violence": 4317,
      "▁authors": 4318,
      "▁concert": 4319,
      "▁spiritual": 4320,
      "erved": 4321,
      "▁purs": 4322,
      "▁marsh": 4323,
      "ancy": 4324,
      "▁formation": 4325,
      "hamm": 4326,
      "▁cant": 4327,
      "▁twenty": 4328,
      "▁thousands": 4329,
      "▁din": 4330,
      "▁resulted": 4331,
      "▁merc": 4332,
      "▁agriculture": 4333,
      "ih": 4334,
      "▁crus": 4335,
      "▁movies": 4336,
      "▁ol": 4337,
      "vere": 4338,
      "▁occurred": 4339,
      "▁offered": 4340,
      "band": 4341,
      "▁weak": 4342,
      "▁discovery": 4343,
      "▁estimated": 4344,
      "▁heavily": 4345,
      "▁mir": 4346,
      "▁zone": 4347,
      "▁comics": 4348,
      "▁moral": 4349,
      "▁cryst": 4350,
      "iny": 4351,
      "▁argue": 4352,
      "zech": 4353,
      "onym": 4354,
      "▁aspects": 4355,
      "▁cosm": 4356,
      "▁ancest": 4357,
      "▁damage": 4358,
      "▁governments": 4359,
      "▁austrian": 4360,
      "▁crime": 4361,
      "rugg": 4362,
      "▁leadership": 4363,
      "▁ibm": 4364,
      "▁chair": 4365,
      "orders": 4366,
      "osphere": 4367,
      "iana": 4368,
      "▁eliz": 4369,
      "▁factors": 4370,
      "▁caes": 4371,
      "▁combination": 4372,
      "cules": 4373,
      "▁ram": 4374,
      "▁shall": 4375,
      "▁room": 4376,
      "▁advantage": 4377,
      "▁forward": 4378,
      "▁manner": 4379,
      "active": 4380,
      "▁novels": 4381,
      "▁fictional": 4382,
      "aming": 4383,
      "▁disk": 4384,
      "▁affairs": 4385,
      "inn": 4386,
      "▁viet": 4387,
      "▁mail": 4388,
      "▁effort": 4389,
      "▁doctrine": 4390,
      "▁cars": 4391,
      "▁stal": 4392,
      "box": 4393,
      "▁crick": 4394,
      "▁stay": 4395,
      "andon": 4396,
      "▁hungary": 4397,
      "arm": 4398,
      "▁category": 4399,
      "▁strugg": 4400,
      "▁withd": 4401,
      "▁coord": 4402,
      "▁holds": 4403,
      "▁maced": 4404,
      "▁soldiers": 4405,
      "▁leaving": 4406,
      "▁imag": 4407,
      "▁opened": 4408,
      "▁czech": 4409,
      "▁reports": 4410,
      "▁census": 4411,
      "▁reach": 4412,
      "ropri": 4413,
      "▁territories": 4414,
      "▁ru": 4415,
      "▁cool": 4416,
      "▁situ": 4417,
      "vant": 4418,
      "▁towns": 4419,
      "ault": 4420,
      "▁schem": 4421,
      "▁formula": 4422,
      "via": 4423,
      "▁abst": 4424,
      "▁reality": 4425,
      "▁theorem": 4426,
      "kins": 4427,
      "▁pak": 4428,
      "omorph": 4429,
      "▁desert": 4430,
      "▁manif": 4431,
      "▁origins": 4432,
      "▁gods": 4433,
      "▁anton": 4434,
      "▁factor": 4435,
      "▁annual": 4436,
      "▁defeated": 4437,
      "▁tan": 4438,
      "bal": 4439,
      "▁lew": 4440,
      "▁maintain": 4441,
      "▁picture": 4442,
      "▁told": 4443,
      "▁chos": 4444,
      "▁concepts": 4445,
      "▁constitutional": 4446,
      "▁strip": 4447,
      "▁permanent": 4448,
      "▁core": 4449,
      "▁teleph": 4450,
      "▁democracy": 4451,
      "▁explos": 4452,
      "▁nazi": 4453,
      "orters": 4454,
      "roll": 4455,
      "▁professor": 4456,
      "ato": 4457,
      "▁jord": 4458,
      "▁abandon": 4459,
      "▁protocol": 4460,
      "▁topics": 4461,
      "▁testament": 4462,
      "▁tried": 4463,
      "▁wikipedia": 4464,
      "las": 4465,
      "▁fried": 4466,
      "ado": 4467,
      "▁exclus": 4468,
      "quar": 4469,
      "▁christmas": 4470,
      "ella": 4471,
      "▁ray": 4472,
      "▁evil": 4473,
      "▁communication": 4474,
      "▁enjoy": 4475,
      "iber": 4476,
      "▁vac": 4477,
      "▁owners": 4478,
      "▁statistics": 4479,
      "▁presented": 4480,
      "▁subsequent": 4481,
      "uts": 4482,
      "▁spent": 4483,
      "▁opening": 4484,
      "▁normally": 4485,
      "▁ash": 4486,
      "▁beliefs": 4487,
      "▁supply": 4488,
      "▁sky": 4489,
      "▁identified": 4490,
      "▁false": 4491,
      "▁risk": 4492,
      "▁inhabit": 4493,
      "▁bact": 4494,
      "▁ger": 4495,
      "▁continues": 4496,
      "▁grew": 4497,
      "▁details": 4498,
      "▁columbia": 4499,
      "▁clock": 4500,
      "▁defeat": 4501,
      "▁shap": 4502,
      "▁actors": 4503,
      "▁drink": 4504,
      "▁goods": 4505,
      "▁institutions": 4506,
      "▁negot": 4507,
      "▁alexand": 4508,
      "▁currency": 4509,
      "▁wanted": 4510,
      "▁parad": 4511,
      "▁hardware": 4512,
      "▁expression": 4513,
      "▁pronounced": 4514,
      "▁learning": 4515,
      "heast": 4516,
      "▁thing": 4517,
      "ctors": 4518,
      "imb": 4519,
      "▁spect": 4520,
      "ifying": 4521,
      "▁administrative": 4522,
      "▁kl": 4523,
      "▁creating": 4524,
      "▁iran": 4525,
      "▁involve": 4526,
      "iations": 4527,
      "▁kur": 4528,
      "▁arist": 4529,
      "▁leave": 4530,
      "▁lists": 4531,
      "▁indo": 4532,
      "▁subsequently": 4533,
      "bury": 4534,
      "▁hypot": 4535,
      "▁plot": 4536,
      "▁goes": 4537,
      "cons": 4538,
      "▁vice": 4539,
      "▁forum": 4540,
      "▁heaven": 4541,
      "▁match": 4542,
      "▁semi": 4543,
      "ocks": 4544,
      "▁decades": 4545,
      "▁processes": 4546,
      "▁bodies": 4547,
      "▁machines": 4548,
      "▁expressed": 4549,
      "▁message": 4550,
      "▁linux": 4551,
      "ket": 4552,
      "▁dv": 4553,
      "▁goth": 4554,
      "▁tribes": 4555,
      "▁meeting": 4556,
      "▁sides": 4557,
      "icial": 4558,
      "igen": 4559,
      "▁commod": 4560,
      "▁organized": 4561,
      "▁hyper": 4562,
      "▁movements": 4563,
      "▁angeles": 4564,
      "▁fash": 4565,
      "▁bil": 4566,
      "▁pages": 4567,
      "▁dry": 4568,
      "oud": 4569,
      "▁fantasy": 4570,
      "zo": 4571,
      "▁stad": 4572,
      "▁ka": 4573,
      "▁veget": 4574,
      "▁founder": 4575,
      "▁editor": 4576,
      "▁cultures": 4577,
      "▁eye": 4578,
      "▁roughly": 4579,
      "iary": 4580,
      "▁proof": 4581,
      "anding": 4582,
      "ologies": 4583,
      "icks": 4584,
      "▁pros": 4585,
      "▁interpretation": 4586,
      "▁alleged": 4587,
      "▁nas": 4588,
      "▁arc": 4589,
      "▁sacr": 4590,
      "isf": 4591,
      "▁mode": 4592,
      "▁piece": 4593,
      "▁vast": 4594,
      "agn": 4595,
      "▁historians": 4596,
      "car": 4597,
      "▁sle": 4598,
      "▁hay": 4599,
      "▁gain": 4600,
      "▁orbit": 4601,
      "abeth": 4602,
      "oren": 4603,
      "▁questions": 4604,
      "▁policies": 4605,
      "eland": 4606,
      "▁canon": 4607,
      "▁intellectual": 4608,
      "▁absolute": 4609,
      "▁fame": 4610,
      "▁input": 4611,
      "zy": 4612,
      "▁jpg": 4613,
      "▁server": 4614,
      "▁positions": 4615,
      "▁mort": 4616,
      "▁len": 4617,
      "▁steel": 4618,
      "ograp": 4619,
      "▁ari": 4620,
      "rey": 4621,
      "uses": 4622,
      "stream": 4623,
      "▁confir": 4624,
      "▁swedish": 4625,
      "▁parallel": 4626,
      "▁chosen": 4627,
      "▁sty": 4628,
      "▁crypt": 4629,
      "oty": 4630,
      "▁observed": 4631,
      "▁bru": 4632,
      "opp": 4633,
      "▁atoms": 4634,
      "▁raised": 4635,
      "▁philosopher": 4636,
      "▁kilomet": 4637,
      "▁formerly": 4638,
      "▁susp": 4639,
      "▁astronom": 4640,
      "▁extin": 4641,
      "▁elim": 4642,
      "▁shortly": 4643,
      "▁receive": 4644,
      "▁brothers": 4645,
      "▁resistance": 4646,
      "▁database": 4647,
      "▁pakistan": 4648,
      "ano": 4649,
      "▁shape": 4650,
      "▁plane": 4651,
      "▁crew": 4652,
      "▁translated": 4653,
      "▁chapter": 4654,
      "▁tower": 4655,
      "▁bear": 4656,
      "ety": 4657,
      "▁parents": 4658,
      "▁analy": 4659,
      "▁files": 4660,
      "▁extent": 4661,
      "▁archae": 4662,
      "▁tub": 4663,
      "▁sud": 4664,
      "▁considerable": 4665,
      "▁mobile": 4666,
      "▁want": 4667,
      "▁strict": 4668,
      "▁regarding": 4669,
      "▁captain": 4670,
      "rid": 4671,
      "▁clar": 4672,
      "▁greatly": 4673,
      "▁studied": 4674,
      "▁sister": 4675,
      "▁rum": 4676,
      "▁proceed": 4677,
      "▁marg": 4678,
      "▁ion": 4679,
      "▁transportation": 4680,
      "▁sab": 4681,
      "▁rub": 4682,
      "▁genes": 4683,
      "▁mcc": 4684,
      "▁blues": 4685,
      "▁equation": 4686,
      "▁railway": 4687,
      "ees": 4688,
      "▁bos": 4689,
      "▁persian": 4690,
      "▁characteristics": 4691,
      "▁municip": 4692,
      "▁proport": 4693,
      "ache": 4694,
      "stone": 4695,
      "▁plate": 4696,
      "▁needs": 4697,
      "▁failure": 4698,
      "oral": 4699,
      "cont": 4700,
      "▁courts": 4701,
      "▁ordered": 4702,
      "▁chemistry": 4703,
      "▁revolutionary": 4704,
      "▁sovere": 4705,
      "▁respectively": 4706,
      "▁sovereign": 4707,
      "greg": 4708,
      "▁adapt": 4709,
      "▁johnson": 4710,
      "▁economics": 4711,
      "▁cow": 4712,
      "▁eld": 4713,
      "▁rates": 4714,
      "▁suff": 4715,
      "▁owned": 4716,
      "▁bang": 4717,
      "unc": 4718,
      "▁asian": 4719,
      "▁cris": 4720,
      "▁projects": 4721,
      "▁femin": 4722,
      "▁philosophical": 4723,
      "house": 4724,
      "▁peoples": 4725,
      "▁straight": 4726,
      "olis": 4727,
      "▁chain": 4728,
      "▁minutes": 4729,
      "▁divine": 4730,
      "▁rivers": 4731,
      "▁symbols": 4732,
      "▁jacob": 4733,
      "▁fro": 4734,
      "char": 4735,
      "▁settlement": 4736,
      "▁fashion": 4737,
      "▁wides": 4738,
      "iring": 4739,
      "fully": 4740,
      "▁practical": 4741,
      "▁criminal": 4742,
      "▁mes": 4743,
      "▁hosp": 4744,
      "▁exhib": 4745,
      "▁relation": 4746,
      "lywood": 4747,
      "▁accur": 4748,
      "etics": 4749,
      "umin": 4750,
      "▁medium": 4751,
      "▁covered": 4752,
      "▁seats": 4753,
      "▁neither": 4754,
      "▁supposed": 4755,
      "▁awarded": 4756,
      "▁launched": 4757,
      "inity": 4758,
      "rel": 4759,
      "iger": 4760,
      "▁reven": 4761,
      "inton": 4762,
      "▁finn": 4763,
      "▁representation": 4764,
      "▁chronic": 4765,
      "cts": 4766,
      "▁carol": 4767,
      "▁solar": 4768,
      "▁naval": 4769,
      "▁hindu": 4770,
      "▁sail": 4771,
      "▁crow": 4772,
      "▁refused": 4773,
      "gar": 4774,
      "▁cm": 4775,
      "▁feat": 4776,
      "▁cine": 4777,
      "▁andrew": 4778,
      "▁easy": 4779,
      "▁ah": 4780,
      "▁mist": 4781,
      "▁compr": 4782,
      "▁whereas": 4783,
      "▁concer": 4784,
      "▁wales": 4785,
      "▁narrow": 4786,
      "▁tenn": 4787,
      "▁ends": 4788,
      "▁harm": 4789,
      "▁describes": 4790,
      "▁deriv": 4791,
      "cop": 4792,
      "▁doug": 4793,
      "lem": 4794,
      "▁install": 4795,
      "▁principal": 4796,
      "itzer": 4797,
      "ceived": 4798,
      "osl": 4799,
      "▁arrest": 4800,
      "▁harmon": 4801,
      "▁korea": 4802,
      "▁defend": 4803,
      "▁satellite": 4804,
      "▁dj": 4805,
      "▁darwin": 4806,
      "▁jordan": 4807,
      "▁fasc": 4808,
      "▁bann": 4809,
      "▁mental": 4810,
      "▁phon": 4811,
      "▁academic": 4812,
      "▁noun": 4813,
      "▁coming": 4814,
      "▁indones": 4815,
      "▁mah": 4816,
      "▁comedy": 4817,
      "▁sufficient": 4818,
      "▁multi": 4819,
      "▁battles": 4820,
      "▁electro": 4821,
      "▁myster": 4822,
      "▁processing": 4823,
      "▁mixed": 4824,
      "▁drugs": 4825,
      "▁pieces": 4826,
      "▁jurisd": 4827,
      "▁label": 4828,
      "▁ille": 4829,
      "▁felt": 4830,
      "▁strength": 4831,
      "▁cou": 4832,
      "▁ken": 4833,
      "▁producer": 4834,
      "▁purposes": 4835,
      "▁occasionally": 4836,
      "▁storage": 4837,
      "akh": 4838,
      "clusion": 4839,
      "▁register": 4840,
      "▁snow": 4841,
      "▁mathb": 4842,
      "▁ein": 4843,
      "▁unc": 4844,
      "ompan": 4845,
      "oman": 4846,
      "utation": 4847,
      "▁leon": 4848,
      "▁anything": 4849,
      "isher": 4850,
      "▁bron": 4851,
      "▁newton": 4852,
      "▁victim": 4853,
      "▁occupied": 4854,
      "▁repeated": 4855,
      "▁patri": 4856,
      "uous": 4857,
      "▁index": 4858,
      "▁electrical": 4859,
      "▁accompan": 4860,
      "▁saying": 4861,
      "▁interpre": 4862,
      "▁pictures": 4863,
      "▁binary": 4864,
      "▁dict": 4865,
      "▁plans": 4866,
      "ipped": 4867,
      "▁enemy": 4868,
      "▁isol": 4869,
      "▁transition": 4870,
      "▁inhabitants": 4871,
      "▁bw": 4872,
      "▁radical": 4873,
      "▁explor": 4874,
      "▁village": 4875,
      "▁rational": 4876,
      "osexual": 4877,
      "▁granted": 4878,
      "▁persons": 4879,
      "▁layer": 4880,
      "oured": 4881,
      "▁huge": 4882,
      "▁lot": 4883,
      "▁scand": 4884,
      "▁degrees": 4885,
      "▁fifth": 4886,
      "▁dialects": 4887,
      "iat": 4888,
      "▁bure": 4889,
      "▁grant": 4890,
      "▁michigan": 4891,
      "▁challen": 4892,
      "▁weeks": 4893,
      "▁speakers": 4894,
      "pread": 4895,
      "▁sector": 4896,
      "▁ie": 4897,
      "▁artific": 4898,
      "▁descend": 4899,
      "▁magnetic": 4900,
      "▁selected": 4901,
      "▁festival": 4902,
      "▁widespread": 4903,
      "▁gay": 4904,
      "▁cav": 4905,
      "ena": 4906,
      "▁pian": 4907,
      "ette": 4908,
      "▁alliance": 4909,
      "▁joint": 4910,
      "▁commonwe": 4911,
      "itarian": 4912,
      "▁train": 4913,
      "▁apost": 4914,
      "▁babyl": 4915,
      "gu": 4916,
      "aling": 4917,
      "▁unus": 4918,
      "ogue": 4919,
      "▁peak": 4920,
      "▁legislative": 4921,
      "▁commonwealth": 4922,
      "▁density": 4923,
      "▁kg": 4924,
      "ras": 4925,
      "order": 4926,
      "▁influential": 4927,
      "▁affect": 4928,
      "▁determine": 4929,
      "▁platform": 4930,
      "▁someone": 4931,
      "▁freder": 4932,
      "▁sword": 4933,
      "▁similarly": 4934,
      "▁hitler": 4935,
      "▁achieved": 4936,
      "▁traffic": 4937,
      "▁particles": 4938,
      "▁visual": 4939,
      "▁random": 4940,
      "tes": 4941,
      "ading": 4942,
      "▁isa": 4943,
      "▁column": 4944,
      "▁dispute": 4945,
      "▁elizabeth": 4946,
      "gi": 4947,
      "ped": 4948,
      "▁ine": 4949,
      "▁teach": 4950,
      "▁supporters": 4951,
      "▁entertain": 4952,
      "▁homosexual": 4953,
      "▁newspaper": 4954,
      "▁advert": 4955,
      "▁explan": 4956,
      "tery": 4957,
      "ellow": 4958,
      "▁salv": 4959,
      "▁awards": 4960,
      "▁om": 4961,
      "▁sevent": 4962,
      "▁houses": 4963,
      "lers": 4964,
      "ani": 4965,
      "▁hoc": 4966,
      "▁deliver": 4967,
      "▁gospel": 4968,
      "▁hat": 4969,
      "▁hour": 4970,
      "▁gulf": 4971,
      "▁teaching": 4972,
      "▁worldwide": 4973,
      "▁orders": 4974,
      "agon": 4975,
      "avia": 4976,
      "▁diet": 4977,
      "▁fear": 4978,
      "▁transm": 4979,
      "▁titles": 4980,
      "▁manufactur": 4981,
      "▁hungarian": 4982,
      "▁apparently": 4983,
      "thy": 4984,
      "sey": 4985,
      "▁imposs": 4986,
      "▁detect": 4987,
      "▁ideal": 4988,
      "▁ow": 4989,
      "▁fine": 4990,
      "▁clearly": 4991,
      "cers": 4992,
      "▁universities": 4993,
      "▁electricity": 4994,
      "▁infinite": 4995,
      "icide": 4996,
      "▁jon": 4997,
      "▁chart": 4998,
      "▁exerc": 4999,
      "▁serb": 5000,
      "▁providing": 5001,
      "▁colonial": 5002,
      "▁weapon": 5003,
      "▁suffered": 5004,
      "▁publication": 5005,
      "▁appropri": 5006,
      "uro": 5007,
      "▁adam": 5008,
      "▁marine": 5009,
      "▁circle": 5010,
      "▁check": 5011,
      "▁crisis": 5012,
      "rete": 5013,
      "▁conson": 5014,
      "▁doing": 5015,
      "▁interface": 5016,
      "▁strateg": 5017,
      "▁issued": 5018,
      "yan": 5019,
      "zant": 5020,
      "▁nfl": 5021,
      "iment": 5022,
      "▁hair": 5023,
      "▁root": 5024,
      "▁agricultural": 5025,
      "▁dor": 5026,
      "▁store": 5027,
      "▁kent": 5028,
      "▁bed": 5029,
      "▁recomm": 5030,
      "▁denmark": 5031,
      "theless": 5032,
      "▁liquid": 5033,
      "fc": 5034,
      "▁contained": 5035,
      "▁opportun": 5036,
      "▁ultimately": 5037,
      "▁fres": 5038,
      "▁throne": 5039,
      "▁nevertheless": 5040,
      "▁kir": 5041,
      "▁prohib": 5042,
      "▁plus": 5043,
      "▁setting": 5044,
      "▁cable": 5045,
      "idden": 5046,
      "▁byzant": 5047,
      "▁commander": 5048,
      "▁standing": 5049,
      "▁oldest": 5050,
      "▁fox": 5051,
      "▁danish": 5052,
      "raction": 5053,
      "▁jr": 5054,
      "iants": 5055,
      "▁safety": 5056,
      "▁surrounding": 5057,
      "▁tel": 5058,
      "▁scen": 5059,
      "▁celtic": 5060,
      "eless": 5061,
      "▁uniform": 5062,
      "▁param": 5063,
      "▁measures": 5064,
      "▁maximum": 5065,
      "mes": 5066,
      "▁pi": 5067,
      "▁practices": 5068,
      "▁hundred": 5069,
      "▁pione": 5070,
      "▁showing": 5071,
      "iable": 5072,
      "ng": 5073,
      "▁maps": 5074,
      "rain": 5075,
      "▁recording": 5076,
      "road": 5077,
      "▁athe": 5078,
      "acing": 5079,
      "▁exception": 5080,
      "▁daniel": 5081,
      "▁sons": 5082,
      "eros": 5083,
      "▁termin": 5084,
      "▁distinction": 5085,
      "▁atomic": 5086,
      "▁lies": 5087,
      "▁lyn": 5088,
      "lete": 5089,
      "▁advance": 5090,
      "uration": 5091,
      "▁abd": 5092,
      "▁valid": 5093,
      "enh": 5094,
      "ez": 5095,
      "▁everything": 5096,
      "▁reduce": 5097,
      "▁bottom": 5098,
      "tion": 5099,
      "▁genre": 5100,
      "▁linked": 5101,
      "▁secondary": 5102,
      "hr": 5103,
      "▁sar": 5104,
      "▁pruss": 5105,
      "▁ministers": 5106,
      "▁virginia": 5107,
      "▁mong": 5108,
      "urally": 5109,
      "▁mechanics": 5110,
      "lig": 5111,
      "▁rose": 5112,
      "▁producing": 5113,
      "▁taught": 5114,
      "▁emerg": 5115,
      "▁precise": 5116,
      "▁license": 5117,
      "▁neighbor": 5118,
      "▁enfor": 5119,
      "▁shared": 5120,
      "▁engines": 5121,
      "chester": 5122,
      "▁fleet": 5123,
      "▁bwv": 5124,
      "▁sought": 5125,
      "▁castle": 5126,
      "▁kid": 5127,
      "▁agency": 5128,
      "▁charl": 5129,
      "▁religions": 5130,
      "▁historic": 5131,
      "▁strongly": 5132,
      "▁accounts": 5133,
      "cription": 5134,
      "▁opposite": 5135,
      "▁tact": 5136,
      "▁manager": 5137,
      "▁capable": 5138,
      "▁palace": 5139,
      "▁absor": 5140,
      "▁egyptian": 5141,
      "▁hind": 5142,
      "▁resolution": 5143,
      "▁constructed": 5144,
      "rec": 5145,
      "▁bac": 5146,
      "▁ms": 5147,
      "vis": 5148,
      "▁unable": 5149,
      "▁guine": 5150,
      "▁shell": 5151,
      "▁oxy": 5152,
      "▁classification": 5153,
      "▁philip": 5154,
      "▁showed": 5155,
      "▁angl": 5156,
      "inois": 5157,
      "▁muslims": 5158,
      "▁stadium": 5159,
      "▁components": 5160,
      "▁massive": 5161,
      "▁chamber": 5162,
      "iop": 5163,
      "▁ped": 5164,
      "▁rein": 5165,
      "▁sciences": 5166,
      "▁ending": 5167,
      "▁radiation": 5168,
      "▁molecules": 5169,
      "▁arrange": 5170,
      "▁bes": 5171,
      "▁pul": 5172,
      "▁arbit": 5173,
      "▁feed": 5174,
      "▁historically": 5175,
      "▁continuous": 5176,
      "▁permit": 5177,
      "▁caesar": 5178,
      "iga": 5179,
      "▁uss": 5180,
      "▁stephen": 5181,
      "▁detailed": 5182,
      "▁phrase": 5183,
      "uing": 5184,
      "angel": 5185,
      "▁consp": 5186,
      "▁magic": 5187,
      "▁biology": 5188,
      "▁sad": 5189,
      "▁involves": 5190,
      "sen": 5191,
      "▁mamm": 5192,
      "▁represents": 5193,
      "▁invented": 5194,
      "▁therm": 5195,
      "▁computing": 5196,
      "▁circuit": 5197,
      "enses": 5198,
      "▁suppl": 5199,
      "▁expanded": 5200,
      "▁jeff": 5201,
      "▁silver": 5202,
      "▁lady": 5203,
      "▁cerem": 5204,
      "▁girl": 5205,
      "urb": 5206,
      "▁rarely": 5207,
      "▁rejected": 5208,
      "ares": 5209,
      "▁conclud": 5210,
      "▁abol": 5211,
      "▁metaph": 5212,
      "▁civilization": 5213,
      "▁declar": 5214,
      "▁succeeded": 5215,
      "▁lewis": 5216,
      "ja": 5217,
      "oven": 5218,
      "▁tools": 5219,
      "▁revol": 5220,
      "▁biological": 5221,
      "▁interesting": 5222,
      "▁illinois": 5223,
      "▁alpha": 5224,
      "▁theatre": 5225,
      "▁capacity": 5226,
      "▁godd": 5227,
      "▁impossible": 5228,
      "onds": 5229,
      "▁dates": 5230,
      "etary": 5231,
      "▁render": 5232,
      "▁planned": 5233,
      "ements": 5234,
      "ession": 5235,
      "▁destruction": 5236,
      "▁documents": 5237,
      "▁ale": 5238,
      "inth": 5239,
      "icon": 5240,
      "▁emot": 5241,
      "▁networks": 5242,
      "iled": 5243,
      "▁yellow": 5244,
      "▁indicate": 5245,
      "▁francisco": 5246,
      "▁molecular": 5247,
      "▁provinces": 5248,
      "▁kab": 5249,
      "▁chile": 5250,
      "▁job": 5251,
      "▁galax": 5252,
      "▁ratio": 5253,
      "▁wrong": 5254,
      "itled": 5255,
      "▁germ": 5256,
      "▁paid": 5257,
      "▁route": 5258,
      "amin": 5259,
      "▁edge": 5260,
      "▁hollywood": 5261,
      "▁superior": 5262,
      "▁trees": 5263,
      "oly": 5264,
      "▁dual": 5265,
      "▁decre": 5266,
      "▁budget": 5267,
      "▁safe": 5268,
      "▁mol": 5269,
      "kh": 5270,
      "▁societies": 5271,
      "▁visit": 5272,
      "rations": 5273,
      "▁theme": 5274,
      "▁belg": 5275,
      "▁continental": 5276,
      "▁synd": 5277,
      "▁essentially": 5278,
      "iti": 5279,
      "▁managed": 5280,
      "▁johann": 5281,
      "▁prophe": 5282,
      "▁witness": 5283,
      "▁dism": 5284,
      "▁turkey": 5285,
      "set": 5286,
      "▁pd": 5287,
      "chest": 5288,
      "▁poetry": 5289,
      "▁settled": 5290,
      "▁indu": 5291,
      "▁gor": 5292,
      "▁auton": 5293,
      "▁harvard": 5294,
      "▁dream": 5295,
      "achus": 5296,
      "▁viewed": 5297,
      "▁institution": 5298,
      "▁ali": 5299,
      "▁hem": 5300,
      "▁portra": 5301,
      "▁merely": 5302,
      "▁fly": 5303,
      "▁kaz": 5304,
      "▁authorities": 5305,
      "▁ske": 5306,
      "▁stran": 5307,
      "▁captured": 5308,
      "▁investment": 5309,
      "▁turkish": 5310,
      "▁plain": 5311,
      "▁html": 5312,
      "ictions": 5313,
      "▁studio": 5314,
      "▁vector": 5315,
      "▁understood": 5316,
      "wal": 5317,
      "▁developing": 5318,
      "▁fought": 5319,
      "▁twel": 5320,
      "▁depression": 5321,
      "▁colonies": 5322,
      "▁induct": 5323,
      "▁exports": 5324,
      "▁candidate": 5325,
      "▁assert": 5326,
      "▁exactly": 5327,
      "▁refuge": 5328,
      "▁interests": 5329,
      "▁portion": 5330,
      "▁visible": 5331,
      "▁assumed": 5332,
      "▁coalition": 5333,
      "ois": 5334,
      "▁dub": 5335,
      "▁croat": 5336,
      "dy": 5337,
      "▁orchest": 5338,
      "▁comed": 5339,
      "▁bag": 5340,
      "▁iso": 5341,
      "▁jers": 5342,
      "ek": 5343,
      "hy": 5344,
      "ivers": 5345,
      "▁really": 5346,
      "▁publishing": 5347,
      "▁surpr": 5348,
      "▁lebanon": 5349,
      "▁oxygen": 5350,
      "▁cogn": 5351,
      "▁strate": 5352,
      "▁directory": 5353,
      "▁explicit": 5354,
      "▁trust": 5355,
      "▁cycl": 5356,
      "▁bom": 5357,
      "▁twelve": 5358,
      "time": 5359,
      "▁sie": 5360,
      "▁dc": 5361,
      "▁abra": 5362,
      "▁dedicated": 5363,
      "▁stalin": 5364,
      "▁demand": 5365,
      "▁youth": 5366,
      "▁significantly": 5367,
      "▁artificial": 5368,
      "▁aw": 5369,
      "heim": 5370,
      "▁java": 5371,
      "▁clinton": 5372,
      "rat": 5373,
      "▁ss": 5374,
      "▁eug": 5375,
      "ante": 5376,
      "▁soul": 5377,
      "▁penal": 5378,
      "pa": 5379,
      "town": 5380,
      "▁nit": 5381,
      "▁sole": 5382,
      "▁calvin": 5383,
      "▁admir": 5384,
      "▁pin": 5385,
      "▁priest": 5386,
      "▁obtained": 5387,
      "▁florida": 5388,
      "▁strategy": 5389,
      "▁height": 5390,
      "▁score": 5391,
      "▁equations": 5392,
      "▁thousand": 5393,
      "▁alfred": 5394,
      "▁horn": 5395,
      "▁bright": 5396,
      "▁germanic": 5397,
      "▁variations": 5398,
      "▁hub": 5399,
      "ructions": 5400,
      "▁liver": 5401,
      "▁drawn": 5402,
      "▁tu": 5403,
      "real": 5404,
      "▁eat": 5405,
      "▁overall": 5406,
      "▁maur": 5407,
      "▁obv": 5408,
      "▁sla": 5409,
      "▁designs": 5410,
      "▁lect": 5411,
      "▁metrop": 5412,
      "▁finite": 5413,
      "▁switch": 5414,
      "iology": 5415,
      "▁tall": 5416,
      "▁eyes": 5417,
      "▁hu": 5418,
      "etts": 5419,
      "▁instruction": 5420,
      "▁socialist": 5421,
      "unk": 5422,
      "▁extens": 5423,
      "▁mechanical": 5424,
      "▁arrived": 5425,
      "▁representatives": 5426,
      "▁talk": 5427,
      "▁dominant": 5428,
      "▁goddess": 5429,
      "▁dol": 5430,
      "▁items": 5431,
      "dule": 5432,
      "▁logical": 5433,
      "▁encoun": 5434,
      "▁maintained": 5435,
      "▁cia": 5436,
      "ito": 5437,
      "▁virtual": 5438,
      "▁philosophers": 5439,
      "rix": 5440,
      "▁ches": 5441,
      "▁bind": 5442,
      "▁compat": 5443,
      "▁cancer": 5444,
      "▁merch": 5445,
      "▁portugal": 5446,
      "▁innov": 5447,
      "▁withdra": 5448,
      "▁guinea": 5449,
      "▁trop": 5450,
      "cel": 5451,
      "▁musicians": 5452,
      "▁modified": 5453,
      "pective": 5454,
      "▁featuring": 5455,
      "come": 5456,
      "ko": 5457,
      "▁si": 5458,
      "▁sout": 5459,
      "▁ron": 5460,
      "▁acting": 5461,
      "▁reprodu": 5462,
      "▁sales": 5463,
      "▁causing": 5464,
      "▁improved": 5465,
      "iful": 5466,
      "▁rod": 5467,
      "▁vietnam": 5468,
      "reds": 5469,
      "▁ruth": 5470,
      "▁membership": 5471,
      "tz": 5472,
      "▁mouth": 5473,
      "▁officer": 5474,
      "▁trou": 5475,
      "▁penins": 5476,
      "▁protein": 5477,
      "▁champion": 5478,
      "▁korean": 5479,
      "icism": 5480,
      "teenth": 5481,
      "▁propos": 5482,
      "▁mathbf": 5483,
      "▁obvious": 5484,
      "▁tai": 5485,
      "▁amaz": 5486,
      "▁explo": 5487,
      "▁saints": 5488,
      "▁minority": 5489,
      "▁tam": 5490,
      "▁lyr": 5491,
      "▁occupation": 5492,
      "▁grammar": 5493,
      "▁hamm": 5494,
      "▁defence": 5495,
      "▁storm": 5496,
      "▁rapidly": 5497,
      "▁revealed": 5498,
      "akers": 5499,
      "▁trig": 5500,
      "fare": 5501,
      "▁kansas": 5502,
      "▁ago": 5503,
      "▁carib": 5504,
      "▁define": 5505,
      "▁recognition": 5506,
      "yer": 5507,
      "▁gate": 5508,
      "▁preced": 5509,
      "ographical": 5510,
      "claimed": 5511,
      "▁twice": 5512,
      "▁coach": 5513,
      "▁psychology": 5514,
      "uits": 5515,
      "▁mt": 5516,
      "rates": 5517,
      "▁experien": 5518,
      "▁holding": 5519,
      "hammad": 5520,
      "right": 5521,
      "▁semit": 5522,
      "▁agent": 5523,
      "▁flying": 5524,
      "▁lan": 5525,
      "▁react": 5526,
      "ilbert": 5527,
      "▁firm": 5528,
      "▁massachus": 5529,
      "▁satisf": 5530,
      "▁distributed": 5531,
      "▁physicist": 5532,
      "antly": 5533,
      "▁partners": 5534,
      "▁apply": 5535,
      "▁listed": 5536,
      "▁davis": 5537,
      "▁napole": 5538,
      "▁stable": 5539,
      "▁cabinet": 5540,
      "▁ment": 5541,
      "▁males": 5542,
      "▁husband": 5543,
      "▁inher": 5544,
      "▁colony": 5545,
      "▁extension": 5546,
      "▁skin": 5547,
      "▁opinion": 5548,
      "▁massachusetts": 5549,
      "▁ae": 5550,
      "onso": 5551,
      "▁verb": 5552,
      "▁separated": 5553,
      "▁drop": 5554,
      "▁accident": 5555,
      "▁dominated": 5556,
      "▁suggests": 5557,
      "▁employed": 5558,
      "ss": 5559,
      "▁spin": 5560,
      "▁periods": 5561,
      "▁selection": 5562,
      "oles": 5563,
      "▁row": 5564,
      "▁relat": 5565,
      "▁reputation": 5566,
      "▁literally": 5567,
      "▁looking": 5568,
      "▁som": 5569,
      "▁bull": 5570,
      "appe": 5571,
      "▁upd": 5572,
      "▁mainstream": 5573,
      "▁existed": 5574,
      "▁jersey": 5575,
      "▁fab": 5576,
      "▁entitled": 5577,
      "▁sounds": 5578,
      "▁throw": 5579,
      "▁rif": 5580,
      "▁moore": 5581,
      "▁changing": 5582,
      "▁petro": 5583,
      "▁subjects": 5584,
      "rehens": 5585,
      "▁tool": 5586,
      "▁attend": 5587,
      "▁navig": 5588,
      "▁tourism": 5589,
      "ranean": 5590,
      "fall": 5591,
      "▁howard": 5592,
      "▁expensive": 5593,
      "▁younger": 5594,
      "▁bibl": 5595,
      "▁nickn": 5596,
      "do": 5597,
      "▁bits": 5598,
      "uten": 5599,
      "▁trad": 5600,
      "▁calls": 5601,
      "aneous": 5602,
      "othe": 5603,
      "▁audience": 5604,
      "▁neutral": 5605,
      "iency": 5606,
      "uster": 5607,
      "▁rig": 5608,
      "▁romans": 5609,
      "▁publications": 5610,
      "▁bands": 5611,
      "▁decline": 5612,
      "▁franklin": 5613,
      "▁efficient": 5614,
      "▁lakes": 5615,
      "▁ampl": 5616,
      "▁effectively": 5617,
      "▁necessarily": 5618,
      "▁cuba": 5619,
      "▁anat": 5620,
      "▁kick": 5621,
      "celer": 5622,
      "▁adams": 5623,
      "▁blind": 5624,
      "▁opera": 5625,
      "▁strike": 5626,
      "▁contributed": 5627,
      "▁fert": 5628,
      "enger": 5629,
      "▁hope": 5630,
      "ishes": 5631,
      "▁lex": 5632,
      "▁concerning": 5633,
      "▁shel": 5634,
      "▁cape": 5635,
      "▁painter": 5636,
      "▁reconst": 5637,
      "▁dangerous": 5638,
      "▁choose": 5639,
      "▁circumst": 5640,
      "▁abraham": 5641,
      "▁tren": 5642,
      "▁rit": 5643,
      "▁vision": 5644,
      "▁allied": 5645,
      "hal": 5646,
      "▁inqu": 5647,
      "▁acceler": 5648,
      "▁remark": 5649,
      "▁signs": 5650,
      "▁historian": 5651,
      "▁vehicle": 5652,
      "yst": 5653,
      "▁lind": 5654,
      "▁affected": 5655,
      "▁mathematician": 5656,
      "olitan": 5657,
      "▁kos": 5658,
      "▁rival": 5659,
      "▁ark": 5660,
      "▁manus": 5661,
      "▁gender": 5662,
      "▁error": 5663,
      "▁executed": 5664,
      "▁samuel": 5665,
      "▁aqu": 5666,
      "asts": 5667,
      "▁slav": 5668,
      "▁ethiop": 5669,
      "▁albums": 5670,
      "▁hockey": 5671,
      "▁roots": 5672,
      "▁respond": 5673,
      "▁scholar": 5674,
      "▁atmosphere": 5675,
      "▁dick": 5676,
      "ople": 5677,
      "▁worship": 5678,
      "▁formally": 5679,
      "inson": 5680,
      "▁patent": 5681,
      "ylv": 5682,
      "▁vehicles": 5683,
      "▁federation": 5684,
      "▁axi": 5685,
      "▁kennedy": 5686,
      "▁belgium": 5687,
      "down": 5688,
      "▁evolved": 5689,
      "▁clean": 5690,
      "▁committed": 5691,
      "▁multipl": 5692,
      "▁hundreds": 5693,
      "▁trying": 5694,
      "▁ton": 5695,
      "▁pse": 5696,
      "▁join": 5697,
      "▁ministry": 5698,
      "▁dvd": 5699,
      "xide": 5700,
      "▁ul": 5701,
      "▁wire": 5702,
      "oring": 5703,
      "▁dies": 5704,
      "▁compounds": 5705,
      "▁matters": 5706,
      "ova": 5707,
      "▁concerned": 5708,
      "▁fruit": 5709,
      "▁heard": 5710,
      "anto": 5711,
      "▁earl": 5712,
      "▁numer": 5713,
      "▁broke": 5714,
      "▁stands": 5715,
      "▁georgia": 5716,
      "crib": 5717,
      "▁weather": 5718,
      "leg": 5719,
      "uting": 5720,
      "▁vs": 5721,
      "▁graphics": 5722,
      "▁attributed": 5723,
      "je": 5724,
      "▁inner": 5725,
      "▁underground": 5726,
      "▁broken": 5727,
      "▁officials": 5728,
      "▁temperatures": 5729,
      "▁beer": 5730,
      "▁alc": 5731,
      "▁prices": 5732,
      "▁overse": 5733,
      "▁pseud": 5734,
      "ef": 5735,
      "▁wed": 5736,
      "▁ric": 5737,
      "▁rebell": 5738,
      "▁bot": 5739,
      "▁occas": 5740,
      "▁ern": 5741,
      "▁nearby": 5742,
      "▁copy": 5743,
      "▁treated": 5744,
      "▁horiz": 5745,
      "▁banks": 5746,
      "▁answer": 5747,
      "▁consciousness": 5748,
      "ture": 5749,
      "▁faster": 5750,
      "oter": 5751,
      "▁residents": 5752,
      "▁draft": 5753,
      "▁alleg": 5754,
      "▁foss": 5755,
      "▁kal": 5756,
      "▁uncle": 5757,
      "▁identical": 5758,
      "▁patterns": 5759,
      "▁veloc": 5760,
      "water": 5761,
      "▁leads": 5762,
      "▁behavi": 5763,
      "▁mediter": 5764,
      "▁supporting": 5765,
      "rapy": 5766,
      "▁relationships": 5767,
      "▁establishment": 5768,
      "eline": 5769,
      "▁manuscript": 5770,
      "▁asp": 5771,
      "aved": 5772,
      "▁renamed": 5773,
      "▁amounts": 5774,
      "▁styles": 5775,
      "▁hospital": 5776,
      "▁hors": 5777,
      "aska": 5778,
      "rose": 5779,
      "▁poem": 5780,
      "▁serving": 5781,
      "▁warfare": 5782,
      "▁remember": 5783,
      "▁brig": 5784,
      "▁russell": 5785,
      "▁incorporated": 5786,
      "hard": 5787,
      "oen": 5788,
      "ithms": 5789,
      "▁ottoman": 5790,
      "▁pitch": 5791,
      "ima": 5792,
      "▁successor": 5793,
      "▁involving": 5794,
      "burgh": 5795,
      "▁conventional": 5796,
      "▁cuis": 5797,
      "▁excess": 5798,
      "▁basket": 5799,
      "▁officers": 5800,
      "▁propag": 5801,
      "▁donald": 5802,
      "▁favour": 5803,
      "▁mediterranean": 5804,
      "▁accom": 5805,
      "▁variable": 5806,
      "pan": 5807,
      "▁gang": 5808,
      "▁orb": 5809,
      "▁hawai": 5810,
      "▁lunar": 5811,
      "▁wel": 5812,
      "adel": 5813,
      "chen": 5814,
      "▁lux": 5815,
      "▁kit": 5816,
      "▁leaves": 5817,
      "▁predom": 5818,
      "▁appeal": 5819,
      "▁logo": 5820,
      "▁indiana": 5821,
      "ew": 5822,
      "▁coca": 5823,
      "▁regime": 5824,
      "▁decade": 5825,
      "▁headquar": 5826,
      "▁judicial": 5827,
      "▁functional": 5828,
      "▁ordinary": 5829,
      "▁garden": 5830,
      "▁biblical": 5831,
      "ylvania": 5832,
      "oul": 5833,
      "jection": 5834,
      "▁sed": 5835,
      "▁norway": 5836,
      "▁particle": 5837,
      "▁williams": 5838,
      "▁costs": 5839,
      "▁dimensional": 5840,
      "▁unusual": 5841,
      "▁vic": 5842,
      "▁unless": 5843,
      "▁partly": 5844,
      "▁knight": 5845,
      "▁loyal": 5846,
      "▁abbre": 5847,
      "▁accompl": 5848,
      "▁spaces": 5849,
      "▁newly": 5850,
      "▁parliamentary": 5851,
      "▁episodes": 5852,
      "▁karl": 5853,
      "ooth": 5854,
      "arus": 5855,
      "▁gent": 5856,
      "▁notion": 5857,
      "▁err": 5858,
      "▁frequent": 5859,
      "▁tail": 5860,
      "rome": 5861,
      "▁component": 5862,
      "▁trading": 5863,
      "▁request": 5864,
      "commun": 5865,
      "▁gradually": 5866,
      "▁prepar": 5867,
      "▁door": 5868,
      "▁finished": 5869,
      "▁rulers": 5870,
      "▁substit": 5871,
      "▁declaration": 5872,
      "▁hier": 5873,
      "▁meters": 5874,
      "▁educational": 5875,
      "▁legislation": 5876,
      "▁concentration": 5877,
      "▁mike": 5878,
      "▁tank": 5879,
      "▁thin": 5880,
      "▁plural": 5881,
      "▁mayor": 5882,
      "▁joe": 5883,
      "▁harry": 5884,
      "▁bibli": 5885,
      "eing": 5886,
      "▁hang": 5887,
      "▁monop": 5888,
      "bean": 5889,
      "▁astro": 5890,
      "▁consumption": 5891,
      "▁comparison": 5892,
      "▁acquired": 5893,
      "▁jump": 5894,
      "▁vess": 5895,
      "agu": 5896,
      "issance": 5897,
      "▁adding": 5898,
      "▁salt": 5899,
      "jo": 5900,
      "▁wolf": 5901,
      "under": 5902,
      "▁rural": 5903,
      "▁adap": 5904,
      "▁scul": 5905,
      "▁demograph": 5906,
      "▁opponents": 5907,
      "▁epist": 5908,
      "▁moroc": 5909,
      "▁punish": 5910,
      "▁racing": 5911,
      "▁reforms": 5912,
      "▁categories": 5913,
      "▁peninsula": 5914,
      "▁herit": 5915,
      "▁simon": 5916,
      "▁parent": 5917,
      "▁anglo": 5918,
      "▁substance": 5919,
      "▁distinguished": 5920,
      "▁prayer": 5921,
      "▁finnish": 5922,
      "▁einstein": 5923,
      "▁byzantine": 5924,
      "▁suicide": 5925,
      "▁anyone": 5926,
      "▁consisting": 5927,
      "▁cartoon": 5928,
      "▁vowel": 5929,
      "▁mold": 5930,
      "▁memorial": 5931,
      "▁markets": 5932,
      "▁birds": 5933,
      "▁paint": 5934,
      "▁guns": 5935,
      "▁intelligent": 5936,
      "▁bic": 5937,
      "ilton": 5938,
      "▁vent": 5939,
      "▁calc": 5940,
      "▁succession": 5941,
      "▁balance": 5942,
      "▁manufacturing": 5943,
      "▁codes": 5944,
      "▁gab": 5945,
      "▁sections": 5946,
      "▁successfully": 5947,
      "▁task": 5948,
      "▁fresh": 5949,
      "ni": 5950,
      "umes": 5951,
      "▁syll": 5952,
      "▁knights": 5953,
      "▁walls": 5954,
      "▁corresponding": 5955,
      "▁abstract": 5956,
      "iser": 5957,
      "▁exped": 5958,
      "naissance": 5959,
      "▁abandoned": 5960,
      "▁nan": 5961,
      "▁alan": 5962,
      "▁inflation": 5963,
      "▁characteristic": 5964,
      "▁sympt": 5965,
      "▁collected": 5966,
      "▁demographics": 5967,
      "wers": 5968,
      "ilit": 5969,
      "▁vul": 5970,
      "▁heads": 5971,
      "▁converted": 5972,
      "unciation": 5973,
      "▁cs": 5974,
      "▁pent": 5975,
      "▁shad": 5976,
      "▁branches": 5977,
      "▁concerns": 5978,
      "▁selling": 5979,
      "di": 5980,
      "▁theology": 5981,
      "iling": 5982,
      "▁stress": 5983,
      "▁marc": 5984,
      "▁telephone": 5985,
      "mo": 5986,
      "▁dos": 5987,
      "▁conversion": 5988,
      "▁tab": 5989,
      "▁hob": 5990,
      "▁notation": 5991,
      "▁indigen": 5992,
      "▁mexican": 5993,
      "▁lt": 5994,
      "▁exclud": 5995,
      "▁excell": 5996,
      "▁survey": 5997,
      "▁escape": 5998,
      "▁alternate": 5999,
      "▁drawing": 6000,
      "▁substantial": 6001,
      "▁forth": 6002,
      "▁het": 6003,
      "▁learned": 6004,
      "▁phenomenon": 6005,
      "▁stored": 6006,
      "▁wheel": 6007,
      "▁guy": 6008,
      "▁leap": 6009,
      "▁resemb": 6010,
      "▁boys": 6011,
      "▁edited": 6012,
      "▁incident": 6013,
      "▁swiss": 6014,
      "▁steve": 6015,
      "▁onto": 6016,
      "udes": 6017,
      "ifications": 6018,
      "▁humor": 6019,
      "▁classified": 6020,
      "▁patients": 6021,
      "▁morph": 6022,
      "▁indigenous": 6023,
      "hu": 6024,
      "sis": 6025,
      "▁bce": 6026,
      "▁mp": 6027,
      "urance": 6028,
      "▁possibility": 6029,
      "▁lowest": 6030,
      "▁comprehens": 6031,
      "enna": 6032,
      "▁accurate": 6033,
      "kan": 6034,
      "▁mouse": 6035,
      "▁giant": 6036,
      "▁forb": 6037,
      "▁clin": 6038,
      "keley": 6039,
      "▁consult": 6040,
      "▁stim": 6041,
      "▁ker": 6042,
      "▁kat": 6043,
      "▁moz": 6044,
      "▁recover": 6045,
      "▁save": 6046,
      "▁greg": 6047,
      "▁lem": 6048,
      "▁kra": 6049,
      "▁atari": 6050,
      "▁ethics": 6051,
      "▁morm": 6052,
      "▁ng": 6053,
      "▁divisions": 6054,
      "▁olympic": 6055,
      "ji": 6056,
      "▁hack": 6057,
      "▁conj": 6058,
      "▁measured": 6059,
      "▁caribbean": 6060,
      "▁sculpt": 6061,
      "▁spot": 6062,
      "▁immigr": 6063,
      "ippi": 6064,
      "▁emperors": 6065,
      "rus": 6066,
      "▁png": 6067,
      "itions": 6068,
      "▁allies": 6069,
      "▁conducted": 6070,
      "▁dollar": 6071,
      "▁soph": 6072,
      "▁hear": 6073,
      "▁attended": 6074,
      "▁portray": 6075,
      "▁limits": 6076,
      "▁probability": 6077,
      "lets": 6078,
      "▁teacher": 6079,
      "▁spectr": 6080,
      "▁mississ": 6081,
      "apping": 6082,
      "▁axis": 6083,
      "▁morn": 6084,
      "ela": 6085,
      "▁meg": 6086,
      "▁essay": 6087,
      "bl": 6088,
      "▁lev": 6089,
      "▁disney": 6090,
      "oked": 6091,
      "▁offensive": 6092,
      "▁brun": 6093,
      "▁operated": 6094,
      "▁breed": 6095,
      "▁summ": 6096,
      "▁capture": 6097,
      "▁holiday": 6098,
      "▁cinema": 6099,
      "▁experienced": 6100,
      "ho": 6101,
      "sd": 6102,
      "▁compact": 6103,
      "▁flav": 6104,
      "▁organisms": 6105,
      "▁explain": 6106,
      "▁passing": 6107,
      "▁denom": 6108,
      "▁infantry": 6109,
      "▁struggle": 6110,
      "▁spectrum": 6111,
      "ethe": 6112,
      "▁empt": 6113,
      "▁eval": 6114,
      "▁volcan": 6115,
      "▁martial": 6116,
      "dam": 6117,
      "▁dod": 6118,
      "▁switzer": 6119,
      "▁berkeley": 6120,
      "▁complexity": 6121,
      "▁violent": 6122,
      "▁doubt": 6123,
      "▁appropriate": 6124,
      "▁minimum": 6125,
      "▁ports": 6126,
      "▁oriented": 6127,
      "▁hip": 6128,
      "▁interior": 6129,
      "▁bird": 6130,
      "▁lords": 6131,
      "▁ghost": 6132,
      "▁norwe": 6133,
      "▁facts": 6134,
      "▁arguments": 6135,
      "▁trip": 6136,
      "▁chess": 6137,
      "▁pig": 6138,
      "▁genus": 6139,
      "▁solo": 6140,
      "▁constantin": 6141,
      "▁stu": 6142,
      "▁util": 6143,
      "▁implementation": 6144,
      "▁penns": 6145,
      "zen": 6146,
      "roe": 6147,
      "▁compression": 6148,
      "▁meat": 6149,
      "▁capitalism": 6150,
      "▁experiments": 6151,
      "▁geometry": 6152,
      "▁indonesia": 6153,
      "▁worth": 6154,
      "▁explained": 6155,
      "▁campus": 6156,
      "▁mechanism": 6157,
      "fo": 6158,
      "▁accused": 6159,
      "▁evangel": 6160,
      "▁painting": 6161,
      "oa": 6162,
      "▁aber": 6163,
      "▁aids": 6164,
      "ctic": 6165,
      "▁disappe": 6166,
      "▁calling": 6167,
      "▁muhammad": 6168,
      "▁furthermore": 6169,
      "▁walter": 6170,
      "▁libr": 6171,
      "▁dependent": 6172,
      "▁tone": 6173,
      "▁sid": 6174,
      "▁ing": 6175,
      "ila": 6176,
      "▁keyboard": 6177,
      "inus": 6178,
      "oto": 6179,
      "ovak": 6180,
      "▁profit": 6181,
      "▁switzerland": 6182,
      "opher": 6183,
      "▁themes": 6184,
      "▁industries": 6185,
      "▁familiar": 6186,
      "cow": 6187,
      "▁colour": 6188,
      "hedral": 6189,
      "▁charged": 6190,
      "▁strings": 6191,
      "bish": 6192,
      "▁alien": 6193,
      "aya": 6194,
      "▁fellow": 6195,
      "▁diamond": 6196,
      "jan": 6197,
      "▁lyrics": 6198,
      "▁voy": 6199,
      "▁walk": 6200,
      "▁falls": 6201,
      "▁cul": 6202,
      "▁brian": 6203,
      "▁ny": 6204,
      "▁colors": 6205,
      "kt": 6206,
      "ulating": 6207,
      "agen": 6208,
      "pping": 6209,
      "▁perceived": 6210,
      "▁missour": 6211,
      "▁buried": 6212,
      "▁corporate": 6213,
      "▁circumstances": 6214,
      "▁pennsylvania": 6215,
      "▁flash": 6216,
      "▁encod": 6217,
      "▁proteins": 6218,
      "hus": 6219,
      "any": 6220,
      "alo": 6221,
      "ipher": 6222,
      "athan": 6223,
      "▁instructions": 6224,
      "▁cuisine": 6225,
      "point": 6226,
      "uch": 6227,
      "wick": 6228,
      "▁hans": 6229,
      "apse": 6230,
      "▁shock": 6231,
      "▁haz": 6232,
      "velt": 6233,
      "▁generated": 6234,
      "▁carrier": 6235,
      "▁organic": 6236,
      "▁visited": 6237,
      "▁baltic": 6238,
      "▁launch": 6239,
      "▁preferred": 6240,
      "bell": 6241,
      "▁bin": 6242,
      "icians": 6243,
      "osa": 6244,
      "aka": 6245,
      "pton": 6246,
      "▁manchester": 6247,
      "▁begun": 6248,
      "▁approved": 6249,
      "▁wilson": 6250,
      "▁fairly": 6251,
      "▁predomin": 6252,
      "▁tag": 6253,
      "▁coff": 6254,
      "▁quad": 6255,
      "▁assigned": 6256,
      "▁batman": 6257,
      "▁millenn": 6258,
      "▁scientist": 6259,
      "▁integrated": 6260,
      "▁dropped": 6261,
      "▁hera": 6262,
      "▁desire": 6263,
      "▁pref": 6264,
      "▁oblig": 6265,
      "▁statist": 6266,
      "▁divers": 6267,
      "▁gnu": 6268,
      "▁laureate": 6269,
      "▁municipal": 6270,
      "▁pdf": 6271,
      "ingly": 6272,
      "▁medal": 6273,
      "▁finding": 6274,
      "lan": 6275,
      "nia": 6276,
      "▁sight": 6277,
      "▁nut": 6278,
      "▁kr": 6279,
      "▁flood": 6280,
      "▁colleges": 6281,
      "▁bruce": 6282,
      "▁gather": 6283,
      "▁roose": 6284,
      "▁amongst": 6285,
      "▁malays": 6286,
      "▁coastal": 6287,
      "▁diseases": 6288,
      "▁hierarch": 6289,
      "▁mississippi": 6290,
      "rot": 6291,
      "▁cloth": 6292,
      "▁seek": 6293,
      "▁experimental": 6294,
      "▁argentina": 6295,
      "▁douglas": 6296,
      "▁pus": 6297,
      "▁dre": 6298,
      "▁lud": 6299,
      "▁moves": 6300,
      "▁intent": 6301,
      "▁gregor": 6302,
      "▁insert": 6303,
      "▁pleas": 6304,
      "▁skills": 6305,
      "▁ohio": 6306,
      "archers": 6307,
      "▁alexandria": 6308,
      "stan": 6309,
      "▁roles": 6310,
      "▁maria": 6311,
      "▁forming": 6312,
      "▁greeks": 6313,
      "▁announ": 6314,
      "▁iceland": 6315,
      "▁pilot": 6316,
      "▁chairman": 6317,
      "▁transmission": 6318,
      "▁heritage": 6319,
      "▁crop": 6320,
      "olar": 6321,
      "▁statements": 6322,
      "▁watch": 6323,
      "▁illegal": 6324,
      "▁canal": 6325,
      "▁syria": 6326,
      "▁retired": 6327,
      "▁norwegian": 6328,
      "▁voting": 6329,
      "intosh": 6330,
      "▁franch": 6331,
      "▁increases": 6332,
      "▁moscow": 6333,
      "▁velocity": 6334,
      "▁beings": 6335,
      "▁rid": 6336,
      "▁disorder": 6337,
      "▁soil": 6338,
      "▁bonds": 6339,
      "▁influences": 6340,
      "▁execution": 6341,
      "▁hamilton": 6342,
      "▁thinking": 6343,
      "▁roosevelt": 6344,
      "oir": 6345,
      "▁votes": 6346,
      "▁sche": 6347,
      "▁founding": 6348,
      "▁grey": 6349,
      "▁philipp": 6350,
      "▁characterized": 6351,
      "▁missile": 6352,
      "going": 6353,
      "▁mongol": 6354,
      "▁gary": 6355,
      "▁tracks": 6356,
      "▁buff": 6357,
      "▁virtually": 6358,
      "▁missouri": 6359,
      "arians": 6360,
      "▁ecl": 6361,
      "▁gran": 6362,
      "▁farm": 6363,
      "▁profile": 6364,
      "▁sleep": 6365,
      "sa": 6366,
      "▁sig": 6367,
      "▁poems": 6368,
      "▁libert": 6369,
      "▁charges": 6370,
      "▁steps": 6371,
      "▁explanation": 6372,
      "aly": 6373,
      "acc": 6374,
      "athe": 6375,
      "▁partial": 6376,
      "▁agents": 6377,
      "▁monster": 6378,
      "▁expos": 6379,
      "▁airlines": 6380,
      "▁ruler": 6381,
      "▁consumer": 6382,
      "▁assistance": 6383,
      "▁touch": 6384,
      "gments": 6385,
      "▁lamb": 6386,
      "▁passage": 6387,
      "▁delta": 6388,
      "▁hole": 6389,
      "▁testing": 6390,
      "▁researchers": 6391,
      "▁diagn": 6392,
      "▁beautiful": 6393,
      "▁bacteria": 6394,
      "▁presid": 6395,
      "▁documentary": 6396,
      "▁theoretical": 6397,
      "▁columbus": 6398,
      "▁tropical": 6399,
      "▁beng": 6400,
      "▁anch": 6401,
      "▁stret": 6402,
      "eters": 6403,
      "▁phoen": 6404,
      "▁milk": 6405,
      "▁constantine": 6406,
      "▁closer": 6407,
      "▁pierre": 6408,
      "▁waves": 6409,
      "▁gy": 6410,
      "▁stro": 6411,
      "▁orange": 6412,
      "▁depth": 6413,
      "▁legacy": 6414,
      "▁northwest": 6415,
      "▁definitions": 6416,
      "▁piano": 6417,
      "herent": 6418,
      "▁ok": 6419,
      "▁rud": 6420,
      "ogy": 6421,
      "aret": 6422,
      "▁fled": 6423,
      "▁clubs": 6424,
      "▁tens": 6425,
      "▁spelling": 6426,
      "▁preserved": 6427,
      "▁buck": 6428,
      "▁depends": 6429,
      "▁archbish": 6430,
      "▁boundaries": 6431,
      "▁ensure": 6432,
      "▁elsewhere": 6433,
      "▁annex": 6434,
      "pson": 6435,
      "omes": 6436,
      "▁prove": 6437,
      "▁resource": 6438,
      "▁requirements": 6439,
      "▁distinguish": 6440,
      "▁anglican": 6441,
      "een": 6442,
      "▁borders": 6443,
      "▁rising": 6444,
      "▁engineer": 6445,
      "▁facilities": 6446,
      "▁algorithms": 6447,
      "▁hits": 6448,
      "▁gem": 6449,
      "▁kim": 6450,
      "▁perspective": 6451,
      "▁downtown": 6452,
      "▁motiv": 6453,
      "roit": 6454,
      "▁jar": 6455,
      "▁attached": 6456,
      "▁glac": 6457,
      "▁sugar": 6458,
      "▁rhyth": 6459,
      "▁benefit": 6460,
      "▁floor": 6461,
      "▁fm": 6462,
      "iration": 6463,
      "romagn": 6464,
      "▁yes": 6465,
      "▁partner": 6466,
      "ublin": 6467,
      "▁aero": 6468,
      "rem": 6469,
      "▁bears": 6470,
      "▁shift": 6471,
      "▁produces": 6472,
      "▁electrons": 6473,
      "▁prepared": 6474,
      "▁node": 6475,
      "▁dale": 6476,
      "▁tot": 6477,
      "▁yug": 6478,
      "ortion": 6479,
      "▁reserve": 6480,
      "▁variant": 6481,
      "▁depos": 6482,
      "▁signals": 6483,
      "▁driven": 6484,
      "▁symptoms": 6485,
      "osph": 6486,
      "▁chlor": 6487,
      "▁metropolitan": 6488,
      "▁jam": 6489,
      "▁contrad": 6490,
      "▁attacked": 6491,
      "▁marshall": 6492,
      "▁usual": 6493,
      "▁shut": 6494,
      "▁metall": 6495,
      "▁continent": 6496,
      "▁imports": 6497,
      "▁technologies": 6498,
      "▁journey": 6499,
      "contin": 6500,
      "▁entertainment": 6501,
      "▁ace": 6502,
      "▁rice": 6503,
      "▁mainland": 6504,
      "▁ritual": 6505,
      "▁cash": 6506,
      "▁lisp": 6507,
      "uras": 6508,
      "▁retrie": 6509,
      "▁winner": 6510,
      "▁additionally": 6511,
      "▁hills": 6512,
      "▁bowl": 6513,
      "chy": 6514,
      "ords": 6515,
      "▁singular": 6516,
      "▁emerged": 6517,
      "▁morning": 6518,
      "▁um": 6519,
      "▁tast": 6520,
      "ali": 6521,
      "abilities": 6522,
      "▁arithm": 6523,
      "illes": 6524,
      "▁roy": 6525,
      "▁overview": 6526,
      "▁restaur": 6527,
      "▁galile": 6528,
      "▁waters": 6529,
      "▁laboratory": 6530,
      "▁admiral": 6531,
      "rance": 6532,
      "play": 6533,
      "▁populations": 6534,
      "▁surf": 6535,
      "ambig": 6536,
      "awa": 6537,
      "▁fluid": 6538,
      "▁cpu": 6539,
      "iac": 6540,
      "▁gand": 6541,
      "▁rene": 6542,
      "▁compound": 6543,
      "▁contest": 6544,
      "▁detroit": 6545,
      "▁tests": 6546,
      "▁tales": 6547,
      "▁manifest": 6548,
      "▁germans": 6549,
      "bre": 6550,
      "▁dio": 6551,
      "ami": 6552,
      "▁esp": 6553,
      "▁micros": 6554,
      "▁grown": 6555,
      "▁gravity": 6556,
      "mat": 6557,
      "mouth": 6558,
      "▁cert": 6559,
      "▁hiv": 6560,
      "▁opponent": 6561,
      "▁evolutionary": 6562,
      "hum": 6563,
      "▁cad": 6564,
      "▁simult": 6565,
      "▁followers": 6566,
      "▁esper": 6567,
      "▁calculus": 6568,
      "▁printed": 6569,
      "▁emphasis": 6570,
      "writer": 6571,
      "▁cass": 6572,
      "ployment": 6573,
      "▁planning": 6574,
      "▁shaped": 6575,
      "▁frederick": 6576,
      "▁laid": 6577,
      "▁descent": 6578,
      "▁starring": 6579,
      "▁boundary": 6580,
      "▁lithuania": 6581,
      "▁scheme": 6582,
      "▁basketball": 6583,
      "▁constantinople": 6584,
      "▁ky": 6585,
      "ylan": 6586,
      "▁soldier": 6587,
      "▁grounds": 6588,
      "▁habit": 6589,
      "▁bug": 6590,
      "▁wine": 6591,
      "▁mile": 6592,
      "ieth": 6593,
      "▁treas": 6594,
      "▁ross": 6595,
      "▁palestinian": 6596,
      "▁jurisdiction": 6597,
      "▁napoleon": 6598,
      "▁pas": 6599,
      "▁dating": 6600,
      "▁thor": 6601,
      "▁khan": 6602,
      "hips": 6603,
      "▁maxim": 6604,
      "▁bishops": 6605,
      "▁chromos": 6606,
      "▁aristot": 6607,
      "omer": 6608,
      "isted": 6609,
      "ruption": 6610,
      "▁brows": 6611,
      "▁identify": 6612,
      "▁certainly": 6613,
      "▁keeping": 6614,
      "▁gif": 6615,
      "▁polar": 6616,
      "▁decisions": 6617,
      "▁judges": 6618,
      "▁survived": 6619,
      "shire": 6620,
      "▁hypothesis": 6621,
      "▁headquarters": 6622,
      "fort": 6623,
      "▁hond": 6624,
      "▁amend": 6625,
      "▁driver": 6626,
      "▁channels": 6627,
      "▁dublin": 6628,
      "▁hou": 6629,
      "▁revel": 6630,
      "idae": 6631,
      "▁longest": 6632,
      "▁corps": 6633,
      "▁angle": 6634,
      "▁integral": 6635,
      "▁kinds": 6636,
      "▁conquest": 6637,
      "▁inse": 6638,
      "oters": 6639,
      "▁notice": 6640,
      "▁macintosh": 6641,
      "▁enterpr": 6642,
      "▁residence": 6643,
      "▁charter": 6644,
      "▁acids": 6645,
      "▁minute": 6646,
      "▁referring": 6647,
      "▁armen": 6648,
      "▁debt": 6649,
      "▁kilometers": 6650,
      "oh": 6651,
      "▁pyth": 6652,
      "▁exile": 6653,
      "▁pover": 6654,
      "▁organisation": 6655,
      "▁crimes": 6656,
      "▁nig": 6657,
      "▁goals": 6658,
      "▁solutions": 6659,
      "▁representing": 6660,
      "▁ukra": 6661,
      "▁responsibility": 6662,
      "▁predict": 6663,
      "▁vocal": 6664,
      "▁horizon": 6665,
      "▁yugosl": 6666,
      "cope": 6667,
      "life": 6668,
      "oys": 6669,
      "▁theod": 6670,
      "▁athens": 6671,
      "▁yah": 6672,
      "▁partially": 6673,
      "▁joy": 6674,
      "▁owner": 6675,
      "▁directors": 6676,
      "▁dragon": 6677,
      "▁angels": 6678,
      "▁pronunciation": 6679,
      "▁districts": 6680,
      "▁rabb": 6681,
      "▁filled": 6682,
      "▁pel": 6683,
      "▁unix": 6684,
      "▁variants": 6685,
      "▁triang": 6686,
      "▁monarchy": 6687,
      "▁baptism": 6688,
      "▁diplomatic": 6689,
      "▁poverty": 6690,
      "cs": 6691,
      "iative": 6692,
      "▁theolog": 6693,
      "▁align": 6694,
      "▁perp": 6695,
      "▁matrix": 6696,
      "▁locations": 6697,
      "▁copies": 6698,
      "gel": 6699,
      "kin": 6700,
      "▁cited": 6701,
      "▁beach": 6702,
      "▁covers": 6703,
      "▁boat": 6704,
      "▁meanings": 6705,
      "hire": 6706,
      "▁lam": 6707,
      "▁roger": 6708,
      "▁variation": 6709,
      "▁eric": 6710,
      "▁didn": 6711,
      "▁headed": 6712,
      "▁procedure": 6713,
      "▁inducted": 6714,
      "▁burg": 6715,
      "▁dylan": 6716,
      "▁prol": 6717,
      "▁knew": 6718,
      "▁warri": 6719,
      "▁originated": 6720,
      "▁legit": 6721,
      "▁operate": 6722,
      "ructure": 6723,
      "▁naturally": 6724,
      "▁representative": 6725,
      "▁roads": 6726,
      "▁celebrated": 6727,
      "kee": 6728,
      "▁victoria": 6729,
      "▁relativity": 6730,
      "cal": 6731,
      "▁tiss": 6732,
      "emble": 6733,
      "aneously": 6734,
      "▁seemed": 6735,
      "▁percentage": 6736,
      "▁sharp": 6737,
      "fe": 6738,
      "inder": 6739,
      "▁dur": 6740,
      "▁gone": 6741,
      "▁warm": 6742,
      "▁protected": 6743,
      "▁easier": 6744,
      "▁animated": 6745,
      "▁sunday": 6746,
      "▁suspect": 6747,
      "▁automatic": 6748,
      "▁ultimate": 6749,
      "▁condem": 6750,
      "rint": 6751,
      "▁rib": 6752,
      "▁confused": 6753,
      "▁volt": 6754,
      "know": 6755,
      "▁carrying": 6756,
      "▁rebellion": 6757,
      "bes": 6758,
      "▁sq": 6759,
      "rep": 6760,
      "▁fen": 6761,
      "▁exceed": 6762,
      "▁matthe": 6763,
      "▁listing": 6764,
      "▁thirty": 6765,
      "▁liberty": 6766,
      "▁getting": 6767,
      "▁senator": 6768,
      "▁composers": 6769,
      "▁gibral": 6770,
      "born": 6771,
      "▁tong": 6772,
      "▁commentary": 6773,
      "▁briefly": 6774,
      "▁descendants": 6775,
      "▁comprehensive": 6776,
      "▁aven": 6777,
      "▁bub": 6778,
      "▁varies": 6779,
      "iracy": 6780,
      "▁holidays": 6781,
      "▁recipient": 6782,
      "▁extinct": 6783,
      "▁prosec": 6784,
      "▁abuse": 6785,
      "▁wear": 6786,
      "▁photos": 6787,
      "▁premier": 6788,
      "▁caval": 6789,
      "▁presidency": 6790,
      "▁tay": 6791,
      "▁ontar": 6792,
      "▁kel": 6793,
      "▁remove": 6794,
      "▁armies": 6795,
      "ikh": 6796,
      "▁sult": 6797,
      "▁honey": 6798,
      "▁rear": 6799,
      "idel": 6800,
      "▁whit": 6801,
      "▁colomb": 6802,
      "ika": 6803,
      "▁landing": 6804,
      "▁structural": 6805,
      "ographer": 6806,
      "net": 6807,
      "▁bog": 6808,
      "▁dal": 6809,
      "▁tol": 6810,
      "▁sched": 6811,
      "▁interaction": 6812,
      "▁expert": 6813,
      "▁papers": 6814,
      "▁gibraltar": 6815,
      "▁jet": 6816,
      "irect": 6817,
      "▁defensive": 6818,
      "issions": 6819,
      "▁obtain": 6820,
      "▁assassination": 6821,
      "▁dismiss": 6822,
      "▁ontario": 6823,
      "wald": 6824,
      "oric": 6825,
      "▁heli": 6826,
      "▁offers": 6827,
      "▁citizen": 6828,
      "▁opportunity": 6829,
      "wart": 6830,
      "▁tut": 6831,
      "▁sic": 6832,
      "▁send": 6833,
      "▁tox": 6834,
      "▁alg": 6835,
      "aked": 6836,
      "▁slave": 6837,
      "▁performing": 6838,
      "▁absence": 6839,
      "▁photograph": 6840,
      "▁enforce": 6841,
      "▁memb": 6842,
      "▁earthqu": 6843,
      "▁copper": 6844,
      "▁senior": 6845,
      "▁licens": 6846,
      "▁friedrich": 6847,
      "▁nasa": 6848,
      "▁bun": 6849,
      "▁pad": 6850,
      "▁lis": 6851,
      "▁liv": 6852,
      "ourse": 6853,
      "▁conven": 6854,
      "▁carter": 6855,
      "▁processor": 6856,
      "▁finalist": 6857,
      "▁sentence": 6858,
      "▁collapse": 6859,
      "▁confirmed": 6860,
      "▁interpreted": 6861,
      "▁abbrev": 6862,
      "▁au": 6863,
      "iner": 6864,
      "▁wels": 6865,
      "▁chip": 6866,
      "▁assault": 6867,
      "▁surren": 6868,
      "▁encouraged": 6869,
      "▁bulgaria": 6870,
      "▁crystal": 6871,
      "▁horses": 6872,
      "pes": 6873,
      "rog": 6874,
      "▁highway": 6875,
      "▁deput": 6876,
      "ucky": 6877,
      "▁enemies": 6878,
      "▁vowels": 6879,
      "▁victims": 6880,
      "enstein": 6881,
      "▁pir": 6882,
      "▁renaissance": 6883,
      "cho": 6884,
      "▁serves": 6885,
      "▁afterwards": 6886,
      "▁acknow": 6887,
      "▁cathedral": 6888,
      "▁tape": 6889,
      "▁contributions": 6890,
      "▁ranked": 6891,
      "▁macedonia": 6892,
      "▁southeast": 6893,
      "bar": 6894,
      "din": 6895,
      "erves": 6896,
      "icas": 6897,
      "▁congreg": 6898,
      "▁unic": 6899,
      "▁arn": 6900,
      "▁config": 6901,
      "▁personality": 6902,
      "▁benj": 6903,
      "▁difficulty": 6904,
      "▁indicates": 6905,
      "▁emergency": 6906,
      "▁taiwan": 6907,
      "▁faced": 6908,
      "▁bav": 6909,
      "oma": 6910,
      "▁vit": 6911,
      "aga": 6912,
      "▁nato": 6913,
      "▁constitu": 6914,
      "▁credited": 6915,
      "▁bart": 6916,
      "▁thick": 6917,
      "▁agave": 6918,
      "▁relief": 6919,
      "▁equator": 6920,
      "▁sacred": 6921,
      "▁stages": 6922,
      "▁suit": 6923,
      "▁client": 6924,
      "▁basque": 6925,
      "▁guar": 6926,
      "▁household": 6927,
      "▁promote": 6928,
      "hl": 6929,
      "ye": 6930,
      "▁mira": 6931,
      "▁vik": 6932,
      "▁administer": 6933,
      "rator": 6934,
      "unte": 6935,
      "▁consec": 6936,
      "opes": 6937,
      "abil": 6938,
      "▁goog": 6939,
      "▁xx": 6940,
      "cessor": 6941,
      "▁secular": 6942,
      "ynam": 6943,
      "▁mormon": 6944,
      "▁sod": 6945,
      "owa": 6946,
      "▁unity": 6947,
      "phal": 6948,
      "▁keys": 6949,
      "▁myst": 6950,
      "▁bibliography": 6951,
      "dor": 6952,
      "eur": 6953,
      "▁sor": 6954,
      "anth": 6955,
      "omial": 6956,
      "▁cleve": 6957,
      "▁lenin": 6958,
      "▁tony": 6959,
      "▁aar": 6960,
      "▁cave": 6961,
      "▁wound": 6962,
      "▁inch": 6963,
      "▁southwest": 6964,
      "▁affil": 6965,
      "load": 6966,
      "▁survive": 6967,
      "▁phenomena": 6968,
      "▁claud": 6969,
      "▁schedul": 6970,
      "▁bach": 6971,
      "riers": 6972,
      "▁presidents": 6973,
      "▁buy": 6974,
      "▁vienna": 6975,
      "▁losing": 6976,
      "▁credit": 6977,
      "▁forests": 6978,
      "bec": 6979,
      "iot": 6980,
      "▁sher": 6981,
      "▁dir": 6982,
      "▁reactions": 6983,
      "▁clim": 6984,
      "▁cypr": 6985,
      "▁territorial": 6986,
      "world": 6987,
      "▁focused": 6988,
      "▁continuing": 6989,
      "▁possession": 6990,
      "▁unsu": 6991,
      "▁bernard": 6992,
      "▁sust": 6993,
      "▁reaching": 6994,
      "unction": 6995,
      "▁nov": 6996,
      "▁camps": 6997,
      "▁substances": 6998,
      "▁bh": 6999,
      "▁ety": 7000,
      "▁revers": 7001,
      "▁kern": 7002,
      "▁chose": 7003,
      "▁intervent": 7004,
      "▁funds": 7005,
      "▁passenger": 7006,
      "▁diverse": 7007,
      "▁titled": 7008,
      "▁discussed": 7009,
      "rig": 7010,
      "▁ni": 7011,
      "ifer": 7012,
      "▁eleph": 7013,
      "▁volunte": 7014,
      "▁antiqu": 7015,
      "▁fug": 7016,
      "▁hann": 7017,
      "▁hes": 7018,
      "ivals": 7019,
      "▁earn": 7020,
      "▁communism": 7021,
      "▁epic": 7022,
      "▁symp": 7023,
      "▁automob": 7024,
      "▁linguistic": 7025,
      "▁transferred": 7026,
      "▁benjamin": 7027,
      "ystem": 7028,
      "▁seasons": 7029,
      "sters": 7030,
      "▁hein": 7031,
      "▁jos": 7032,
      "▁clark": 7033,
      "▁artistic": 7034,
      "▁lesser": 7035,
      "▁hotel": 7036,
      "▁challenge": 7037,
      "▁behaviour": 7038,
      "ratic": 7039,
      "rect": 7040,
      "ido": 7041,
      "▁proven": 7042,
      "iph": 7043,
      "▁disput": 7044,
      "▁electoral": 7045,
      "▁breaking": 7046,
      "▁engineers": 7047,
      "▁profession": 7048,
      "▁happened": 7049,
      "▁deliber": 7050,
      "gue": 7051,
      "ora": 7052,
      "cha": 7053,
      "ifies": 7054,
      "ptic": 7055,
      "▁electromagn": 7056,
      "▁curt": 7057,
      "▁kuwa": 7058,
      "▁gregorian": 7059,
      "▁welsh": 7060,
      "▁marit": 7061,
      "▁blow": 7062,
      "elson": 7063,
      "▁prophet": 7064,
      "▁reduction": 7065,
      "▁sudden": 7066,
      "▁carolina": 7067,
      "▁etym": 7068,
      "▁manip": 7069,
      "▁aggress": 7070,
      "▁bases": 7071,
      "▁metric": 7072,
      "▁romantic": 7073,
      "ropy": 7074,
      "▁regardless": 7075,
      "▁baptist": 7076,
      "aug": 7077,
      "▁gord": 7078,
      "ented": 7079,
      "▁christopher": 7080,
      "▁humanity": 7081,
      "▁everyone": 7082,
      "worth": 7083,
      "▁twentieth": 7084,
      "▁santa": 7085,
      "▁candidates": 7086,
      "▁cot": 7087,
      "▁wish": 7088,
      "athy": 7089,
      "▁archive": 7090,
      "▁horror": 7091,
      "▁consistent": 7092,
      "▁progressive": 7093,
      "stant": 7094,
      "tering": 7095,
      "▁ownership": 7096,
      "▁commodore": 7097,
      "▁cleveland": 7098,
      "▁tap": 7099,
      "▁array": 7100,
      "▁marks": 7101,
      "▁constell": 7102,
      "▁steam": 7103,
      "▁gallery": 7104,
      "▁statistical": 7105,
      "▁hipp": 7106,
      "▁rug": 7107,
      "▁shif": 7108,
      "▁shah": 7109,
      "▁sox": 7110,
      "▁trained": 7111,
      "▁operator": 7112,
      "▁slaves": 7113,
      "ovo": 7114,
      "▁hunting": 7115,
      "▁integer": 7116,
      "▁advertising": 7117,
      "▁cf": 7118,
      "▁toler": 7119,
      "▁hex": 7120,
      "▁persec": 7121,
      "▁massac": 7122,
      "▁illness": 7123,
      "▁translations": 7124,
      "▁diagram": 7125,
      "▁uncertain": 7126,
      "▁bureau": 7127,
      "▁esperanto": 7128,
      "▁jama": 7129,
      "▁infrast": 7130,
      "▁imprison": 7131,
      "▁avo": 7132,
      "▁campbell": 7133,
      "▁disputed": 7134,
      "▁rebu": 7135,
      "▁implemented": 7136,
      "▁anthony": 7137,
      "▁restricted": 7138,
      "▁empty": 7139,
      "alism": 7140,
      "▁chad": 7141,
      "agues": 7142,
      "▁borrow": 7143,
      "▁restrictions": 7144,
      "▁adjust": 7145,
      "▁tang": 7146,
      "▁moses": 7147,
      "▁nich": 7148,
      "▁eli": 7149,
      "▁isot": 7150,
      "▁outer": 7151,
      "▁psychological": 7152,
      "▁criticized": 7153,
      "bb": 7154,
      "▁resol": 7155,
      "▁presum": 7156,
      "▁apoc": 7157,
      "▁loose": 7158,
      "▁provision": 7159,
      "▁stead": 7160,
      "▁specialized": 7161,
      "▁virus": 7162,
      "▁icon": 7163,
      "▁squad": 7164,
      "▁variables": 7165,
      "▁lose": 7166,
      "▁gau": 7167,
      "acent": 7168,
      "▁resident": 7169,
      "▁divor": 7170,
      "▁describing": 7171,
      "▁princess": 7172,
      "▁adapted": 7173,
      "▁libraries": 7174,
      "▁archbishop": 7175,
      "▁arrow": 7176,
      "▁offices": 7177,
      "▁patient": 7178,
      "▁females": 7179,
      "▁couple": 7180,
      "po": 7181,
      "▁gly": 7182,
      "▁reverse": 7183,
      "unct": 7184,
      "▁enab": 7185,
      "aki": 7186,
      "ductor": 7187,
      "▁poison": 7188,
      "▁submar": 7189,
      "▁belarus": 7190,
      "▁seconds": 7191,
      "▁ruling": 7192,
      "▁verse": 7193,
      "▁thro": 7194,
      "▁unem": 7195,
      "▁rocks": 7196,
      "▁noble": 7197,
      "obi": 7198,
      "▁isaac": 7199,
      "▁slavery": 7200,
      "▁trigger": 7201,
      "▁shr": 7202,
      "aza": 7203,
      "▁civilian": 7204,
      "▁streets": 7205,
      "▁biggest": 7206,
      "▁duty": 7207,
      "▁colorado": 7208,
      "▁conquered": 7209,
      "▁escap": 7210,
      "onymous": 7211,
      "ders": 7212,
      "wig": 7213,
      "ilst": 7214,
      "▁contrary": 7215,
      "▁cole": 7216,
      "▁depicted": 7217,
      "▁duck": 7218,
      "▁syndrome": 7219,
      "▁fib": 7220,
      "organ": 7221,
      "leum": 7222,
      "▁situations": 7223,
      "▁twin": 7224,
      "▁engaged": 7225,
      "▁sket": 7226,
      "▁ethical": 7227,
      "wes": 7228,
      "▁chal": 7229,
      "▁leo": 7230,
      "▁amate": 7231,
      "▁races": 7232,
      "▁retained": 7233,
      "▁laser": 7234,
      "wall": 7235,
      "zer": 7236,
      "▁beta": 7237,
      "▁fighter": 7238,
      "▁approxim": 7239,
      "▁distinctive": 7240,
      "▁varying": 7241,
      "▁isolated": 7242,
      "▁arithmetic": 7243,
      "pool": 7244,
      "▁cous": 7245,
      "▁lion": 7246,
      "▁disambig": 7247,
      "▁resc": 7248,
      "▁herbert": 7249,
      "▁herself": 7250,
      "▁confusion": 7251,
      "▁drag": 7252,
      "▁turning": 7253,
      "▁compatible": 7254,
      "▁morocco": 7255,
      "▁surrender": 7256,
      "▁theor": 7257,
      "▁pip": 7258,
      "▁neck": 7259,
      "▁disag": 7260,
      "▁minnes": 7261,
      "▁declined": 7262,
      "▁planets": 7263,
      "▁electronics": 7264,
      "▁speaker": 7265,
      "▁lifet": 7266,
      "▁manufacturers": 7267,
      "uable": 7268,
      "▁dress": 7269,
      "▁grass": 7270,
      "▁secure": 7271,
      "▁starts": 7272,
      "▁turns": 7273,
      "▁liberation": 7274,
      "▁baby": 7275,
      "▁corner": 7276,
      "▁investigation": 7277,
      "▁chancell": 7278,
      "▁bronze": 7279,
      "▁cavalry": 7280,
      "rical": 7281,
      "▁sans": 7282,
      "▁enl": 7283,
      "▁spacecraft": 7284,
      "▁messages": 7285,
      "▁demonstrated": 7286,
      "▁buddhism": 7287,
      "adelph": 7288,
      "bolic": 7289,
      "▁flex": 7290,
      "▁wins": 7291,
      "▁phosph": 7292,
      "▁reducing": 7293,
      "▁observations": 7294,
      "▁airports": 7295,
      "▁comparative": 7296,
      "▁sweet": 7297,
      "▁petroleum": 7298,
      "▁cum": 7299,
      "▁drew": 7300,
      "▁subt": 7301,
      "▁loop": 7302,
      "▁extract": 7303,
      "▁delay": 7304,
      "▁interested": 7305,
      "▁cricket": 7306,
      "▁sovereignty": 7307,
      "▁hetero": 7308,
      "▁houston": 7309,
      "▁cyprus": 7310,
      "olas": 7311,
      "▁jok": 7312,
      "▁commons": 7313,
      "▁carn": 7314,
      "▁invention": 7315,
      "▁veter": 7316,
      "▁animation": 7317,
      "▁expedition": 7318,
      "▁sample": 7319,
      "▁migration": 7320,
      "standing": 7321,
      "▁mining": 7322,
      "▁lawrence": 7323,
      "▁insurance": 7324,
      "▁steven": 7325,
      "▁symmet": 7326,
      "▁educated": 7327,
      "▁creator": 7328,
      "▁camera": 7329,
      "▁montreal": 7330,
      "▁exclusively": 7331,
      "▁alk": 7332,
      "▁peas": 7333,
      "▁tribe": 7334,
      "▁molecule": 7335,
      "▁replacement": 7336,
      "▁strategic": 7337,
      "▁scenes": 7338,
      "dish": 7339,
      "▁tight": 7340,
      "▁hart": 7341,
      "veness": 7342,
      "▁coin": 7343,
      "▁phi": 7344,
      "▁assign": 7345,
      "▁remov": 7346,
      "▁claiming": 7347,
      "ipping": 7348,
      "▁fred": 7349,
      "▁gol": 7350,
      "▁congo": 7351,
      "▁contra": 7352,
      "▁disaster": 7353,
      "▁guer": 7354,
      "▁antar": 7355,
      "▁eccles": 7356,
      "▁integration": 7357,
      "while": 7358,
      "▁galaxy": 7359,
      "▁py": 7360,
      "▁infer": 7361,
      "▁shore": 7362,
      "ruck": 7363,
      "phy": 7364,
      "▁feud": 7365,
      "▁guil": 7366,
      "▁brid": 7367,
      "▁democrats": 7368,
      "ocaust": 7369,
      "▁banned": 7370,
      "▁arrangement": 7371,
      "ington": 7372,
      "▁ster": 7373,
      "▁intention": 7374,
      "ressive": 7375,
      "▁estate": 7376,
      "▁specified": 7377,
      "▁designated": 7378,
      "▁publicly": 7379,
      "▁holocaust": 7380,
      "▁receiving": 7381,
      "▁cardinal": 7382,
      "▁regularly": 7383,
      "▁celeb": 7384,
      "▁dramatic": 7385,
      "▁matthew": 7386,
      "asm": 7387,
      "uter": 7388,
      "▁corp": 7389,
      "▁homer": 7390,
      "▁falling": 7391,
      "▁exclusive": 7392,
      "▁gothic": 7393,
      "▁penalty": 7394,
      "▁rhythm": 7395,
      "nament": 7396,
      "tra": 7397,
      "▁tort": 7398,
      "▁gates": 7399,
      "osing": 7400,
      "▁geographic": 7401,
      "▁stream": 7402,
      "▁benz": 7403,
      "▁commerce": 7404,
      "▁accompanied": 7405,
      "▁conspiracy": 7406,
      "▁infrastructure": 7407,
      "▁pull": 7408,
      "▁mood": 7409,
      "place": 7410,
      "▁raw": 7411,
      "▁balt": 7412,
      "▁cathol": 7413,
      "▁surviving": 7414,
      "▁elder": 7415,
      "▁coffee": 7416,
      "▁wy": 7417,
      "▁sixth": 7418,
      "▁plastic": 7419,
      "avian": 7420,
      "▁boeing": 7421,
      "▁playoff": 7422,
      "▁differential": 7423,
      "▁separation": 7424,
      "▁quebec": 7425,
      "▁collabor": 7426,
      "▁atlanta": 7427,
      "▁connections": 7428,
      "▁sale": 7429,
      "icity": 7430,
      "▁alumin": 7431,
      "▁jane": 7432,
      "▁varieties": 7433,
      "▁handed": 7434,
      "▁statue": 7435,
      "▁missions": 7436,
      "▁ibn": 7437,
      "▁dimension": 7438,
      "▁disambiguation": 7439,
      "cock": 7440,
      "fel": 7441,
      "▁enorm": 7442,
      "▁hash": 7443,
      "▁earned": 7444,
      "▁supports": 7445,
      "▁experiences": 7446,
      "▁slowly": 7447,
      "▁newspapers": 7448,
      "▁pollution": 7449,
      "▁cooperation": 7450,
      "▁strictly": 7451,
      "hn": 7452,
      "iang": 7453,
      "▁nep": 7454,
      "▁indians": 7455,
      "▁powered": 7456,
      "▁millions": 7457,
      "▁passes": 7458,
      "▁benefits": 7459,
      "▁coordin": 7460,
      "cht": 7461,
      "kel": 7462,
      "power": 7463,
      "▁tale": 7464,
      "erals": 7465,
      "▁duc": 7466,
      "▁ask": 7467,
      "▁deck": 7468,
      "▁manual": 7469,
      "▁capit": 7470,
      "▁diver": 7471,
      "▁doesn": 7472,
      "▁winds": 7473,
      "▁purchase": 7474,
      "▁arrested": 7475,
      "▁unsuccess": 7476,
      "▁minnesota": 7477,
      "cill": 7478,
      "▁ay": 7479,
      "▁gamm": 7480,
      "▁alaska": 7481,
      "udi": 7482,
      "▁essays": 7483,
      "▁supers": 7484,
      "▁siege": 7485,
      "▁overseas": 7486,
      "▁excellent": 7487,
      "▁dioxide": 7488,
      "wing": 7489,
      "▁whate": 7490,
      "▁uncom": 7491,
      "▁allen": 7492,
      "▁monetary": 7493,
      "group": 7494,
      "▁wonder": 7495,
      "▁estimates": 7496,
      "▁prisoners": 7497,
      "▁synthesis": 7498,
      "▁bulgarian": 7499,
      "▁permitted": 7500,
      "oust": 7501,
      "▁moreover": 7502,
      "▁grace": 7503,
      "▁personnel": 7504,
      "▁latvia": 7505,
      "▁cheap": 7506,
      "▁prompt": 7507,
      "▁oxid": 7508,
      "▁mixture": 7509,
      "▁torah": 7510,
      "▁unfortun": 7511,
      "▁explorer": 7512,
      "▁whatever": 7513,
      "▁miller": 7514,
      "▁tells": 7515,
      "▁franchise": 7516,
      "sm": 7517,
      "str": 7518,
      "▁chick": 7519,
      "▁racial": 7520,
      "▁mineral": 7521,
      "▁considerably": 7522,
      "▁confederate": 7523,
      "▁delivered": 7524,
      "▁monopoly": 7525,
      "ses": 7526,
      "enburg": 7527,
      "▁dot": 7528,
      "▁elabor": 7529,
      "▁quantity": 7530,
      "▁optical": 7531,
      "▁inventor": 7532,
      "▁wiki": 7533,
      "▁involvement": 7534,
      "▁teachings": 7535,
      "▁tet": 7536,
      "▁option": 7537,
      "room": 7538,
      "▁heir": 7539,
      "▁adject": 7540,
      "▁accus": 7541,
      "▁photo": 7542,
      "▁measurement": 7543,
      "▁framework": 7544,
      "▁kazakh": 7545,
      "▁lifetime": 7546,
      "die": 7547,
      "atra": 7548,
      "▁migr": 7549,
      "lyn": 7550,
      "owed": 7551,
      "▁conclusion": 7552,
      "ello": 7553,
      "▁crash": 7554,
      "▁broadcasting": 7555,
      "▁arranged": 7556,
      "▁taylor": 7557,
      "sk": 7558,
      "▁theater": 7559,
      "▁whilst": 7560,
      "▁chi": 7561,
      "ardo": 7562,
      "▁abc": 7563,
      "▁cultiv": 7564,
      "ennon": 7565,
      "▁discipline": 7566,
      "▁catholics": 7567,
      "part": 7568,
      "▁ere": 7569,
      "▁nam": 7570,
      "▁anime": 7571,
      "eman": 7572,
      "▁sure": 7573,
      "▁serial": 7574,
      "▁blade": 7575,
      "▁retire": 7576,
      "▁insul": 7577,
      "▁winners": 7578,
      "▁neighbour": 7579,
      "▁consequently": 7580,
      "fish": 7581,
      "▁pagan": 7582,
      "▁stability": 7583,
      "see": 7584,
      "▁assess": 7585,
      "▁developments": 7586,
      "▁duties": 7587,
      "helm": 7588,
      "▁journalist": 7589,
      "ea": 7590,
      "▁pist": 7591,
      "itative": 7592,
      "itudes": 7593,
      "▁curve": 7594,
      "▁devil": 7595,
      "▁ethiopia": 7596,
      "▁intervention": 7597,
      "▁recept": 7598,
      "ili": 7599,
      "▁isle": 7600,
      "▁kon": 7601,
      "aca": 7602,
      "▁irre": 7603,
      "▁symph": 7604,
      "▁ariz": 7605,
      "▁punishment": 7606,
      "▁disputes": 7607,
      "▁nik": 7608,
      "▁dave": 7609,
      "▁voted": 7610,
      "▁scar": 7611,
      "▁tempor": 7612,
      "▁temporary": 7613,
      "▁controls": 7614,
      "▁observation": 7615,
      "▁enjoyed": 7616,
      "▁aristotle": 7617,
      "▁wings": 7618,
      "emen": 7619,
      "▁amiga": 7620,
      "▁floren": 7621,
      "▁recordings": 7622,
      "▁returning": 7623,
      "▁properly": 7624,
      "▁footballer": 7625,
      "▁circumc": 7626,
      "bu": 7627,
      "▁hi": 7628,
      "▁stick": 7629,
      "▁neuro": 7630,
      "▁resign": 7631,
      "▁prede": 7632,
      "▁subur": 7633,
      "▁monaster": 7634,
      "▁mystery": 7635,
      "▁explicitly": 7636,
      "▁cord": 7637,
      "▁gamb": 7638,
      "▁admitted": 7639,
      "▁spell": 7640,
      "▁coven": 7641,
      "▁seeking": 7642,
      "aux": 7643,
      "▁devoted": 7644,
      "▁appearances": 7645,
      "▁participation": 7646,
      "▁ranges": 7647,
      "▁pairs": 7648,
      "▁buddhist": 7649,
      "▁patriarch": 7650,
      "▁bicy": 7651,
      "▁sultan": 7652,
      "div": 7653,
      "eg": 7654,
      "▁pars": 7655,
      "▁hidden": 7656,
      "ista": 7657,
      "▁kash": 7658,
      "▁vl": 7659,
      "▁vinc": 7660,
      "tsky": 7661,
      "▁handle": 7662,
      "▁linguistics": 7663,
      "▁bringing": 7664,
      "iest": 7665,
      "rant": 7666,
      "sky": 7667,
      "atus": 7668,
      "omon": 7669,
      "▁worst": 7670,
      "▁pear": 7671,
      "▁autobi": 7672,
      "▁terminal": 7673,
      "▁depict": 7674,
      "▁revised": 7675,
      "▁volumes": 7676,
      "▁window": 7677,
      "▁robinson": 7678,
      "▁routes": 7679,
      "▁citizenship": 7680,
      "bard": 7681,
      "page": 7682,
      "▁ot": 7683,
      "▁uno": 7684,
      "▁shorter": 7685,
      "▁centers": 7686,
      "▁politicians": 7687,
      "▁childhood": 7688,
      "▁immigration": 7689,
      "▁negotiations": 7690,
      "▁vern": 7691,
      "una": 7692,
      "▁suitable": 7693,
      "▁spr": 7694,
      "▁mete": 7695,
      "▁enthus": 7696,
      "▁approval": 7697,
      "▁rocket": 7698,
      "▁indicated": 7699,
      "▁immigrants": 7700,
      "uct": 7701,
      "inals": 7702,
      "▁alger": 7703,
      "achers": 7704,
      "illed": 7705,
      "▁marvel": 7706,
      "▁mao": 7707,
      "▁iranian": 7708,
      "▁missiles": 7709,
      "▁creative": 7710,
      "▁tunnel": 7711,
      "▁julian": 7712,
      "▁purchased": 7713,
      "▁efficiency": 7714,
      "▁dollars": 7715,
      "▁portrait": 7716,
      "▁comedian": 7717,
      "▁pale": 7718,
      "▁eve": 7719,
      "▁kam": 7720,
      "esty": 7721,
      "▁obso": 7722,
      "ostic": 7723,
      "▁singing": 7724,
      "▁finds": 7725,
      "▁agreements": 7726,
      "▁establishing": 7727,
      "▁legendary": 7728,
      "▁fishing": 7729,
      "▁vib": 7730,
      "peg": 7731,
      "▁concrete": 7732,
      "▁prefix": 7733,
      "endo": 7734,
      "▁scat": 7735,
      "▁recre": 7736,
      "▁metals": 7737,
      "▁finance": 7738,
      "oster": 7739,
      "▁romania": 7740,
      "▁empir": 7741,
      "▁superman": 7742,
      "▁northeast": 7743,
      "▁implies": 7744,
      "▁paradox": 7745,
      "▁google": 7746,
      "▁lod": 7747,
      "▁gest": 7748,
      "ochem": 7749,
      "▁consens": 7750,
      "▁belt": 7751,
      "▁termed": 7752,
      "▁restored": 7753,
      "▁covering": 7754,
      "▁tube": 7755,
      "▁orchestra": 7756,
      "cribed": 7757,
      "▁arizona": 7758,
      "mond": 7759,
      "oque": 7760,
      "▁cyl": 7761,
      "▁wet": 7762,
      "▁gets": 7763,
      "▁vertical": 7764,
      "▁consonant": 7765,
      "▁kuwait": 7766,
      "▁fisc": 7767,
      "▁gren": 7768,
      "▁yan": 7769,
      "▁perception": 7770,
      "▁overl": 7771,
      "rage": 7772,
      "▁stere": 7773,
      "▁peer": 7774,
      "▁recall": 7775,
      "uracy": 7776,
      "▁prosper": 7777,
      "uv": 7778,
      "adi": 7779,
      "▁smooth": 7780,
      "▁exposed": 7781,
      "▁philadelph": 7782,
      "▁drives": 7783,
      "▁guitarist": 7784,
      "▁consequences": 7785,
      "▁genesis": 7786,
      "▁proposal": 7787,
      "▁mud": 7788,
      "▁stamp": 7789,
      "▁seeing": 7790,
      "▁assume": 7791,
      "▁eucl": 7792,
      "▁signif": 7793,
      "▁equally": 7794,
      "▁promoted": 7795,
      "▁vacu": 7796,
      "▁maritime": 7797,
      "apolis": 7798,
      "▁mounted": 7799,
      "▁beauty": 7800,
      "▁situated": 7801,
      "▁proportion": 7802,
      "▁concluded": 7803,
      "sch": 7804,
      "▁turing": 7805,
      "▁theological": 7806,
      "esian": 7807,
      "▁athen": 7808,
      "▁caught": 7809,
      "▁adventure": 7810,
      "▁gordon": 7811,
      "▁oak": 7812,
      "▁pill": 7813,
      "▁oral": 7814,
      "▁interrupt": 7815,
      "▁franco": 7816,
      "▁grain": 7817,
      "▁returns": 7818,
      "equ": 7819,
      "▁sant": 7820,
      "▁cn": 7821,
      "isition": 7822,
      "▁bip": 7823,
      "▁andre": 7824,
      "▁neo": 7825,
      "▁nova": 7826,
      "orship": 7827,
      "▁doom": 7828,
      "▁harrison": 7829,
      "▁concentrated": 7830,
      "▁terminology": 7831,
      "▁prussia": 7832,
      "▁fired": 7833,
      "▁bert": 7834,
      "rogen": 7835,
      "▁ammon": 7836,
      "▁monitor": 7837,
      "▁incom": 7838,
      "▁releases": 7839,
      "▁ready": 7840,
      "▁obsc": 7841,
      "▁astero": 7842,
      "▁collective": 7843,
      "▁stopped": 7844,
      "▁babylon": 7845,
      "▁maurit": 7846,
      "▁removal": 7847,
      "▁ted": 7848,
      "▁fulf": 7849,
      "▁pant": 7850,
      "▁counties": 7851,
      "▁metab": 7852,
      "▁valuable": 7853,
      "▁vii": 7854,
      "▁magnet": 7855,
      "▁burning": 7856,
      "▁algebraic": 7857,
      "▁dynamic": 7858,
      "omorphism": 7859,
      "▁millennium": 7860,
      "▁aware": 7861,
      "imon": 7862,
      "▁johnny": 7863,
      "▁physician": 7864,
      "▁width": 7865,
      "otype": 7866,
      "western": 7867,
      "▁gamma": 7868,
      "bow": 7869,
      "▁fusion": 7870,
      "▁lb": 7871,
      "urt": 7872,
      "agers": 7873,
      "▁intense": 7874,
      "▁varied": 7875,
      "▁adjacent": 7876,
      "▁margaret": 7877,
      "▁autonom": 7878,
      "▁tat": 7879,
      "▁pock": 7880,
      "▁enlight": 7881,
      "▁jobs": 7882,
      "▁singles": 7883,
      "▁wayne": 7884,
      "▁bread": 7885,
      "▁brad": 7886,
      "▁recognize": 7887,
      "▁jacques": 7888,
      "▁consequence": 7889,
      "▁philadelphia": 7890,
      "esh": 7891,
      "illing": 7892,
      "▁expend": 7893,
      "▁queens": 7894,
      "▁funding": 7895,
      "▁difficulties": 7896,
      "▁scandin": 7897,
      "▁voltage": 7898,
      "▁amateur": 7899,
      "wed": 7900,
      "▁anderson": 7901,
      "▁reich": 7902,
      "▁iowa": 7903,
      "icance": 7904,
      "▁phone": 7905,
      "▁remote": 7906,
      "▁collections": 7907,
      "▁triple": 7908,
      "▁circuits": 7909,
      "▁portrayed": 7910,
      "▁revelation": 7911,
      "▁obsolete": 7912,
      "cp": 7913,
      "lock": 7914,
      "▁therapy": 7915,
      "▁bund": 7916,
      "▁lac": 7917,
      "eller": 7918,
      "▁servers": 7919,
      "▁railroad": 7920,
      "▁driving": 7921,
      "▁louisiana": 7922,
      "▁astronomy": 7923,
      "▁ceremony": 7924,
      "aine": 7925,
      "▁oz": 7926,
      "onto": 7927,
      "▁bm": 7928,
      "▁bak": 7929,
      "▁recovery": 7930,
      "▁interactive": 7931,
      "▁fewer": 7932,
      "ijing": 7933,
      "▁instrumental": 7934,
      "▁housing": 7935,
      "▁rotation": 7936,
      "▁synthes": 7937,
      "lah": 7938,
      "rating": 7939,
      "▁dru": 7940,
      "▁deleg": 7941,
      "▁bless": 7942,
      "▁capita": 7943,
      "▁lock": 7944,
      "▁norman": 7945,
      "▁magnitude": 7946,
      "iscop": 7947,
      "▁pronoun": 7948,
      "▁complicated": 7949,
      "▁chancellor": 7950,
      "erb": 7951,
      "▁fbi": 7952,
      "▁bought": 7953,
      "▁pm": 7954,
      "▁mig": 7955,
      "▁proclaimed": 7956,
      "ibilities": 7957,
      "▁ug": 7958,
      "▁quot": 7959,
      "▁extend": 7960,
      "▁cyber": 7961,
      "chel": 7962,
      "▁trotsky": 7963,
      "▁tourist": 7964,
      "▁transformation": 7965,
      "▁arrival": 7966,
      "▁gravit": 7967,
      "▁strange": 7968,
      "▁anchor": 7969,
      "▁gauge": 7970,
      "bles": 7971,
      "▁bone": 7972,
      "orious": 7973,
      "▁gur": 7974,
      "imore": 7975,
      "▁clergy": 7976,
      "▁minimal": 7977,
      "▁gluc": 7978,
      "▁bald": 7979,
      "▁subsid": 7980,
      "▁unoffic": 7981,
      "▁awa": 7982,
      "▁bour": 7983,
      "▁inhib": 7984,
      "▁nelson": 7985,
      "▁coinc": 7986,
      "▁looks": 7987,
      "▁subset": 7988,
      "▁reflected": 7989,
      "▁seventh": 7990,
      "▁cognitive": 7991,
      "▁tends": 7992,
      "▁gri": 7993,
      "umps": 7994,
      "acts": 7995,
      "▁editions": 7996,
      "▁buffalo": 7997,
      "▁cort": 7998,
      "anol": 7999,
      "▁lig": 8000,
      "▁jup": 8001,
      "ube": 8002,
      "▁info": 8003,
      "▁governing": 8004,
      "▁advis": 8005,
      "▁michel": 8006,
      "▁merged": 8007,
      "▁borough": 8008,
      "▁thompson": 8009,
      "▁dealing": 8010,
      "logy": 8011,
      "▁ties": 8012,
      "▁wrest": 8013,
      "eda": 8014,
      "▁dated": 8015,
      "▁gust": 8016,
      "▁consol": 8017,
      "▁muscle": 8018,
      "▁baron": 8019,
      "▁proto": 8020,
      "▁meanwhile": 8021,
      "▁microp": 8022,
      "▁topic": 8023,
      "▁settlements": 8024,
      "▁mercury": 8025,
      "▁dart": 8026,
      "station": 8027,
      "▁clay": 8028,
      "▁designer": 8029,
      "minster": 8030,
      "▁customs": 8031,
      "▁suffering": 8032,
      "▁ost": 8033,
      "▁bare": 8034,
      "itic": 8035,
      "eded": 8036,
      "▁semin": 8037,
      "▁beijing": 8038,
      "▁coins": 8039,
      "▁thereby": 8040,
      "▁accum": 8041,
      "▁median": 8042,
      "gery": 8043,
      "▁baroque": 8044,
      "▁pointed": 8045,
      "▁denied": 8046,
      "▁cellular": 8047,
      "▁exceptions": 8048,
      "▁murray": 8049,
      "▁employment": 8050,
      "▁optim": 8051,
      "▁reconstruction": 8052,
      "▁fossil": 8053,
      "pie": 8054,
      "erts": 8055,
      "▁raise": 8056,
      "▁interst": 8057,
      "▁intermed": 8058,
      "▁entropy": 8059,
      "▁readers": 8060,
      "▁attempting": 8061,
      "▁luke": 8062,
      "iast": 8063,
      "pass": 8064,
      "▁coc": 8065,
      "▁rfc": 8066,
      "▁coat": 8067,
      "▁pregn": 8068,
      "▁auto": 8069,
      "▁authen": 8070,
      "iki": 8071,
      "▁catch": 8072,
      "▁privile": 8073,
      "▁please": 8074,
      "▁mathematicians": 8075,
      "▁gregory": 8076,
      "▁dh": 8077,
      "▁rus": 8078,
      "apore": 8079,
      "▁metro": 8080,
      "▁augustus": 8081,
      "▁surrounded": 8082,
      "▁bou": 8083,
      "ubstant": 8084,
      "▁outl": 8085,
      "▁relevant": 8086,
      "cover": 8087,
      "▁advice": 8088,
      "▁marketing": 8089,
      "▁tribute": 8090,
      "▁quantities": 8091,
      "▁printing": 8092,
      "▁summary": 8093,
      "▁significance": 8094,
      "bul": 8095,
      "iates": 8096,
      "▁fisher": 8097,
      "▁tob": 8098,
      "aco": 8099,
      "iva": 8100,
      "▁thanks": 8101,
      "▁belgian": 8102,
      "▁factory": 8103,
      "▁hypn": 8104,
      "▁threatened": 8105,
      "oons": 8106,
      "▁ig": 8107,
      "▁eis": 8108,
      "▁scots": 8109,
      "▁corruption": 8110,
      "▁maintains": 8111,
      "▁manufactured": 8112,
      "▁liverpool": 8113,
      "▁dee": 8114,
      "▁resur": 8115,
      "▁moderate": 8116,
      "▁independently": 8117,
      "▁convert": 8118,
      "▁hawaii": 8119,
      "mund": 8120,
      "▁bry": 8121,
      "▁ongoing": 8122,
      "▁conce": 8123,
      "▁poets": 8124,
      "▁singapore": 8125,
      "▁easter": 8126,
      "▁participate": 8127,
      "▁jupiter": 8128,
      "▁cock": 8129,
      "▁mast": 8130,
      "uma": 8131,
      "▁yield": 8132,
      "▁abund": 8133,
      "▁commem": 8134,
      "▁disorders": 8135,
      "▁quoted": 8136,
      "▁episcop": 8137,
      "▁reader": 8138,
      "▁adoption": 8139,
      "▁taxes": 8140,
      "▁palestine": 8141,
      "▁mirror": 8142,
      "▁neighborhood": 8143,
      "▁refugees": 8144,
      "▁simultaneously": 8145,
      "▁wider": 8146,
      "▁db": 8147,
      "▁dys": 8148,
      "▁eating": 8149,
      "▁reun": 8150,
      "▁rou": 8151,
      "rium": 8152,
      "▁accuracy": 8153,
      "▁operators": 8154,
      "▁performances": 8155,
      "▁symbolic": 8156,
      "▁satur": 8157,
      "▁oscar": 8158,
      "▁adventures": 8159,
      "▁attracted": 8160,
      "ovakia": 8161,
      "▁malaysia": 8162,
      "▁session": 8163,
      "using": 8164,
      "▁stores": 8165,
      "▁kiss": 8166,
      "▁compare": 8167,
      "▁obst": 8168,
      "▁inches": 8169,
      "▁romance": 8170,
      "▁chemist": 8171,
      "▁remainder": 8172,
      "▁aimed": 8173,
      "▁stanley": 8174,
      "▁bosnia": 8175,
      "▁exercise": 8176,
      "▁authentic": 8177,
      "▁bath": 8178,
      "▁struck": 8179,
      "▁alive": 8180,
      "▁indirect": 8181,
      "▁hunt": 8182,
      "▁berg": 8183,
      "▁terrorist": 8184,
      "▁kosovo": 8185,
      "▁phoenix": 8186,
      "▁vacuum": 8187,
      "▁ai": 8188,
      "▁fi": 8189,
      "izer": 8190,
      "▁blocks": 8191,
      "▁minerals": 8192,
      "▁studios": 8193,
      "▁barry": 8194,
      "▁trem": 8195,
      "▁acceptance": 8196,
      "▁conservation": 8197,
      "▁reviews": 8198,
      "▁sensitive": 8199,
      "▁croatia": 8200,
      "▁gandhi": 8201,
      "zh": 8202,
      "odia": 8203,
      "▁beck": 8204,
      "▁overth": 8205,
      "▁drama": 8206,
      "▁legislature": 8207,
      "▁happy": 8208,
      "▁lieuten": 8209,
      "▁extensively": 8210,
      "▁shadow": 8211,
      "▁baltimore": 8212,
      "▁expendit": 8213,
      "rell": 8214,
      "▁ward": 8215,
      "▁mine": 8216,
      "omot": 8217,
      "▁bever": 8218,
      "oli": 8219,
      "▁chris": 8220,
      "▁comprom": 8221,
      "▁genres": 8222,
      "▁entity": 8223,
      "▁swit": 8224,
      "▁employees": 8225,
      "zilla": 8226,
      "erial": 8227,
      "aman": 8228,
      "▁willing": 8229,
      "▁anthem": 8230,
      "▁trivia": 8231,
      "▁homes": 8232,
      "▁cuban": 8233,
      "▁casual": 8234,
      "▁rifle": 8235,
      "krit": 8236,
      "wich": 8237,
      "itt": 8238,
      "orate": 8239,
      "ether": 8240,
      "▁conform": 8241,
      "▁kan": 8242,
      "aceae": 8243,
      "▁coron": 8244,
      "▁cattle": 8245,
      "▁bullet": 8246,
      "▁nickname": 8247,
      "kind": 8248,
      "▁craft": 8249,
      "▁zo": 8250,
      "▁sphere": 8251,
      "▁resigned": 8252,
      "▁agencies": 8253,
      "▁worlds": 8254,
      "▁europeans": 8255,
      "▁versus": 8256,
      "▁viii": 8257,
      "▁unemployment": 8258,
      "rill": 8259,
      "▁aka": 8260,
      "▁rings": 8261,
      "▁unions": 8262,
      "▁coined": 8263,
      "▁telecommun": 8264,
      "▁narrative": 8265,
      "▁graduate": 8266,
      "▁girls": 8267,
      "▁ieee": 8268,
      "▁axiom": 8269,
      "▁luxemb": 8270,
      "▁clothing": 8271,
      "▁jay": 8272,
      "▁syd": 8273,
      "▁argu": 8274,
      "▁approaches": 8275,
      "▁fallen": 8276,
      "▁timeline": 8277,
      "▁wilhelm": 8278,
      "▁settlers": 8279,
      "▁enormous": 8280,
      "▁fet": 8281,
      "▁trains": 8282,
      "▁monroe": 8283,
      "▁milan": 8284,
      "▁decay": 8285,
      "▁broadway": 8286,
      "▁offering": 8287,
      "▁embra": 8288,
      "▁serbia": 8289,
      "▁ble": 8290,
      "▁bent": 8291,
      "itre": 8292,
      "▁lor": 8293,
      "▁alp": 8294,
      "ules": 8295,
      "▁marie": 8296,
      "▁generate": 8297,
      "▁patron": 8298,
      "▁holes": 8299,
      "▁machin": 8300,
      "mont": 8301,
      "▁mutual": 8302,
      "▁friendly": 8303,
      "▁drinking": 8304,
      "iver": 8305,
      "no": 8306,
      "▁stack": 8307,
      "▁sharing": 8308,
      "▁coverage": 8309,
      "▁honour": 8310,
      "▁toronto": 8311,
      "bus": 8312,
      "gl": 8313,
      "heas": 8314,
      "isations": 8315,
      "agle": 8316,
      "▁butt": 8317,
      "▁teen": 8318,
      "pled": 8319,
      "▁nationalist": 8320,
      "▁swim": 8321,
      "▁studying": 8322,
      "▁addresses": 8323,
      "▁aaron": 8324,
      "aware": 8325,
      "▁gross": 8326,
      "abul": 8327,
      "▁edin": 8328,
      "atherine": 8329,
      "▁communists": 8330,
      "▁priests": 8331,
      "▁requiring": 8332,
      "apped": 8333,
      "▁ecu": 8334,
      "▁bulk": 8335,
      "▁automatically": 8336,
      "▁geneva": 8337,
      "▁salvador": 8338,
      "▁disagree": 8339,
      "▁surn": 8340,
      "▁finger": 8341,
      "itary": 8342,
      "▁shield": 8343,
      "▁guest": 8344,
      "▁entering": 8345,
      "▁binding": 8346,
      "▁voyage": 8347,
      "phem": 8348,
      "▁nm": 8349,
      "▁stones": 8350,
      "▁alab": 8351,
      "▁arsen": 8352,
      "▁afc": 8353,
      "▁marry": 8354,
      "ugh": 8355,
      "▁monument": 8356,
      "▁load": 8357,
      "▁decimal": 8358,
      "▁objective": 8359,
      "▁dogs": 8360,
      "▁injury": 8361,
      "untary": 8362,
      "▁errors": 8363,
      "▁taste": 8364,
      "▁membrane": 8365,
      "▁meteor": 8366,
      "▁consensus": 8367,
      "bro": 8368,
      "fr": 8369,
      "▁faces": 8370,
      "itis": 8371,
      "▁mh": 8372,
      "ocation": 8373,
      "outs": 8374,
      "▁desired": 8375,
      "▁lasted": 8376,
      "▁defining": 8377,
      "▁fragment": 8378,
      "▁weekly": 8379,
      "▁rolling": 8380,
      "▁besides": 8381,
      "▁dolph": 8382,
      "▁paintings": 8383,
      "▁arguably": 8384,
      "gie": 8385,
      "amine": 8386,
      "ulu": 8387,
      "▁voters": 8388,
      "ifier": 8389,
      "emic": 8390,
      "ologically": 8391,
      "▁feast": 8392,
      "▁matt": 8393,
      "engers": 8394,
      "▁receives": 8395,
      "▁conventions": 8396,
      "ulsion": 8397,
      "▁aus": 8398,
      "▁cree": 8399,
      "▁pyr": 8400,
      "osaur": 8401,
      "▁manga": 8402,
      "▁generations": 8403,
      "▁larry": 8404,
      "▁programme": 8405,
      "▁revival": 8406,
      "▁liberalism": 8407,
      "▁happen": 8408,
      "▁shares": 8409,
      "▁brazilian": 8410,
      "▁saxon": 8411,
      "▁micropro": 8412,
      "ci": 8413,
      "ean": 8414,
      "mud": 8415,
      "zs": 8416,
      "▁tick": 8417,
      "▁aest": 8418,
      "eness": 8419,
      "▁plains": 8420,
      "hana": 8421,
      "▁slavic": 8422,
      "feld": 8423,
      "imir": 8424,
      "emed": 8425,
      "▁shir": 8426,
      "▁boot": 8427,
      "▁overw": 8428,
      "▁austin": 8429,
      "▁natives": 8430,
      "▁peters": 8431,
      "▁painted": 8432,
      "haust": 8433,
      "▁sequences": 8434,
      "▁counterpart": 8435,
      "▁observer": 8436,
      "▁incorrect": 8437,
      "▁administered": 8438,
      "▁ian": 8439,
      "▁tig": 8440,
      "alia": 8441,
      "▁leib": 8442,
      "▁metres": 8443,
      "▁britann": 8444,
      "▁retain": 8445,
      "▁complement": 8446,
      "▁exploration": 8447,
      "▁violin": 8448,
      "▁diego": 8449,
      "▁shooting": 8450,
      "▁championships": 8451,
      "▁exposure": 8452,
      "▁autonomous": 8453,
      "cia": 8454,
      "ishers": 8455,
      "▁comments": 8456,
      "aks": 8457,
      "▁funeral": 8458,
      "▁antib": 8459,
      "▁vert": 8460,
      "▁kingdoms": 8461,
      "▁cutting": 8462,
      "▁tendency": 8463,
      "▁hellen": 8464,
      "▁compiler": 8465,
      "▁procedures": 8466,
      "▁lithuanian": 8467,
      "▁colombia": 8468,
      "▁inherent": 8469,
      "▁eternal": 8470,
      "vet": 8471,
      "essions": 8472,
      "▁barn": 8473,
      "▁argues": 8474,
      "▁alongside": 8475,
      "▁momentum": 8476,
      "▁elevation": 8477,
      "▁semitic": 8478,
      "▁gm": 8479,
      "▁kant": 8480,
      "illery": 8481,
      "▁underlying": 8482,
      "▁albania": 8483,
      "▁maryland": 8484,
      "▁tradem": 8485,
      "▁schedule": 8486,
      "▁nt": 8487,
      "ifice": 8488,
      "▁phill": 8489,
      "▁transmit": 8490,
      "▁cyp": 8491,
      "▁stronger": 8492,
      "▁heroes": 8493,
      "▁inspiration": 8494,
      "▁dimensions": 8495,
      "▁mammals": 8496,
      "▁merchant": 8497,
      "▁lamp": 8498,
      "▁gam": 8499,
      "illy": 8500,
      "▁enhan": 8501,
      "▁formats": 8502,
      "▁bohem": 8503,
      "oking": 8504,
      "▁governed": 8505,
      "▁governors": 8506,
      "▁discrim": 8507,
      "▁nationality": 8508,
      "▁latest": 8509,
      "▁truly": 8510,
      "▁costa": 8511,
      "▁ascii": 8512,
      "▁adaptation": 8513,
      "▁revenue": 8514,
      "▁abolished": 8515,
      "▁clinical": 8516,
      "▁sang": 8517,
      "▁mbox": 8518,
      "orus": 8519,
      "▁va": 8520,
      "▁blu": 8521,
      "▁grade": 8522,
      "▁trinity": 8523,
      "▁digit": 8524,
      "▁competitive": 8525,
      "▁businesses": 8526,
      "▁looked": 8527,
      "▁jimmy": 8528,
      "▁python": 8529,
      "▁lieutenant": 8530,
      "cd": 8531,
      "orous": 8532,
      "▁segment": 8533,
      "▁exhaust": 8534,
      "▁geographical": 8535,
      "▁terrain": 8536,
      "▁hoover": 8537,
      "▁juan": 8538,
      "▁activist": 8539,
      "▁trek": 8540,
      "▁assistant": 8541,
      "▁crops": 8542,
      "father": 8543,
      "▁tables": 8544,
      "▁sap": 8545,
      "▁bid": 8546,
      "▁nag": 8547,
      "arin": 8548,
      "▁brook": 8549,
      "▁locomot": 8550,
      "▁slang": 8551,
      "▁henri": 8552,
      "▁facult": 8553,
      "▁tasks": 8554,
      "▁stood": 8555,
      "▁ket": 8556,
      "▁shakes": 8557,
      "▁spar": 8558,
      "▁wearing": 8559,
      "▁infection": 8560,
      "▁undert": 8561,
      "▁considering": 8562,
      "▁mickey": 8563,
      "▁hunter": 8564,
      "▁wright": 8565,
      "▁occasions": 8566,
      "▁helium": 8567,
      "▁edinburgh": 8568,
      "▁sri": 8569,
      "aro": 8570,
      "▁gel": 8571,
      "▁vital": 8572,
      "▁subdiv": 8573,
      "▁evident": 8574,
      "▁flour": 8575,
      "▁publisher": 8576,
      "anni": 8577,
      "▁annivers": 8578,
      "▁libya": 8579,
      "▁atlas": 8580,
      "▁requirement": 8581,
      "▁interpretations": 8582,
      "▁supplies": 8583,
      "▁metaphys": 8584,
      "▁electromagnetic": 8585,
      "▁florence": 8586,
      "▁arose": 8587,
      "erg": 8588,
      "▁mild": 8589,
      "▁dust": 8590,
      "▁pool": 8591,
      "▁memor": 8592,
      "▁franz": 8593,
      "▁politically": 8594,
      "▁replacing": 8595,
      "▁bills": 8596,
      "after": 8597,
      "▁installed": 8598,
      "lon": 8599,
      "▁cem": 8600,
      "▁golf": 8601,
      "▁tea": 8602,
      "▁consent": 8603,
      "▁interf": 8604,
      "▁regulations": 8605,
      "▁cargo": 8606,
      "▁gray": 8607,
      "▁patrick": 8608,
      "▁trials": 8609,
      "▁farming": 8610,
      "▁mechanisms": 8611,
      "▁tomb": 8612,
      "bourne": 8613,
      "▁opposing": 8614,
      "▁repeatedly": 8615,
      "▁ceremon": 8616,
      "▁unfortunately": 8617,
      "abulary": 8618,
      "▁sulf": 8619,
      "▁naming": 8620,
      "▁dian": 8621,
      "▁prose": 8622,
      "▁unw": 8623,
      "ocent": 8624,
      "ipse": 8625,
      "▁abbe": 8626,
      "ateral": 8627,
      "▁persu": 8628,
      "▁opens": 8629,
      "▁applies": 8630,
      "▁centered": 8631,
      "▁nominated": 8632,
      "▁unlikely": 8633,
      "▁bombing": 8634,
      "▁consonants": 8635,
      "sburg": 8636,
      "zes": 8637,
      "▁denn": 8638,
      "▁coe": 8639,
      "▁matches": 8640,
      "▁creates": 8641,
      "▁battery": 8642,
      "▁silent": 8643,
      "▁seriously": 8644,
      "▁purely": 8645,
      "▁jonathan": 8646,
      "▁kentucky": 8647,
      "▁pioneer": 8648,
      "▁forg": 8649,
      "▁alumn": 8650,
      "▁cluster": 8651,
      "▁abu": 8652,
      "▁abortion": 8653,
      "▁recru": 8654,
      "▁minim": 8655,
      "▁organism": 8656,
      "▁visitors": 8657,
      "▁liberals": 8658,
      "▁encomp": 8659,
      "▁appearing": 8660,
      "▁provincial": 8661,
      "▁recommended": 8662,
      "▁tactics": 8663,
      "▁hierarchy": 8664,
      "▁acknowled": 8665,
      "▁encompass": 8666,
      "▁tied": 8667,
      "▁aa": 8668,
      "▁fern": 8669,
      "icing": 8670,
      "▁rever": 8671,
      "ationally": 8672,
      "ourg": 8673,
      "▁arama": 8674,
      "enders": 8675,
      "▁instant": 8676,
      "▁entities": 8677,
      "▁impression": 8678,
      "▁economies": 8679,
      "▁missing": 8680,
      "▁hosts": 8681,
      "▁facilit": 8682,
      "▁embed": 8683,
      "▁complain": 8684,
      "▁diamonds": 8685,
      "▁ussr": 8686,
      "iy": 8687,
      "▁inaug": 8688,
      "▁horm": 8689,
      "agne": 8690,
      "▁brass": 8691,
      "▁saudi": 8692,
      "▁demands": 8693,
      "▁kevin": 8694,
      "▁grave": 8695,
      "▁definite": 8696,
      "▁creatures": 8697,
      "▁odd": 8698,
      "▁ranging": 8699,
      "▁philippines": 8700,
      "▁sanskrit": 8701,
      "▁sydney": 8702,
      "▁aramaic": 8703,
      "▁fract": 8704,
      "▁dy": 8705,
      "▁sees": 8706,
      "▁stem": 8707,
      "▁ry": 8708,
      "▁deskt": 8709,
      "▁developers": 8710,
      "▁morris": 8711,
      "ymes": 8712,
      "▁consisted": 8713,
      "▁cocaine": 8714,
      "▁aluminium": 8715,
      "▁leibn": 8716,
      "ender": 8717,
      "▁gael": 8718,
      "▁spending": 8719,
      "▁criteria": 8720,
      "▁qur": 8721,
      "▁homosexuality": 8722,
      "dinand": 8723,
      "uated": 8724,
      "yll": 8725,
      "▁aj": 8726,
      "▁sick": 8727,
      "▁mason": 8728,
      "icut": 8729,
      "▁reaches": 8730,
      "rac": 8731,
      "▁aside": 8732,
      "▁leaf": 8733,
      "allas": 8734,
      "▁compens": 8735,
      "▁pret": 8736,
      "▁apprec": 8737,
      "▁reprint": 8738,
      "▁invaded": 8739,
      "▁swing": 8740,
      "▁ski": 8741,
      "▁derives": 8742,
      "▁identification": 8743,
      "▁dominican": 8744,
      "▁arabia": 8745,
      "▁integers": 8746,
      "▁striking": 8747,
      "▁damaged": 8748,
      "▁crack": 8749,
      "▁perpet": 8750,
      "▁etymology": 8751,
      "▁mb": 8752,
      "▁niet": 8753,
      "▁unre": 8754,
      "▁teachers": 8755,
      "▁recur": 8756,
      "▁attorn": 8757,
      "▁writes": 8758,
      "▁decide": 8759,
      "▁microw": 8760,
      "▁reasoning": 8761,
      "▁adopt": 8762,
      "▁ferdinand": 8763,
      "▁feeling": 8764,
      "▁amendment": 8765,
      "▁unofficial": 8766,
      "rons": 8767,
      "▁fate": 8768,
      "▁bn": 8769,
      "▁loren": 8770,
      "▁comet": 8771,
      "▁canter": 8772,
      "▁spoke": 8773,
      "▁engage": 8774,
      "▁transmitted": 8775,
      "▁norse": 8776,
      "▁elite": 8777,
      "▁freely": 8778,
      "▁realm": 8779,
      "▁solve": 8780,
      "▁cats": 8781,
      "▁circular": 8782,
      "▁hitch": 8783,
      "▁survival": 8784,
      "▁shoot": 8785,
      "▁gravitational": 8786,
      "heastern": 8787,
      "db": 8788,
      "matic": 8789,
      "▁jury": 8790,
      "▁item": 8791,
      "▁abroad": 8792,
      "▁statesman": 8793,
      "▁evening": 8794,
      "▁godzilla": 8795,
      "▁troll": 8796,
      "▁psychiat": 8797,
      "▁conflicts": 8798,
      "▁danger": 8799,
      "▁advocates": 8800,
      "▁encourage": 8801,
      "▁shakespe": 8802,
      "▁leibniz": 8803,
      "fs": 8804,
      "rol": 8805,
      "ird": 8806,
      "▁heret": 8807,
      "▁mans": 8808,
      "▁cancell": 8809,
      "▁doors": 8810,
      "ails": 8811,
      "▁breath": 8812,
      "▁brah": 8813,
      "▁socialism": 8814,
      "▁arabs": 8815,
      "▁novelist": 8816,
      "▁fifty": 8817,
      "▁explosion": 8818,
      "▁nouns": 8819,
      "▁recommend": 8820,
      "▁sophistic": 8821,
      "ping": 8822,
      "▁cinc": 8823,
      "▁gore": 8824,
      "ulates": 8825,
      "▁plague": 8826,
      "▁newer": 8827,
      "▁boom": 8828,
      "▁warner": 8829,
      "▁carries": 8830,
      "othy": 8831,
      "▁communion": 8832,
      "▁lights": 8833,
      "▁anthropology": 8834,
      "▁wiscons": 8835,
      "▁eugen": 8836,
      "▁alchem": 8837,
      "▁massacre": 8838,
      "chron": 8839,
      "▁alter": 8840,
      "elin": 8841,
      "▁hearing": 8842,
      "▁scope": 8843,
      "▁knock": 8844,
      "▁aviation": 8845,
      "▁physiology": 8846,
      "▁judah": 8847,
      "▁graphic": 8848,
      "▁derivative": 8849,
      "▁manufacturer": 8850,
      "▁glucose": 8851,
      "▁wisconsin": 8852,
      "▁till": 8853,
      "atem": 8854,
      "▁bore": 8855,
      "heric": 8856,
      "▁genetics": 8857,
      "▁defines": 8858,
      "▁estonia": 8859,
      "▁decor": 8860,
      "▁harp": 8861,
      "▁proposition": 8862,
      "ervation": 8863,
      "▁precip": 8864,
      "▁julius": 8865,
      "▁tennis": 8866,
      "▁arbitrary": 8867,
      "▁amazon": 8868,
      "▁galileo": 8869,
      "▁submarine": 8870,
      "▁shakespeare": 8871,
      "bors": 8872,
      "mel": 8873,
      "inter": 8874,
      "rection": 8875,
      "elle": 8876,
      "▁module": 8877,
      "▁plut": 8878,
      "▁prest": 8879,
      "▁assy": 8880,
      "▁supplement": 8881,
      "▁equil": 8882,
      "ashi": 8883,
      "▁astronaut": 8884,
      "▁reportedly": 8885,
      "▁diameter": 8886,
      "▁propaganda": 8887,
      "▁tissue": 8888,
      "auc": 8889,
      "cos": 8890,
      "▁sib": 8891,
      "▁lag": 8892,
      "estone": 8893,
      "▁encl": 8894,
      "▁amino": 8895,
      "▁brut": 8896,
      "▁confuc": 8897,
      "▁malay": 8898,
      "▁speeds": 8899,
      "▁facing": 8900,
      "▁punk": 8901,
      "▁masters": 8902,
      "▁losses": 8903,
      "▁targets": 8904,
      "▁illustrated": 8905,
      "▁chaos": 8906,
      "▁astronomical": 8907,
      "▁thorough": 8908,
      "▁kernel": 8909,
      "zsche": 8910,
      "zing": 8911,
      "otion": 8912,
      "adic": 8913,
      "acht": 8914,
      "▁clown": 8915,
      "▁doctors": 8916,
      "▁artillery": 8917,
      "▁distant": 8918,
      "▁ambig": 8919,
      "▁evangelical": 8920,
      "boy": 8921,
      "iveness": 8922,
      "then": 8923,
      "vo": 8924,
      "▁furn": 8925,
      "▁pic": 8926,
      "▁push": 8927,
      "▁rect": 8928,
      "oga": 8929,
      "agg": 8930,
      "▁pharm": 8931,
      "▁pole": 8932,
      "▁quotes": 8933,
      "▁flopp": 8934,
      "▁sloven": 8935,
      "▁revision": 8936,
      "oyd": 8937,
      "▁preval": 8938,
      "▁mcg": 8939,
      "▁guardian": 8940,
      "▁unsuccessful": 8941,
      "▁nietzsche": 8942,
      "▁tib": 8943,
      "▁gig": 8944,
      "▁conan": 8945,
      "▁confer": 8946,
      "berts": 8947,
      "▁climb": 8948,
      "▁warming": 8949,
      "▁basin": 8950,
      "▁persist": 8951,
      "▁passion": 8952,
      "▁periodic": 8953,
      "▁solomon": 8954,
      "▁stanford": 8955,
      "▁tennes": 8956,
      "▁withdrawal": 8957,
      "▁cincinn": 8958,
      "gun": 8959,
      "▁bols": 8960,
      "alf": 8961,
      "▁gon": 8962,
      "▁reed": 8963,
      "▁ras": 8964,
      "▁uncon": 8965,
      "▁likewise": 8966,
      "▁modes": 8967,
      "▁irreg": 8968,
      "▁operates": 8969,
      "▁proponents": 8970,
      "▁practition": 8971,
      "▁foods": 8972,
      "▁frontier": 8973,
      "▁serbian": 8974,
      "▁luxembourg": 8975,
      "▁overwhel": 8976,
      "case": 8977,
      "▁dd": 8978,
      "▁lap": 8979,
      "▁alice": 8980,
      "irm": 8981,
      "▁manh": 8982,
      "▁incomp": 8983,
      "▁filter": 8984,
      "▁estimate": 8985,
      "▁constra": 8986,
      "▁mainten": 8987,
      "▁stewart": 8988,
      "▁immun": 8989,
      "▁occurring": 8990,
      "▁maintaining": 8991,
      "▁vocabulary": 8992,
      "▁egg": 8993,
      "▁mccar": 8994,
      "▁yugoslavia": 8995,
      "aic": 8996,
      "▁kle": 8997,
      "▁eleven": 8998,
      "▁transit": 8999,
      "▁legs": 9000,
      "▁irc": 9001,
      "▁eritre": 9002,
      "▁graham": 9003,
      "▁debut": 9004,
      "▁meetings": 9005,
      "▁rabbi": 9006,
      "▁wisdom": 9007,
      "▁predominantly": 9008,
      "bage": 9009,
      "van": 9010,
      "▁hd": 9011,
      "imony": 9012,
      "▁noise": 9013,
      "▁harbor": 9014,
      "▁confidence": 9015,
      "▁songwriter": 9016,
      "▁crossing": 9017,
      "▁chemicals": 9018,
      "▁chapters": 9019,
      "▁jerry": 9020,
      "▁villages": 9021,
      "▁assumption": 9022,
      "▁hindi": 9023,
      "▁emotional": 9024,
      "▁retrieved": 9025,
      "▁guilty": 9026,
      "▁anniversary": 9027,
      "▁tennessee": 9028,
      "ti": 9029,
      "▁baker": 9030,
      "idal": 9031,
      "aye": 9032,
      "▁unified": 9033,
      "▁discrete": 9034,
      "▁explains": 9035,
      "▁dupl": 9036,
      "▁camero": 9037,
      "attan": 9038,
      "▁saved": 9039,
      "▁closest": 9040,
      "▁syntax": 9041,
      "▁revolt": 9042,
      "▁skept": 9043,
      "▁trend": 9044,
      "rous": 9045,
      "▁nu": 9046,
      "amation": 9047,
      "▁kry": 9048,
      "▁waste": 9049,
      "ibal": 9050,
      "▁popul": 9051,
      "▁loan": 9052,
      "eping": 9053,
      "▁macau": 9054,
      "▁practiced": 9055,
      "▁catholicism": 9056,
[...]
