{
  "version": "1.0",
  "truncation": null,
  "padding": null,
  "added_tokens": [],
  "normalizer": null,
  "pre_tokenizer": {
    "type": "Metaspace",
    "replacement": "▁",
    "add_prefix_space": true
  },
  "post_processor": null,
  "decoder": null,
  "model": {
    "type": "BPE",
    "dropout": null,
    "unk_token": null,
    "continuing_subword_prefix": null,
    "end_of_word_suffix": null,
    "fuse_unk": false,
    "vocab": {
      "a": 0,
      "b": 1,
      "c": 2,
      "d": 3,
      "e": 4,
      "f": 5,
      "g": 6,
      "h": 7,
      "i": 8,
      "j": 9,
      "k": 10,
      "l": 11,
      "m": 12,
      "n": 13,
      "o": 14,
      "p": 15,
      "q": 16,
      "r": 17,
      "s": 18,
      "t": 19,
      "u": 20,
      "v": 21,
      "w": 22,
      "x": 23,
      "y": 24,
      "z": 25,
      "▁": 26,
      "▁t": 27,
      "▁a": 28,
      "in": 29,
      "he": 30,
      "▁o": 31,
      "er": 32,
      "▁s": 33,
      "▁the": 34,
      "re": 35,
      "▁c": 36,
      "on": 37,
      "▁f": 38,
      "en": 39,
      "is": 40,
      "at": 41,
      "an": 42,
      "▁b": 43,
      "▁w": 44,
      "▁p": 45,
      "it": 46,
      "▁m": 47,
      "ed": 48,
      "▁of": 49,
      "es": 50,
      "or": 51,
      "al": 52,
      "▁in": 53,
      "▁n": 54,
      "ar": 55,
      "▁an": 56,
      "▁on": 57,
      "ic": 58,
      "▁d": 59,
      "▁e": 60,
      "ou": 61,
      "▁and": 62,
      "▁h": 63,
      "ion": 64,
      "▁l": 65,
      "▁one": 66,
      "ing": 67,
      "as": 68,
      "▁th": 69,
      "▁to": 70,
      "ro": 71,
      "ine": 72,
      "le": 73,
      "ve": 74,
      "▁g": 75,
      "ent": 76,
      "▁z": 77,
      "ig": 78,
      "▁re": 79,
      "ero": 80,
      "▁zero": 81,
      "om": 82,
      "▁nine": 83,
      "ly": 84,
      "us": 85,
      "ct": 86,
      "il": 87,
      "▁se": 88,
      "▁is": 89,
      "▁be": 90,
      "ol": 91,
      "am": 92,
      "▁tw": 93,
      "st": 94,
      "▁two": 95,
      "ht": 96,
      "un": 97,
      "im": 98,
      "ive": 99,
      "ation": 100,
      "ce": 101,
      "ra": 102,
      "▁st": 103,
      "ight": 104,
      "▁for": 105,
      "ch": 106,
      "id": 107,
      "ver": 108,
      "▁as": 109,
      "ot": 110,
      "ut": 111,
      "ur": 112,
      "et": 113,
      "our": 114,
      "▁al": 115,
      "ir": 116,
      "ist": 117,
      "el": 118,
      "ow": 119,
      "ree": 120,
      "▁con": 121,
      "ad": 122,
      "ul": 123,
      "ven": 124,
      "▁eight": 125,
      "her": 126,
      "ter": 127,
      "ith": 128,
      "▁k": 129,
      "▁wh": 130,
      "▁was": 131,
      "▁de": 132,
      "▁j": 133,
      "▁five": 134,
      "▁three": 135,
      "▁r": 136,
      "▁it": 137,
      "▁by": 138,
      "ix": 139,
      "ay": 140,
      "▁or": 141,
      "os": 142,
      "▁four": 143,
      "▁that": 144,
      "▁com": 145,
      "▁with": 146,
      "▁he": 147,
      "▁pro": 148,
      "▁v": 149,
      "▁six": 150,
      "▁ch": 151,
      "and": 152,
      "um": 153,
      "▁mo": 154,
      "▁seven": 155,
      "▁un": 156,
      "ers": 157,
      "ge": 158,
      "if": 159,
      "op": 160,
      "▁ex": 161,
      "ri": 162,
      "rom": 163,
      "em": 164,
      "▁are": 165,
      "th": 166,
      "▁su": 167,
      "est": 168,
      "oun": 169,
      "▁at": 170,
      "res": 171,
      "ac": 172,
      "ain": 173,
      "ate": 174,
      "ab": 175,
      "ity": 176,
      "qu": 177,
      "ian": 178,
      "ies": 179,
      "pe": 180,
      "od": 181,
      "▁from": 182,
      "se": 183,
      "▁us": 184,
      "▁ne": 185,
      "ment": 186,
      "ich": 187,
      "ld": 188,
      "▁ar": 189,
      "oc": 190,
      "ess": 191,
      "ical": 192,
      "▁en": 193,
      "iv": 194,
      "art": 195,
      "ill": 196,
      "ant": 197,
      "▁his": 198,
      "ia": 199,
      "ort": 200,
      "▁y": 201,
      "ial": 202,
      "ud": 203,
      "▁le": 204,
      "all": 205,
      "og": 206,
      "▁not": 207,
      "▁this": 208,
      "ap": 209,
      "ard": 210,
      "▁which": 211,
      "ish": 212,
      "ak": 213,
      "ag": 214,
      "▁wor": 215,
      "ther": 216,
      "pp": 217,
      "ber": 218,
      "der": 219,
      "▁sh": 220,
      "▁pl": 221,
      "▁ha": 222,
      "▁comp": 223,
      "▁am": 224,
      "ction": 225,
      "ure": 226,
      "ated": 227,
      "so": 228,
      "ary": 229,
      "ie": 230,
      "pt": 231,
      "ame": 232,
      "ip": 233,
      "▁man": 234,
      "ome": 235,
      "ous": 236,
      "ast": 237,
      "▁cl": 238,
      "▁also": 239,
      "oug": 240,
      "▁ad": 241,
      "ere": 242,
      "rit": 243,
      "▁cont": 244,
      "cl": 245,
      "▁ab": 246,
      "ire": 247,
      "per": 248,
      "ong": 249,
      "age": 250,
      "ust": 251,
      "▁can": 252,
      "ran": 253,
      "▁int": 254,
      "ell": 255,
      "▁sp": 256,
      "▁have": 257,
      "ect": 258,
      "cc": 259,
      "ks": 260,
      "▁has": 261,
      "▁were": 262,
      "▁whe": 263,
      "▁other": 264,
      "ition": 265,
      "▁all": 266,
      "ore": 267,
      "ally": 268,
      "end": 269,
      "iz": 270,
      "▁im": 271,
      "ound": 272,
      "ence": 273,
      "ib": 274,
      "▁af": 275,
      "▁part": 276,
      "ations": 277,
      "▁u": 278,
      "ry": 279,
      "▁but": 280,
      "▁comm": 281,
      "▁ro": 282,
      "ory": 283,
      "ide": 284,
      "fer": 285,
      "tern": 286,
      "ult": 287,
      "erm": 288,
      "du": 289,
      "▁sc": 290,
      "ub": 291,
      "ass": 292,
      "ough": 293,
      "▁te": 294,
      "ren": 295,
      "ign": 296,
      "▁its": 297,
      "▁dis": 298,
      "ang": 299,
      "av": 300,
      "▁ind": 301,
      "ru": 302,
      "act": 303,
      "ph": 304,
      "▁sy": 305,
      "▁i": 306,
      "pl": 307,
      "ould": 308,
      "ars": 309,
      "vers": 310,
      "▁their": 311,
      "▁res": 312,
      "▁new": 313,
      "▁some": 314,
      "▁go": 315,
      "ke": 316,
      "▁ra": 317,
      "▁fir": 318,
      "▁me": 319,
      "ord": 320,
      "out": 321,
      "land": 322,
      "▁no": 323,
      "▁bec": 324,
      "▁mar": 325,
      "▁col": 326,
      "ime": 327,
      "ican": 328,
      "ount": 329,
      "▁had": 330,
      "ates": 331,
      "▁first": 332,
      "vel": 333,
      "▁co": 334,
      "▁so": 335,
      "orm": 336,
      "▁form": 337,
      "▁they": 338,
      "ism": 339,
      "▁gen": 340,
      "▁ph": 341,
      "▁most": 342,
      "are": 343,
      "ces": 344,
      "▁ag": 345,
      "own": 346,
      "▁bo": 347,
      "ue": 348,
      "ice": 349,
      "ress": 350,
      "able": 351,
      "ater": 352,
      "▁po": 353,
      "ack": 354,
      "▁more": 355,
      "▁per": 356,
      "▁there": 357,
      "▁pr": 358,
      "▁amer": 359,
      "ions": 360,
      "▁tra": 361,
      "▁who": 362,
      "▁des": 363,
      "ose": 364,
      "▁gr": 365,
      "ach": 366,
      "ict": 367,
      "▁we": 368,
      "▁ye": 369,
      "ics": 370,
      "con": 371,
      "▁cent": 372,
      "▁cons": 373,
      "▁spe": 374,
      "▁been": 375,
      "▁ser": 376,
      "ite": 377,
      "ile": 378,
      "▁rel": 379,
      "ff": 380,
      "ens": 381,
      "ace": 382,
      "▁em": 383,
      "▁ele": 384,
      "▁pe": 385,
      "▁such": 386,
      "▁qu": 387,
      "olog": 388,
      "▁pre": 389,
      "▁eng": 390,
      "ok": 391,
      "▁many": 392,
      "▁kn": 393,
      "clud": 394,
      "▁rec": 395,
      "ors": 396,
      "ath": 397,
      "▁act": 398,
      "ance": 399,
      "ational": 400,
      "te": 401,
      "▁fe": 402,
      "ited": 403,
      "▁pol": 404,
      "▁used": 405,
      "▁after": 406,
      "ase": 407,
      "one": 408,
      "les": 409,
      "ular": 410,
      "port": 411,
      "ts": 412,
      "▁includ": 413,
      "▁bl": 414,
      "▁how": 415,
      "hed": 416,
      "▁over": 417,
      "▁american": 418,
      "ubl": 419,
      "▁li": 420,
      "▁inf": 421,
      "we": 422,
      "▁ear": 423,
      "▁see": 424,
      "▁may": 425,
      "▁app": 426,
      "ced": 427,
      "▁ma": 428,
      "▁when": 429,
      "▁do": 430,
      "▁la": 431,
      "amp": 432,
      "▁out": 433,
      "ten": 434,
      "wn": 435,
      "▁time": 436,
      "low": 437,
      "▁into": 438,
      "reat": 439,
      "ans": 440,
      "▁pres": 441,
      "ual": 442,
      "ious": 443,
      "▁play": 444,
      "▁these": 445,
      "ft": 446,
      "ind": 447,
      "▁hist": 448,
      "stem": 449,
      "ents": 450,
      "▁jo": 451,
      "▁war": 452,
      "▁inter": 453,
      "▁up": 454,
      "▁world": 455,
      "▁only": 456,
      "▁than": 457,
      "aus": 458,
      "ied": 459,
      "▁bet": 460,
      "ug": 461,
      "ved": 462,
      "▁mus": 463,
      "▁acc": 464,
      "▁system": 465,
      "▁under": 466,
      "▁reg": 467,
      "ings": 468,
      "▁off": 469,
      "▁char": 470,
      "▁pop": 471,
      "▁gener": 472,
      "ative": 473,
      "▁sub": 474,
      "▁ass": 475,
      "▁att": 476,
      "▁num": 477,
      "int": 478,
      "▁ap": 479,
      "▁ev": 480,
      "very": 481,
      "▁will": 482,
      "▁count": 483,
      "▁call": 484,
      "uring": 485,
      "▁mon": 486,
      "▁ed": 487,
      "▁would": 488,
      "▁ac": 489,
      "▁car": 490,
      "▁def": 491,
      "rib": 492,
      "ys": 493,
      "rans": 494,
      "▁fl": 495,
      "▁bas": 496,
      "▁uni": 497,
      "▁hig": 498,
      "ll": 499,
      "▁rep": 500,
      "▁her": 501,
      "ific": 502,
      "▁lar": 503,
      "vern": 504,
      "▁trans": 505,
      "ons": 506,
      "▁met": 507,
      "dition": 508,
      "▁min": 509,
      "▁dif": 510,
      "▁produ": 511,
      "ds": 512,
      "ade": 513,
      "ever": 514,
      "ck": 515,
      "ution": 516,
      "ject": 517,
      "oth": 518,
      "▁art": 519,
      "▁govern": 520,
      "▁lin": 521,
      "ric": 522,
      "ists": 523,
      "▁par": 524,
      "▁them": 525,
      "iet": 526,
      "▁however": 527,
      "▁inst": 528,
      "ween": 529,
      "▁lo": 530,
      "▁between": 531,
      "iss": 532,
      "▁peop": 533,
      "ident": 534,
      "gr": 535,
      "ep": 536,
      "red": 537,
      "▁about": 538,
      "gan": 539,
      "▁ob": 540,
      "▁use": 541,
      "▁states": 542,
      "▁inc": 543,
      "▁work": 544,
      "ake": 545,
      "▁sim": 546,
      "▁x": 547,
      "▁lang": 548,
      "erman": 549,
      "▁mem": 550,
      "▁publ": 551,
      "ays": 552,
      "ron": 553,
      "▁if": 554,
      "oup": 555,
      "▁years": 556,
      "orn": 557,
      "▁eu": 558,
      "ient": 559,
      "▁him": 560,
      "▁writ": 561,
      "▁thr": 562,
      "ood": 563,
      "▁people": 564,
      "▁pos": 565,
      "cial": 566,
      "ail": 567,
      "io": 568,
      "▁during": 569,
      "ince": 570,
      "▁langu": 571,
      "ities": 572,
      "ually": 573,
      "als": 574,
      "ild": 575,
      "▁united": 576,
      "ily": 577,
      "▁known": 578,
      "▁rem": 579,
      "▁fol": 580,
      "lish": 581,
      "▁inv": 582,
      "▁called": 583,
      "▁any": 584,
      "cept": 585,
      "ower": 586,
      "▁fil": 587,
      "cy": 588,
      "▁where": 589,
      "ral": 590,
      "ert": 591,
      "▁sm": 592,
      "urn": 593,
      "ury": 594,
      "old": 595,
      "▁fin": 596,
      "▁aut": 597,
      "hes": 598,
      "▁univers": 599,
      "ife": 600,
      "▁gu": 601,
      "ond": 602,
      "▁br": 603,
      "▁bel": 604,
      "ology": 605,
      "▁brit": 606,
      "▁german": 607,
      "▁sch": 608,
      "▁var": 609,
      "ause": 610,
      "▁sa": 611,
      "▁supp": 612,
      "▁through": 613,
      "ating": 614,
      "ne": 615,
      "▁state": 616,
      "ward": 617,
      "▁dist": 618,
      "▁sou": 619,
      "ures": 620,
      "▁often": 621,
      "▁pers": 622,
      "▁cap": 623,
      "▁ent": 624,
      "li": 625,
      "▁ext": 626,
      "ible": 627,
      "▁term": 628,
      "▁est": 629,
      "hem": 630,
      "ments": 631,
      "ale": 632,
      "▁const": 633,
      "▁fran": 634,
      "▁main": 635,
      "ames": 636,
      "▁fam": 637,
      "▁group": 638,
      "▁history": 639,
      "velop": 640,
      "▁mat": 641,
      "cess": 642,
      "raph": 643,
      "▁bro": 644,
      "ick": 645,
      "imes": 646,
      "ise": 647,
      "ically": 648,
      "uc": 649,
      "▁ge": 650,
      "▁differ": 651,
      "▁elect": 652,
      "▁euro": 653,
      "rist": 654,
      "form": 655,
      "▁king": 656,
      "ins": 657,
      "▁intern": 658,
      "▁while": 659,
      "▁soc": 660,
      "▁city": 661,
      "▁set": 662,
      "▁develop": 663,
      "▁high": 664,
      "▁nor": 665,
      "▁well": 666,
      "▁like": 667,
      "▁refer": 668,
      "▁med": 669,
      "▁orig": 670,
      "▁follow": 671,
      "▁again": 672,
      "▁found": 673,
      "▁fun": 674,
      "ah": 675,
      "▁exp": 676,
      "▁english": 677,
      "▁she": 678,
      "▁being": 679,
      "▁then": 680,
      "▁number": 681,
      "tle": 682,
      "ages": 683,
      "▁ty": 684,
      "▁made": 685,
      "man": 686,
      "▁both": 687,
      "▁end": 688,
      "ble": 689,
      "ost": 690,
      "ished": 691,
      "uss": 692,
      "▁air": 693,
      "▁imp": 694,
      "hip": 695,
      "ctions": 696,
      "ider": 697,
      "fore": 698,
      "▁joh": 699,
      "▁bu": 700,
      "▁disc": 701,
      "▁mil": 702,
      "▁government": 703,
      "iel": 704,
      "▁rom": 705,
      "▁hum": 706,
      "ines": 707,
      "▁christ": 708,
      "▁law": 709,
      "ather": 710,
      "ians": 711,
      "▁stud": 712,
      "▁common": 713,
      "ted": 714,
      "▁prov": 715,
      "▁europe": 716,
      "▁polit": 717,
      "▁long": 718,
      "▁eff": 719,
      "▁later": 720,
      "its": 721,
      "ract": 722,
      "▁film": 723,
      "▁dire": 724,
      "ature": 725,
      "▁cur": 726,
      "▁sur": 727,
      "▁dep": 728,
      "other": 729,
      "ton": 730,
      "▁mu": 731,
      "▁loc": 732,
      "bers": 733,
      "ized": 734,
      "▁cre": 735,
      "▁name": 736,
      "ural": 737,
      "▁origin": 738,
      "▁national": 739,
      "▁arm": 740,
      "omet": 741,
      "▁sign": 742,
      "▁commun": 743,
      "▁john": 744,
      "▁since": 745,
      "▁class": 746,
      "▁sever": 747,
      "▁dec": 748,
      "▁str": 749,
      "ful": 750,
      "▁maj": 751,
      "▁je": 752,
      "▁century": 753,
      "iew": 754,
      "▁cor": 755,
      "▁ret": 756,
      "ty": 757,
      "▁dem": 758,
      "▁cal": 759,
      "▁because": 760,
      "▁music": 761,
      "ving": 762,
      "▁lead": 763,
      "az": 764,
      "▁colle": 765,
      "rent": 766,
      "ision": 767,
      "▁ke": 768,
      "▁leg": 769,
      "▁life": 770,
      "▁great": 771,
      "▁university": 772,
      "▁early": 773,
      "row": 774,
      "ork": 775,
      "ined": 776,
      "ann": 777,
      "conom": 778,
      "▁contro": 779,
      "ample": 780,
      "▁british": 781,
      "▁major": 782,
      "▁year": 783,
      "▁partic": 784,
      "▁mod": 785,
      "▁day": 786,
      "▁large": 787,
      "arch": 788,
      "▁even": 789,
      "▁sing": 790,
      "led": 791,
      "▁right": 792,
      "▁power": 793,
      "▁econom": 794,
      "▁consider": 795,
      "▁own": 796,
      "▁same": 797,
      "chn": 798,
      "▁list": 799,
      "ros": 800,
      "ograph": 801,
      "▁lit": 802,
      "ility": 803,
      "▁comple": 804,
      "ues": 805,
      "▁secon": 806,
      "▁including": 807,
      "gram": 808,
      "▁charact": 809,
      "ger": 810,
      "xt": 811,
      "▁became": 812,
      "▁equ": 813,
      "▁contin": 814,
      "▁gre": 815,
      "▁ir": 816,
      "▁example": 817,
      "▁op": 818,
      "▁each": 819,
      "▁val": 820,
      "▁el": 821,
      "▁es": 822,
      "▁comput": 823,
      "▁god": 824,
      "ium": 825,
      "▁oper": 826,
      "▁language": 827,
      "▁desc": 828,
      "▁occ": 829,
      "ulation": 830,
      "ier": 831,
      "▁alth": 832,
      "elf": 833,
      "▁death": 834,
      "ves": 835,
      "ives": 836,
      "ences": 837,
      "▁general": 838,
      "▁although": 839,
      "ik": 840,
      "▁sl": 841,
      "▁island": 842,
      "▁spec": 843,
      "▁direct": 844,
      "▁moder": 845,
      "▁several": 846,
      "▁pri": 847,
      "▁import": 848,
      "▁second": 849,
      "ters": 850,
      "▁different": 851,
      "▁det": 852,
      "ange": 853,
      "pect": 854,
      "▁appe": 855,
      "▁fre": 856,
      "ning": 857,
      "▁stand": 858,
      "▁techn": 859,
      "rench": 860,
      "▁organ": 861,
      "▁ant": 862,
      "▁small": 863,
      "▁very": 864,
      "▁bat": 865,
      "▁phil": 866,
      "▁much": 867,
      "▁har": 868,
      "▁french": 869,
      "▁sw": 870,
      "▁before": 871,
      "▁result": 872,
      "▁south": 873,
      "▁ins": 874,
      "▁offic": 875,
      "▁program": 876,
      "ience": 877,
      "urch": 878,
      "▁what": 879,
      "atic": 880,
      "▁now": 881,
      "▁conf": 882,
      "▁gl": 883,
      "gy": 884,
      "ock": 885,
      "▁north": 886,
      "▁ii": 887,
      "▁design": 888,
      "ool": 889,
      "hen": 890,
      "vent": 891,
      "▁aust": 892,
      "▁public": 893,
      "▁cult": 894,
      "de": 895,
      "▁old": 896,
      "▁pa": 897,
      "els": 898,
      "ought": 899,
      "▁er": 900,
      "▁could": 901,
      "ica": 902,
      "▁land": 903,
      "▁rev": 904,
      "▁against": 905,
      "ants": 906,
      "▁modern": 907,
      "ital": 908,
      "▁my": 909,
      "ternal": 910,
      "▁gra": 911,
      "▁links": 912,
      "▁fact": 913,
      "▁dr": 914,
      "ruct": 915,
      "rop": 916,
      "ains": 917,
      "▁belie": 918,
      "▁cour": 919,
      "▁bar": 920,
      "▁based": 921,
      "ional": 922,
      "▁those": 923,
      "gest": 924,
      "▁back": 925,
      "ouse": 926,
      "▁port": 927,
      "▁order": 928,
      "▁person": 929,
      "aim": 930,
      "ained": 931,
      "ob": 932,
      "ov": 933,
      "▁mark": 934,
      "ute": 935,
      "ina": 936,
      "aking": 937,
      "▁cr": 938,
      "ave": 939,
      "▁unt": 940,
      "osed": 941,
      "▁president": 942,
      "▁hand": 943,
      "▁div": 944,
      "up": 945,
      "▁another": 946,
      "ived": 947,
      "olution": 948,
      "▁external": 949,
      "ries": 950,
      "▁poss": 951,
      "way": 952,
      "ull": 953,
      "▁record": 954,
      "▁lat": 955,
      "ting": 956,
      "▁game": 957,
      "▁show": 958,
      "▁human": 959,
      "▁auth": 960,
      "▁non": 961,
      "▁popular": 962,
      "▁country": 963,
      "▁somet": 964,
      "oy": 965,
      "ode": 966,
      "▁ref": 967,
      "ccess": 968,
      "▁pat": 969,
      "get": 970,
      "▁series": 971,
      "▁hy": 972,
      "▁mag": 973,
      "▁you": 974,
      "ield": 975,
      "▁expl": 976,
      "▁free": 977,
      "▁av": 978,
      "▁support": 979,
      "▁still": 980,
      "ament": 981,
      "▁requ": 982,
      "▁tradition": 983,
      "▁book": 984,
      "ared": 985,
      "▁effect": 986,
      "▁international": 987,
      "▁until": 988,
      "▁conc": 989,
      "ged": 990,
      "▁milit": 991,
      "enn": 992,
      "▁prot": 993,
      "▁vers": 994,
      "▁ter": 995,
      "ased": 996,
      "▁serv": 997,
      "▁did": 998,
      "bert": 999,
      "▁run": 1000,
      "▁sec": 1001,
      "ense": 1002,
      "▁mid": 1003,
      "oph": 1004,
      "ired": 1005,
      "▁rad": 1006,
      "▁line": 1007,
      "▁mill": 1008,
      "ason": 1009,
      "▁just": 1010,
      "▁infl": 1011,
      "▁stat": 1012,
      "▁church": 1013,
      "▁tr": 1014,
      "que": 1015,
      "iod": 1016,
      "▁success": 1017,
      "min": 1018,
      "ently": 1019,
      "▁dom": 1020,
      "▁inform": 1021,
      "▁add": 1022,
      "▁process": 1023,
      "▁compan": 1024,
      "ization": 1025,
      "ret": 1026,
      "▁net": 1027,
      "▁artic": 1028,
      "ley": 1029,
      "▁school": 1030,
      "▁way": 1031,
      "▁jew": 1032,
      "▁political": 1033,
      "ius": 1034,
      "ided": 1035,
      "ner": 1036,
      "▁opp": 1037,
      "▁party": 1038,
      "▁pass": 1039,
      "▁fo": 1040,
      "▁arg": 1041,
      "▁character": 1042,
      "▁sk": 1043,
      "▁west": 1044,
      "air": 1045,
      "▁rele": 1046,
      "▁point": 1047,
      "ories": 1048,
      "▁real": 1049,
      "▁prop": 1050,
      "▁allow": 1051,
      "▁relig": 1052,
      "▁usually": 1053,
      "▁incre": 1054,
      "ank": 1055,
      "▁bir": 1056,
      "▁roman": 1057,
      "▁di": 1058,
      "▁crit": 1059,
      "▁bre": 1060,
      "▁down": 1061,
      "▁among": 1062,
      "ices": 1063,
      "ised": 1064,
      "▁phys": 1065,
      "▁typ": 1066,
      "mber": 1067,
      "co": 1068,
      "ene": 1069,
      "por": 1070,
      "▁adv": 1071,
      "ness": 1072,
      "▁bi": 1073,
      "ister": 1074,
      "▁open": 1075,
      "▁eas": 1076,
      "▁gree": 1077,
      "iation": 1078,
      "ms": 1079,
      "▁histor": 1080,
      "bo": 1081,
      "▁last": 1082,
      "ides": 1083,
      "ator": 1084,
      "ross": 1085,
      "au": 1086,
      "▁official": 1087,
      "▁theory": 1088,
      "ified": 1089,
      "▁area": 1090,
      "▁near": 1091,
      "▁around": 1092,
      "▁fore": 1093,
      "ark": 1094,
      "day": 1095,
      "▁every": 1096,
      "▁arch": 1097,
      "▁include": 1098,
      "▁nat": 1099,
      "▁period": 1100,
      "▁short": 1101,
      "yn": 1102,
      "ata": 1103,
      "ilar": 1104,
      "▁author": 1105,
      "me": 1106,
      "dom": 1107,
      "▁coun": 1108,
      "▁view": 1109,
      "ases": 1110,
      "bs": 1111,
      "▁claim": 1112,
      "▁child": 1113,
      "▁left": 1114,
      "ball": 1115,
      "▁tri": 1116,
      "▁repres": 1117,
      "ets": 1118,
      "▁sol": 1119,
      "▁move": 1120,
      "▁military": 1121,
      "▁members": 1122,
      "inc": 1123,
      "▁population": 1124,
      "▁far": 1125,
      "▁head": 1126,
      "▁similar": 1127,
      "ash": 1128,
      "▁using": 1129,
      "▁exper": 1130,
      "▁though": 1131,
      "ese": 1132,
      "▁gi": 1133,
      "▁russ": 1134,
      "amed": 1135,
      "▁let": 1136,
      "ably": 1137,
      "ware": 1138,
      "▁jap": 1139,
      "▁ep": 1140,
      "▁particular": 1141,
      "iety": 1142,
      "▁mean": 1143,
      "▁press": 1144,
      "▁east": 1145,
      "▁following": 1146,
      "▁ide": 1147,
      "ze": 1148,
      "▁dra": 1149,
      "son": 1150,
      "▁ri": 1151,
      "▁japan": 1152,
      "yl": 1153,
      "▁vol": 1154,
      "▁within": 1155,
      "▁current": 1156,
      "▁ang": 1157,
      "▁bod": 1158,
      "▁tele": 1159,
      "▁bra": 1160,
      "iving": 1161,
      "▁prof": 1162,
      "ued": 1163,
      "imate": 1164,
      "▁mic": 1165,
      "▁house": 1166,
      "ec": 1167,
      "▁canad": 1168,
      "▁rest": 1169,
      "▁lab": 1170,
      "▁bus": 1171,
      "▁tem": 1172,
      "▁ste": 1173,
      "ax": 1174,
      "ize": 1175,
      "▁hol": 1176,
      "▁influ": 1177,
      "▁standard": 1178,
      "▁hel": 1179,
      "erv": 1180,
      "▁due": 1181,
      "iction": 1182,
      "▁hun": 1183,
      "▁important": 1184,
      "gin": 1185,
      "▁appro": 1186,
      "▁light": 1187,
      "ript": 1188,
      "▁ve": 1189,
      "▁del": 1190,
      "▁christian": 1191,
      "▁perform": 1192,
      "▁considered": 1193,
      "▁mac": 1194,
      "▁less": 1195,
      "ane": 1196,
      "▁alb": 1197,
      "▁social": 1198,
      "▁mal": 1199,
      "▁civ": 1200,
      "▁vi": 1201,
      "▁computer": 1202,
      "▁exist": 1203,
      "▁water": 1204,
      "amm": 1205,
      "▁accord": 1206,
      "▁cir": 1207,
      "▁pract": 1208,
      "▁home": 1209,
      "ertain": 1210,
      "▁sour": 1211,
      "▁family": 1212,
      "▁start": 1213,
      "rodu": 1214,
      "▁jud": 1215,
      "▁word": 1216,
      "▁information": 1217,
      "ths": 1218,
      "ony": 1219,
      "ended": 1220,
      "▁philos": 1221,
      "▁european": 1222,
      "epend": 1223,
      "akes": 1224,
      "▁wes": 1225,
      "▁independ": 1226,
      "▁sometimes": 1227,
      "▁ann": 1228,
      "▁win": 1229,
      "ument": 1230,
      "▁assoc": 1231,
      "▁does": 1232,
      "▁dev": 1233,
      "▁civil": 1234,
      "▁republ": 1235,
      "▁meth": 1236,
      "▁mor": 1237,
      "▁sym": 1238,
      "▁times": 1239,
      "▁control": 1240,
      "▁cy": 1241,
      "▁without": 1242,
      "▁miss": 1243,
      "ography": 1244,
      "▁make": 1245,
      "hing": 1246,
      "ler": 1247,
      "▁ber": 1248,
      "▁given": 1249,
      "▁present": 1250,
      "par": 1251,
      "▁represent": 1252,
      "▁place": 1253,
      "▁lim": 1254,
      "▁read": 1255,
      "▁estab": 1256,
      "▁proble": 1257,
      "ster": 1258,
      "▁ital": 1259,
      "▁born": 1260,
      "▁cle": 1261,
      "tal": 1262,
      "▁appl": 1263,
      "▁fur": 1264,
      "▁thir": 1265,
      "▁addition": 1266,
      "▁describ": 1267,
      "▁good": 1268,
      "▁top": 1269,
      "▁level": 1270,
      "na": 1271,
      "▁few": 1272,
      "ither": 1273,
      "▁emp": 1274,
      "▁space": 1275,
      "▁hal": 1276,
      "▁austral": 1277,
      "▁should": 1278,
      "▁mass": 1279,
      "▁team": 1280,
      "▁black": 1281,
      "▁case": 1282,
      "▁union": 1283,
      "▁cat": 1284,
      "▁central": 1285,
      "che": 1286,
      "▁age": 1287,
      "▁red": 1288,
      "▁pur": 1289,
      "oss": 1290,
      "▁vis": 1291,
      "empt": 1292,
      "▁rul": 1293,
      "lect": 1294,
      "▁york": 1295,
      "amb": 1296,
      "oks": 1297,
      "ison": 1298,
      "▁led": 1299,
      "▁circ": 1300,
      "bn": 1301,
      "eng": 1302,
      "ological": 1303,
      "read": 1304,
      "▁various": 1305,
      "▁thus": 1306,
      "▁wom": 1307,
      "▁science": 1308,
      "une": 1309,
      "ential": 1310,
      "▁earth": 1311,
      "ency": 1312,
      "ration": 1313,
      "▁aff": 1314,
      "▁become": 1315,
      "▁systems": 1316,
      "ps": 1317,
      "less": 1318,
      "▁ho": 1319,
      "▁isbn": 1320,
      "▁countries": 1321,
      "▁mot": 1322,
      "▁super": 1323,
      "istic": 1324,
      "ination": 1325,
      "▁comb": 1326,
      "▁western": 1327,
      "▁ca": 1328,
      "▁best": 1329,
      "▁must": 1330,
      "▁da": 1331,
      "▁mult": 1332,
      "▁others": 1333,
      "▁return": 1334,
      "▁according": 1335,
      "▁article": 1336,
      "▁ver": 1337,
      "▁men": 1338,
      "▁mer": 1339,
      "▁chang": 1340,
      "▁rece": 1341,
      "▁player": 1342,
      "ried": 1343,
      "▁special": 1344,
      "▁tit": 1345,
      "▁languages": 1346,
      "▁treat": 1347,
      "cing": 1348,
      "▁hen": 1349,
      "▁resp": 1350,
      "ling": 1351,
      "▁der": 1352,
      "▁du": 1353,
      "▁never": 1354,
      "▁indust": 1355,
      "ple": 1356,
      "tic": 1357,
      "ats": 1358,
      "▁song": 1359,
      "▁object": 1360,
      "▁began": 1361,
      "ots": 1362,
      "▁camp": 1363,
      "▁former": 1364,
      "▁foot": 1365,
      "▁method": 1366,
      "▁proper": 1367,
      "▁test": 1368,
      "▁kill": 1369,
      "▁generally": 1370,
      "▁cop": 1371,
      "▁original": 1372,
      "urg": 1373,
      "ways": 1374,
      "▁need": 1375,
      "ink": 1376,
      "▁anim": 1377,
      "▁iss": 1378,
      "▁struct": 1379,
      "iam": 1380,
      "over": 1381,
      "▁written": 1382,
      "▁sum": 1383,
      "▁den": 1384,
      "▁works": 1385,
      "▁sal": 1386,
      "ones": 1387,
      "▁development": 1388,
      "▁force": 1389,
      "ivid": 1390,
      "▁imm": 1391,
      "ott": 1392,
      "lo": 1393,
      "▁turn": 1394,
      "▁eth": 1395,
      "ae": 1396,
      "▁introdu": 1397,
      "▁geor": 1398,
      "▁attempt": 1399,
      "▁single": 1400,
      "▁post": 1401,
      "gress": 1402,
      "eder": 1403,
      "▁prim": 1404,
      "▁constit": 1405,
      "▁france": 1406,
      "▁further": 1407,
      "ality": 1408,
      "▁low": 1409,
      "▁know": 1410,
      "ai": 1411,
      "ior": 1412,
      "▁anc": 1413,
      "▁che": 1414,
      "uted": 1415,
      "aced": 1416,
      "▁band": 1417,
      "▁individ": 1418,
      "ming": 1419,
      "▁km": 1420,
      "▁log": 1421,
      "▁pet": 1422,
      "▁vir": 1423,
      "▁relations": 1424,
      "▁groups": 1425,
      "line": 1426,
      "▁wide": 1427,
      "ring": 1428,
      "▁ident": 1429,
      "▁event": 1430,
      "▁late": 1431,
      "▁report": 1432,
      "▁cell": 1433,
      "▁obs": 1434,
      "ove": 1435,
      "▁dav": 1436,
      "▁et": 1437,
      "▁kingdom": 1438,
      "▁liter": 1439,
      "alth": 1440,
      "lex": 1441,
      "▁engine": 1442,
      "▁england": 1443,
      "▁along": 1444,
      "▁jan": 1445,
      "▁build": 1446,
      "▁son": 1447,
      "self": 1448,
      "▁repl": 1449,
      "▁aug": 1450,
      "▁fa": 1451,
      "▁body": 1452,
      "▁mathem": 1453,
      "▁rather": 1454,
      "ively": 1455,
      "▁function": 1456,
      "ival": 1457,
      "▁position": 1458,
      "▁data": 1459,
      "▁individual": 1460,
      "ances": 1461,
      "▁greek": 1462,
      "olic": 1463,
      "yle": 1464,
      "▁invol": 1465,
      "cially": 1466,
      "▁court": 1467,
      "▁games": 1468,
      "▁base": 1469,
      "wards": 1470,
      "▁named": 1471,
      "▁field": 1472,
      "▁germany": 1473,
      "ges": 1474,
      "▁beh": 1475,
      "▁scient": 1476,
      "▁lond": 1477,
      "▁soft": 1478,
      "tt": 1479,
      "▁liber": 1480,
      "▁ara": 1481,
      "▁anal": 1482,
      "▁sea": 1483,
      "▁star": 1484,
      "▁said": 1485,
      "ague": 1486,
      "▁battle": 1487,
      "▁ju": 1488,
      "▁version": 1489,
      "▁million": 1490,
      "▁london": 1491,
      "▁nort": 1492,
      "▁decl": 1493,
      "ches": 1494,
      "▁company": 1495,
      "▁natural": 1496,
      "▁economic": 1497,
      "▁capital": 1498,
      "app": 1499,
      "▁published": 1500,
      "cul": 1501,
      "▁army": 1502,
      "▁project": 1503,
      "aster": 1504,
      "rael": 1505,
      "▁strong": 1506,
      "▁rese": 1507,
      "▁bal": 1508,
      "▁occur": 1509,
      "▁fem": 1510,
      "▁certain": 1511,
      "by": 1512,
      "ma": 1513,
      "▁pal": 1514,
      "▁interest": 1515,
      "ites": 1516,
      "ote": 1517,
      "▁sun": 1518,
      "▁caus": 1519,
      "ogn": 1520,
      "▁news": 1521,
      "▁hard": 1522,
      "▁product": 1523,
      "▁mater": 1524,
      "▁either": 1525,
      "▁sov": 1526,
      "▁take": 1527,
      "▁empire": 1528,
      "▁grow": 1529,
      "cil": 1530,
      "work": 1531,
      "▁fr": 1532,
      "ention": 1533,
      "▁soviet": 1534,
      "▁bill": 1535,
      "aining": 1536,
      "ends": 1537,
      "▁service": 1538,
      "han": 1539,
      "▁care": 1540,
      "▁developed": 1541,
      "ern": 1542,
      "▁israel": 1543,
      "▁syn": 1544,
      "▁wal": 1545,
      "raft": 1546,
      "▁college": 1547,
      "▁republic": 1548,
      "▁full": 1549,
      "▁cath": 1550,
      "▁william": 1551,
      "▁total": 1552,
      "most": 1553,
      "ilt": 1554,
      "▁youn": 1555,
      "mer": 1556,
      "aps": 1557,
      "▁educ": 1558,
      "▁america": 1559,
      "▁held": 1560,
      "ipp": 1561,
      "▁today": 1562,
      "▁local": 1563,
      "ule": 1564,
      "▁ill": 1565,
      "ification": 1566,
      "▁river": 1567,
      "▁means": 1568,
      "aw": 1569,
      "▁sat": 1570,
      "▁espe": 1571,
      "ured": 1572,
      "▁father": 1573,
      "▁separ": 1574,
      "▁norm": 1575,
      "▁third": 1576,
      "▁august": 1577,
      "ctor": 1578,
      "aken": 1579,
      "itive": 1580,
      "▁sug": 1581,
      "etic": 1582,
      "ids": 1583,
      "▁white": 1584,
      "dle": 1585,
      "idence": 1586,
      "▁chem": 1587,
      "▁especially": 1588,
      "▁forces": 1589,
      "▁ce": 1590,
      "▁town": 1591,
      "▁ps": 1592,
      "lin": 1593,
      "gen": 1594,
      "▁hom": 1595,
      "▁concept": 1596,
      "▁material": 1597,
      "▁rock": 1598,
      "▁mount": 1599,
      "ication": 1600,
      "▁dest": 1601,
      "▁prev": 1602,
      "▁society": 1603,
      "▁sound": 1604,
      "ruction": 1605,
      "arian": 1606,
      "▁books": 1607,
      "anish": 1608,
      "▁subject": 1609,
      "▁possible": 1610,
      "▁side": 1611,
      "▁center": 1612,
      "▁philosoph": 1613,
      "rew": 1614,
      "▁frequ": 1615,
      "▁enc": 1616,
      "be": 1617,
      "ught": 1618,
      "▁famous": 1619,
      "▁text": 1620,
      "▁instit": 1621,
      "▁took": 1622,
      "▁tru": 1623,
      "▁ast": 1624,
      "▁democ": 1625,
      "▁lib": 1626,
      "▁deb": 1627,
      "▁meas": 1628,
      "osition": 1629,
      "▁novel": 1630,
      "iated": 1631,
      "yal": 1632,
      "▁mach": 1633,
      "uary": 1634,
      "▁transl": 1635,
      "▁oct": 1636,
      "▁children": 1637,
      "▁bor": 1638,
      "▁regard": 1639,
      "▁complete": 1640,
      "▁having": 1641,
      "▁defin": 1642,
      "▁activ": 1643,
      "▁ball": 1644,
      "▁plan": 1645,
      "verse": 1646,
      "▁appear": 1647,
      "ergy": 1648,
      "▁begin": 1649,
      "ox": 1650,
      "▁story": 1651,
      "▁princ": 1652,
      "▁came": 1653,
      "▁diff": 1654,
      "idge": 1655,
      "▁himself": 1656,
      "▁princip": 1657,
      "ember": 1658,
      "▁islands": 1659,
      "iness": 1660,
      "▁broad": 1661,
      "ability": 1662,
      "▁sex": 1663,
      "▁wind": 1664,
      "▁don": 1665,
      "vision": 1666,
      "▁days": 1667,
      "▁card": 1668,
      "▁anti": 1669,
      "▁tro": 1670,
      "emb": 1671,
      "▁q": 1672,
      "▁fall": 1673,
      "▁itself": 1674,
      "▁little": 1675,
      "▁seen": 1676,
      "▁uk": 1677,
      "▁avail": 1678,
      "▁vict": 1679,
      "▁culture": 1680,
      "ander": 1681,
      "ops": 1682,
      "▁words": 1683,
      "▁council": 1684,
      "▁dece": 1685,
      "▁express": 1686,
      "▁tre": 1687,
      "▁accept": 1688,
      "reme": 1689,
      "▁above": 1690,
      "▁emper": 1691,
      "▁type": 1692,
      "▁fra": 1693,
      "ored": 1694,
      "▁software": 1695,
      "▁largest": 1696,
      "▁find": 1697,
      "▁key": 1698,
      "▁upon": 1699,
      "▁region": 1700,
      "mit": 1701,
      "▁created": 1702,
      "▁role": 1703,
      "▁final": 1704,
      "▁prom": 1705,
      "▁references": 1706,
      "▁init": 1707,
      "▁rich": 1708,
      "ications": 1709,
      "▁foreign": 1710,
      "▁march": 1711,
      "▁image": 1712,
      "▁profess": 1713,
      "▁almost": 1714,
      "hern": 1715,
      "ising": 1716,
      "und": 1717,
      "▁territ": 1718,
      "▁code": 1719,
      "yr": 1720,
      "▁sel": 1721,
      "ission": 1722,
      "▁mov": 1723,
      "▁once": 1724,
      "osp": 1725,
      "▁album": 1726,
      "▁nav": 1727,
      "craft": 1728,
      "▁james": 1729,
      "▁jewish": 1730,
      "▁help": 1731,
      "ief": 1732,
      "▁league": 1733,
      "▁study": 1734,
      "▁gold": 1735,
      "▁religious": 1736,
      "▁ren": 1737,
      "▁january": 1738,
      "▁site": 1739,
      "val": 1740,
      "▁cross": 1741,
      "acks": 1742,
      "sequ": 1743,
      "ille": 1744,
      "▁member": 1745,
      "▁numbers": 1746,
      "▁thought": 1747,
      "▁mart": 1748,
      "▁minister": 1749,
      "▁areas": 1750,
      "▁movement": 1751,
      "ensive": 1752,
      "▁tur": 1753,
      "▁living": 1754,
      "▁exam": 1755,
      "aces": 1756,
      "▁community": 1757,
      "ino": 1758,
      "cer": 1759,
      "▁hit": 1760,
      "▁tour": 1761,
      "▁source": 1762,
      "▁bc": 1763,
      "▁played": 1764,
      "▁production": 1765,
      "▁fire": 1766,
      "▁david": 1767,
      "▁close": 1768,
      "iate": 1769,
      "▁tal": 1770,
      "▁released": 1771,
      "▁rights": 1772,
      "▁dou": 1773,
      "▁cost": 1774,
      "rict": 1775,
      "▁related": 1776,
      "umb": 1777,
      "go": 1778,
      "ators": 1779,
      "sel": 1780,
      "▁stre": 1781,
      "▁ess": 1782,
      "▁dig": 1783,
      "oms": 1784,
      "▁meaning": 1785,
      "▁ancient": 1786,
      "▁quest": 1787,
      "ril": 1788,
      "▁terms": 1789,
      "▁northern": 1790,
      "▁alex": 1791,
      "▁change": 1792,
      "here": 1793,
      "rian": 1794,
      "ending": 1795,
      "▁research": 1796,
      "▁pain": 1797,
      "▁won": 1798,
      "ald": 1799,
      "▁admin": 1800,
      "▁market": 1801,
      "▁establ": 1802,
      "▁becom": 1803,
      "cle": 1804,
      "▁fri": 1805,
      "▁exec": 1806,
      "inese": 1807,
      "▁middle": 1808,
      "side": 1809,
      "▁redu": 1810,
      "bol": 1811,
      "▁radio": 1812,
      "▁sent": 1813,
      "ploy": 1814,
      "▁energy": 1815,
      "▁os": 1816,
      "▁produced": 1817,
      "▁priv": 1818,
      "let": 1819,
      "▁actor": 1820,
      "▁making": 1821,
      "▁style": 1822,
      "ca": 1823,
      "▁december": 1824,
      "rug": 1825,
      "▁next": 1826,
      "▁women": 1827,
      "ows": 1828,
      "asing": 1829,
      "▁polic": 1830,
      "▁japanese": 1831,
      "▁died": 1832,
      "▁feder": 1833,
      "▁available": 1834,
      "ify": 1835,
      "ingu": 1836,
      "▁chinese": 1837,
      "▁model": 1838,
      "▁forms": 1839,
      "▁canada": 1840,
      "ead": 1841,
      "ificant": 1842,
      "▁complex": 1843,
      "ray": 1844,
      "▁might": 1845,
      "▁parli": 1846,
      "▁conn": 1847,
      "aries": 1848,
      "ford": 1849,
      "▁recogn": 1850,
      "▁pap": 1851,
      "▁earli": 1852,
      "▁prob": 1853,
      "hers": 1854,
      "ples": 1855,
      "atures": 1856,
      "▁television": 1857,
      "ints": 1858,
      "▁sept": 1859,
      "▁latin": 1860,
      "▁cover": 1861,
      "▁lou": 1862,
      "▁say": 1863,
      "ected": 1864,
      "ude": 1865,
      "▁china": 1866,
      "▁half": 1867,
      "▁constitution": 1868,
      "to": 1869,
      "▁established": 1870,
      "oint": 1871,
      "▁hor": 1872,
      "▁mathemat": 1873,
      "ham": 1874,
      "▁significant": 1875,
      "▁doc": 1876,
      "▁domin": 1877,
      "▁eastern": 1878,
      "▁ship": 1879,
      "▁env": 1880,
      "▁parliament": 1881,
      "▁arab": 1882,
      "ining": 1883,
      "▁july": 1884,
      "put": 1885,
      "▁toget": 1886,
      "chan": 1887,
      "▁george": 1888,
      "▁built": 1889,
      "▁micro": 1890,
      "ria": 1891,
      "▁together": 1892,
      "▁note": 1893,
      "▁inte": 1894,
      "▁green": 1895,
      "thern": 1896,
      "▁abs": 1897,
      "▁get": 1898,
      "▁paul": 1899,
      "▁suggest": 1900,
      "▁cann": 1901,
      "arily": 1902,
      "▁ox": 1903,
      "▁bur": 1904,
      "▁except": 1905,
      "▁viol": 1906,
      "▁condition": 1907,
      "▁charles": 1908,
      "▁que": 1909,
      "▁compet": 1910,
      "▁catholic": 1911,
      "ych": 1912,
      "▁ur": 1913,
      "▁parts": 1914,
      "▁instead": 1915,
      "▁indian": 1916,
      "▁business": 1917,
      "lam": 1918,
      "▁pot": 1919,
      "▁subst": 1920,
      "▁football": 1921,
      "▁trade": 1922,
      "▁heav": 1923,
      "▁india": 1924,
      "inal": 1925,
      "▁neg": 1926,
      "▁account": 1927,
      "face": 1928,
      "▁deg": 1929,
      "▁fail": 1930,
      "iron": 1931,
      "▁traditional": 1932,
      "▁june": 1933,
      "▁included": 1934,
      "▁underst": 1935,
      "ka": 1936,
      "uel": 1937,
      "mon": 1938,
      "▁big": 1939,
      "rican": 1940,
      "orts": 1941,
      "used": 1942,
      "▁revolution": 1943,
      "▁least": 1944,
      "▁live": 1945,
      "▁attack": 1946,
      "▁aud": 1947,
      "▁fight": 1948,
      "▁nove": 1949,
      "▁young": 1950,
      "▁altern": 1951,
      "▁stri": 1952,
      "▁cast": 1953,
      "▁capt": 1954,
      "▁dut": 1955,
      "utions": 1956,
      "▁prime": 1957,
      "▁commit": 1958,
      "ems": 1959,
      "br": 1960,
      "ering": 1961,
      "omb": 1962,
      "▁coast": 1963,
      "▁dan": 1964,
      "▁love": 1965,
      "▁economy": 1966,
      "▁entire": 1967,
      "▁mich": 1968,
      "▁always": 1969,
      "▁range": 1970,
      "ched": 1971,
      "▁put": 1972,
      "▁sit": 1973,
      "▁sold": 1974,
      "▁november": 1975,
      "▁emperor": 1976,
      "▁italian": 1977,
      "▁pen": 1978,
      "▁food": 1979,
      "▁environ": 1980,
      "▁past": 1981,
      "edia": 1982,
      "▁determ": 1983,
      "▁cro": 1984,
      "rote": 1985,
      "▁players": 1986,
      "▁spir": 1987,
      "apt": 1988,
      "▁trib": 1989,
      "▁cit": 1990,
      "▁april": 1991,
      "▁secret": 1992,
      "▁access": 1993,
      "ental": 1994,
      "▁ben": 1995,
      "▁san": 1996,
      "ront": 1997,
      "▁nature": 1998,
      "▁september": 1999,
      "▁sain": 2000,
      "uth": 2001,
      "▁creat": 2002,
      "icult": 2003,
      "▁cho": 2004,
      "▁taken": 2005,
      "ban": 2006,
      "▁lost": 2007,
      "▁previous": 2008,
      "▁southern": 2009,
      "ror": 2010,
      "▁self": 2011,
      "ama": 2012,
      "ober": 2013,
      "▁jour": 2014,
      "com": 2015,
      "▁season": 2016,
      "▁technology": 2017,
      "rie": 2018,
      "ta": 2019,
      "▁spanish": 2020,
      "burg": 2021,
      "▁rate": 2022,
      "ateg": 2023,
      "▁october": 2024,
      "▁commer": 2025,
      "▁desp": 2026,
      "▁recent": 2027,
      "rica": 2028,
      "ara": 2029,
      "▁ic": 2030,
      "▁grand": 2031,
      "▁fig": 2032,
      "ery": 2033,
      "▁relative": 2034,
      "rary": 2035,
      "▁ach": 2036,
      "▁constant": 2037,
      "ked": 2038,
      "▁squ": 2039,
      "ana": 2040,
      "▁royal": 2041,
      "▁network": 2042,
      "▁sen": 2043,
      "▁true": 2044,
      "▁lower": 2045,
      "▁reform": 2046,
      "▁our": 2047,
      "▁value": 2048,
      "▁feb": 2049,
      "ered": 2050,
      "▁russian": 2051,
      "▁uses": 2052,
      "ffic": 2053,
      "selves": 2054,
      "ira": 2055,
      "ux": 2056,
      "▁ta": 2057,
      "▁interp": 2058,
      "▁invest": 2059,
      "▁bud": 2060,
      "eth": 2061,
      "▁africa": 2062,
      "▁coll": 2063,
      "▁problem": 2064,
      "▁impro": 2065,
      "▁mur": 2066,
      "▁mechan": 2067,
      "oney": 2068,
      "▁wrote": 2069,
      "▁lord": 2070,
      "uf": 2071,
      "▁administ": 2072,
      "▁temper": 2073,
      "▁vide": 2074,
      "▁names": 2075,
      "▁ever": 2076,
      "▁whose": 2077,
      "▁gal": 2078,
      "▁rule": 2079,
      "▁fund": 2080,
      "▁feature": 2081,
      "▁sam": 2082,
      "▁historical": 2083,
      "▁prote": 2084,
      "▁come": 2085,
      "▁difficult": 2086,
      "▁psych": 2087,
      "pr": 2088,
      "▁distin": 2089,
      "▁distrib": 2090,
      "▁australia": 2091,
      "▁hon": 2092,
      "▁dam": 2093,
      "ien": 2094,
      "▁respect": 2095,
      "▁particularly": 2096,
      "▁minor": 2097,
      "▁structure": 2098,
      "ii": 2099,
      "▁frank": 2100,
      "▁thom": 2101,
      "ption": 2102,
      "▁african": 2103,
      "▁sil": 2104,
      "acy": 2105,
      "▁brother": 2106,
      "▁evidence": 2107,
      "▁hold": 2108,
      "▁techni": 2109,
      "▁symbol": 2110,
      "arn": 2111,
      "▁robert": 2112,
      "▁themselves": 2113,
      "▁hyd": 2114,
      "▁fut": 2115,
      "▁cases": 2116,
      "▁reason": 2117,
      "▁influence": 2118,
      "ceed": 2119,
      "▁adop": 2120,
      "ume": 2121,
      "▁phot": 2122,
      "ael": 2123,
      "▁convent": 2124,
      "▁referred": 2125,
      "af": 2126,
      "▁done": 2127,
      "▁too": 2128,
      "▁rail": 2129,
      "ucle": 2130,
      "▁multip": 2131,
      "uments": 2132,
      "▁continued": 2133,
      "▁nations": 2134,
      "▁below": 2135,
      "ney": 2136,
      "▁ten": 2137,
      "▁color": 2138,
      "▁host": 2139,
      "▁colon": 2140,
      "gypt": 2141,
      "ky": 2142,
      "▁here": 2143,
      "▁office": 2144,
      "▁throughout": 2145,
      "▁hop": 2146,
      "▁title": 2147,
      "▁female": 2148,
      "▁egypt": 2149,
      "▁therefore": 2150,
      "▁travel": 2151,
      "▁speed": 2152,
      "▁step": 2153,
      "▁magn": 2154,
      "▁febru": 2155,
      "▁independent": 2156,
      "▁bit": 2157,
      "key": 2158,
      "▁environment": 2159,
      "▁cities": 2160,
      "▁instr": 2161,
      "▁definition": 2162,
      "▁peace": 2163,
      "▁february": 2164,
      "▁night": 2165,
      "▁species": 2166,
      "▁critic": 2167,
      "▁fav": 2168,
      "▁education": 2169,
      "▁ground": 2170,
      "▁electron": 2171,
      "▁ec": 2172,
      "▁park": 2173,
      "▁irish": 2174,
      "▁philosophy": 2175,
      "▁democr": 2176,
      "bit": 2177,
      "rad": 2178,
      "▁command": 2179,
      "▁higher": 2180,
      "▁originally": 2181,
      "▁award": 2182,
      "▁internet": 2183,
      "▁legal": 2184,
      "▁bank": 2185,
      "ques": 2186,
      "▁sn": 2187,
      "ym": 2188,
      "▁acad": 2189,
      "▁successful": 2190,
      "▁wee": 2191,
      "▁laws": 2192,
      "▁amount": 2193,
      "asc": 2194,
      "▁vo": 2195,
      "▁clear": 2196,
      "▁ut": 2197,
      "▁writer": 2198,
      "▁films": 2199,
      "ula": 2200,
      "▁elements": 2201,
      "lim": 2202,
      "▁male": 2203,
      "▁nucle": 2204,
      "▁specific": 2205,
      "▁whether": 2206,
      "ledge": 2207,
      "▁islam": 2208,
      "▁despite": 2209,
      "▁tar": 2210,
      "▁eventually": 2211,
      "▁agree": 2212,
      "▁action": 2213,
      "ially": 2214,
      "den": 2215,
      "bon": 2216,
      "istics": 2217,
      "▁ire": 2218,
      "▁discuss": 2219,
      "▁described": 2220,
      "▁practice": 2221,
      "erous": 2222,
      "▁characters": 2223,
      "itz": 2224,
      "ached": 2225,
      "of": 2226,
      "▁chief": 2227,
      "▁mother": 2228,
      "▁max": 2229,
      "▁necess": 2230,
      "▁events": 2231,
      "▁web": 2232,
      "▁formed": 2233,
      "▁purp": 2234,
      "▁commonly": 2235,
      "▁wat": 2236,
      "▁cry": 2237,
      "▁bul": 2238,
      "▁received": 2239,
      "▁maint": 2240,
      "gor": 2241,
      "ires": 2242,
      "ania": 2243,
      "▁problems": 2244,
      "▁able": 2245,
      "ply": 2246,
      "oll": 2247,
      "▁disp": 2248,
      "▁jews": 2249,
      "▁speak": 2250,
      "king": 2251,
      "▁schol": 2252,
      "usion": 2253,
      "isc": 2254,
      "▁discover": 2255,
      "▁belief": 2256,
      "▁compos": 2257,
      "▁typically": 2258,
      "▁indic": 2259,
      "▁types": 2260,
      "▁lay": 2261,
      "▁club": 2262,
      "▁includes": 2263,
      "▁outside": 2264,
      "duct": 2265,
      "▁look": 2266,
      "ounced": 2267,
      "▁contrib": 2268,
      "rick": 2269,
      "▁physical": 2270,
      "uation": 2271,
      "▁personal": 2272,
      "▁page": 2273,
      "imately": 2274,
      "iding": 2275,
      "▁actually": 2276,
      "lands": 2277,
      "ari": 2278,
      "▁fiction": 2279,
      "▁ze": 2280,
      "asion": 2281,
      "▁transport": 2282,
      "istan": 2283,
      "aves": 2284,
      "▁deaths": 2285,
      "▁followed": 2286,
      "▁blood": 2287,
      "▁dri": 2288,
      "▁henry": 2289,
      "▁fac": 2290,
      "aring": 2291,
      "▁basic": 2292,
      "▁leader": 2293,
      "▁dial": 2294,
      "▁widely": 2295,
      "atives": 2296,
      "▁went": 2297,
      "ours": 2298,
      "▁academ": 2299,
      "ards": 2300,
      "▁controvers": 2301,
      "▁ord": 2302,
      "▁conserv": 2303,
      "▁relationship": 2304,
      "▁nob": 2305,
      "rap": 2306,
      "aged": 2307,
      "ams": 2308,
      "isl": 2309,
      "▁front": 2310,
      "nal": 2311,
      "▁mind": 2312,
      "▁quant": 2313,
      "ston": 2314,
      "ste": 2315,
      "▁champ": 2316,
      "ung": 2317,
      "▁inde": 2318,
      "▁leaders": 2319,
      "itect": 2320,
      "▁beginning": 2321,
      "▁elected": 2322,
      "▁wall": 2323,
      "anted": 2324,
      "inary": 2325,
      "oses": 2326,
      "▁offer": 2327,
      "▁defe": 2328,
      "lement": 2329,
      "itor": 2330,
      "▁mess": 2331,
      "▁tex": 2332,
      "▁movie": 2333,
      "▁building": 2334,
      "▁independence": 2335,
      "▁flow": 2336,
      "▁alph": 2337,
      "▁emb": 2338,
      "wor": 2339,
      "▁detail": 2340,
      "▁pow": 2341,
      "▁aircraft": 2342,
      "▁canadian": 2343,
      "▁ib": 2344,
      "▁spirit": 2345,
      "▁blue": 2346,
      "▁architect": 2347,
      "▁future": 2348,
      "▁ven": 2349,
      "▁hall": 2350,
      "ades": 2351,
      "▁occup": 2352,
      "▁births": 2353,
      "▁orth": 2354,
      "▁surv": 2355,
      "oted": 2356,
      "▁louis": 2357,
      "▁video": 2358,
      "▁birth": 2359,
      "▁consist": 2360,
      "▁electric": 2361,
      "▁scientific": 2362,
      "▁wood": 2363,
      "utes": 2364,
      "▁mary": 2365,
      "▁dyn": 2366,
      "▁simply": 2367,
      "igh": 2368,
      "ha": 2369,
      "▁size": 2370,
      "▁jes": 2371,
      "▁defined": 2372,
      "▁bran": 2373,
      "▁calif": 2374,
      "uck": 2375,
      "▁webs": 2376,
      "▁experim": 2377,
      "▁extreme": 2378,
      "ties": 2379,
      "▁industry": 2380,
      "▁edition": 2381,
      "▁cause": 2382,
      "▁examples": 2383,
      "▁approx": 2384,
      "▁californ": 2385,
      "rial": 2386,
      "▁increasing": 2387,
      "urity": 2388,
      "the": 2389,
      "▁dead": 2390,
      "▁myth": 2391,
      "▁employ": 2392,
      "▁mis": 2393,
      "▁leng": 2394,
      "hib": 2395,
      "▁respons": 2396,
      "▁believe": 2397,
      "▁stra": 2398,
      "▁your": 2399,
      "cript": 2400,
      "▁services": 2401,
      "▁health": 2402,
      "▁road": 2403,
      "▁idea": 2404,
      "ago": 2405,
      "▁soon": 2406,
      "▁points": 2407,
      "▁introduced": 2408,
      "bc": 2409,
      "ands": 2410,
      "iers": 2411,
      "▁tim": 2412,
      "▁cut": 2413,
      "▁manuf": 2414,
      "▁intell": 2415,
      "ression": 2416,
      "▁letter": 2417,
      "▁manufact": 2418,
      "▁gun": 2419,
      "▁deal": 2420,
      "▁britain": 2421,
      "▁achie": 2422,
      "▁federal": 2423,
      "▁features": 2424,
      "▁majority": 2425,
      "▁organization": 2426,
      "▁dim": 2427,
      "▁separate": 2428,
      "▁cannot": 2429,
      "▁bab": 2430,
      "▁ireland": 2431,
      "▁designed": 2432,
      "▁classical": 2433,
      "▁sense": 2434,
      "▁pun": 2435,
      "▁media": 2436,
      "ico": 2437,
      "▁writing": 2438,
      "▁collect": 2439,
      "hol": 2440,
      "atory": 2441,
      "▁required": 2442,
      "▁address": 2443,
      "▁associated": 2444,
      "▁franc": 2445,
      "▁hydro": 2446,
      "odes": 2447,
      "ump": 2448,
      "▁knowledge": 2449,
      "▁mix": 2450,
      "▁yet": 2451,
      "▁cam": 2452,
      "▁foc": 2453,
      "▁private": 2454,
      "▁california": 2455,
      "▁changes": 2456,
      "roy": 2457,
      "▁located": 2458,
      "▁mel": 2459,
      "aut": 2460,
      "ement": 2461,
      "ibility": 2462,
      "ises": 2463,
      "▁religion": 2464,
      "▁liberal": 2465,
      "▁unit": 2466,
      "▁rh": 2467,
      "▁believed": 2468,
      "wer": 2469,
      "▁sequ": 2470,
      "▁resour": 2471,
      "▁chemical": 2472,
      "▁integr": 2473,
      "▁away": 2474,
      "▁started": 2475,
      "▁reb": 2476,
      "▁aver": 2477,
      "▁fle": 2478,
      "▁meet": 2479,
      "▁poet": 2480,
      "▁assemb": 2481,
      "▁nation": 2482,
      "▁county": 2483,
      "ysis": 2484,
      "▁poly": 2485,
      "▁rules": 2486,
      "▁rob": 2487,
      "▁element": 2488,
      "▁studies": 2489,
      "▁understand": 2490,
      "▁congress": 2491,
      "▁mole": 2492,
      "▁intellig": 2493,
      "▁depart": 2494,
      "▁gas": 2495,
      "▁policy": 2496,
      "▁jose": 2497,
      "▁chann": 2498,
      "▁corn": 2499,
      "▁founded": 2500,
      "▁working": 2501,
      "▁sem": 2502,
      "itch": 2503,
      "▁currently": 2504,
      "cent": 2505,
      "iff": 2506,
      "berg": 2507,
      "▁election": 2508,
      "▁saw": 2509,
      "▁hung": 2510,
      "▁provide": 2511,
      "▁brought": 2512,
      "▁thomas": 2513,
      "ole": 2514,
      "hab": 2515,
      "▁weap": 2516,
      "▁corpor": 2517,
      "▁australian": 2518,
      "▁cart": 2519,
      "▁muse": 2520,
      "ension": 2521,
      "▁labor": 2522,
      "uit": 2523,
      "ols": 2524,
      "▁alle": 2525,
      "wh": 2526,
      "▁sus": 2527,
      "omp": 2528,
      "▁continu": 2529,
      "▁allowed": 2530,
      "▁russia": 2531,
      "hel": 2532,
      "▁greater": 2533,
      "▁earlier": 2534,
      "▁limited": 2535,
      "▁sup": 2536,
      "▁tax": 2537,
      "istry": 2538,
      "▁quick": 2539,
      "▁online": 2540,
      "▁pict": 2541,
      "▁kind": 2542,
      "▁association": 2543,
      "▁ban": 2544,
      "rated": 2545,
      "▁nar": 2546,
      "▁autom": 2547,
      "▁document": 2548,
      "▁iv": 2549,
      "▁mi": 2550,
      "ilities": 2551,
      "▁displ": 2552,
      "▁mostly": 2553,
      "▁evolution": 2554,
      "▁citiz": 2555,
      "▁across": 2556,
      "cast": 2557,
      "uk": 2558,
      "▁emer": 2559,
      "action": 2560,
      "▁added": 2561,
      "vin": 2562,
      "▁prec": 2563,
      "▁things": 2564,
      "▁atl": 2565,
      "▁simple": 2566,
      "med": 2567,
      "▁question": 2568,
      "▁mc": 2569,
      "▁ham": 2570,
      "▁chap": 2571,
      "▁require": 2572,
      "cies": 2573,
      "▁commercial": 2574,
      "rest": 2575,
      "▁singer": 2576,
      "▁saint": 2577,
      "▁effects": 2578,
      "▁sources": 2579,
      "▁growth": 2580,
      "sh": 2581,
      "▁legisl": 2582,
      "▁remains": 2583,
      "▁bound": 2584,
      "▁gave": 2585,
      "▁vari": 2586,
      "▁protest": 2587,
      "▁probably": 2588,
      "▁swed": 2589,
      "▁gar": 2590,
      "▁longer": 2591,
      "▁freed": 2592,
      "▁break": 2593,
      "▁richard": 2594,
      "▁reference": 2595,
      "▁oil": 2596,
      "▁pron": 2597,
      "▁dise": 2598,
      "▁drug": 2599,
      "ened": 2600,
      "▁map": 2601,
      "▁appoint": 2602,
      "▁killed": 2603,
      "▁career": 2604,
      "▁tom": 2605,
      "▁hyp": 2606,
      "▁museum": 2607,
      "enced": 2608,
      "▁division": 2609,
      "▁round": 2610,
      "▁musical": 2611,
      "▁cub": 2612,
      "cles": 2613,
      "ulf": 2614,
      "▁prince": 2615,
      "▁etc": 2616,
      "bor": 2617,
      "▁give": 2618,
      "ey": 2619,
      "▁nom": 2620,
      "ishing": 2621,
      "▁security": 2622,
      "▁obser": 2623,
      "▁counter": 2624,
      "▁length": 2625,
      "▁confl": 2626,
      "▁behav": 2627,
      "isms": 2628,
      "▁prevent": 2629,
      "▁better": 2630,
      "▁expect": 2631,
      "▁machine": 2632,
      "▁stories": 2633,
      "use": 2634,
      "▁rat": 2635,
      "▁keep": 2636,
      "▁money": 2637,
      "▁imper": 2638,
      "▁epis": 2639,
      "ician": 2640,
      "▁holy": 2641,
      "ctr": 2642,
      "▁ethn": 2643,
      "ij": 2644,
      "▁actress": 2645,
      "▁lake": 2646,
      "▁leading": 2647,
      "ga": 2648,
      "▁spain": 2649,
      "▁larger": 2650,
      "ls": 2651,
      "▁theore": 2652,
      "▁rout": 2653,
      "▁becomes": 2654,
      "▁opt": 2655,
      "▁parties": 2656,
      "▁id": 2657,
      "isions": 2658,
      "▁prize": 2659,
      "▁products": 2660,
      "▁scott": 2661,
      "ground": 2662,
      "▁remained": 2663,
      "▁pred": 2664,
      "▁muslim": 2665,
      "ffer": 2666,
      "▁website": 2667,
      "▁fort": 2668,
      "▁months": 2669,
      "▁cultural": 2670,
      "ulated": 2671,
      "▁lines": 2672,
      "▁territory": 2673,
      "▁moved": 2674,
      "hest": 2675,
      "▁wife": 2676,
      "▁hill": 2677,
      "▁politics": 2678,
      "▁pie": 2679,
      "ready": 2680,
      "iting": 2681,
      "▁beg": 2682,
      "▁largely": 2683,
      "▁categ": 2684,
      "▁cust": 2685,
      "▁contains": 2686,
      "▁fell": 2687,
      "▁makes": 2688,
      "▁companies": 2689,
      "ference": 2690,
      "▁famil": 2691,
      "▁dutch": 2692,
      "▁oce": 2693,
      "▁destroy": 2694,
      "▁kar": 2695,
      "rast": 2696,
      "haps": 2697,
      "▁perhaps": 2698,
      "▁tor": 2699,
      "▁lack": 2700,
      "▁establish": 2701,
      "ights": 2702,
      "stein": 2703,
      "▁library": 2704,
      "▁already": 2705,
      "▁iii": 2706,
      "▁mars": 2707,
      "▁rap": 2708,
      "▁corre": 2709,
      "▁agric": 2710,
      "▁appeared": 2711,
      "▁na": 2712,
      "▁mex": 2713,
      "▁matter": 2714,
      "▁happ": 2715,
      "antic": 2716,
      "▁mas": 2717,
      "▁era": 2718,
      "▁graph": 2719,
      "onic": 2720,
      "▁ey": 2721,
      "▁subsequ": 2722,
      "aign": 2723,
      "wood": 2724,
      "▁bene": 2725,
      "▁whole": 2726,
      "▁letters": 2727,
      "▁italy": 2728,
      "▁wil": 2729,
      "▁results": 2730,
      "▁fair": 2731,
      "▁laun": 2732,
      "▁pan": 2733,
      "▁jer": 2734,
      "▁particip": 2735,
      "▁produce": 2736,
      "▁bow": 2737,
      "▁journal": 2738,
      "▁fif": 2739,
      "▁calcul": 2740,
      "▁guit": 2741,
      "▁pay": 2742,
      "▁hot": 2743,
      "▁subs": 2744,
      "▁latter": 2745,
      "▁directly": 2746,
      "▁loss": 2747,
      "odox": 2748,
      "▁board": 2749,
      "▁surface": 2750,
      "▁status": 2751,
      "▁van": 2752,
      "▁highly": 2753,
      "▁glob": 2754,
      "▁caused": 2755,
      "▁district": 2756,
      "men": 2757,
      "ura": 2758,
      "▁ax": 2759,
      "▁fer": 2760,
      "ables": 2761,
      "▁measure": 2762,
      "▁ult": 2763,
      "itude": 2764,
      "▁native": 2765,
      "reg": 2766,
      "▁campaign": 2767,
      "aching": 2768,
      "▁michael": 2769,
      "lying": 2770,
      "▁director": 2771,
      "▁release": 2772,
      "▁metal": 2773,
      "▁authority": 2774,
      "▁treaty": 2775,
      "▁conver": 2776,
      "▁double": 2777,
      "▁tv": 2778,
      "▁ww": 2779,
      "urs": 2780,
      "▁virt": 2781,
      "▁consum": 2782,
      "va": 2783,
      "▁lic": 2784,
      "▁scot": 2785,
      "like": 2786,
      "▁implement": 2787,
      "▁asia": 2788,
      "▁washing": 2789,
      "▁concern": 2790,
      "kn": 2791,
      "ris": 2792,
      "win": 2793,
      "▁portug": 2794,
      "▁anth": 2795,
      "da": 2796,
      "▁moon": 2797,
      "▁programming": 2798,
      "▁date": 2799,
      "ya": 2800,
      "ift": 2801,
      "▁faith": 2802,
      "▁brown": 2803,
      "otes": 2804,
      "▁invent": 2805,
      "▁regular": 2806,
      "▁magaz": 2807,
      "▁creation": 2808,
      "▁whom": 2809,
      "ips": 2810,
      "▁playing": 2811,
      "▁conflict": 2812,
      "▁agricult": 2813,
      "▁wik": 2814,
      "▁mad": 2815,
      "view": 2816,
      "resp": 2817,
      "col": 2818,
      "▁married": 2819,
      "▁towards": 2820,
      "▁memory": 2821,
      "onents": 2822,
      "asons": 2823,
      "▁orthodox": 2824,
      "▁course": 2825,
      "▁issues": 2826,
      "▁sha": 2827,
      "▁cand": 2828,
      "ores": 2829,
      "▁heart": 2830,
      "ithm": 2831,
      "▁basis": 2832,
      "▁cele": 2833,
      "▁queen": 2834,
      "ging": 2835,
      "▁primary": 2836,
      "ini": 2837,
      "▁enough": 2838,
      "▁alexander": 2839,
      "▁rare": 2840,
      "▁remain": 2841,
      "▁sac": 2842,
      "▁digital": 2843,
      "ream": 2844,
      "▁dark": 2845,
      "▁kh": 2846,
      "▁rome": 2847,
      "icated": 2848,
      "▁provided": 2849,
      "▁functions": 2850,
      "uries": 2851,
      "▁demon": 2852,
      "▁cd": 2853,
      "▁analysis": 2854,
      "can": 2855,
      "▁replaced": 2856,
      "▁think": 2857,
      "▁hero": 2858,
      "aff": 2859,
      "▁claims": 2860,
      "▁literature": 2861,
      "▁peter": 2862,
      "▁joseph": 2863,
      "ee": 2864,
      "▁divided": 2865,
      "▁likely": 2866,
      "▁medical": 2867,
      "ding": 2868,
      "▁average": 2869,
      "▁vill": 2870,
      "▁property": 2871,
      "ivity": 2872,
      "▁students": 2873,
      "▁smith": 2874,
      "▁smaller": 2875,
      "▁street": 2876,
      "iles": 2877,
      "▁wars": 2878,
      "oura": 2879,
      "▁degree": 2880,
      "▁elections": 2881,
      "▁los": 2882,
      "het": 2883,
      "▁progress": 2884,
      "▁claimed": 2885,
      "▁draw": 2886,
      "oid": 2887,
      "▁performance": 2888,
      "▁alternative": 2889,
      "▁washington": 2890,
      "▁controll": 2891,
      "wise": 2892,
      "▁camb": 2893,
      "▁slow": 2894,
      "itation": 2895,
      "▁user": 2896,
      "▁carbon": 2897,
      "▁columb": 2898,
      "▁fal": 2899,
      "▁flag": 2900,
      "bi": 2901,
      "ection": 2902,
      "▁nearly": 2903,
      "for": 2904,
      "ously": 2905,
      "▁schools": 2906,
      "▁paris": 2907,
      "▁saf": 2908,
      "▁jesus": 2909,
      "▁gradu": 2910,
      "▁baseball": 2911,
      "▁industrial": 2912,
      "utive": 2913,
      "▁collection": 2914,
      "edy": 2915,
      "porary": 2916,
      "▁thous": 2917,
      "▁daught": 2918,
      "fl": 2919,
      "▁corresp": 2920,
      "▁commission": 2921,
      "riage": 2922,
      "▁quar": 2923,
      "▁finan": 2924,
      "▁contem": 2925,
      "▁programs": 2926,
      "▁review": 2927,
      "▁changed": 2928,
      "▁section": 2929,
      "▁ideas": 2930,
      "▁distinct": 2931,
      "▁records": 2932,
      "ush": 2933,
      "▁station": 2934,
      "izations": 2935,
      "ope": 2936,
      "▁frequently": 2937,
      "▁increase": 2938,
      "izing": 2939,
      "▁highest": 2940,
      "▁finally": 2941,
      "▁pac": 2942,
      "▁notable": 2943,
      "▁ira": 2944,
      "▁dog": 2945,
      "▁methods": 2946,
      "▁recently": 2947,
      "▁table": 2948,
      "uge": 2949,
      "fect": 2950,
      "▁paper": 2951,
      "▁heavy": 2952,
      "▁assum": 2953,
      "cks": 2954,
      "▁heb": 2955,
      "cycl": 2956,
      "▁border": 2957,
      "▁variety": 2958,
      "▁involved": 2959,
      "▁democratic": 2960,
      "▁bay": 2961,
      "▁intel": 2962,
      "▁served": 2963,
      "▁mun": 2964,
      "▁kore": 2965,
      "▁observ": 2966,
      "▁cred": 2967,
      "arent": 2968,
      "field": 2969,
      "▁bon": 2970,
      "thing": 2971,
      "▁sexual": 2972,
      "▁inn": 2973,
      "▁operation": 2974,
      "cher": 2975,
      "pper": 2976,
      "▁deli": 2977,
      "▁objects": 2978,
      "▁nuclear": 2979,
      "ields": 2980,
      "hood": 2981,
      "mar": 2982,
      "▁increased": 2983,
      "bra": 2984,
      "▁ple": 2985,
      "▁medic": 2986,
      "▁bish": 2987,
      "iter": 2988,
      "▁windows": 2989,
      "iant": 2990,
      "▁astron": 2991,
      "▁die": 2992,
      "▁relatively": 2993,
      "▁bbc": 2994,
      "ech": 2995,
      "▁create": 2996,
      "▁returned": 2997,
      "well": 2998,
      "▁sens": 2999,
      "▁conditions": 3000,
      "▁takes": 3001,
      "▁mos": 3002,
      "▁mand": 3003,
      "▁adopted": 3004,
      "▁ice": 3005,
      "▁plat": 3006,
      "▁perm": 3007,
      "▁ocean": 3008,
      "▁pack": 3009,
      "▁woman": 3010,
      "▁immed": 3011,
      "▁file": 3012,
      "olf": 3013,
      "▁poor": 3014,
      "▁electr": 3015,
      "off": 3016,
      "onia": 3017,
      "▁dialect": 3018,
      "▁appears": 3019,
      "▁committe": 3020,
      "ners": 3021,
      "ont": 3022,
      "omy": 3023,
      "agement": 3024,
      "▁guitar": 3025,
      "▁burn": 3026,
      "▁gn": 3027,
      "▁ans": 3028,
      "▁animals": 3029,
      "▁existence": 3030,
      "▁units": 3031,
      "▁discovered": 3032,
      "cell": 3033,
      "▁assembly": 3034,
      "▁immediate": 3035,
      "▁philosop": 3036,
      "▁prior": 3037,
      "▁incor": 3038,
      "▁reported": 3039,
      "▁assist": 3040,
      "▁mention": 3041,
      "▁box": 3042,
      "▁deep": 3043,
      "▁active": 3044,
      "▁universe": 3045,
      "▁chic": 3046,
      "▁htt": 3047,
      "▁encycl": 3048,
      "▁angel": 3049,
      "▁behind": 3050,
      "ying": 3051,
      "▁numerous": 3052,
      "▁normal": 3053,
      "▁algor": 3054,
      "▁scale": 3055,
      "▁construction": 3056,
      "▁diss": 3057,
      "▁professional": 3058,
      "▁lad": 3059,
      "▁operating": 3060,
      "▁unlike": 3061,
      "▁tend": 3062,
      "▁dar": 3063,
      "ridge": 3064,
      "▁pressure": 3065,
      "▁institute": 3066,
      "▁airport": 3067,
      "▁iron": 3068,
      "▁taking": 3069,
      "▁naz": 3070,
      "▁amb": 3071,
      "▁centre": 3072,
      "▁experience": 3073,
      "▁week": 3074,
      "oe": 3075,
      "▁sett": 3076,
      "▁ros": 3077,
      "▁estim": 3078,
      "▁concent": 3079,
      "▁wa": 3080,
      "▁stage": 3081,
      "▁od": 3082,
      "▁conte": 3083,
      "▁monarch": 3084,
      "▁primarily": 3085,
      "▁recorded": 3086,
      "▁issue": 3087,
      "▁troops": 3088,
      "▁resist": 3089,
      "▁math": 3090,
      "▁hebrew": 3091,
      "iance": 3092,
      "▁notes": 3093,
      "▁bad": 3094,
      "▁pope": 3095,
      "▁tun": 3096,
      "▁exch": 3097,
      "▁neigh": 3098,
      "ibly": 3099,
      "▁org": 3100,
      "▁square": 3101,
      "▁encyclop": 3102,
      "▁descript": 3103,
      "▁something": 3104,
      "▁print": 3105,
      "▁aspect": 3106,
      "▁defense": 3107,
      "▁potential": 3108,
      "▁accepted": 3109,
      "▁powers": 3110,
      "anced": 3111,
      "▁insp": 3112,
      "▁mathematics": 3113,
      "▁select": 3114,
      "umn": 3115,
      "illa": 3116,
      "▁pattern": 3117,
      "▁cel": 3118,
      "▁race": 3119,
      "▁mission": 3120,
      "▁compar": 3121,
      "▁resources": 3122,
      "▁stop": 3123,
      "▁running": 3124,
      "▁cru": 3125,
      "▁gro": 3126,
      "oting": 3127,
      "▁kil": 3128,
      "▁derived": 3129,
      "▁essential": 3130,
      "astic": 3131,
      "▁acqu": 3132,
      "▁applied": 3133,
      "igned": 3134,
      "▁sin": 3135,
      "▁calend": 3136,
      "ately": 3137,
      "orial": 3138,
      "▁formal": 3139,
      "▁francis": 3140,
      "▁master": 3141,
      "idents": 3142,
      "▁additional": 3143,
      "▁shows": 3144,
      "ken": 3145,
      "▁lived": 3146,
      "▁placed": 3147,
      "▁equival": 3148,
      "▁nobel": 3149,
      "▁freedom": 3150,
      "inated": 3151,
      "▁conqu": 3152,
      "▁instance": 3153,
      "▁http": 3154,
      "▁roll": 3155,
      "▁script": 3156,
      "▁ens": 3157,
      "▁bomb": 3158,
      "▁impl": 3159,
      "▁purpose": 3160,
      "▁jul": 3161,
      "▁broadcast": 3162,
      "▁frac": 3163,
      "▁twent": 3164,
      "▁scholars": 3165,
      "▁budd": 3166,
      "▁magazine": 3167,
      "ba": 3168,
      "wa": 3169,
      "▁dia": 3170,
      "▁target": 3171,
      "▁suffer": 3172,
      "▁serious": 3173,
      "▁equal": 3174,
      "▁hab": 3175,
      "▁gall": 3176,
      "▁boy": 3177,
      "▁respon": 3178,
      "▁channel": 3179,
      "▁governor": 3180,
      "▁engineering": 3181,
      "▁scre": 3182,
      "▁citizens": 3183,
      "ios": 3184,
      "orph": 3185,
      "clus": 3186,
      "▁rise": 3187,
      "▁spread": 3188,
      "▁mainly": 3189,
      "oon": 3190,
      "round": 3191,
      "ki": 3192,
      "dp": 3193,
      "▁arts": 3194,
      "▁phen": 3195,
      "▁seem": 3196,
      "▁cos": 3197,
      "▁versions": 3198,
      "ita": 3199,
      "▁mont": 3200,
      "▁threat": 3201,
      "▁operations": 3202,
      "▁interpret": 3203,
      "▁ip": 3204,
      "▁settle": 3205,
      "iences": 3206,
      "att": 3207,
      "▁marriage": 3208,
      "▁quite": 3209,
      "▁older": 3210,
      "▁dip": 3211,
      "gon": 3212,
      "▁applications": 3213,
      "tered": 3214,
      "▁mut": 3215,
      "▁ethnic": 3216,
      "▁proposed": 3217,
      "▁contain": 3218,
      "▁bible": 3219,
      "▁bass": 3220,
      "▁shown": 3221,
      "▁consists": 3222,
      "▁obt": 3223,
      "▁hund": 3224,
      "▁police": 3225,
      "▁transform": 3226,
      "▁instrument": 3227,
      "▁sir": 3228,
      "▁cells": 3229,
      "▁rank": 3230,
      "▁alge": 3231,
      "▁articles": 3232,
      "rative": 3233,
      "▁writers": 3234,
      "hi": 3235,
      "imum": 3236,
      "▁exact": 3237,
      "▁volume": 3238,
      "▁cens": 3239,
      "▁fast": 3240,
      "▁scotland": 3241,
      "▁hell": 3242,
      "▁apparent": 3243,
      "▁regions": 3244,
      "▁levels": 3245,
      "▁ways": 3246,
      "▁albert": 3247,
      "▁quickly": 3248,
      "▁lu": 3249,
      "▁rand": 3250,
      "▁arri": 3251,
      "▁construct": 3252,
      "▁possess": 3253,
      "▁properties": 3254,
      "▁dat": 3255,
      "▁duke": 3256,
      "▁fundament": 3257,
      "▁uns": 3258,
      "▁conne": 3259,
      "▁comment": 3260,
      "▁convention": 3261,
      "▁try": 3262,
      "▁cas": 3263,
      "▁songs": 3264,
      "▁techniques": 3265,
      "ola": 3266,
      "aria": 3267,
      "▁plant": 3268,
      "▁extra": 3269,
      "▁ability": 3270,
      "▁communist": 3271,
      "▁introduction": 3272,
      "▁chicago": 3273,
      "▁dance": 3274,
      "ads": 3275,
      "back": 3276,
      "omen": 3277,
      "eter": 3278,
      "▁ris": 3279,
      "▁passed": 3280,
      "▁navy": 3281,
      "▁animal": 3282,
      "▁friends": 3283,
      "▁approximately": 3284,
      "▁surround": 3285,
      "▁bapt": 3286,
      "hic": 3287,
      "▁apple": 3288,
      "▁composer": 3289,
      "▁chron": 3290,
      "isation": 3291,
      "ned": 3292,
      "▁appointed": 3293,
      "▁committee": 3294,
      "▁wr": 3295,
      "▁jac": 3296,
      "▁centuries": 3297,
      "▁pra": 3298,
      "▁path": 3299,
      "▁forced": 3300,
      "▁percent": 3301,
      "▁usa": 3302,
      "▁cra": 3303,
      "▁compl": 3304,
      "▁martin": 3305,
      "ients": 3306,
      "▁mit": 3307,
      "▁hous": 3308,
      "rupt": 3309,
      "▁distingu": 3310,
      "▁places": 3311,
      "▁month": 3312,
      "▁individuals": 3313,
      "▁learn": 3314,
      "soft": 3315,
      "▁face": 3316,
      "▁focus": 3317,
      "ker": 3318,
      "rief": 3319,
      "▁refers": 3320,
      "▁bib": 3321,
      "▁kings": 3322,
      "aches": 3323,
      "ager": 3324,
      "▁values": 3325,
      "▁sho": 3326,
      "▁agreement": 3327,
      "▁comes": 3328,
      "▁via": 3329,
      "▁afg": 3330,
      "▁temperature": 3331,
      "▁response": 3332,
      "▁wit": 3333,
      "▁speech": 3334,
      "ship": 3335,
      "elling": 3336,
      "▁www": 3337,
      "mp": 3338,
      "▁climate": 3339,
      "erson": 3340,
      "▁acid": 3341,
      "▁daughter": 3342,
      "▁jack": 3343,
      "▁carry": 3344,
      "▁bridge": 3345,
      "▁protect": 3346,
      "▁champions": 3347,
      "▁internal": 3348,
      "▁labour": 3349,
      "▁murder": 3350,
      "▁repe": 3351,
      "▁von": 3352,
      "omm": 3353,
      "▁rot": 3354,
      "▁demonst": 3355,
      "anian": 3356,
      "▁reflect": 3357,
      "▁nd": 3358,
      "▁contract": 3359,
      "▁search": 3360,
      "pped": 3361,
      "▁friend": 3362,
      "▁branch": 3363,
      "▁fel": 3364,
      "▁pil": 3365,
      "▁consequ": 3366,
      "abet": 3367,
      "▁forest": 3368,
      "▁motion": 3369,
      "gers": 3370,
      "yth": 3371,
      "▁cold": 3372,
      "▁flight": 3373,
      "▁depend": 3374,
      "▁fix": 3375,
      "▁lie": 3376,
      "▁lingu": 3377,
      "eral": 3378,
      "▁sav": 3379,
      "▁stars": 3380,
      "▁noted": 3381,
      "▁microsoft": 3382,
      "zz": 3383,
      "igr": 3384,
      "▁shot": 3385,
      "▁content": 3386,
      "▁summer": 3387,
      "▁unique": 3388,
      "▁voc": 3389,
      "▁supported": 3390,
      "▁brain": 3391,
      "▁bey": 3392,
      "▁clos": 3393,
      "▁arth": 3394,
      "▁billion": 3395,
      "onent": 3396,
      "▁christianity": 3397,
      "▁ful": 3398,
      "▁miles": 3399,
      "▁treatment": 3400,
      "▁plann": 3401,
      "▁computers": 3402,
      "▁rapid": 3403,
      "▁correspond": 3404,
      "▁promin": 3405,
      "▁management": 3406,
      "▁direction": 3407,
      "mark": 3408,
      "▁mob": 3409,
      "aker": 3410,
      "▁performed": 3411,
      "ett": 3412,
      "▁calendar": 3413,
      "▁flu": 3414,
      "overy": 3415,
      "ville": 3416,
      "▁write": 3417,
      "▁remo": 3418,
      "▁intended": 3419,
      "▁necessary": 3420,
      "▁spl": 3421,
      "hens": 3422,
      "▁lith": 3423,
      "olved": 3424,
      "ales": 3425,
      "▁transfer": 3426,
      "aled": 3427,
      "▁benef": 3428,
      "▁cab": 3429,
      "▁affair": 3430,
      "▁fat": 3431,
      "▁conduct": 3432,
      "▁rang": 3433,
      "anded": 3434,
      "▁diam": 3435,
      "▁disease": 3436,
      "aur": 3437,
      "▁worked": 3438,
      "▁vehic": 3439,
      "▁recon": 3440,
      "▁imperial": 3441,
      "nes": 3442,
      "▁luc": 3443,
      "▁sets": 3444,
      "▁users": 3445,
      "▁attrib": 3446,
      "▁atom": 3447,
      "▁gene": 3448,
      "▁acts": 3449,
      "▁lands": 3450,
      "▁physics": 3451,
      "▁sports": 3452,
      "▁reading": 3453,
      "▁multiple": 3454,
      "▁gramm": 3455,
      "▁afghan": 3456,
      "▁figure": 3457,
      "▁speaking": 3458,
      "▁critical": 3459,
      "▁iraq": 3460,
      "▁fan": 3461,
      "▁signed": 3462,
      "▁motor": 3463,
      "▁export": 3464,
      "▁haw": 3465,
      "▁mathematical": 3466,
      "xual": 3467,
      "▁contrast": 3468,
      "▁prefer": 3469,
      "▁translation": 3470,
      "▁location": 3471,
      "▁regarded": 3472,
      "▁cer": 3473,
      "▁wild": 3474,
      "▁reject": 3475,
      "▁connect": 3476,
      "zil": 3477,
      "▁gir": 3478,
      "phas": 3479,
      "▁tree": 3480,
      "▁infin": 3481,
      "▁jean": 3482,
      "itors": 3483,
      "▁inhab": 3484,
      "▁enem": 3485,
      "rents": 3486,
      "▁circum": 3487,
      "▁beyond": 3488,
      "▁orient": 3489,
      "pap": 3490,
      "icted": 3491,
      "▁province": 3492,
      "▁medicine": 3493,
      "ny": 3494,
      "▁arran": 3495,
      "har": 3496,
      "▁alco": 3497,
      "och": 3498,
      "▁spok": 3499,
      "▁polish": 3500,
      "▁approach": 3501,
      "▁stock": 3502,
      "▁skill": 3503,
      "▁brief": 3504,
      "▁reached": 3505,
      "▁fant": 3506,
      "▁remaining": 3507,
      "▁display": 3508,
      "ws": 3509,
      "▁lif": 3510,
      "▁financial": 3511,
      "▁provides": 3512,
      "▁why": 3513,
      "▁adm": 3514,
      "▁notably": 3515,
      "▁track": 3516,
      "▁administration": 3517,
      "la": 3518,
      "▁jur": 3519,
      "▁rain": 3520,
      "▁guide": 3521,
      "▁distribution": 3522,
      "▁cup": 3523,
      "▁actual": 3524,
      "▁feel": 3525,
      "▁candid": 3526,
      "▁inj": 3527,
      "outh": 3528,
      "▁opposition": 3529,
      "▁mm": 3530,
      "▁block": 3531,
      "▁logic": 3532,
      "icit": 3533,
      "▁joined": 3534,
      "▁bring": 3535,
      "▁conservative": 3536,
      "▁theories": 3537,
      "▁alt": 3538,
      "▁prison": 3539,
      "▁il": 3540,
      "▁prem": 3541,
      "▁les": 3542,
      "▁bob": 3543,
      "eria": 3544,
      "oration": 3545,
      "▁catal": 3546,
      "▁coal": 3547,
      "▁models": 3548,
      "▁custom": 3549,
      "▁mr": 3550,
      "▁influenced": 3551,
      "▁aim": 3552,
      "▁distance": 3553,
      "ada": 3554,
      "▁intelligence": 3555,
      "▁format": 3556,
      "▁pit": 3557,
      "osis": 3558,
      "rane": 3559,
      "▁victor": 3560,
      "▁correct": 3561,
      "▁doctr": 3562,
      "▁greece": 3563,
      "▁department": 3564,
      "▁context": 3565,
      "board": 3566,
      "▁hands": 3567,
      "▁celebr": 3568,
      "inian": 3569,
      "▁stren": 3570,
      "▁universal": 3571,
      "▁algebra": 3572,
      "▁pacific": 3573,
      "▁humans": 3574,
      "▁activity": 3575,
      "▁sell": 3576,
      "isters": 3577,
      "▁global": 3578,
      "▁mom": 3579,
      "▁executive": 3580,
      "▁previously": 3581,
      "gn": 3582,
      "mas": 3583,
      "otic": 3584,
      "▁powerful": 3585,
      "▁brazil": 3586,
      "▁coup": 3587,
      "▁quality": 3588,
      "▁restrict": 3589,
      "▁virgin": 3590,
      "ida": 3591,
      "▁ran": 3592,
      "▁share": 3593,
      "▁abb": 3594,
      "▁needed": 3595,
      "▁synt": 3596,
      "rison": 3597,
      "▁bond": 3598,
      "▁jim": 3599,
      "elled": 3600,
      "racy": 3601,
      "▁completely": 3602,
      "▁extremely": 3603,
      "▁legend": 3604,
      "▁phenomen": 3605,
      "enth": 3606,
      "▁vote": 3607,
      "▁edward": 3608,
      "▁string": 3609,
      "▁ell": 3610,
      "▁gard": 3611,
      "aph": 3612,
      "ody": 3613,
      "▁allows": 3614,
      "▁berlin": 3615,
      "▁contemporary": 3616,
      "▁investig": 3617,
      "▁ga": 3618,
      "uls": 3619,
      "▁advanced": 3620,
      "▁advent": 3621,
      "▁newspap": 3622,
      "cious": 3623,
      "oke": 3624,
      "▁cook": 3625,
      "▁rab": 3626,
      "▁doub": 3627,
      "osh": 3628,
      "gian": 3629,
      "ocol": 3630,
      "lor": 3631,
      "ortun": 3632,
      "head": 3633,
      "▁gives": 3634,
      "▁shar": 3635,
      "▁stated": 3636,
      "▁becoming": 3637,
      "▁poland": 3638,
      "▁regional": 3639,
      "azz": 3640,
      "▁justice": 3641,
      "▁advant": 3642,
      "▁tas": 3643,
      "ona": 3644,
      "where": 3645,
      "▁fourth": 3646,
      "▁crown": 3647,
      "▁streng": 3648,
      "▁guard": 3649,
      "▁foundation": 3650,
      "▁enter": 3651,
      "▁crim": 3652,
      "▁critics": 3653,
      "▁nether": 3654,
      "▁turned": 3655,
      "▁ign": 3656,
      "▁heat": 3657,
      "▁difference": 3658,
      "▁weapons": 3659,
      "bour": 3660,
      "▁episode": 3661,
      "▁ott": 3662,
      "▁standards": 3663,
      "▁mountain": 3664,
      "▁purch": 3665,
      "▁paral": 3666,
      "▁kong": 3667,
      "▁electronic": 3668,
      "▁chur": 3669,
      "▁contact": 3670,
      "▁sand": 3671,
      "▁dun": 3672,
      "▁screen": 3673,
      "▁argument": 3674,
      "▁favor": 3675,
      "ounds": 3676,
      "▁musician": 3677,
      "▁greatest": 3678,
      "pg": 3679,
      "▁fans": 3680,
      "▁usage": 3681,
      "▁fields": 3682,
      "▁ded": 3683,
      "▁featured": 3684,
      "▁training": 3685,
      "▁vow": 3686,
      "ua": 3687,
      "asy": 3688,
      "gal": 3689,
      "▁hours": 3690,
      "▁application": 3691,
      "▁inside": 3692,
      "▁ships": 3693,
      "▁else": 3694,
      "▁ba": 3695,
      "▁link": 3696,
      "▁useful": 3697,
      "▁domest": 3698,
      "▁initial": 3699,
      "▁exchange": 3700,
      "▁describe": 3701,
      "▁moving": 3702,
      "fficient": 3703,
      "▁oxford": 3704,
      "▁wing": 3705,
      "mann": 3706,
      "▁resulting": 3707,
      "▁behavior": 3708,
      "▁fundamental": 3709,
      "▁churches": 3710,
      "▁rough": 3711,
      "▁arabic": 3712,
      "▁honor": 3713,
      "▁suc": 3714,
      "▁effic": 3715,
      "▁slight": 3716,
      "▁urban": 3717,
      "▁pair": 3718,
      "▁quarter": 3719,
      "▁netherlands": 3720,
      "ias": 3721,
      "isp": 3722,
      "▁theat": 3723,
      "▁diction": 3724,
      "▁spring": 3725,
      "▁horse": 3726,
      "▁supreme": 3727,
      "▁fest": 3728,
      "▁weight": 3729,
      "▁carried": 3730,
      "▁artist": 3731,
      "▁impact": 3732,
      "oo": 3733,
      "▁reasons": 3734,
      "▁failed": 3735,
      "▁arthur": 3736,
      "▁folk": 3737,
      "▁upper": 3738,
      "ieties": 3739,
      "▁molec": 3740,
      "▁reve": 3741,
      "▁continue": 3742,
      "▁unf": 3743,
      "▁responsible": 3744,
      "▁cp": 3745,
      "▁dro": 3746,
      "▁going": 3747,
      "oca": 3748,
      "▁emphas": 3749,
      "usal": 3750,
      "▁opposed": 3751,
      "▁competition": 3752,
      "▁occasion": 3753,
      "▁perman": 3754,
      "▁compil": 3755,
      "rich": 3756,
      "▁decision": 3757,
      "erve": 3758,
      "▁technical": 3759,
      "▁islamic": 3760,
      "tical": 3761,
      "▁stone": 3762,
      "▁voice": 3763,
      "▁planet": 3764,
      "▁architecture": 3765,
      "what": 3766,
      "▁scottish": 3767,
      "▁mexico": 3768,
      "▁incorpor": 3769,
      "▁rd": 3770,
      "▁nap": 3771,
      "▁starting": 3772,
      "▁beat": 3773,
      "▁somewhat": 3774,
      "imal": 3775,
      "mitted": 3776,
      "▁negative": 3777,
      "▁equip": 3778,
      "my": 3779,
      "ml": 3780,
      "▁dang": 3781,
      "▁oly": 3782,
      "▁views": 3783,
      "▁activities": 3784,
      "▁swe": 3785,
      "▁materials": 3786,
      "▁spoken": 3787,
      "▁linear": 3788,
      "▁biography": 3789,
      "▁doll": 3790,
      "▁protection": 3791,
      "icip": 3792,
      "▁follows": 3793,
      "▁signal": 3794,
      "reed": 3795,
      "▁ones": 3796,
      "west": 3797,
      "▁attempts": 3798,
      "▁declared": 3799,
      "▁vary": 3800,
      "▁charge": 3801,
      "▁generation": 3802,
      "▁indeed": 3803,
      "log": 3804,
      "aving": 3805,
      "▁gh": 3806,
      "vert": 3807,
      "▁decided": 3808,
      "▁winter": 3809,
      "▁cambridge": 3810,
      "▁olymp": 3811,
      "ram": 3812,
      "▁chall": 3813,
      "ressed": 3814,
      "▁ended": 3815,
      "ulations": 3816,
      "▁composed": 3817,
      "▁growing": 3818,
      "▁appearance": 3819,
      "lom": 3820,
      "▁geography": 3821,
      "▁specif": 3822,
      "▁succeed": 3823,
      "rate": 3824,
      "▁anarch": 3825,
      "sec": 3826,
      "▁lut": 3827,
      "▁grav": 3828,
      "▁represented": 3829,
      "▁oppos": 3830,
      "rm": 3831,
      "writ": 3832,
      "▁juda": 3833,
      "ests": 3834,
      "▁encyclopedia": 3835,
      "▁ring": 3836,
      "hesis": 3837,
      "▁possibly": 3838,
      "▁goal": 3839,
      "▁families": 3840,
      "▁seems": 3841,
      "▁bell": 3842,
      "▁pure": 3843,
      "▁cham": 3844,
      "▁christians": 3845,
      "▁dna": 3846,
      "▁jun": 3847,
      "lines": 3848,
      "met": 3849,
      "encies": 3850,
      "▁zeal": 3851,
      "za": 3852,
      "▁dynast": 3853,
      "▁classic": 3854,
      "▁fuel": 3855,
      "▁adj": 3856,
      "ographic": 3857,
      "▁pick": 3858,
      "▁ku": 3859,
      "▁discip": 3860,
      "▁terror": 3861,
      "▁ly": 3862,
      "▁stations": 3863,
      "▁palest": 3864,
      "▁easily": 3865,
      "▁improve": 3866,
      "▁bah": 3867,
      "▁identity": 3868,
      "▁principle": 3869,
      "▁academy": 3870,
      "▁assass": 3871,
      "▁equipment": 3872,
      "erc": 3873,
      "▁comic": 3874,
      "▁alphabet": 3875,
      "▁giving": 3876,
      "▁phr": 3877,
      "▁armed": 3878,
      "▁marx": 3879,
      "vey": 3880,
      "▁tell": 3881,
      "▁tou": 3882,
      "aging": 3883,
      "▁extended": 3884,
      "▁und": 3885,
      "▁announced": 3886,
      "▁golden": 3887,
      "▁doctor": 3888,
      "sp": 3889,
      "▁got": 3890,
      "▁positive": 3891,
      "▁compared": 3892,
      "▁causes": 3893,
      "▁ak": 3894,
      "ils": 3895,
      "▁kenn": 3896,
      "ati": 3897,
      "▁unkn": 3898,
      "▁income": 3899,
      "▁expans": 3900,
      "izes": 3901,
      "▁choice": 3902,
      "▁technique": 3903,
      "▁simpl": 3904,
      "▁reign": 3905,
      "▁advoc": 3906,
      "▁fish": 3907,
      "▁nick": 3908,
      "ieval": 3909,
      "▁apart": 3910,
      "▁medieval": 3911,
      "▁pier": 3912,
      "▁attacks": 3913,
      "▁drive": 3914,
      "▁mathematic": 3915,
      "inate": 3916,
      "▁stan": 3917,
      "▁immediately": 3918,
      "▁directed": 3919,
      "eds": 3920,
      "iah": 3921,
      "▁feet": 3922,
      "tar": 3923,
      "era": 3924,
      "▁efforts": 3925,
      "▁championship": 3926,
      "▁fully": 3927,
      "▁flo": 3928,
      "▁belong": 3929,
      "▁capac": 3930,
      "▁initially": 3931,
      "▁organizations": 3932,
      "▁composition": 3933,
      "▁perfect": 3934,
      "▁truth": 3935,
      "▁alf": 3936,
      "▁exists": 3937,
      "aded": 3938,
      "▁extensive": 3939,
      "▁traditionally": 3940,
      "oper": 3941,
      "▁nic": 3942,
      "▁presence": 3943,
      "▁equivalent": 3944,
      "inet": 3945,
      "▁conv": 3946,
      "▁plants": 3947,
      "▁illust": 3948,
      "▁provin": 3949,
      "book": 3950,
      "▁chance": 3951,
      "rees": 3952,
      "agan": 3953,
      "▁argued": 3954,
      "gment": 3955,
      "kes": 3956,
      "▁valley": 3957,
      "▁austria": 3958,
      "▁background": 3959,
      "▁encoura": 3960,
      "▁reaction": 3961,
      "▁alone": 3962,
      "▁holid": 3963,
      "▁combat": 3964,
      "▁frame": 3965,
      "▁controlled": 3966,
      "▁combined": 3967,
      "▁achieve": 3968,
      "▁occurs": 3969,
      "▁hin": 3970,
      "▁proved": 3971,
      "▁neut": 3972,
      "▁serve": 3973,
      "▁audio": 3974,
      "▁hus": 3975,
      "▁student": 3976,
      "▁understanding": 3977,
      "▁atm": 3978,
      "bed": 3979,
      "don": 3980,
      "ex": 3981,
      "nel": 3982,
      "▁situation": 3983,
      "▁aid": 3984,
      "▁az": 3985,
      "onian": 3986,
      "▁fit": 3987,
      "▁cod": 3988,
      "▁ford": 3989,
      "rier": 3990,
      "▁nothing": 3991,
      "▁differences": 3992,
      "ologist": 3993,
      "▁brand": 3994,
      "▁glass": 3995,
      "ching": 3996,
      "ulate": 3997,
      "iar": 3998,
      "▁enj": 3999,
      "gra": 4000,
      "claim": 4001,
      "▁paralle": 4002,
      "▁pu": 4003,
      "iform": 4004,
      "anta": 4005,
      "▁pc": 4006,
      "▁meant": 4007,
      "▁solution": 4008,
      "lection": 4009,
      "▁effective": 4010,
      "▁allowing": 4011,
      "▁seat": 4012,
      "▁mentioned": 4013,
      "▁limit": 4014,
      "▁expected": 4015,
      "▁replace": 4016,
      "▁device": 4017,
      "▁portugues": 4018,
      "▁fict": 4019,
      "▁prin": 4020,
      "▁actions": 4021,
      "▁secretary": 4022,
      "ava": 4023,
      "▁jacks": 4024,
      "▁lincol": 4025,
      "▁classes": 4026,
      "▁debate": 4027,
      "▁lincoln": 4028,
      "ensity": 4029,
      "▁communities": 4030,
      "▁unp": 4031,
      "teen": 4032,
      "▁victory": 4033,
      "▁unknown": 4034,
      "inations": 4035,
      "▁curren": 4036,
      "▁finland": 4037,
      "▁portuguese": 4038,
      "▁ko": 4039,
      "▁chrom": 4040,
      "▁gained": 4041,
      "ador": 4042,
      "▁poll": 4043,
      "▁artists": 4044,
      "▁sport": 4045,
      "▁sort": 4046,
      "▁mere": 4047,
      "▁turk": 4048,
      "cape": 4049,
      "▁recognized": 4050,
      "▁judaism": 4051,
      "▁entirely": 4052,
      "▁eg": 4053,
      "▁conference": 4054,
      "▁cla": 4055,
      "▁batt": 4056,
      "▁teams": 4057,
      "▁oh": 4058,
      "anda": 4059,
      "▁domestic": 4060,
      "▁connected": 4061,
      "▁environmental": 4062,
      "▁ath": 4063,
      "▁laure": 4064,
      "▁dram": 4065,
      "▁carl": 4066,
      "▁politician": 4067,
      "▁begins": 4068,
      "▁prep": 4069,
      "▁writings": 4070,
      "▁gdp": 4071,
      "▁completed": 4072,
      "▁wealth": 4073,
      "▁geomet": 4074,
      "▁drum": 4075,
      "▁otherwise": 4076,
      "▁bulg": 4077,
      "nam": 4078,
      "▁vel": 4079,
      "▁apol": 4080,
      "▁convers": 4081,
      "▁bishop": 4082,
      "more": 4083,
      "▁sites": 4084,
      "▁asc": 4085,
      "▁ruled": 4086,
      "mers": 4087,
      "▁bol": 4088,
      "▁copyr": 4089,
      "▁cards": 4090,
      "wan": 4091,
      "▁fill": 4092,
      "ologists": 4093,
      "▁attract": 4094,
      "▁datab": 4095,
      "vi": 4096,
      "▁arms": 4097,
      "▁trial": 4098,
      "▁stor": 4099,
      "▁earliest": 4100,
      "▁controversy": 4101,
      "▁experiment": 4102,
      "▁suggested": 4103,
      "usalem": 4104,
      "▁containing": 4105,
      "▁attention": 4106,
      "▁workers": 4107,
      "ique": 4108,
      "▁physic": 4109,
      "▁ht": 4110,
      "▁output": 4111,
      "▁principles": 4112,
      "▁alcohol": 4113,
      "▁penn": 4114,
      "▁ll": 4115,
      "▁esc": 4116,
      "▁solid": 4117,
      "▁sequence": 4118,
      "▁cycle": 4119,
      "▁jerusalem": 4120,
      "▁ts": 4121,
      "▁hong": 4122,
      "▁leban": 4123,
      "▁temple": 4124,
      "▁literary": 4125,
      "itable": 4126,
      "▁anne": 4127,
      "▁interview": 4128,
      "▁scientists": 4129,
      "wide": 4130,
      "▁officially": 4131,
      "▁reduced": 4132,
      "▁hug": 4133,
      "▁han": 4134,
      "▁americans": 4135,
      "▁figures": 4136,
      "aven": 4137,
      "ala": 4138,
      "▁popularity": 4139,
      "▁fighting": 4140,
      "▁prominent": 4141,
      "▁instruments": 4142,
      "▁scene": 4143,
      "hold": 4144,
      "mun": 4145,
      "▁argent": 4146,
      "▁typical": 4147,
      "▁winning": 4148,
      "▁intellect": 4149,
      "▁jackson": 4150,
      "actions": 4151,
      "▁structures": 4152,
      "▁increasingly": 4153,
      "igan": 4154,
      "▁entry": 4155,
      "▁requires": 4156,
      "▁cu": 4157,
      "igration": 4158,
      "▁israeli": 4159,
      "▁cond": 4160,
      "▁statement": 4161,
      "acher": 4162,
      "▁liqu": 4163,
      "▁sax": 4164,
      "▁lives": 4165,
      "ota": 4166,
      "▁algorithm": 4167,
      "▁says": 4168,
      "▁jazz": 4169,
      "▁avoid": 4170,
      "▁bott": 4171,
      "▁daily": 4172,
      "▁frequency": 4173,
      "▁moment": 4174,
      "ns": 4175,
      "▁flat": 4176,
      "▁barb": 4177,
      "▁discussion": 4178,
      "▁buddh": 4179,
      "iders": 4180,
      "▁images": 4181,
      "▁satell": 4182,
      "▁specifically": 4183,
      "ded": 4184,
      "▁zealand": 4185,
      "▁split": 4186,
      "▁exc": 4187,
      "▁atlantic": 4188,
      "▁gib": 4189,
      "▁adult": 4190,
      "ception": 4191,
      "▁confeder": 4192,
      "▁domain": 4193,
      "▁texas": 4194,
      "▁expansion": 4195,
      "ione": 4196,
      "rim": 4197,
      "inger": 4198,
      "▁jones": 4199,
      "▁mountains": 4200,
      "▁dynasty": 4201,
      "▁depending": 4202,
      "▁harv": 4203,
      "▁senate": 4204,
      "▁description": 4205,
      "unt": 4206,
      "▁genetic": 4207,
      "▁price": 4208,
      "▁importance": 4209,
      "▁ft": 4210,
      "▁severe": 4211,
      "▁criticism": 4212,
      "▁pray": 4213,
      "▁wave": 4214,
      "▁gosp": 4215,
      "▁lear": 4216,
      "▁elev": 4217,
      "▁georg": 4218,
      "▁destroyed": 4219,
      "▁inspired": 4220,
      "▁las": 4221,
      "▁opin": 4222,
      "▁qual": 4223,
      "iro": 4224,
      "▁staff": 4225,
      "▁sweden": 4226,
      "▁lun": 4227,
      "▁analog": 4228,
      "▁closed": 4229,
      "▁entered": 4230,
      "▁devices": 4231,
      "works": 4232,
      "light": 4233,
      "abor": 4234,
      "▁boston": 4235,
      "▁invasion": 4236,
      "▁closely": 4237,
      "▁texts": 4238,
      "▁hydrogen": 4239,
      "▁anthrop": 4240,
      "▁bush": 4241,
      "▁mythology": 4242,
      "▁fru": 4243,
      "▁wid": 4244,
      "iced": 4245,
      "▁toward": 4246,
      "▁afghanistan": 4247,
      "▁pp": 4248,
      "arc": 4249,
      "▁hur": 4250,
      "▁beaut": 4251,
      "▁marked": 4252,
      "▁killing": 4253,
      "▁dimens": 4254,
      "▁corporation": 4255,
      "▁diplom": 4256,
      "▁removed": 4257,
      "atically": 4258,
      "orter": 4259,
      "▁bern": 4260,
      "▁juris": 4261,
      "▁conscious": 4262,
      "▁apollo": 4263,
      "▁fu": 4264,
      "ogen": 4265,
      "▁ages": 4266,
      "▁helped": 4267,
      "dr": 4268,
      "▁quantum": 4269,
      "▁slightly": 4270,
      "▁runs": 4271,
      "▁recip": 4272,
      "▁infant": 4273,
      "▁presidential": 4274,
      "▁hence": 4275,
      "▁wikip": 4276,
      "▁fixed": 4277,
      "▁cha": 4278,
      "▁judge": 4279,
      "▁attempted": 4280,
      "▁connection": 4281,
      "▁asked": 4282,
      "▁plays": 4283,
      "▁flor": 4284,
      "▁kept": 4285,
      "▁dictionary": 4286,
      "ening": 4287,
      "icate": 4288,
      "▁agreed": 4289,
      "▁determined": 4290,
      "ested": 4291,
      "▁cooper": 4292,
      "▁republican": 4293,
      "▁protestant": 4294,
      "▁proced": 4295,
      "ansas": 4296,
      "itan": 4297,
      "▁lee": 4298,
      "rence": 4299,
      "▁buildings": 4300,
      "▁absol": 4301,
      "▁dynam": 4302,
      "gs": 4303,
      "war": 4304,
      "▁phase": 4305,
      "▁copyright": 4306,
      "ounder": 4307,
      "▁traditions": 4308,
      "▁controversial": 4309,
      "▁communications": 4310,
      "▁existing": 4311,
      "▁substant": 4312,
      "▁lithu": 4313,
      "▁luther": 4314,
      "▁none": 4315,
      "▁wis": 4316,
      "▁violence": 4317,
      "▁spiritual": 4318,
      "▁authors": 4319,
      "▁concert": 4320,
      "▁purs": 4321,
      "erved": 4322,
      "▁marsh": 4323,
      "hamm": 4324,
      "ancy": 4325,
      "▁formation": 4326,
      "▁cant": 4327,
      "▁thousands": 4328,
      "▁twenty": 4329,
      "▁merc": 4330,
      "▁agriculture": 4331,
      "ih": 4332,
      "▁din": 4333,
      "▁resulted": 4334,
      "▁movies": 4335,
      "▁crus": 4336,
      "▁occurred": 4337,
      "vere": 4338,
      "▁offered": 4339,
      "band": 4340,
      "▁weak": 4341,
      "▁discovery": 4342,
      "▁estimated": 4343,
      "▁comics": 4344,
      "▁heavily": 4345,
      "▁mir": 4346,
      "▁zone": 4347,
      "iny": 4348,
      "zech": 4349,
      "▁moral": 4350,
      "▁ancest": 4351,
      "▁cryst": 4352,
      "▁governments": 4353,
      "▁argue": 4354,
      "onym": 4355,
      "▁aspects": 4356,
      "▁cosm": 4357,
      "▁crime": 4358,
      "rugg": 4359,
      "▁damage": 4360,
      "▁leadership": 4361,
      "▁austrian": 4362,
      "osphere": 4363,
      "▁ibm": 4364,
      "▁chair": 4365,
      "orders": 4366,
      "iana": 4367,
      "▁eliz": 4368,
      "cules": 4369,
      "aming": 4370,
      "▁factors": 4371,
      "▁combination": 4372,
      "▁caes": 4373,
      "▁shall": 4374,
      "▁room": 4375,
      "▁advantage": 4376,
      "▁fictional": 4377,
      "▁ram": 4378,
      "▁manner": 4379,
      "▁disk": 4380,
      "active": 4381,
      "▁novels": 4382,
      "▁affairs": 4383,
      "▁forward": 4384,
      "inn": 4385,
      "▁viet": 4386,
      "▁effort": 4387,
      "▁cars": 4388,
      "▁mail": 4389,
      "▁doctrine": 4390,
      "box": 4391,
      "▁hungary": 4392,
      "▁stal": 4393,
      "▁stay": 4394,
      "▁ol": 4395,
      "▁crick": 4396,
      "arm": 4397,
      "andon": 4398,
      "▁category": 4399,
      "▁strugg": 4400,
      "▁withd": 4401,
      "▁maced": 4402,
      "▁coord": 4403,
      "▁holds": 4404,
      "▁opened": 4405,
      "▁soldiers": 4406,
      "▁czech": 4407,
      "▁leaving": 4408,
      "▁imag": 4409,
      "▁reports": 4410,
      "▁census": 4411,
      "ropri": 4412,
      "▁territories": 4413,
      "▁reach": 4414,
      "▁cool": 4415,
      "▁situ": 4416,
      "vant": 4417,
      "ault": 4418,
      "▁ru": 4419,
      "▁schem": 4420,
      "▁towns": 4421,
      "▁formula": 4422,
      "▁reality": 4423,
      "via": 4424,
      "▁abst": 4425,
      "▁theorem": 4426,
      "kins": 4427,
      "▁pak": 4428,
      "omorph": 4429,
      "▁manif": 4430,
      "▁desert": 4431,
      "▁gods": 4432,
      "▁factor": 4433,
      "▁anton": 4434,
      "▁origins": 4435,
      "▁defeated": 4436,
      "▁tan": 4437,
      "▁annual": 4438,
      "bal": 4439,
      "▁maintain": 4440,
      "▁picture": 4441,
      "▁lew": 4442,
      "▁constitutional": 4443,
      "▁told": 4444,
      "▁chos": 4445,
      "▁democracy": 4446,
      "▁permanent": 4447,
      "▁explos": 4448,
      "▁concepts": 4449,
      "▁strip": 4450,
      "▁core": 4451,
      "▁teleph": 4452,
      "orters": 4453,
      "▁nazi": 4454,
      "▁protocol": 4455,
      "▁topics": 4456,
      "▁testament": 4457,
      "▁professor": 4458,
      "ato": 4459,
      "▁jord": 4460,
      "▁abandon": 4461,
      "▁fried": 4462,
      "roll": 4463,
      "▁tried": 4464,
      "▁wikipedia": 4465,
      "las": 4466,
      "ado": 4467,
      "▁exclus": 4468,
      "▁christmas": 4469,
      "quar": 4470,
      "ella": 4471,
      "▁spent": 4472,
      "▁communication": 4473,
      "▁evil": 4474,
      "▁enjoy": 4475,
      "iber": 4476,
      "▁vac": 4477,
      "▁ray": 4478,
      "▁owners": 4479,
      "▁statistics": 4480,
      "▁presented": 4481,
      "uts": 4482,
      "▁opening": 4483,
      "▁identified": 4484,
      "▁normally": 4485,
      "▁beliefs": 4486,
      "▁subsequent": 4487,
      "▁columbia": 4488,
      "▁false": 4489,
      "▁bact": 4490,
      "▁ash": 4491,
      "▁sky": 4492,
      "▁risk": 4493,
      "▁inhabit": 4494,
      "▁supply": 4495,
      "▁continues": 4496,
      "▁grew": 4497,
      "▁details": 4498,
      "▁clock": 4499,
      "▁defeat": 4500,
      "▁shap": 4501,
      "▁actors": 4502,
      "▁drink": 4503,
      "▁goods": 4504,
      "▁institutions": 4505,
      "▁negot": 4506,
      "▁expression": 4507,
      "▁alexand": 4508,
      "▁currency": 4509,
      "▁learning": 4510,
      "▁ger": 4511,
      "ifying": 4512,
      "heast": 4513,
      "▁wanted": 4514,
      "ctors": 4515,
      "▁spect": 4516,
      "▁parad": 4517,
      "▁hardware": 4518,
      "▁administrative": 4519,
      "▁pronounced": 4520,
      "▁thing": 4521,
      "imb": 4522,
      "▁creating": 4523,
      "▁subsequently": 4524,
      "▁kl": 4525,
      "▁involve": 4526,
      "▁leave": 4527,
      "▁iran": 4528,
      "iations": 4529,
      "▁kur": 4530,
      "▁arist": 4531,
      "▁lists": 4532,
      "▁indo": 4533,
      "▁hypot": 4534,
      "bury": 4535,
      "▁plot": 4536,
      "▁goes": 4537,
      "cons": 4538,
      "▁forum": 4539,
      "▁heaven": 4540,
      "▁semi": 4541,
      "▁vice": 4542,
      "▁match": 4543,
      "▁expressed": 4544,
      "ocks": 4545,
      "▁linux": 4546,
      "▁decades": 4547,
      "▁processes": 4548,
      "▁bodies": 4549,
      "▁machines": 4550,
      "▁message": 4551,
      "ket": 4552,
      "▁tribes": 4553,
      "▁sides": 4554,
      "▁dv": 4555,
      "▁goth": 4556,
      "▁meeting": 4557,
      "icial": 4558,
      "▁dry": 4559,
      "igen": 4560,
      "▁commod": 4561,
      "▁angeles": 4562,
      "▁pages": 4563,
      "▁organized": 4564,
      "▁hyper": 4565,
      "▁movements": 4566,
      "▁fash": 4567,
      "▁bil": 4568,
      "oud": 4569,
      "▁fantasy": 4570,
      "zo": 4571,
      "▁founder": 4572,
      "▁stad": 4573,
      "▁cultures": 4574,
      "▁veget": 4575,
      "▁ka": 4576,
      "▁editor": 4577,
      "▁roughly": 4578,
      "iary": 4579,
      "▁proof": 4580,
      "ologies": 4581,
      "▁eye": 4582,
      "anding": 4583,
      "▁interpretation": 4584,
      "icks": 4585,
      "▁pros": 4586,
      "▁alleged": 4587,
      "isf": 4588,
      "▁nas": 4589,
      "▁arc": 4590,
      "▁sacr": 4591,
      "▁intellectual": 4592,
      "▁mode": 4593,
      "▁piece": 4594,
      "▁vast": 4595,
      "abeth": 4596,
      "agn": 4597,
      "▁historians": 4598,
      "▁questions": 4599,
      "▁policies": 4600,
      "▁absolute": 4601,
      "car": 4602,
      "▁sle": 4603,
      "▁orbit": 4604,
      "oren": 4605,
      "▁hay": 4606,
      "▁gain": 4607,
      "eland": 4608,
      "▁canon": 4609,
      "▁fame": 4610,
      "▁input": 4611,
      "▁server": 4612,
      "zy": 4613,
      "▁jpg": 4614,
      "▁positions": 4615,
      "▁confir": 4616,
      "▁steel": 4617,
      "▁mort": 4618,
      "ograp": 4619,
      "▁chosen": 4620,
      "rey": 4621,
      "▁len": 4622,
      "stream": 4623,
      "▁crypt": 4624,
      "▁swedish": 4625,
      "▁parallel": 4626,
      "▁sty": 4627,
      "▁ari": 4628,
      "uses": 4629,
      "oty": 4630,
      "opp": 4631,
      "▁atoms": 4632,
      "▁raised": 4633,
      "▁observed": 4634,
      "▁kilomet": 4635,
      "▁bru": 4636,
      "▁receive": 4637,
      "▁formerly": 4638,
      "▁astronom": 4639,
      "▁philosopher": 4640,
      "▁brothers": 4641,
      "▁susp": 4642,
      "▁extin": 4643,
      "▁elim": 4644,
      "▁shortly": 4645,
      "▁translated": 4646,
      "▁chapter": 4647,
      "▁shape": 4648,
      "▁resistance": 4649,
      "▁database": 4650,
      "▁pakistan": 4651,
      "ano": 4652,
      "▁plane": 4653,
      "▁crew": 4654,
      "▁considerable": 4655,
      "▁parents": 4656,
      "▁tower": 4657,
      "▁bear": 4658,
      "▁extent": 4659,
      "▁analy": 4660,
      "ety": 4661,
      "▁files": 4662,
      "▁strict": 4663,
      "▁archae": 4664,
      "▁sud": 4665,
      "▁captain": 4666,
      "▁mobile": 4667,
      "▁tub": 4668,
      "▁want": 4669,
      "▁greatly": 4670,
      "▁regarding": 4671,
      "rid": 4672,
      "▁proceed": 4673,
      "▁clar": 4674,
      "▁studied": 4675,
      "▁sister": 4676,
      "▁rum": 4677,
      "▁genes": 4678,
      "▁transportation": 4679,
      "▁sab": 4680,
      "▁rub": 4681,
      "▁characteristics": 4682,
      "▁railway": 4683,
      "ees": 4684,
      "▁mcc": 4685,
      "▁blues": 4686,
      "▁bos": 4687,
      "ache": 4688,
      "▁persian": 4689,
      "▁equation": 4690,
      "▁needs": 4691,
      "▁municip": 4692,
      "stone": 4693,
      "▁proport": 4694,
      "▁plate": 4695,
      "gar": 4696,
      "oral": 4697,
      "▁chemistry": 4698,
      "▁failure": 4699,
      "cont": 4700,
      "▁courts": 4701,
      "▁ordered": 4702,
      "▁revolutionary": 4703,
      "▁respectively": 4704,
      "▁adapt": 4705,
      "▁sovere": 4706,
      "▁sovereign": 4707,
      "greg": 4708,
      "▁johnson": 4709,
      "▁cow": 4710,
      "▁economics": 4711,
      "▁rates": 4712,
      "▁owned": 4713,
      "▁bang": 4714,
      "▁eld": 4715,
      "unc": 4716,
      "▁suff": 4717,
      "▁peoples": 4718,
      "▁femin": 4719,
      "▁asian": 4720,
      "▁cris": 4721,
      "▁projects": 4722,
      "▁divine": 4723,
      "▁philosophical": 4724,
      "house": 4725,
      "▁rivers": 4726,
      "▁straight": 4727,
      "▁jacob": 4728,
      "olis": 4729,
      "▁chain": 4730,
      "▁minutes": 4731,
      "▁symbols": 4732,
      "gu": 4733,
      "char": 4734,
      "iring": 4735,
      "▁practical": 4736,
      "▁settlement": 4737,
      "▁fashion": 4738,
      "▁wides": 4739,
      "fully": 4740,
      "▁criminal": 4741,
      "▁hosp": 4742,
      "umin": 4743,
      "▁exhib": 4744,
      "lywood": 4745,
      "▁relation": 4746,
      "▁accur": 4747,
      "▁medium": 4748,
      "▁seats": 4749,
      "etics": 4750,
      "▁supposed": 4751,
      "▁representation": 4752,
      "▁covered": 4753,
      "▁awarded": 4754,
      "▁launched": 4755,
      "rel": 4756,
      "iger": 4757,
      "▁neither": 4758,
      "inton": 4759,
      "inity": 4760,
      "▁mes": 4761,
      "▁reven": 4762,
      "▁carol": 4763,
      "▁finn": 4764,
      "▁naval": 4765,
      "▁chronic": 4766,
      "▁solar": 4767,
      "▁hindu": 4768,
      "▁sail": 4769,
      "▁crow": 4770,
      "▁refused": 4771,
      "▁cm": 4772,
      "▁mist": 4773,
      "cts": 4774,
      "▁feat": 4775,
      "▁fro": 4776,
      "▁andrew": 4777,
      "▁compr": 4778,
      "▁easy": 4779,
      "▁wales": 4780,
      "▁tenn": 4781,
      "▁ah": 4782,
      "▁cine": 4783,
      "▁doug": 4784,
      "▁ends": 4785,
      "▁whereas": 4786,
      "▁concer": 4787,
      "▁describes": 4788,
      "▁narrow": 4789,
      "▁ion": 4790,
      "▁harm": 4791,
      "▁principal": 4792,
      "itzer": 4793,
      "cop": 4794,
      "lem": 4795,
      "osl": 4796,
      "▁arrest": 4797,
      "▁install": 4798,
      "▁harmon": 4799,
      "▁deriv": 4800,
      "▁defend": 4801,
      "▁academic": 4802,
      "▁korea": 4803,
      "▁satellite": 4804,
      "▁dj": 4805,
      "ceived": 4806,
      "▁phon": 4807,
      "▁mental": 4808,
      "▁darwin": 4809,
      "▁jordan": 4810,
      "▁fasc": 4811,
      "▁bann": 4812,
      "▁indones": 4813,
      "▁processing": 4814,
      "▁noun": 4815,
      "▁coming": 4816,
      "▁comedy": 4817,
      "▁sufficient": 4818,
      "▁mah": 4819,
      "▁electro": 4820,
      "▁myster": 4821,
      "▁multi": 4822,
      "▁battles": 4823,
      "▁label": 4824,
      "▁mixed": 4825,
      "▁drugs": 4826,
      "▁pieces": 4827,
      "▁jurisd": 4828,
      "▁ille": 4829,
      "clusion": 4830,
      "▁producer": 4831,
      "▁felt": 4832,
      "▁strength": 4833,
      "▁occasionally": 4834,
      "▁storage": 4835,
      "▁cou": 4836,
      "▁purposes": 4837,
      "ompan": 4838,
      "akh": 4839,
      "▁register": 4840,
      "▁snow": 4841,
      "▁mathb": 4842,
      "▁ein": 4843,
      "utation": 4844,
      "▁unc": 4845,
      "▁leon": 4846,
      "▁anything": 4847,
      "oman": 4848,
      "▁ken": 4849,
      "▁newton": 4850,
      "▁repeated": 4851,
      "isher": 4852,
      "▁bron": 4853,
      "▁victim": 4854,
      "▁occupied": 4855,
      "▁accompan": 4856,
      "uous": 4857,
      "▁patri": 4858,
      "ipped": 4859,
      "▁index": 4860,
      "▁electrical": 4861,
      "▁saying": 4862,
      "▁interpre": 4863,
      "▁pictures": 4864,
      "▁binary": 4865,
      "▁dict": 4866,
      "▁plans": 4867,
      "▁transition": 4868,
      "▁enemy": 4869,
      "▁inhabitants": 4870,
      "▁isol": 4871,
      "▁radical": 4872,
      "▁bw": 4873,
      "osexual": 4874,
      "▁explor": 4875,
      "▁village": 4876,
      "▁bure": 4877,
      "oured": 4878,
      "▁rational": 4879,
      "▁granted": 4880,
      "▁persons": 4881,
      "▁layer": 4882,
      "▁huge": 4883,
      "▁lot": 4884,
      "▁scand": 4885,
      "▁degrees": 4886,
      "▁fifth": 4887,
      "▁dialects": 4888,
      "▁grant": 4889,
      "▁michigan": 4890,
      "▁weeks": 4891,
      "▁challen": 4892,
      "▁sector": 4893,
      "▁speakers": 4894,
      "iat": 4895,
      "pread": 4896,
      "▁selected": 4897,
      "▁artific": 4898,
      "▁descend": 4899,
      "▁magnetic": 4900,
      "▁festival": 4901,
      "▁widespread": 4902,
      "▁ie": 4903,
      "▁gay": 4904,
      "▁cav": 4905,
      "▁pian": 4906,
      "itarian": 4907,
      "ette": 4908,
      "▁alliance": 4909,
      "▁joint": 4910,
      "▁commonwe": 4911,
      "▁babyl": 4912,
      "ena": 4913,
      "aling": 4914,
      "ogue": 4915,
      "▁peak": 4916,
      "▁apost": 4917,
      "▁train": 4918,
      "▁legislative": 4919,
      "▁commonwealth": 4920,
      "ras": 4921,
      "▁density": 4922,
      "▁kg": 4923,
      "▁unus": 4924,
      "▁influential": 4925,
      "▁platform": 4926,
      "order": 4927,
      "▁sword": 4928,
      "▁similarly": 4929,
      "▁visual": 4930,
      "▁affect": 4931,
      "▁determine": 4932,
      "tes": 4933,
      "▁isa": 4934,
      "▁someone": 4935,
      "▁particles": 4936,
      "▁freder": 4937,
      "▁hitler": 4938,
      "▁achieved": 4939,
      "▁random": 4940,
      "▁traffic": 4941,
      "ading": 4942,
      "▁advert": 4943,
      "▁column": 4944,
      "▁dispute": 4945,
      "▁newspaper": 4946,
      "▁elizabeth": 4947,
      "▁supporters": 4948,
      "▁homosexual": 4949,
      "gi": 4950,
      "ped": 4951,
      "▁teach": 4952,
      "▁entertain": 4953,
      "▁explan": 4954,
      "▁sevent": 4955,
      "tery": 4956,
      "ellow": 4957,
      "▁salv": 4958,
      "▁orders": 4959,
      "▁houses": 4960,
      "▁awards": 4961,
      "▁worldwide": 4962,
      "▁deliver": 4963,
      "lers": 4964,
      "ani": 4965,
      "▁hoc": 4966,
      "▁gospel": 4967,
      "▁hour": 4968,
      "▁gulf": 4969,
      "▁teaching": 4970,
      "avia": 4971,
      "agon": 4972,
      "▁apparently": 4973,
      "▁diet": 4974,
      "thy": 4975,
      "sey": 4976,
      "▁ideal": 4977,
      "▁titles": 4978,
      "▁hungarian": 4979,
      "▁fear": 4980,
      "▁transm": 4981,
      "▁universities": 4982,
      "▁imposs": 4983,
      "▁providing": 4984,
      "▁detect": 4985,
      "▁clearly": 4986,
      "▁manufactur": 4987,
      "▁fine": 4988,
      "▁infinite": 4989,
      "cers": 4990,
      "icide": 4991,
      "▁exerc": 4992,
      "▁publication": 4993,
      "▁electricity": 4994,
      "▁suffered": 4995,
      "▁jon": 4996,
      "▁chart": 4997,
      "▁serb": 4998,
      "▁colonial": 4999
    },
    "merges": [
      "▁ t",
      "▁ a",
      "i n",
      "h e",
      "▁ o",
      "e r",
      "▁ s",
      "▁t he",
      "r e",
      "▁ c",
      "o n",
      "▁ f",
      "e n",
      "i s",
      "a t",
      "a n",
      "▁ b",
      "▁ w",
      "▁ p",
      "i t",
      "▁ m",
      "e d",
      "▁o f",
      "e s",
      "o r",
      "a l",
      "▁ in",
      "▁ n",
      "a r",
      "▁a n",
      "▁o n",
      "i c",
      "▁ d",
      "▁ e",
      "o u",
      "▁an d",
      "▁ h",
      "i on",
      "▁ l",
      "▁on e",
      "in g",
      "a s",
      "▁t h",
      "▁t o",
      "r o",
      "in e",
      "l e",
      "v e",
      "▁ g",
      "en t",
      "▁ z",
      "i g",
      "▁ re",
      "er o",
      "▁z ero",
      "o m",
      "▁n ine",
      "l y",
      "u s",
      "c t",
      "i l",
      "▁s e",
      "▁ is",
      "▁b e",
      "o l",
      "a m",
      "▁t w",
      "s t",
      "▁tw o",
      "h t",
      "u n",
      "i m",
      "i ve",
      "at ion",
      "c e",
      "r a",
      "▁s t",
      "ig ht",
      "▁f or",
      "c h",
      "i d",
      "v er",
      "▁a s",
      "o t",
      "u t",
      "u r",
      "e t",
      "ou r",
      "▁a l",
      "i r",
      "is t",
      "e l",
      "o w",
      "re e",
      "▁c on",
      "a d",
      "u l",
      "v en",
      "▁e ight",
      "he r",
      "t er",
      "it h",
      "▁ k",
      "▁w h",
      "▁w as",
      "▁d e",
      "▁ j",
      "▁f ive",
      "▁th ree",
      "▁ r",
      "▁ it",
      "▁b y",
      "i x",
      "a y",
      "▁o r",
      "o s",
      "▁f our",
      "▁th at",
      "▁c om",
      "▁w ith",
      "▁ he",
      "▁p ro",
      "▁ v",
      "▁s ix",
      "▁c h",
      "an d",
      "u m",
      "▁m o",
      "▁se ven",
      "▁ un",
      "er s",
      "g e",
      "i f",
      "o p",
      "▁e x",
      "r i",
      "ro m",
      "e m",
      "▁a re",
      "t h",
      "▁s u",
      "es t",
      "ou n",
      "▁a t",
      "re s",
      "a c",
      "a in",
      "at e",
      "a b",
      "it y",
      "q u",
      "i an",
      "i es",
      "p e",
      "o d",
      "▁f rom",
      "s e",
      "▁ us",
      "▁n e",
      "m ent",
      "ic h",
      "l d",
      "▁a r",
      "o c",
      "es s",
      "ic al",
      "▁ en",
      "i v",
      "ar t",
      "il l",
      "an t",
      "▁h is",
      "i a",
      "or t",
      "▁ y",
      "i al",
      "u d",
      "▁l e",
      "al l",
      "o g",
      "▁n ot",
      "▁th is",
      "a p",
      "ar d",
      "▁wh ich",
      "is h",
      "a k",
      "a g",
      "▁w or",
      "t her",
      "p p",
      "b er",
      "d er",
      "▁s h",
      "▁p l",
      "▁h a",
      "▁com p",
      "▁a m",
      "ct ion",
      "u re",
      "at ed",
      "s o",
      "ar y",
      "i e",
      "p t",
      "am e",
      "i p",
      "▁m an",
      "om e",
      "ou s",
      "as t",
      "▁c l",
      "▁al so",
      "ou g",
      "▁a d",
      "er e",
      "r it",
      "▁con t",
      "c l",
      "▁a b",
      "i re",
      "p er",
      "on g",
      "a ge",
      "us t",
      "▁c an",
      "r an",
      "▁in t",
      "el l",
      "▁s p",
      "▁ha ve",
      "e ct",
      "c c",
      "k s",
      "▁h as",
      "▁w ere",
      "▁w he",
      "▁o ther",
      "it ion",
      "▁al l",
      "o re",
      "al ly",
      "en d",
      "i z",
      "▁ im",
      "oun d",
      "en ce",
      "i b",
      "▁a f",
      "▁p art",
      "ation s",
      "▁ u",
      "r y",
      "▁b ut",
      "▁com m",
      "▁ ro",
      "or y",
      "id e",
      "f er",
      "ter n",
      "ul t",
      "er m",
      "d u",
      "▁s c",
      "u b",
      "as s",
      "oug h",
      "▁t e",
      "re n",
      "ig n",
      "▁it s",
      "▁d is",
      "an g",
      "a v",
      "▁in d",
      "r u",
      "a ct",
      "p h",
      "▁s y",
      "▁ i",
      "p l",
      "ou ld",
      "ar s",
      "ver s",
      "▁the ir",
      "▁re s",
      "▁ne w",
      "▁s ome",
      "▁g o",
      "k e",
      "▁ ra",
      "▁f ir",
      "▁m e",
      "or d",
      "ou t",
      "l and",
      "▁n o",
      "▁be c",
      "▁m ar",
      "▁c ol",
      "im e",
      "ic an",
      "oun t",
      "▁h ad",
      "at es",
      "▁fir st",
      "ve l",
      "▁c o",
      "▁s o",
      "or m",
      "▁for m",
      "▁the y",
      "is m",
      "▁g en",
      "▁p h",
      "▁mo st",
      "a re",
      "c es",
      "▁a g",
      "ow n",
      "▁b o",
      "u e",
      "ic e",
      "res s",
      "ab le",
      "at er",
      "▁p o",
      "ac k",
      "▁mo re",
      "▁p er",
      "▁the re",
      "▁p r",
      "▁am er",
      "ion s",
      "▁t ra",
      "▁wh o",
      "▁d es",
      "os e",
      "▁g r",
      "a ch",
      "ic t",
      "▁w e",
      "▁y e",
      "ic s",
      "c on",
      "▁c ent",
      "▁con s",
      "▁s pe",
      "▁be en",
      "▁s er",
      "it e",
      "i le",
      "▁re l",
      "f f",
      "en s",
      "a ce",
      "▁e m",
      "▁e le",
      "▁p e",
      "▁su ch",
      "▁ qu",
      "ol og",
      "▁p re",
      "▁en g",
      "o k",
      "▁man y",
      "▁k n",
      "cl ud",
      "▁re c",
      "or s",
      "at h",
      "▁a ct",
      "an ce",
      "ation al",
      "t e",
      "▁f e",
      "it ed",
      "▁p ol",
      "▁us ed",
      "▁af ter",
      "as e",
      "on e",
      "l es",
      "ul ar",
      "p ort",
      "t s",
      "▁in clud",
      "▁b l",
      "▁h ow",
      "he d",
      "▁o ver",
      "▁amer ican",
      "ub l",
      "▁l i",
      "▁in f",
      "w e",
      "▁e ar",
      "▁se e",
      "▁m ay",
      "▁a pp",
      "c ed",
      "▁m a",
      "▁whe n",
      "▁d o",
      "▁l a",
      "am p",
      "▁o ut",
      "t en",
      "w n",
      "▁t ime",
      "l ow",
      "▁int o",
      "re at",
      "an s",
      "▁p res",
      "u al",
      "i ous",
      "▁pl ay",
      "▁the se",
      "f t",
      "in d",
      "▁h ist",
      "st em",
      "ent s",
      "▁j o",
      "▁w ar",
      "▁in ter",
      "▁u p",
      "▁wor ld",
      "▁on ly",
      "▁th an",
      "a us",
      "i ed",
      "▁be t",
      "u g",
      "v ed",
      "▁m us",
      "▁a cc",
      "▁sy stem",
      "▁un der",
      "▁re g",
      "ing s",
      "▁of f",
      "▁ch ar",
      "▁p op",
      "▁gen er",
      "at ive",
      "▁su b",
      "▁as s",
      "▁at t",
      "▁n um",
      "in t",
      "▁a p",
      "▁e v",
      "ver y",
      "▁w ill",
      "▁c ount",
      "▁c all",
      "ur ing",
      "▁m on",
      "▁ ed",
      "▁w ould",
      "▁a c",
      "▁c ar",
      "▁de f",
      "ri b",
      "y s",
      "ran s",
      "▁f l",
      "▁b as",
      "▁un i",
      "▁h ig",
      "l l",
      "▁re p",
      "▁ her",
      "if ic",
      "▁l ar",
      "ver n",
      "▁t rans",
      "on s",
      "▁m et",
      "d ition",
      "▁m in",
      "▁d if",
      "▁pro du",
      "d s",
      "ad e",
      "e ver",
      "c k",
      "ut ion",
      "j ect",
      "ot h",
      "▁ar t",
      "▁go vern",
      "▁l in",
      "r ic",
      "ist s",
      "▁p ar",
      "▁the m",
      "i et",
      "▁how ever",
      "▁in st",
      "we en",
      "▁l o",
      "▁bet ween",
      "is s",
      "▁pe op",
      "id ent",
      "g r",
      "e p",
      "re d",
      "▁ab out",
      "g an",
      "▁o b",
      "▁us e",
      "▁st ates",
      "▁in c",
      "▁wor k",
      "ak e",
      "▁s im",
      "▁ x",
      "▁l ang",
      "erm an",
      "▁m em",
      "▁p ubl",
      "ay s",
      "r on",
      "▁ if",
      "ou p",
      "▁ye ars",
      "or n",
      "▁e u",
      "i ent",
      "▁h im",
      "▁w rit",
      "▁th r",
      "o od",
      "▁peop le",
      "▁p os",
      "c ial",
      "a il",
      "i o",
      "▁d uring",
      "in ce",
      "▁lang u",
      "it ies",
      "u ally",
      "al s",
      "il d",
      "▁un ited",
      "i ly",
      "▁kn own",
      "▁re m",
      "▁f ol",
      "l ish",
      "▁in v",
      "▁call ed",
      "▁an y",
      "ce pt",
      "ow er",
      "▁f il",
      "c y",
      "▁whe re",
      "r al",
      "er t",
      "▁s m",
      "ur n",
      "ur y",
      "ol d",
      "▁f in",
      "▁a ut",
      "he s",
      "▁uni vers",
      "if e",
      "▁g u",
      "on d",
      "▁b r",
      "▁be l",
      "olog y",
      "▁b rit",
      "▁g erman",
      "▁s ch",
      "▁v ar",
      "aus e",
      "▁s a",
      "▁su pp",
      "▁thr ough",
      "at ing",
      "n e",
      "▁st ate",
      "w ard",
      "▁d ist",
      "▁s ou",
      "u res",
      "▁of ten",
      "▁p ers",
      "▁c ap",
      "▁ ent",
      "l i",
      "▁ex t",
      "ib le",
      "▁t erm",
      "▁ est",
      "he m",
      "ment s",
      "al e",
      "▁con st",
      "▁f ran",
      "▁m ain",
      "am es",
      "▁f am",
      "▁gr oup",
      "▁hist ory",
      "vel op",
      "▁m at",
      "c ess",
      "ra ph",
      "▁b ro",
      "ic k",
      "im es",
      "is e",
      "ical ly",
      "u c",
      "▁g e",
      "▁dif fer",
      "▁ele ct",
      "▁eu ro",
      "r ist",
      "f orm",
      "▁k ing",
      "in s",
      "▁in tern",
      "▁wh ile",
      "▁s oc",
      "▁c ity",
      "▁se t",
      "▁de velop",
      "▁hig h",
      "▁n or",
      "▁w ell",
      "▁li ke",
      "▁re fer",
      "▁m ed",
      "▁or ig",
      "▁fol low",
      "▁ag ain",
      "▁f ound",
      "▁f un",
      "a h",
      "▁ex p",
      "▁eng lish",
      "▁s he",
      "▁be ing",
      "▁the n",
      "▁num ber",
      "t le",
      "ag es",
      "▁t y",
      "▁m ade",
      "m an",
      "▁b oth",
      "▁en d",
      "b le",
      "o st",
      "is hed",
      "us s",
      "▁a ir",
      "▁im p",
      "h ip",
      "ction s",
      "id er",
      "f ore",
      "▁jo h",
      "▁b u",
      "▁dis c",
      "▁m il",
      "▁govern ment",
      "i el",
      "▁ rom",
      "▁h um",
      "in es",
      "▁ch rist",
      "▁la w",
      "at her",
      "ian s",
      "▁st ud",
      "▁comm on",
      "t ed",
      "▁pro v",
      "▁euro pe",
      "▁pol it",
      "▁l ong",
      "▁e ff",
      "▁l ater",
      "it s",
      "ra ct",
      "▁fil m",
      "▁d ire",
      "at ure",
      "▁c ur",
      "▁s ur",
      "▁de p",
      "ot her",
      "t on",
      "▁m u",
      "▁l oc",
      "b ers",
      "iz ed",
      "▁c re",
      "▁n ame",
      "ur al",
      "▁orig in",
      "▁n ational",
      "▁ar m",
      "om et",
      "▁s ign",
      "▁comm un",
      "▁joh n",
      "▁s ince",
      "▁cl ass",
      "▁se ver",
      "▁de c",
      "▁st r",
      "f ul",
      "▁ma j",
      "▁j e",
      "▁cent ury",
      "ie w",
      "▁c or",
      "▁re t",
      "t y",
      "▁de m",
      "▁c al",
      "▁bec ause",
      "▁mus ic",
      "v ing",
      "▁le ad",
      "a z",
      "▁col le",
      "ren t",
      "is ion",
      "▁k e",
      "▁le g",
      "▁l ife",
      "▁g reat",
      "▁univers ity",
      "▁ear ly",
      "ro w",
      "or k",
      "in ed",
      "an n",
      "con om",
      "▁cont ro",
      "amp le",
      "▁brit ish",
      "▁maj or",
      "▁ye ar",
      "▁part ic",
      "▁mo d",
      "▁d ay",
      "▁lar ge",
      "ar ch",
      "▁e ven",
      "▁s ing",
      "l ed",
      "▁r ight",
      "▁p ower",
      "▁e conom",
      "▁cons ider",
      "▁o wn",
      "▁s ame",
      "ch n",
      "▁l ist",
      "ro s",
      "og raph",
      "▁l it",
      "il ity",
      "▁comp le",
      "u es",
      "▁se con",
      "▁includ ing",
      "gr am",
      "▁char act",
      "g er",
      "x t",
      "▁bec ame",
      "▁e qu",
      "▁cont in",
      "▁g re",
      "▁ ir",
      "▁ex ample",
      "▁o p",
      "▁e ach",
      "▁v al",
      "▁e l",
      "▁ es",
      "▁comp ut",
      "▁g od",
      "i um",
      "▁o per",
      "▁langu age",
      "▁des c",
      "▁o cc",
      "ul ation",
      "i er",
      "▁al th",
      "el f",
      "▁de ath",
      "v es",
      "iv es",
      "en ces",
      "▁gener al",
      "▁alth ough",
      "i k",
      "▁s l",
      "▁is land",
      "▁spe c",
      "▁dire ct",
      "▁mo der",
      "▁sever al",
      "▁p ri",
      "▁im port",
      "▁secon d",
      "ter s",
      "▁differ ent",
      "▁d et",
      "an ge",
      "pe ct",
      "▁ap pe",
      "▁f re",
      "n ing",
      "▁st and",
      "▁te chn",
      "ren ch",
      "▁or gan",
      "▁an t",
      "▁sm all",
      "▁ very",
      "▁b at",
      "▁ph il",
      "▁mu ch",
      "▁h ar",
      "▁f rench",
      "▁s w",
      "▁be fore",
      "▁res ult",
      "▁sou th",
      "▁in s",
      "▁off ic",
      "▁pro gram",
      "i ence",
      "ur ch",
      "▁wh at",
      "at ic",
      "▁n ow",
      "▁con f",
      "▁g l",
      "g y",
      "oc k",
      "▁nor th",
      "▁i i",
      "▁des ign",
      "o ol",
      "he n",
      "v ent",
      "▁a ust",
      "▁publ ic",
      "▁c ult",
      "d e",
      "▁o ld",
      "▁p a",
      "el s",
      "oug ht",
      "▁ er",
      "▁c ould",
      "ic a",
      "▁l and",
      "▁re v",
      "▁again st",
      "ant s",
      "▁moder n",
      "it al",
      "▁m y",
      "tern al",
      "▁g ra",
      "▁lin ks",
      "▁f act",
      "▁d r",
      "ru ct",
      "ro p",
      "ain s",
      "▁bel ie",
      "▁c our",
      "▁b ar",
      "▁bas ed",
      "ion al",
      "▁th ose",
      "g est",
      "▁b ack",
      "ou se",
      "▁p ort",
      "▁or der",
      "▁pers on",
      "a im",
      "ain ed",
      "o b",
      "o v",
      "▁mar k",
      "ut e",
      "in a",
      "ak ing",
      "▁c r",
      "a ve",
      "▁un t",
      "os ed",
      "▁pres ident",
      "▁h and",
      "▁d iv",
      "u p",
      "▁an other",
      "iv ed",
      "ol ution",
      "▁ex ternal",
      "ri es",
      "▁pos s",
      "w ay",
      "ul l",
      "▁rec ord",
      "▁l at",
      "t ing",
      "▁g ame",
      "▁sh ow",
      "▁hum an",
      "▁aut h",
      "▁n on",
      "▁pop ular",
      "▁count ry",
      "▁s omet",
      "o y",
      "od e",
      "▁re f",
      "cc ess",
      "▁p at",
      "g et",
      "▁ser ies",
      "▁h y",
      "▁m ag",
      "▁y ou",
      "iel d",
      "▁ex pl",
      "▁f ree",
      "▁a v",
      "▁supp ort",
      "▁st ill",
      "am ent",
      "▁re qu",
      "▁tra dition",
      "▁bo ok",
      "are d",
      "▁eff ect",
      "▁intern ational",
      "▁unt il",
      "▁con c",
      "g ed",
      "▁mil it",
      "en n",
      "▁pro t",
      "▁ vers",
      "▁t er",
      "as ed",
      "▁ser v",
      "▁d id",
      "ber t",
      "▁r un",
      "▁se c",
      "en se",
      "▁m id",
      "op h",
      "ire d",
      "▁ra d",
      "▁l ine",
      "▁m ill",
      "as on",
      "▁j ust",
      "▁inf l",
      "▁st at",
      "▁ch urch",
      "▁t r",
      "qu e",
      "i od",
      "▁su ccess",
      "m in",
      "ent ly",
      "▁d om",
      "▁inf orm",
      "▁ad d",
      "▁pro cess",
      "▁comp an",
      "iz ation",
      "re t",
      "▁n et",
      "▁art ic",
      "le y",
      "▁sch ool",
      "▁w ay",
      "▁je w",
      "▁polit ical",
      "i us",
      "id ed",
      "n er",
      "▁o pp",
      "▁part y",
      "▁p ass",
      "▁f o",
      "▁ar g",
      "▁charact er",
      "▁s k",
      "▁w est",
      "a ir",
      "▁re le",
      "▁po int",
      "or ies",
      "▁re al",
      "▁pro p",
      "▁all ow",
      "▁rel ig",
      "▁us ually",
      "▁inc re",
      "an k",
      "▁b ir",
      "▁rom an",
      "▁d i",
      "▁c rit",
      "▁b re",
      "▁d own",
      "▁am ong",
      "ic es",
      "is ed",
      "▁ph ys",
      "▁ty p",
      "m ber",
      "c o",
      "en e",
      "p or",
      "▁ad v",
      "n ess",
      "▁b i",
      "ist er",
      "▁op en",
      "▁e as",
      "▁g ree",
      "i ation",
      "m s",
      "▁hist or",
      "b o",
      "▁l ast",
      "id es",
      "at or",
      "ros s",
      "a u",
      "▁offic ial",
      "▁the ory",
      "if ied",
      "▁are a",
      "▁ne ar",
      "▁ar ound",
      "▁f ore",
      "ar k",
      "d ay",
      "▁e very",
      "▁ar ch",
      "▁includ e",
      "▁n at",
      "▁per iod",
      "▁sh ort",
      "y n",
      "at a",
      "il ar",
      "▁auth or",
      "m e",
      "d om",
      "▁c oun",
      "▁v iew",
      "as es",
      "b s",
      "▁cl aim",
      "▁ch ild",
      "▁le ft",
      "b all",
      "▁t ri",
      "▁rep res",
      "et s",
      "▁s ol",
      "▁mo ve",
      "▁milit ary",
      "▁mem bers",
      "in c",
      "▁pop ulation",
      "▁f ar",
      "▁he ad",
      "▁sim ilar",
      "as h",
      "▁us ing",
      "▁ex per",
      "▁th ough",
      "es e",
      "▁g i",
      "▁r uss",
      "am ed",
      "▁l et",
      "ab ly",
      "w are",
      "▁j ap",
      "▁e p",
      "▁partic ular",
      "iet y",
      "▁me an",
      "▁p ress",
      "▁e ast",
      "▁follow ing",
      "▁ ide",
      "z e",
      "▁d ra",
      "s on",
      "▁r i",
      "▁jap an",
      "y l",
      "▁v ol",
      "▁with in",
      "▁cur rent",
      "▁an g",
      "▁b od",
      "▁te le",
      "▁b ra",
      "iv ing",
      "▁pro f",
      "u ed",
      "im ate",
      "▁m ic",
      "▁h ouse",
      "e c",
      "▁can ad",
      "▁re st",
      "▁l ab",
      "▁b us",
      "▁t em",
      "▁st e",
      "a x",
      "iz e",
      "▁h ol",
      "▁infl u",
      "▁stand ard",
      "▁he l",
      "er v",
      "▁d ue",
      "ict ion",
      "▁h un",
      "▁import ant",
      "g in",
      "▁app ro",
      "▁l ight",
      "ri pt",
      "▁ ve",
      "▁d el",
      "▁christ ian",
      "▁per form",
      "▁consider ed",
      "▁m ac",
      "▁l ess",
      "an e",
      "▁al b",
      "▁soc ial",
      "▁m al",
      "▁c iv",
      "▁v i",
      "▁comput er",
      "▁ex ist",
      "▁w ater",
      "am m",
      "▁acc ord",
      "▁c ir",
      "▁p ract",
      "▁h ome",
      "ert ain",
      "▁s our",
      "▁fam ily",
      "▁st art",
      "ro du",
      "▁j ud",
      "▁wor d",
      "▁inform ation",
      "th s",
      "on y",
      "end ed",
      "▁phil os",
      "▁europe an",
      "ep end",
      "ak es",
      "▁w es",
      "▁ind epend",
      "▁somet imes",
      "▁an n",
      "▁w in",
      "um ent",
      "▁ass oc",
      "▁do es",
      "▁de v",
      "▁civ il",
      "▁rep ubl",
      "▁met h",
      "▁m or",
      "▁sy m",
      "▁t imes",
      "▁contro l",
      "▁c y",
      "▁with out",
      "▁m iss",
      "ograph y",
      "▁m ake",
      "h ing",
      "l er",
      "▁b er",
      "▁gi ven",
      "▁pres ent",
      "p ar",
      "▁repres ent",
      "▁pl ace",
      "▁l im",
      "▁re ad",
      "▁est ab",
      "▁pro ble",
      "st er",
      "▁it al",
      "▁b orn",
      "▁c le",
      "t al",
      "▁app l",
      "▁f ur",
      "▁th ir",
      "▁ad dition",
      "▁desc rib",
      "▁go od",
      "▁to p",
      "▁le vel",
      "n a",
      "▁fe w",
      "it her",
      "▁em p",
      "▁sp ace",
      "▁h al",
      "▁aust ral",
      "▁sh ould",
      "▁m ass",
      "▁te am",
      "▁bl ack",
      "▁c ase",
      "▁un ion",
      "▁c at",
      "▁cent ral",
      "c he",
      "▁a ge",
      "▁re d",
      "▁p ur",
      "os s",
      "▁v is",
      "em pt",
      "▁r ul",
      "le ct",
      "▁y ork",
      "am b",
      "o ks",
      "is on",
      "▁l ed",
      "▁cir c",
      "b n",
      "en g",
      "olog ical",
      "re ad",
      "▁var ious",
      "▁th us",
      "▁w om",
      "▁sc ience",
      "un e",
      "ent ial",
      "▁ear th",
      "en cy",
      "r ation",
      "▁af f",
      "▁bec ome",
      "▁system s",
      "p s",
      "l ess",
      "▁h o",
      "▁is bn",
      "▁count ries",
      "▁m ot",
      "▁su per",
      "ist ic",
      "in ation",
      "▁com b",
      "▁wes tern",
      "▁c a",
      "▁b est",
      "▁m ust",
      "▁d a",
      "▁m ult",
      "▁other s",
      "▁ret urn",
      "▁accord ing",
      "▁artic le",
      "▁ ver",
      "▁m en",
      "▁m er",
      "▁ch ang",
      "▁re ce",
      "▁play er",
      "ri ed",
      "▁spe cial",
      "▁t it",
      "▁langu ages",
      "▁t reat",
      "c ing",
      "▁he n",
      "▁res p",
      "l ing",
      "▁d er",
      "▁d u",
      "▁ne ver",
      "▁ind ust",
      "p le",
      "t ic",
      "at s",
      "▁s ong",
      "▁ob ject",
      "▁be gan",
      "ot s",
      "▁c amp",
      "▁form er",
      "▁fo ot",
      "▁meth od",
      "▁pro per",
      "▁t est",
      "▁k ill",
      "▁gener ally",
      "▁c op",
      "▁origin al",
      "ur g",
      "w ays",
      "▁ne ed",
      "in k",
      "▁an im",
      "▁is s",
      "▁st ruct",
      "i am",
      "o ver",
      "▁writ ten",
      "▁s um",
      "▁d en",
      "▁wor ks",
      "▁s al",
      "on es",
      "▁develop ment",
      "▁for ce",
      "iv id",
      "▁im m",
      "ot t",
      "l o",
      "▁t urn",
      "▁e th",
      "a e",
      "▁int rodu",
      "▁ge or",
      "▁att empt",
      "▁sing le",
      "▁po st",
      "g ress",
      "ed er",
      "▁pr im",
      "▁const it",
      "▁fran ce",
      "▁fur ther",
      "al ity",
      "▁l ow",
      "▁kn ow",
      "a i",
      "i or",
      "▁an c",
      "▁c he",
      "ut ed",
      "ac ed",
      "▁b and",
      "▁ind ivid",
      "m ing",
      "▁k m",
      "▁l og",
      "▁p et",
      "▁v ir",
      "▁rel ations",
      "▁group s",
      "l ine",
      "▁w ide",
      "r ing",
      "▁ ident",
      "▁ev ent",
      "▁l ate",
      "▁re port",
      "▁c ell",
      "▁ob s",
      "o ve",
      "▁d av",
      "▁e t",
      "▁king dom",
      "▁lit er",
      "al th",
      "le x",
      "▁eng ine",
      "▁eng land",
      "▁al ong",
      "▁j an",
      "▁bu ild",
      "▁s on",
      "s elf",
      "▁re pl",
      "▁a ug",
      "▁f a",
      "▁bod y",
      "▁mat hem",
      "▁r ather",
      "ive ly",
      "▁fun ction",
      "iv al",
      "▁pos ition",
      "▁d ata",
      "▁individ ual",
      "an ces",
      "▁gree k",
      "ol ic",
      "y le",
      "▁inv ol",
      "cial ly",
      "▁cour t",
      "▁g ames",
      "▁b ase",
      "ward s",
      "▁n amed",
      "▁f ield",
      "▁german y",
      "g es",
      "▁be h",
      "▁sc ient",
      "▁l ond",
      "▁so ft",
      "t t",
      "▁li ber",
      "▁a ra",
      "▁an al",
      "▁se a",
      "▁st ar",
      "▁sa id",
      "ag ue",
      "▁bat tle",
      "▁j u",
      "▁vers ion",
      "▁mill ion",
      "▁lond on",
      "▁n ort",
      "▁de cl",
      "c hes",
      "▁compan y",
      "▁nat ural",
      "▁econom ic",
      "▁cap ital",
      "ap p",
      "▁publ ished",
      "c ul",
      "▁arm y",
      "▁pro ject",
      "as ter",
      "ra el",
      "▁str ong",
      "▁re se",
      "▁b al",
      "▁occ ur",
      "▁f em",
      "▁c ertain",
      "b y",
      "m a",
      "▁p al",
      "▁inter est",
      "it es",
      "ot e",
      "▁s un",
      "▁c aus",
      "og n",
      "▁new s",
      "▁h ard",
      "▁produ ct",
      "▁m ater",
      "▁e ither",
      "▁so v",
      "▁t ake",
      "▁emp ire",
      "▁g row",
      "c il",
      "w ork",
      "▁f r",
      "ent ion",
      "▁sov iet",
      "▁b ill",
      "ain ing",
      "end s",
      "▁serv ice",
      "h an",
      "▁c are",
      "▁develop ed",
      "er n",
      "▁is rael",
      "▁sy n",
      "▁w al",
      "ra ft",
      "▁colle ge",
      "▁republ ic",
      "▁f ull",
      "▁c ath",
      "▁will iam",
      "▁to tal",
      "m ost",
      "il t",
      "▁y oun",
      "m er",
      "ap s",
      "▁ed uc",
      "▁amer ica",
      "▁he ld",
      "i pp",
      "▁to day",
      "▁loc al",
      "u le",
      "▁ ill",
      "ific ation",
      "▁ri ver",
      "▁me ans",
      "a w",
      "▁s at",
      "▁es pe",
      "ure d",
      "▁f ather",
      "▁se par",
      "▁n orm",
      "▁thir d",
      "▁aug ust",
      "ct or",
      "ak en",
      "it ive",
      "▁su g",
      "et ic",
      "id s",
      "▁wh ite",
      "d le",
      "id ence",
      "▁c hem",
      "▁espe cially",
      "▁for ces",
      "▁c e",
      "▁to wn",
      "▁p s",
      "l in",
      "g en",
      "▁h om",
      "▁con cept",
      "▁mater ial",
      "▁ro ck",
      "▁m ount",
      "ic ation",
      "▁d est",
      "▁pre v",
      "▁soc iety",
      "▁s ound",
      "ru ction",
      "ar ian",
      "▁bo oks",
      "an ish",
      "▁sub ject",
      "▁poss ible",
      "▁s ide",
      "▁cent er",
      "▁philos oph",
      "re w",
      "▁fre qu",
      "▁en c",
      "b e",
      "ug ht",
      "▁fam ous",
      "▁te xt",
      "▁inst it",
      "▁to ok",
      "▁t ru",
      "▁a st",
      "▁dem oc",
      "▁l ib",
      "▁de b",
      "▁me as",
      "os ition",
      "▁no vel",
      "i ated",
      "y al",
      "▁m ach",
      "u ary",
      "▁trans l",
      "▁o ct",
      "▁child ren",
      "▁b or",
      "▁reg ard",
      "▁comple te",
      "▁ha ving",
      "▁def in",
      "▁act iv",
      "▁b all",
      "▁pl an",
      "ver se",
      "▁appe ar",
      "er gy",
      "▁be gin",
      "o x",
      "▁st ory",
      "▁pr inc",
      "▁c ame",
      "▁dif f",
      "id ge",
      "▁him self",
      "▁princ ip",
      "em ber",
      "▁island s",
      "in ess",
      "▁bro ad",
      "ab ility",
      "▁se x",
      "▁w ind",
      "▁d on",
      "v ision",
      "▁d ays",
      "▁c ard",
      "▁ant i",
      "▁t ro",
      "em b",
      "▁ q",
      "▁f all",
      "▁its elf",
      "▁lit tle",
      "▁se en",
      "▁u k",
      "▁av ail",
      "▁v ict",
      "▁cult ure",
      "and er",
      "op s",
      "▁wor ds",
      "▁coun cil",
      "▁de ce",
      "▁exp ress",
      "▁t re",
      "▁ac cept",
      "re me",
      "▁ab ove",
      "▁em per",
      "▁ty pe",
      "▁f ra",
      "ore d",
      "▁soft ware",
      "▁lar gest",
      "▁f ind",
      "▁ke y",
      "▁up on",
      "▁reg ion",
      "m it",
      "▁cre ated",
      "▁ro le",
      "▁fin al",
      "▁pro m",
      "▁refer ences",
      "▁in it",
      "▁r ich",
      "ic ations",
      "▁fore ign",
      "▁mar ch",
      "▁im age",
      "▁prof ess",
      "▁al most",
      "her n",
      "is ing",
      "un d",
      "▁ter rit",
      "▁c ode",
      "y r",
      "▁se l",
      "iss ion",
      "▁mo v",
      "▁on ce",
      "os p",
      "▁alb um",
      "▁n av",
      "c raft",
      "▁j ames",
      "▁jew ish",
      "▁hel p",
      "ie f",
      "▁le ague",
      "▁stud y",
      "▁g old",
      "▁relig ious",
      "▁re n",
      "▁jan uary",
      "▁s ite",
      "v al",
      "▁c ross",
      "ac ks",
      "se qu",
      "il le",
      "▁mem ber",
      "▁num bers",
      "▁th ought",
      "▁m art",
      "▁min ister",
      "▁are as",
      "▁move ment",
      "ens ive",
      "▁t ur",
      "▁l iving",
      "▁ex am",
      "ac es",
      "▁commun ity",
      "in o",
      "c er",
      "▁h it",
      "▁t our",
      "▁sour ce",
      "▁b c",
      "▁play ed",
      "▁produ ction",
      "▁f ire",
      "▁dav id",
      "▁cl ose",
      "i ate",
      "▁t al",
      "▁rele ased",
      "▁right s",
      "▁d ou",
      "▁co st",
      "r ict",
      "▁rel ated",
      "um b",
      "g o",
      "at ors",
      "s el",
      "▁st re",
      "▁ ess",
      "▁d ig",
      "om s",
      "▁mean ing",
      "▁anc ient",
      "▁qu est",
      "r il",
      "▁term s",
      "▁nort hern",
      "▁a lex",
      "▁ch ange",
      "he re",
      "ri an",
      "end ing",
      "▁rese arch",
      "▁p ain",
      "▁w on",
      "al d",
      "▁ad min",
      "▁mark et",
      "▁estab l",
      "▁bec om",
      "c le",
      "▁f ri",
      "▁ex ec",
      "ines e",
      "▁mid dle",
      "s ide",
      "▁re du",
      "b ol",
      "▁rad io",
      "▁s ent",
      "pl oy",
      "▁en ergy",
      "▁o s",
      "▁produ ced",
      "▁pri v",
      "le t",
      "▁act or",
      "▁m aking",
      "▁st yle",
      "c a",
      "▁dece mber",
      "ru g",
      "▁ne xt",
      "▁wom en",
      "ow s",
      "as ing",
      "▁pol ic",
      "▁japan ese",
      "▁d ied",
      "▁f eder",
      "▁avail able",
      "if y",
      "ing u",
      "▁ch inese",
      "▁mod el",
      "▁form s",
      "▁canad a",
      "e ad",
      "ific ant",
      "▁comple x",
      "ra y",
      "▁m ight",
      "▁par li",
      "▁con n",
      "ar ies",
      "f ord",
      "▁rec ogn",
      "▁p ap",
      "▁ear li",
      "▁pro b",
      "her s",
      "pl es",
      "at ures",
      "▁tele vision",
      "in ts",
      "▁se pt",
      "▁lat in",
      "▁co ver",
      "▁l ou",
      "▁s ay",
      "ect ed",
      "ud e",
      "▁ch ina",
      "▁hal f",
      "▁constit ution",
      "t o",
      "▁establ ished",
      "o int",
      "▁h or",
      "▁mathem at",
      "h am",
      "▁sign ificant",
      "▁d oc",
      "▁dom in",
      "▁eas tern",
      "▁sh ip",
      "▁en v",
      "▁parli ament",
      "▁ara b",
      "in ing",
      "▁ju ly",
      "p ut",
      "▁to get",
      "ch an",
      "▁geor ge",
      "▁bu ilt",
      "▁mic ro",
      "ri a",
      "▁toget her",
      "▁not e",
      "▁int e",
      "▁gre en",
      "ther n",
      "▁ab s",
      "▁g et",
      "▁pa ul",
      "▁sug gest",
      "▁can n",
      "ar ily",
      "▁o x",
      "▁b ur",
      "▁ex cept",
      "▁vi ol",
      "▁con dition",
      "▁char les",
      "▁qu e",
      "▁comp et",
      "▁cath olic",
      "y ch",
      "▁ ur",
      "▁part s",
      "▁inst ead",
      "▁ind ian",
      "▁bus iness",
      "l am",
      "▁p ot",
      "▁sub st",
      "▁foot ball",
      "▁tra de",
      "▁he av",
      "▁ind ia",
      "in al",
      "▁ne g",
      "▁acc ount",
      "f ace",
      "▁de g",
      "▁f ail",
      "ir on",
      "▁tradition al",
      "▁j une",
      "▁includ ed",
      "▁under st",
      "k a",
      "u el",
      "m on",
      "▁b ig",
      "r ican",
      "ort s",
      "us ed",
      "▁rev olution",
      "▁le ast",
      "▁l ive",
      "▁att ack",
      "▁a ud",
      "▁f ight",
      "▁no ve",
      "▁youn g",
      "▁al tern",
      "▁st ri",
      "▁c ast",
      "▁cap t",
      "▁d ut",
      "ut ions",
      "▁pr ime",
      "▁comm it",
      "em s",
      "b r",
      "er ing",
      "om b",
      "▁co ast",
      "▁d an",
      "▁lo ve",
      "▁econom y",
      "▁ent ire",
      "▁m ich",
      "▁al ways",
      "▁r ange",
      "c hed",
      "▁p ut",
      "▁s it",
      "▁s old",
      "▁nove mber",
      "▁emper or",
      "▁ital ian",
      "▁p en",
      "▁f ood",
      "▁env iron",
      "▁p ast",
      "ed ia",
      "▁det erm",
      "▁c ro",
      "ro te",
      "▁play ers",
      "▁sp ir",
      "ap t",
      "▁t rib",
      "▁c it",
      "▁ap ril",
      "▁sec ret",
      "▁acc ess",
      "ent al",
      "▁b en",
      "▁s an",
      "ron t",
      "▁n ature",
      "▁sept ember",
      "▁s ain",
      "ut h",
      "▁c reat",
      "ic ult",
      "▁ch o",
      "▁t aken",
      "b an",
      "▁lo st",
      "▁prev ious",
      "▁sou thern",
      "r or",
      "▁sel f",
      "am a",
      "o ber",
      "▁j our",
      "c om",
      "▁se ason",
      "▁techn ology",
      "ri e",
      "t a",
      "▁sp anish",
      "b urg",
      "▁r ate",
      "ate g",
      "▁oct ober",
      "▁comm er",
      "▁des p",
      "▁rec ent",
      "ric a",
      "ar a",
      "▁ ic",
      "▁gr and",
      "▁f ig",
      "er y",
      "▁rel ative",
      "r ary",
      "▁a ch",
      "▁const ant",
      "k ed",
      "▁s qu",
      "an a",
      "▁ro yal",
      "▁net work",
      "▁s en",
      "▁tru e",
      "▁l ower",
      "▁re form",
      "▁o ur",
      "▁val ue",
      "▁fe b",
      "er ed",
      "▁russ ian",
      "▁us es",
      "ff ic",
      "sel ves",
      "i ra",
      "u x",
      "▁t a",
      "▁inter p",
      "▁inv est",
      "▁b ud",
      "et h",
      "▁af rica",
      "▁col l",
      "▁proble m",
      "▁imp ro",
      "▁m ur",
      "▁me chan",
      "one y",
      "▁w rote",
      "▁l ord",
      "u f",
      "▁admin ist",
      "▁tem per",
      "▁v ide",
      "▁n ames",
      "▁e ver",
      "▁wh ose",
      "▁g al",
      "▁r ule",
      "▁fun d",
      "▁fe ature",
      "▁s am",
      "▁histor ical",
      "▁pro te",
      "▁com e",
      "▁diff icult",
      "▁ps ych",
      "p r",
      "▁dist in",
      "▁dist rib",
      "▁austral ia",
      "▁h on",
      "▁d am",
      "i en",
      "▁res pect",
      "▁particular ly",
      "▁min or",
      "▁struct ure",
      "i i",
      "▁fran k",
      "▁th om",
      "pt ion",
      "▁af rican",
      "▁s il",
      "ac y",
      "▁bro ther",
      "▁ev idence",
      "▁h old",
      "▁techn i",
      "▁sym bol",
      "ar n",
      "▁ro bert",
      "▁them selves",
      "▁hy d",
      "▁f ut",
      "▁c ases",
      "▁re ason",
      "▁influ ence",
      "ce ed",
      "▁ad op",
      "um e",
      "▁ph ot",
      "a el",
      "▁con vent",
      "▁refer red",
      "a f",
      "▁d one",
      "▁to o",
      "▁ra il",
      "uc le",
      "▁mult ip",
      "um ents",
      "▁contin ued",
      "▁n ations",
      "▁be low",
      "ne y",
      "▁t en",
      "▁col or",
      "▁h ost",
      "▁col on",
      "gy pt",
      "k y",
      "▁he re",
      "▁off ice",
      "▁through out",
      "▁h op",
      "▁tit le",
      "▁fem ale",
      "▁e gypt",
      "▁there fore",
      "▁tra vel",
      "▁spe ed",
      "▁st ep",
      "▁mag n",
      "▁feb ru",
      "▁independ ent",
      "▁b it",
      "ke y",
      "▁environ ment",
      "▁c ities",
      "▁inst r",
      "▁defin ition",
      "▁pe ace",
      "▁febru ary",
      "▁n ight",
      "▁spec ies",
      "▁crit ic",
      "▁f av",
      "▁educ ation",
      "▁gr ound",
      "▁elect ron",
      "▁e c",
      "▁par k",
      "▁ir ish",
      "▁philosoph y",
      "▁democ r",
      "b it",
      "ra d",
      "▁comm and",
      "▁hig her",
      "▁origin ally",
      "▁a ward",
      "▁intern et",
      "▁leg al",
      "▁b ank",
      "qu es",
      "▁s n",
      "y m",
      "▁ac ad",
      "▁success ful",
      "▁we e",
      "▁law s",
      "▁am ount",
      "as c",
      "▁v o",
      "▁cle ar",
      "▁ ut",
      "▁writ er",
      "▁film s",
      "ul a",
      "▁ele ments",
      "l im",
      "▁m ale",
      "▁n ucle",
      "▁spec ific",
      "▁whe ther",
      "led ge",
      "▁is lam",
      "▁desp ite",
      "▁t ar",
      "▁event ually",
      "▁ag ree",
      "▁a ction",
      "ial ly",
      "d en",
      "b on",
      "ist ics",
      "▁ ire",
      "▁disc uss",
      "▁describ ed",
      "▁pract ice",
      "er ous",
      "▁charact ers",
      "it z",
      "ac hed",
      "o f",
      "▁ch ief",
      "▁m other",
      "▁ma x",
      "▁ne cess",
      "▁ev ents",
      "▁we b",
      "▁form ed",
      "▁pur p",
      "▁common ly",
      "▁w at",
      "▁c ry",
      "▁b ul",
      "▁rece ived",
      "▁main t",
      "g or",
      "i res",
      "an ia",
      "▁proble ms",
      "▁ab le",
      "p ly",
      "ol l",
      "▁dis p",
      "▁jew s",
      "▁spe ak",
      "k ing",
      "▁sch ol",
      "us ion",
      "is c",
      "▁disc over",
      "▁belie f",
      "▁comp os",
      "▁typ ically",
      "▁ind ic",
      "▁typ es",
      "▁l ay",
      "▁cl ub",
      "▁includ es",
      "▁out side",
      "du ct",
      "▁lo ok",
      "oun ced",
      "▁cont rib",
      "ric k",
      "▁phys ical",
      "u ation",
      "▁person al",
      "▁p age",
      "imate ly",
      "id ing",
      "▁act ually",
      "land s",
      "ar i",
      "▁f iction",
      "▁z e",
      "as ion",
      "▁trans port",
      "ist an",
      "av es",
      "▁death s",
      "▁follow ed",
      "▁bl ood",
      "▁d ri",
      "▁hen ry",
      "▁f ac",
      "ar ing",
      "▁bas ic",
      "▁lead er",
      "▁d ial",
      "▁wide ly",
      "at ives",
      "▁w ent",
      "our s",
      "▁acad em",
      "ard s",
      "▁contro vers",
      "▁or d",
      "▁cons erv",
      "▁relations hip",
      "▁no b",
      "ra p",
      "ag ed",
      "am s",
      "is l",
      "▁f ront",
      "n al",
      "▁m ind",
      "▁qu ant",
      "st on",
      "st e",
      "▁ch amp",
      "un g",
      "▁ind e",
      "▁lead ers",
      "it ect",
      "▁begin ning",
      "▁elect ed",
      "▁w all",
      "ant ed",
      "in ary",
      "os es",
      "▁of fer",
      "▁def e",
      "le ment",
      "it or",
      "▁m ess",
      "▁te x",
      "▁mov ie",
      "▁build ing",
      "▁independ ence",
      "▁f low",
      "▁al ph",
      "▁em b",
      "w or",
      "▁det ail",
      "▁p ow",
      "▁air craft",
      "▁canad ian",
      "▁ ib",
      "▁spir it",
      "▁bl ue",
      "▁arch itect",
      "▁fut ure",
      "▁ ven",
      "▁h all",
      "ad es",
      "▁occ up",
      "▁bir ths",
      "▁or th",
      "▁sur v",
      "ot ed",
      "▁lou is",
      "▁vide o",
      "▁bir th",
      "▁cons ist",
      "▁elect ric",
      "▁scient ific",
      "▁w ood",
      "ut es",
      "▁m ary",
      "▁d yn",
      "▁sim ply",
      "ig h",
      "h a",
      "▁s ize",
      "▁j es",
      "▁def ined",
      "▁b ran",
      "▁cal if",
      "u ck",
      "▁we bs",
      "▁exper im",
      "▁ext reme",
      "t ies",
      "▁indust ry",
      "▁ed ition",
      "▁c ause",
      "▁exam ples",
      "▁appro x",
      "▁calif orn",
      "ri al",
      "▁incre asing",
      "ur ity",
      "t he",
      "▁de ad",
      "▁my th",
      "▁em ploy",
      "▁m is",
      "▁l eng",
      "h ib",
      "▁resp ons",
      "▁belie ve",
      "▁st ra",
      "▁y our",
      "c ript",
      "▁serv ices",
      "▁he alth",
      "▁ro ad",
      "▁ide a",
      "ag o",
      "▁so on",
      "▁po ints",
      "▁introdu ced",
      "b c",
      "and s",
      "i ers",
      "▁t im",
      "▁c ut",
      "▁man uf",
      "▁int ell",
      "ress ion",
      "▁let ter",
      "▁manuf act",
      "▁g un",
      "▁de al",
      "▁brit ain",
      "▁ach ie",
      "▁feder al",
      "▁fe atures",
      "▁major ity",
      "▁organ ization",
      "▁d im",
      "▁separ ate",
      "▁cann ot",
      "▁b ab",
      "▁ire land",
      "▁design ed",
      "▁class ical",
      "▁s ense",
      "▁p un",
      "▁med ia",
      "ic o",
      "▁writ ing",
      "▁colle ct",
      "h ol",
      "at ory",
      "▁requ ired",
      "▁add ress",
      "▁assoc iated",
      "▁fran c",
      "▁hyd ro",
      "od es",
      "um p",
      "▁know ledge",
      "▁m ix",
      "▁y et",
      "▁c am",
      "▁f oc",
      "▁priv ate",
      "▁californ ia",
      "▁chang es",
      "ro y",
      "▁loc ated",
      "▁m el",
      "a ut",
      "em ent",
      "ib ility",
      "is es",
      "▁relig ion",
      "▁liber al",
      "▁un it",
      "▁r h",
      "▁belie ved",
      "w er",
      "▁se qu",
      "▁res our",
      "▁chem ical",
      "▁inte gr",
      "▁a way",
      "▁start ed",
      "▁re b",
      "▁a ver",
      "▁f le",
      "▁me et",
      "▁po et",
      "▁ass emb",
      "▁n ation",
      "▁count y",
      "ys is",
      "▁po ly",
      "▁rul es",
      "▁ro b",
      "▁ele ment",
      "▁stud ies",
      "▁underst and",
      "▁con gress",
      "▁mo le",
      "▁intell ig",
      "▁dep art",
      "▁g as",
      "▁polic y",
      "▁j ose",
      "▁ch ann",
      "▁c orn",
      "▁found ed",
      "▁work ing",
      "▁se m",
      "it ch",
      "▁current ly",
      "c ent",
      "if f",
      "ber g",
      "▁ele ction",
      "▁sa w",
      "▁hun g",
      "▁prov ide",
      "▁br ought",
      "▁thom as",
      "o le",
      "h ab",
      "▁we ap",
      "▁cor por",
      "▁austral ian",
      "▁c art",
      "▁mus e",
      "ens ion",
      "▁lab or",
      "u it",
      "ol s",
      "▁al le",
      "w h",
      "▁s us",
      "om p",
      "▁contin u",
      "▁allow ed",
      "▁russ ia",
      "he l",
      "▁gre ater",
      "▁earli er",
      "▁lim ited",
      "▁su p",
      "▁t ax",
      "ist ry",
      "▁qu ick",
      "▁on line",
      "▁p ict",
      "▁k ind",
      "▁assoc iation",
      "▁b an",
      "r ated",
      "▁n ar",
      "▁aut om",
      "▁doc ument",
      "▁ iv",
      "▁m i",
      "il ities",
      "▁dis pl",
      "▁most ly",
      "▁ev olution",
      "▁cit iz",
      "▁ac ross",
      "c ast",
      "u k",
      "▁em er",
      "a ction",
      "▁add ed",
      "v in",
      "▁pre c",
      "▁th ings",
      "▁at l",
      "▁sim ple",
      "m ed",
      "▁quest ion",
      "▁m c",
      "▁h am",
      "▁ch ap",
      "▁requ ire",
      "c ies",
      "▁commer cial",
      "re st",
      "▁sing er",
      "▁sain t",
      "▁effect s",
      "▁sour ces",
      "▁grow th",
      "s h",
      "▁leg isl",
      "▁rem ains",
      "▁b ound",
      "▁g ave",
      "▁var i",
      "▁prot est",
      "▁prob ably",
      "▁sw ed",
      "▁g ar",
      "▁long er",
      "▁fre ed",
      "▁bre ak",
      "▁rich ard",
      "▁refer ence",
      "▁o il",
      "▁pr on",
      "▁dis e",
      "▁d rug",
      "en ed",
      "▁m ap",
      "▁app oint",
      "▁kill ed",
      "▁care er",
      "▁to m",
      "▁hy p",
      "▁muse um",
      "en ced",
      "▁div ision",
      "▁r ound",
      "▁mus ical",
      "▁c ub",
      "cl es",
      "ul f",
      "▁pr ince",
      "▁et c",
      "b or",
      "▁g ive",
      "e y",
      "▁n om",
      "ish ing",
      "▁sec urity",
      "▁obs er",
      "▁coun ter",
      "▁leng th",
      "▁conf l",
      "▁beh av",
      "ism s",
      "▁pre vent",
      "▁bet ter",
      "▁ex pect",
      "▁mach ine",
      "▁st ories",
      "us e",
      "▁r at",
      "▁ke ep",
      "▁m oney",
      "▁im per",
      "▁ep is",
      "ic ian",
      "▁ho ly",
      "ct r",
      "▁eth n",
      "i j",
      "▁act ress",
      "▁l ake",
      "▁lead ing",
      "g a",
      "▁sp ain",
      "▁lar ger",
      "l s",
      "▁the ore",
      "▁r out",
      "▁becom es",
      "▁o pt",
      "▁part ies",
      "▁ id",
      "is ions",
      "▁pri ze",
      "▁product s",
      "▁sc ott",
      "gr ound",
      "▁rem ained",
      "▁pre d",
      "▁mus lim",
      "f fer",
      "▁webs ite",
      "▁for t",
      "▁mon ths",
      "▁cult ural",
      "ul ated",
      "▁lin es",
      "▁territ ory",
      "▁mo ved",
      "he st",
      "▁w ife",
      "▁h ill",
      "▁polit ics",
      "▁p ie",
      "read y",
      "it ing",
      "▁be g",
      "▁large ly",
      "▁c ateg",
      "▁c ust",
      "▁cont ains",
      "▁f ell",
      "▁m akes",
      "▁compan ies",
      "fer ence",
      "▁fam il",
      "▁dut ch",
      "▁o ce",
      "▁dest roy",
      "▁k ar",
      "r ast",
      "h aps",
      "▁per haps",
      "▁t or",
      "▁l ack",
      "▁estab lish",
      "ight s",
      "ste in",
      "▁lib rary",
      "▁al ready",
      "▁ii i",
      "▁m ars",
      "▁ra p",
      "▁cor re",
      "▁ag ric",
      "▁appe ared",
      "▁n a",
      "▁me x",
      "▁mat ter",
      "▁h app",
      "ant ic",
      "▁m as",
      "▁er a",
      "▁g raph",
      "on ic",
      "▁e y",
      "▁sub sequ",
      "a ign",
      "w ood",
      "▁b ene",
      "▁who le",
      "▁let ters",
      "▁ital y",
      "▁w il",
      "▁result s",
      "▁f air",
      "▁la un",
      "▁p an",
      "▁j er",
      "▁partic ip",
      "▁produ ce",
      "▁b ow",
      "▁jour nal",
      "▁f if",
      "▁cal cul",
      "▁gu it",
      "▁p ay",
      "▁h ot",
      "▁sub s",
      "▁lat ter",
      "▁direct ly",
      "▁l oss",
      "od ox",
      "▁bo ard",
      "▁sur face",
      "▁stat us",
      "▁v an",
      "▁high ly",
      "▁gl ob",
      "▁caus ed",
      "▁dist rict",
      "m en",
      "u ra",
      "▁a x",
      "▁f er",
      "ab les",
      "▁meas ure",
      "▁ ult",
      "it ude",
      "▁n ative",
      "re g",
      "▁camp aign",
      "ach ing",
      "▁mich ael",
      "ly ing",
      "▁direct or",
      "▁rele ase",
      "▁met al",
      "▁author ity",
      "▁treat y",
      "▁con ver",
      "▁dou ble",
      "▁t v",
      "▁w w",
      "ur s",
      "▁vir t",
      "▁cons um",
      "v a",
      "▁l ic",
      "▁sc ot",
      "li ke",
      "▁imp lement",
      "▁as ia",
      "▁was hing",
      "▁conc ern",
      "k n",
      "r is",
      "w in",
      "▁port ug",
      "▁an th",
      "d a",
      "▁mo on",
      "▁program ming",
      "▁d ate",
      "y a",
      "if t",
      "▁fa ith",
      "▁bro wn",
      "ot es",
      "▁inv ent",
      "▁reg ular",
      "▁mag az",
      "▁cre ation",
      "▁wh om",
      "ip s",
      "▁play ing",
      "▁confl ict",
      "▁agric ult",
      "▁w ik",
      "▁m ad",
      "v iew",
      "res p",
      "c ol",
      "▁mar ried",
      "▁to wards",
      "▁mem ory",
      "on ents",
      "as ons",
      "▁orth odox",
      "▁cour se",
      "▁iss ues",
      "▁sh a",
      "▁c and",
      "o res",
      "▁he art",
      "ith m",
      "▁bas is",
      "▁ce le",
      "▁que en",
      "g ing",
      "▁prim ary",
      "in i",
      "▁en ough",
      "▁alex ander",
      "▁ra re",
      "▁rem ain",
      "▁s ac",
      "▁dig ital",
      "re am",
      "▁d ark",
      "▁k h",
      "▁rom e",
      "ic ated",
      "▁prov ided",
      "▁fun ctions",
      "ur ies",
      "▁dem on",
      "▁c d",
      "▁anal ysis",
      "c an",
      "▁repl aced",
      "▁th ink",
      "▁he ro",
      "a ff",
      "▁claim s",
      "▁liter ature",
      "▁pet er",
      "▁jose ph",
      "e e",
      "▁div ided",
      "▁like ly",
      "▁med ical",
      "d ing",
      "▁aver age",
      "▁v ill",
      "▁proper ty",
      "iv ity",
      "▁stud ents",
      "▁sm ith",
      "▁small er",
      "▁stre et",
      "il es",
      "▁w ars",
      "ou ra",
      "▁deg ree",
      "▁ele ctions",
      "▁l os",
      "he t",
      "▁pro gress",
      "▁claim ed",
      "▁dra w",
      "o id",
      "▁perform ance",
      "▁altern ative",
      "▁washing ton",
      "▁contro ll",
      "w ise",
      "▁c amb",
      "▁s low",
      "it ation",
      "▁us er",
      "▁car bon",
      "▁col umb",
      "▁f al",
      "▁fl ag",
      "b i",
      "e ction",
      "▁near ly",
      "f or",
      "ous ly",
      "▁school s",
      "▁par is",
      "▁sa f",
      "▁jes us",
      "▁gra du",
      "▁base ball",
      "▁indust rial",
      "ut ive",
      "▁colle ction",
      "ed y",
      "por ary",
      "▁th ous",
      "▁da ught",
      "f l",
      "▁cor resp",
      "▁comm ission",
      "ri age",
      "▁qu ar",
      "▁fin an",
      "▁cont em",
      "▁program s",
      "▁rev iew",
      "▁chang ed",
      "▁se ction",
      "▁ide as",
      "▁distin ct",
      "▁record s",
      "us h",
      "▁st ation",
      "iz ations",
      "op e",
      "▁frequ ently",
      "▁incre ase",
      "iz ing",
      "▁hig hest",
      "▁fin ally",
      "▁p ac",
      "▁not able",
      "▁i ra",
      "▁d og",
      "▁method s",
      "▁rec ently",
      "▁t able",
      "u ge",
      "f ect",
      "▁pap er",
      "▁heav y",
      "▁ass um",
      "c ks",
      "▁he b",
      "cy cl",
      "▁bor der",
      "▁var iety",
      "▁invol ved",
      "▁democr atic",
      "▁b ay",
      "▁int el",
      "▁ser ved",
      "▁m un",
      "▁k ore",
      "▁obs erv",
      "▁c red",
      "a rent",
      "f ield",
      "▁b on",
      "th ing",
      "▁sex ual",
      "▁in n",
      "▁oper ation",
      "c her",
      "pp er",
      "▁del i",
      "▁object s",
      "▁nucle ar",
      "iel ds",
      "h ood",
      "m ar",
      "▁incre ased",
      "b ra",
      "▁p le",
      "▁med ic",
      "▁b ish",
      "it er",
      "▁wind ows",
      "ian t",
      "▁ast ron",
      "▁d ie",
      "▁relative ly",
      "▁b bc",
      "e ch",
      "▁cre ate",
      "▁return ed",
      "w ell",
      "▁s ens",
      "▁condition s",
      "▁t akes",
      "▁m os",
      "▁m and",
      "▁adop ted",
      "▁ ice",
      "▁pl at",
      "▁p erm",
      "▁oce an",
      "▁p ack",
      "▁wom an",
      "▁imm ed",
      "▁f ile",
      "ol f",
      "▁po or",
      "▁elect r",
      "o ff",
      "on ia",
      "▁dial ect",
      "▁appe ars",
      "▁commit te",
      "n ers",
      "on t",
      "om y",
      "age ment",
      "▁guit ar",
      "▁b urn",
      "▁g n",
      "▁an s",
      "▁anim als",
      "▁exist ence",
      "▁un its",
      "▁discover ed",
      "ce ll",
      "▁assemb ly",
      "▁immed iate",
      "▁philos op",
      "▁pri or",
      "▁inc or",
      "▁report ed",
      "▁ass ist",
      "▁m ention",
      "▁bo x",
      "▁de ep",
      "▁act ive",
      "▁uni verse",
      "▁ch ic",
      "▁h tt",
      "▁en cycl",
      "▁ang el",
      "▁beh ind",
      "y ing",
      "▁num erous",
      "▁norm al",
      "▁al gor",
      "▁sc ale",
      "▁const ruction",
      "▁dis s",
      "▁profess ional",
      "▁l ad",
      "▁oper ating",
      "▁un like",
      "▁t end",
      "▁d ar",
      "r idge",
      "▁press ure",
      "▁instit ute",
      "▁air port",
      "▁ir on",
      "▁t aking",
      "▁n az",
      "▁am b",
      "▁cent re",
      "▁exper ience",
      "▁wee k",
      "o e",
      "▁set t",
      "▁ro s",
      "▁est im",
      "▁conc ent",
      "▁w a",
      "▁st age",
      "▁o d",
      "▁cont e",
      "▁mon arch",
      "▁prim arily",
      "▁record ed",
      "▁iss ue",
      "▁tro ops",
      "▁res ist",
      "▁m ath",
      "▁heb rew",
      "ian ce",
      "▁not es",
      "▁b ad",
      "▁pop e",
      "▁t un",
      "▁ex ch",
      "▁ne igh",
      "ib ly",
      "▁or g",
      "▁squ are",
      "▁encycl op",
      "▁desc ript",
      "▁somet hing",
      "▁pr int",
      "▁as pect",
      "▁def ense",
      "▁pot ential",
      "▁accept ed",
      "▁pow ers",
      "an ced",
      "▁ins p",
      "▁mathemat ics",
      "▁se lect",
      "um n",
      "ill a",
      "▁pat tern",
      "▁c el",
      "▁ra ce",
      "▁miss ion",
      "▁comp ar",
      "▁resour ces",
      "▁st op",
      "▁run ning",
      "▁c ru",
      "▁g ro",
      "ot ing",
      "▁k il",
      "▁der ived",
      "▁ess ential",
      "ast ic",
      "▁ac qu",
      "▁appl ied",
      "ign ed",
      "▁s in",
      "▁cal end",
      "ate ly",
      "or ial",
      "▁form al",
      "▁franc is",
      "▁m aster",
      "id ents",
      "▁addition al",
      "▁show s",
      "k en",
      "▁l ived",
      "▁pl aced",
      "▁equ ival",
      "▁nob el",
      "▁freed om",
      "in ated",
      "▁con qu",
      "▁inst ance",
      "▁htt p",
      "▁ro ll",
      "▁sc ript",
      "▁en s",
      "▁b omb",
      "▁im pl",
      "▁purp ose",
      "▁j ul",
      "▁broad cast",
      "▁fra c",
      "▁tw ent",
      "▁schol ars",
      "▁bud d",
      "▁magaz ine",
      "b a",
      "w a",
      "▁d ia",
      "▁tar get",
      "▁su ffer",
      "▁ser ious",
      "▁equ al",
      "▁h ab",
      "▁g all",
      "▁bo y",
      "▁resp on",
      "▁chann el",
      "▁govern or",
      "▁engine ering",
      "▁sc re",
      "▁citiz ens",
      "i os",
      "or ph",
      "cl us",
      "▁r ise",
      "▁sp read",
      "▁main ly",
      "o on",
      "r ound",
      "k i",
      "d p",
      "▁ar ts",
      "▁p hen",
      "▁se em",
      "▁c os",
      "▁vers ions",
      "it a",
      "▁mon t",
      "▁th reat",
      "▁oper ations",
      "▁interp ret",
      "▁ ip",
      "▁set tle",
      "i ences",
      "at t",
      "▁mar riage",
      "▁qu ite",
      "▁old er",
      "▁d ip",
      "g on",
      "▁appl ications",
      "ter ed",
      "▁m ut",
      "▁ethn ic",
      "▁prop osed",
      "▁cont ain",
      "▁b ible",
      "▁b ass",
      "▁sh own",
      "▁cons ists",
      "▁ob t",
      "▁hun d",
      "▁pol ice",
      "▁trans form",
      "▁instr ument",
      "▁s ir",
      "▁cell s",
      "▁r ank",
      "▁al ge",
      "▁artic les",
      "r ative",
      "▁writ ers",
      "h i",
      "im um",
      "▁ex act",
      "▁vol ume",
      "▁c ens",
      "▁f ast",
      "▁scot land",
      "▁he ll",
      "▁app arent",
      "▁reg ions",
      "▁level s",
      "▁w ays",
      "▁al bert",
      "▁quick ly",
      "▁l u",
      "▁r and",
      "▁ar ri",
      "▁const ruct",
      "▁poss ess",
      "▁proper ties",
      "▁d at",
      "▁du ke",
      "▁fund ament",
      "▁un s",
      "▁con ne",
      "▁com ment",
      "▁convent ion",
      "▁t ry",
      "▁c as",
      "▁song s",
      "▁techni ques",
      "ol a",
      "ar ia",
      "▁pl ant",
      "▁ext ra",
      "▁ab ility",
      "▁commun ist",
      "▁introdu ction",
      "▁chic ago",
      "▁d ance",
      "ad s",
      "b ack",
      "om en",
      "et er",
      "▁r is",
      "▁pass ed",
      "▁nav y",
      "▁anim al",
      "▁fri ends",
      "▁approx imately",
      "▁sur round",
      "▁b apt",
      "h ic",
      "▁app le",
      "▁compos er",
      "▁ch ron",
      "is ation",
      "n ed",
      "▁appoint ed",
      "▁committe e",
      "▁w r",
      "▁j ac",
      "▁cent uries",
      "▁p ra",
      "▁p ath",
      "▁for ced",
      "▁per cent",
      "▁us a",
      "▁c ra",
      "▁comp l",
      "▁mart in",
      "i ents",
      "▁m it",
      "▁h ous",
      "ru pt",
      "▁dist ingu",
      "▁pl aces",
      "▁mon th",
      "▁individual s",
      "▁le arn",
      "so ft",
      "▁f ace",
      "▁foc us",
      "k er",
      "rie f",
      "▁ref ers",
      "▁b ib",
      "▁k ings",
      "ac hes",
      "ag er",
      "▁val ues",
      "▁sh o",
      "▁agree ment",
      "▁com es",
      "▁v ia",
      "▁af g",
      "▁temper ature",
      "▁respon se",
      "▁w it",
      "▁spe ech",
      "s hip",
      "ell ing",
      "▁ww w",
      "m p",
      "▁cl imate",
      "ers on",
      "▁ac id",
      "▁daught er",
      "▁j ack",
      "▁car ry",
      "▁br idge",
      "▁prot ect",
      "▁champ ions",
      "▁intern al",
      "▁lab our",
      "▁mur der",
      "▁re pe",
      "▁v on",
      "om m",
      "▁ro t",
      "▁demon st",
      "an ian",
      "▁ref lect",
      "▁n d",
      "▁cont ract",
      "▁se arch",
      "pp ed",
      "▁fri end",
      "▁bran ch",
      "▁f el",
      "▁p il",
      "▁con sequ",
      "ab et",
      "▁fore st",
      "▁mot ion",
      "g ers",
      "y th",
      "▁col d",
      "▁fl ight",
      "▁dep end",
      "▁f ix",
      "▁l ie",
      "▁l ingu",
      "er al",
      "▁s av",
      "▁st ars",
      "▁not ed",
      "▁micro soft",
      "z z",
      "ig r",
      "▁sh ot",
      "▁cont ent",
      "▁sum mer",
      "▁uni que",
      "▁v oc",
      "▁support ed",
      "▁bra in",
      "▁be y",
      "▁cl os",
      "▁ar th",
      "▁bill ion",
      "on ent",
      "▁christian ity",
      "▁f ul",
      "▁mil es",
      "▁treat ment",
      "▁pl ann",
      "▁comput ers",
      "▁rap id",
      "▁corresp ond",
      "▁pro min",
      "▁man agement",
      "▁dire ction",
      "m ark",
      "▁mo b",
      "ak er",
      "▁perform ed",
      "et t",
      "▁calend ar",
      "▁fl u",
      "o very",
      "v ille",
      "▁writ e",
      "▁rem o",
      "▁int ended",
      "▁necess ary",
      "▁sp l",
      "hen s",
      "▁l ith",
      "ol ved",
      "al es",
      "▁trans fer",
      "al ed",
      "▁bene f",
      "▁c ab",
      "▁aff air",
      "▁f at",
      "▁con duct",
      "▁r ang",
      "and ed",
      "▁di am",
      "▁dise ase",
      "a ur",
      "▁work ed",
      "▁ve hic",
      "▁re con",
      "▁imper ial",
      "n es",
      "▁l uc",
      "▁se ts",
      "▁us ers",
      "▁att rib",
      "▁at om",
      "▁gen e",
      "▁act s",
      "▁land s",
      "▁phys ics",
      "▁sp orts",
      "▁read ing",
      "▁multip le",
      "▁gr amm",
      "▁afg han",
      "▁fig ure",
      "▁spe aking",
      "▁crit ical",
      "▁ira q",
      "▁f an",
      "▁sign ed",
      "▁mot or",
      "▁ex port",
      "▁ha w",
      "▁mathemat ical",
      "x ual",
      "▁cont rast",
      "▁pre fer",
      "▁transl ation",
      "▁loc ation",
      "▁regard ed",
      "▁c er",
      "▁w ild",
      "▁re ject",
      "▁conn ect",
      "z il",
      "▁g ir",
      "ph as",
      "▁t ree",
      "▁inf in",
      "▁je an",
      "it ors",
      "▁in hab",
      "▁en em",
      "ren ts",
      "▁circ um",
      "▁bey ond",
      "▁or ient",
      "p ap",
      "ict ed",
      "▁prov ince",
      "▁medic ine",
      "n y",
      "▁ar ran",
      "h ar",
      "▁al co",
      "o ch",
      "▁sp ok",
      "▁pol ish",
      "▁appro ach",
      "▁st ock",
      "▁sk ill",
      "▁b rief",
      "▁re ached",
      "▁f ant",
      "▁rem aining",
      "▁displ ay",
      "w s",
      "▁l if",
      "▁finan cial",
      "▁prov ides",
      "▁wh y",
      "▁ad m",
      "▁not ably",
      "▁tra ck",
      "▁administ ration",
      "l a",
      "▁j ur",
      "▁ra in",
      "▁gu ide",
      "▁distrib ution",
      "▁c up",
      "▁act ual",
      "▁fe el",
      "▁cand id",
      "▁in j",
      "ou th",
      "▁opp osition",
      "▁m m",
      "▁bl ock",
      "▁log ic",
      "ic it",
      "▁jo ined",
      "▁br ing",
      "▁conserv ative",
      "▁the ories",
      "▁al t",
      "▁pr ison",
      "▁ il",
      "▁pre m",
      "▁l es",
      "▁bo b",
      "er ia",
      "or ation",
      "▁cat al",
      "▁co al",
      "▁mod els",
      "▁cust om",
      "▁m r",
      "▁influ enced",
      "▁a im",
      "▁dist ance",
      "ad a",
      "▁intellig ence",
      "▁form at",
      "▁p it",
      "os is",
      "ran e",
      "▁vict or",
      "▁corre ct",
      "▁do ctr",
      "▁gree ce",
      "▁depart ment",
      "▁conte xt",
      "bo ard",
      "▁hand s",
      "▁cele br",
      "in ian",
      "▁st ren",
      "▁univers al",
      "▁alge bra",
      "▁pac ific",
      "▁hum ans",
      "▁activ ity",
      "▁se ll",
      "ist ers",
      "▁glob al",
      "▁m om",
      "▁exec utive",
      "▁previous ly",
      "g n",
      "m as",
      "ot ic",
      "▁power ful",
      "▁bra zil",
      "▁c oup",
      "▁qu ality",
      "▁rest rict",
      "▁vir gin",
      "id a",
      "▁r an",
      "▁sh are",
      "▁ab b",
      "▁need ed",
      "▁syn t",
      "r ison",
      "▁b ond",
      "▁j im",
      "ell ed",
      "ra cy",
      "▁complete ly",
      "▁extreme ly",
      "▁leg end",
      "▁phen omen",
      "ent h",
      "▁v ote",
      "▁ed ward",
      "▁str ing",
      "▁e ll",
      "▁g ard",
      "ap h",
      "od y",
      "▁allow s",
      "▁ber lin",
      "▁contem porary",
      "▁invest ig",
      "▁g a",
      "ul s",
      "▁adv anced",
      "▁ad vent",
      "▁news pap",
      "c ious",
      "o ke",
      "▁co ok",
      "▁ra b",
      "▁dou b",
      "os h",
      "g ian",
      "oc ol",
      "l or",
      "ort un",
      "he ad",
      "▁g ives",
      "▁sh ar",
      "▁st ated",
      "▁becom ing",
      "▁pol and",
      "▁reg ional",
      "az z",
      "▁just ice",
      "▁adv ant",
      "▁t as",
      "on a",
      "w here",
      "▁four th",
      "▁cro wn",
      "▁stren g",
      "▁gu ard",
      "▁found ation",
      "▁ent er",
      "▁cr im",
      "▁crit ics",
      "▁net her",
      "▁turn ed",
      "▁ ign",
      "▁he at",
      "▁differ ence",
      "▁weap ons",
      "b our",
      "▁epis ode",
      "▁o tt",
      "▁standard s",
      "▁mount ain",
      "▁p urch",
      "▁par al",
      "▁k ong",
      "▁electron ic",
      "▁ch ur",
      "▁cont act",
      "▁s and",
      "▁d un",
      "▁scre en",
      "▁arg ument",
      "▁fav or",
      "ound s",
      "▁music ian",
      "▁great est",
      "p g",
      "▁f ans",
      "▁us age",
      "▁f ields",
      "▁d ed",
      "▁feature d",
      "▁tra ining",
      "▁v ow",
      "u a",
      "as y",
      "g al",
      "▁h ours",
      "▁appl ication",
      "▁ins ide",
      "▁ship s",
      "▁el se",
      "▁b a",
      "▁lin k",
      "▁use ful",
      "▁dom est",
      "▁init ial",
      "▁exch ange",
      "▁describ e",
      "▁mo ving",
      "ffic ient",
      "▁ox ford",
      "▁w ing",
      "man n",
      "▁result ing",
      "▁behav ior",
      "▁fundament al",
      "▁chur ches",
      "▁r ough",
      "▁arab ic",
      "▁hon or",
      "▁su c",
      "▁eff ic",
      "▁sl ight",
      "▁ur ban",
      "▁pa ir",
      "▁quar ter",
      "▁nether lands",
      "i as",
      "is p",
      "▁the at",
      "▁d iction",
      "▁sp ring",
      "▁hor se",
      "▁sup reme",
      "▁f est",
      "▁we ight",
      "▁car ried",
      "▁art ist",
      "▁imp act",
      "o o",
      "▁re asons",
      "▁fail ed",
      "▁arth ur",
      "▁fol k",
      "▁u pper",
      "iet ies",
      "▁mole c",
      "▁re ve",
      "▁contin ue",
      "▁un f",
      "▁respons ible",
      "▁c p",
      "▁d ro",
      "▁go ing",
      "oc a",
      "▁em phas",
      "us al",
      "▁opp osed",
      "▁compet ition",
      "▁occ asion",
      "▁p erman",
      "▁comp il",
      "r ich",
      "▁dec ision",
      "er ve",
      "▁techn ical",
      "▁islam ic",
      "t ical",
      "▁st one",
      "▁vo ice",
      "▁plan et",
      "▁architect ure",
      "wh at",
      "▁scott ish",
      "▁mex ico",
      "▁incor por",
      "▁r d",
      "▁n ap",
      "▁start ing",
      "▁be at",
      "▁some what",
      "im al",
      "mit ted",
      "▁neg ative",
      "▁equ ip",
      "m y",
      "m l",
      "▁d ang",
      "▁o ly",
      "▁view s",
      "▁activ ities",
      "▁s we",
      "▁material s",
      "▁spok en",
      "▁line ar",
      "▁bi ography",
      "▁d oll",
      "▁prote ction",
      "ic ip",
      "▁follow s",
      "▁sign al",
      "re ed",
      "▁on es",
      "w est",
      "▁attempt s",
      "▁decl ared",
      "▁v ary",
      "▁char ge",
      "▁gener ation",
      "▁inde ed",
      "l og",
      "av ing",
      "▁g h",
      "ver t",
      "▁dec ided",
      "▁win ter",
      "▁camb ridge",
      "▁oly mp",
      "r am",
      "▁ch all",
      "ress ed",
      "▁end ed",
      "ul ations",
      "▁comp osed",
      "▁grow ing",
      "▁appear ance",
      "l om",
      "▁ge ography",
      "▁spec if",
      "▁suc ceed",
      "r ate",
      "▁an arch",
      "se c",
      "▁l ut",
      "▁gra v",
      "▁represent ed",
      "▁opp os",
      "r m",
      "w rit",
      "▁jud a",
      "est s",
      "▁encyclop edia",
      "▁r ing",
      "hes is",
      "▁poss ibly",
      "▁go al",
      "▁famil ies",
      "▁se ems",
      "▁be ll",
      "▁p ure",
      "▁ch am",
      "▁christ ians",
      "▁d na",
      "▁j un",
      "l ines",
      "m et",
      "en cies",
      "▁ze al",
      "z a",
      "▁dyn ast",
      "▁class ic",
      "▁f uel",
      "▁ad j",
      "ograph ic",
      "▁p ick",
      "▁k u",
      "▁disc ip",
      "▁ter ror",
      "▁l y",
      "▁st ations",
      "▁pal est",
      "▁eas ily",
      "▁impro ve",
      "▁b ah",
      "▁ident ity",
      "▁princip le",
      "▁academ y",
      "▁ass ass",
      "▁equip ment",
      "er c",
      "▁com ic",
      "▁alph abet",
      "▁g iving",
      "▁ph r",
      "▁arm ed",
      "▁mar x",
      "ve y",
      "▁t ell",
      "▁t ou",
      "ag ing",
      "▁ext ended",
      "▁un d",
      "▁ann ounced",
      "▁gold en",
      "▁do ctor",
      "s p",
      "▁g ot",
      "▁pos itive",
      "▁comp ared",
      "▁caus es",
      "▁a k",
      "il s",
      "▁k enn",
      "at i",
      "▁un kn",
      "▁inc ome",
      "▁exp ans",
      "iz es",
      "▁cho ice",
      "▁techni que",
      "▁sim pl",
      "▁re ign",
      "▁adv oc",
      "▁f ish",
      "▁n ick",
      "ie val",
      "▁ap art",
      "▁med ieval",
      "▁p ier",
      "▁att acks",
      "▁dr ive",
      "▁mathem atic",
      "in ate",
      "▁st an",
      "▁immediate ly",
      "▁direct ed",
      "ed s",
      "ia h",
      "▁fe et",
      "t ar",
      "er a",
      "▁eff orts",
      "▁champions hip",
      "▁ful ly",
      "▁fl o",
      "▁bel ong",
      "▁cap ac",
      "▁init ially",
      "▁organ izations",
      "▁comp osition",
      "▁per fect",
      "▁tr uth",
      "▁al f",
      "▁ex ists",
      "ad ed",
      "▁ext ensive",
      "▁tradition ally",
      "op er",
      "▁n ic",
      "▁pres ence",
      "▁equival ent",
      "ine t",
      "▁con v",
      "▁pl ants",
      "▁ill ust",
      "▁prov in",
      "bo ok",
      "▁ch ance",
      "re es",
      "ag an",
      "▁arg ued",
      "g ment",
      "k es",
      "▁val ley",
      "▁aust ria",
      "▁back ground",
      "▁enc oura",
      "▁re action",
      "▁al one",
      "▁hol id",
      "▁comb at",
      "▁fr ame",
      "▁controll ed",
      "▁comb ined",
      "▁achie ve",
      "▁occur s",
      "▁h in",
      "▁pro ved",
      "▁ne ut",
      "▁ser ve",
      "▁aud io",
      "▁h us",
      "▁stud ent",
      "▁understand ing",
      "▁at m",
      "b ed",
      "d on",
      "e x",
      "n el",
      "▁sit uation",
      "▁a id",
      "▁a z",
      "on ian",
      "▁f it",
      "▁c od",
      "▁for d",
      "ri er",
      "▁not hing",
      "▁differ ences",
      "olog ist",
      "▁br and",
      "▁gl ass",
      "ch ing",
      "ul ate",
      "i ar",
      "▁en j",
      "g ra",
      "cl aim",
      "▁paral le",
      "▁p u",
      "if orm",
      "ant a",
      "▁p c",
      "▁me ant",
      "▁s olution",
      "le ction",
      "▁effect ive",
      "▁allow ing",
      "▁se at",
      "▁mention ed",
      "▁lim it",
      "▁expect ed",
      "▁repl ace",
      "▁dev ice",
      "▁portug ues",
      "▁f ict",
      "▁pr in",
      "▁a ctions",
      "▁secret ary",
      "av a",
      "▁j acks",
      "▁lin col",
      "▁class es",
      "▁deb ate",
      "▁lincol n",
      "ens ity",
      "▁commun ities",
      "▁un p",
      "te en",
      "▁vict ory",
      "▁unkn own",
      "in ations",
      "▁cur ren",
      "▁fin land",
      "▁portugues e",
      "▁k o",
      "▁ch rom",
      "▁g ained",
      "ad or",
      "▁pol l",
      "▁art ists",
      "▁sp ort",
      "▁s ort",
      "▁m ere",
      "▁tur k",
      "ca pe",
      "▁recogn ized",
      "▁juda ism",
      "▁entire ly",
      "▁e g",
      "▁con ference",
      "▁cl a",
      "▁bat t",
      "▁team s",
      "▁o h",
      "and a",
      "▁domest ic",
      "▁conn ected",
      "▁environment al",
      "▁a th",
      "▁la ure",
      "▁dr am",
      "▁car l",
      "▁polit ician",
      "▁beg ins",
      "▁pre p",
      "▁writ ings",
      "▁g dp",
      "▁comple ted",
      "▁we alth",
      "▁ge omet",
      "▁dr um",
      "▁other wise",
      "▁bul g",
      "n am",
      "▁ vel",
      "▁ap ol",
      "▁con vers",
      "▁bish op",
      "m ore",
      "▁s ites",
      "▁as c",
      "▁rul ed",
      "m ers",
      "▁b ol",
      "▁cop yr",
      "▁card s",
      "w an",
      "▁f ill",
      "olog ists",
      "▁att ract",
      "▁dat ab",
      "v i",
      "▁arm s",
      "▁tri al",
      "▁st or",
      "▁earli est",
      "▁controvers y",
      "▁experim ent",
      "▁suggest ed",
      "usal em",
      "▁cont aining",
      "▁att ention",
      "▁work ers",
      "i que",
      "▁phys ic",
      "▁h t",
      "▁out put",
      "▁princip les",
      "▁alco hol",
      "▁p enn",
      "▁l l",
      "▁es c",
      "▁sol id",
      "▁sequ ence",
      "▁cy cle",
      "▁jer usalem",
      "▁t s",
      "▁h ong",
      "▁le ban",
      "▁tem ple",
      "▁liter ary",
      "it able",
      "▁an ne",
      "▁inter view",
      "▁scient ists",
      "w ide",
      "▁official ly",
      "▁redu ced",
      "▁h ug",
      "▁h an",
      "▁american s",
      "▁fig ures",
      "a ven",
      "al a",
      "▁popular ity",
      "▁fight ing",
      "▁promin ent",
      "▁instr uments",
      "▁sc ene",
      "h old",
      "m un",
      "▁arg ent",
      "▁typ ical",
      "▁win ning",
      "▁intel lect",
      "▁jacks on",
      "a ctions",
      "▁struct ures",
      "▁increasing ly",
      "ig an",
      "▁ent ry",
      "▁requ ires",
      "▁c u",
      "ig ration",
      "▁israel i",
      "▁con d",
      "▁stat ement",
      "ac her",
      "▁li qu",
      "▁sa x",
      "▁l ives",
      "ot a",
      "▁algor ithm",
      "▁s ays",
      "▁j azz",
      "▁av oid",
      "▁b ott",
      "▁da ily",
      "▁frequ ency",
      "▁mom ent",
      "n s",
      "▁fl at",
      "▁bar b",
      "▁discuss ion",
      "▁budd h",
      "id ers",
      "▁im ages",
      "▁sat ell",
      "▁specif ically",
      "d ed",
      "▁zeal and",
      "▁spl it",
      "▁ex c",
      "▁atl antic",
      "▁g ib",
      "▁ad ult",
      "cept ion",
      "▁conf eder",
      "▁dom ain",
      "▁tex as",
      "▁expans ion",
      "ion e",
      "r im",
      "ing er",
      "▁j ones",
      "▁mount ains",
      "▁dynast y",
      "▁dep ending",
      "▁har v",
      "▁sen ate",
      "▁descript ion",
      "un t",
      "▁gen etic",
      "▁pr ice",
      "▁import ance",
      "▁f t",
      "▁sever e",
      "▁critic ism",
      "▁p ray",
      "▁w ave",
      "▁g osp",
      "▁le ar",
      "▁ele v",
      "▁geor g",
      "▁destroy ed",
      "▁insp ired",
      "▁l as",
      "▁op in",
      "▁qu al",
      "i ro",
      "▁st aff",
      "▁swed en",
      "▁l un",
      "▁anal og",
      "▁cl osed",
      "▁ent ered",
      "▁dev ices",
      "wor ks",
      "l ight",
      "ab or",
      "▁bo ston",
      "▁inv asion",
      "▁close ly",
      "▁tex ts",
      "▁hydro gen",
      "▁anth rop",
      "▁bus h",
      "▁myth ology",
      "▁f ru",
      "▁w id",
      "ic ed",
      "▁to ward",
      "▁afghan istan",
      "▁p p",
      "ar c",
      "▁h ur",
      "▁be aut",
      "▁mark ed",
      "▁kill ing",
      "▁dim ens",
      "▁corpor ation",
      "▁dip lom",
      "▁remo ved",
      "at ically",
      "or ter",
      "▁ber n",
      "▁jur is",
      "▁cons cious",
      "▁apol lo",
      "▁f u",
      "og en",
      "▁ag es",
      "▁help ed",
      "d r",
      "▁quant um",
      "▁slight ly",
      "▁run s",
      "▁rec ip",
      "▁inf ant",
      "▁president ial",
      "▁hen ce",
      "▁wik ip",
      "▁fix ed",
      "▁ch a",
      "▁jud ge",
      "▁attempt ed",
      "▁conne ction",
      "▁as ked",
      "▁play s",
      "▁fl or",
      "▁ke pt",
      "▁diction ary",
      "en ing",
      "ic ate",
      "▁ag reed",
      "▁determ ined",
      "est ed",
      "▁co oper",
      "▁republ ican",
      "▁protest ant",
      "▁pro ced",
      "ans as",
      "it an",
      "▁le e",
      "ren ce",
      "▁build ings",
      "▁abs ol",
      "▁dyn am",
      "g s",
      "w ar",
      "▁ph ase",
      "▁copyr ight",
      "oun der",
      "▁tradition s",
      "▁controvers ial",
      "▁commun ications",
      "▁exist ing",
      "▁subst ant",
      "▁lith u",
      "▁lut her",
      "▁n one",
      "▁w is",
      "▁viol ence",
      "▁spirit ual",
      "▁auth ors",
      "▁conc ert",
      "▁pur s",
      "er ved",
      "▁mars h",
      "h amm",
      "an cy",
      "▁form ation",
      "▁c ant",
      "▁thous ands",
      "▁twent y",
      "▁mer c",
      "▁agricult ure",
      "i h",
      "▁d in",
      "▁result ed",
      "▁mov ies",
      "▁cr us",
      "▁occur red",
      "ver e",
      "▁offer ed",
      "b and",
      "▁we ak",
      "▁disc overy",
      "▁estim ated",
      "▁com ics",
      "▁heav ily",
      "▁m ir",
      "▁z one",
      "in y",
      "ze ch",
      "▁mor al",
      "▁anc est",
      "▁cry st",
      "▁govern ments",
      "▁arg ue",
      "ony m",
      "▁aspect s",
      "▁cos m",
      "▁cr ime",
      "rug g",
      "▁dam age",
      "▁leaders hip",
      "▁aust rian",
      "osp here",
      "▁ib m",
      "▁ch air",
      "ord ers",
      "ian a",
      "▁el iz",
      "cul es",
      "am ing",
      "▁fact ors",
      "▁comb ination",
      "▁ca es",
      "▁sh all",
      "▁ro om",
      "▁advant age",
      "▁fict ional",
      "▁r am",
      "▁man ner",
      "▁dis k",
      "act ive",
      "▁novel s",
      "▁affair s",
      "▁for ward",
      "in n",
      "▁v iet",
      "▁eff ort",
      "▁c ars",
      "▁ma il",
      "▁doctr ine",
      "bo x",
      "▁hung ary",
      "▁st al",
      "▁st ay",
      "▁o l",
      "▁c rick",
      "ar m",
      "and on",
      "▁categ ory",
      "▁st rugg",
      "▁with d",
      "▁mac ed",
      "▁co ord",
      "▁hol ds",
      "▁open ed",
      "▁sold iers",
      "▁c zech",
      "▁le aving",
      "▁im ag",
      "▁report s",
      "▁cens us",
      "rop ri",
      "▁territ ories",
      "▁re ach",
      "▁co ol",
      "▁sit u",
      "v ant",
      "a ult",
      "▁r u",
      "▁sc hem",
      "▁town s",
      "▁form ula",
      "▁real ity",
      "v ia",
      "▁ab st",
      "▁theore m",
      "k ins",
      "▁p ak",
      "om orph",
      "▁man if",
      "▁des ert",
      "▁god s",
      "▁fact or",
      "▁an ton",
      "▁orig ins",
      "▁defe ated",
      "▁t an",
      "▁ann ual",
      "b al",
      "▁maint ain",
      "▁pict ure",
      "▁le w",
      "▁constitution al",
      "▁to ld",
      "▁ch os",
      "▁democ racy",
      "▁perman ent",
      "▁expl os",
      "▁concept s",
      "▁stri p",
      "▁c ore",
      "▁tele ph",
      "or ters",
      "▁naz i",
      "▁prot ocol",
      "▁top ics",
      "▁test ament",
      "▁profess or",
      "at o",
      "▁j ord",
      "▁ab andon",
      "▁f ried",
      "ro ll",
      "▁tri ed",
      "▁wikip edia",
      "l as",
      "ad o",
      "▁ex clus",
      "▁christ mas",
      "qu ar",
      "ell a",
      "▁sp ent",
      "▁commun ication",
      "▁ev il",
      "▁enj oy",
      "i ber",
      "▁v ac",
      "▁ra y",
      "▁own ers",
      "▁stat istics",
      "▁present ed",
      "ut s",
      "▁open ing",
      "▁ident ified",
      "▁norm ally",
      "▁belief s",
      "▁subsequ ent",
      "▁columb ia",
      "▁fal se",
      "▁b act",
      "▁as h",
      "▁sk y",
      "▁ris k",
      "▁inhab it",
      "▁supp ly",
      "▁contin ues",
      "▁gre w",
      "▁detail s",
      "▁cl ock",
      "▁defe at",
      "▁sh ap",
      "▁act ors",
      "▁dr ink",
      "▁good s",
      "▁instit utions",
      "▁neg ot",
      "▁express ion",
      "▁alex and",
      "▁curren cy",
      "▁lear ning",
      "▁g er",
      "ify ing",
      "he ast",
      "▁w anted",
      "ct ors",
      "▁spe ct",
      "▁par ad",
      "▁hard ware",
      "▁administ rative",
      "▁pron ounced",
      "▁th ing",
      "im b",
      "▁creat ing",
      "▁subsequ ently",
      "▁k l",
      "▁invol ve",
      "▁le ave",
      "▁ir an",
      "i ations",
      "▁k ur",
      "▁ar ist",
      "▁l ists",
      "▁ind o",
      "▁hyp ot",
      "b ury",
      "▁pl ot",
      "▁go es",
      "con s",
      "▁for um",
      "▁he aven",
      "▁sem i",
      "▁v ice",
      "▁mat ch",
      "▁express ed",
      "oc ks",
      "▁lin ux",
      "▁dec ades",
      "▁process es",
      "▁bod ies",
      "▁mach ines",
      "▁mess age",
      "k et",
      "▁trib es",
      "▁s ides",
      "▁d v",
      "▁g oth",
      "▁meet ing",
      "ic ial",
      "▁d ry",
      "ig en",
      "▁comm od",
      "▁angel es",
      "▁p ages",
      "▁organ ized",
      "▁hy per",
      "▁move ments",
      "▁f ash",
      "▁b il",
      "ou d",
      "▁fant asy",
      "z o",
      "▁f ounder",
      "▁st ad",
      "▁cult ures",
      "▁ve get",
      "▁k a",
      "▁ed itor",
      "▁rough ly",
      "i ary",
      "▁pro of",
      "olog ies",
      "▁ey e",
      "and ing",
      "▁interpret ation",
      "ic ks",
      "▁pro s",
      "▁alle ged",
      "is f",
      "▁n as",
      "▁ar c",
      "▁sac r",
      "▁intellect ual",
      "▁mod e",
      "▁pie ce",
      "▁v ast",
      "ab eth",
      "ag n",
      "▁histor ians",
      "▁quest ions",
      "▁polic ies",
      "▁absol ute",
      "c ar",
      "▁s le",
      "▁or bit",
      "ore n",
      "▁h ay",
      "▁g ain",
      "el and",
      "▁can on",
      "▁f ame",
      "▁in put",
      "▁ser ver",
      "z y",
      "▁j pg",
      "▁position s",
      "▁conf ir",
      "▁ste el",
      "▁m ort",
      "og rap",
      "▁chos en",
      "re y",
      "▁l en",
      "st ream",
      "▁cry pt",
      "▁swed ish",
      "▁paralle l",
      "▁st y",
      "▁a ri",
      "us es",
      "ot y",
      "op p",
      "▁at oms",
      "▁ra ised",
      "▁obser ved",
      "▁kil omet",
      "▁b ru",
      "▁rece ive",
      "▁former ly",
      "▁astron om",
      "▁philosop her",
      "▁brother s",
      "▁sus p",
      "▁ext in",
      "▁el im",
      "▁short ly",
      "▁transl ated",
      "▁chap ter",
      "▁sha pe",
      "▁resist ance",
      "▁datab ase",
      "▁pak istan",
      "an o",
      "▁pl ane",
      "▁cre w",
      "▁consider able",
      "▁pa rents",
      "▁to wer",
      "▁be ar",
      "▁ext ent",
      "▁anal y",
      "et y",
      "▁fil es",
      "▁str ict",
      "▁arch ae",
      "▁su d",
      "▁capt ain",
      "▁mob ile",
      "▁t ub",
      "▁w ant",
      "▁great ly",
      "▁regard ing",
      "r id",
      "▁pro ceed",
      "▁cl ar",
      "▁stud ied",
      "▁s ister",
      "▁r um",
      "▁gen es",
      "▁transport ation",
      "▁s ab",
      "▁r ub",
      "▁character istics",
      "▁rail way",
      "e es",
      "▁m cc",
      "▁bl ues",
      "▁b os",
      "ac he",
      "▁pers ian",
      "▁equ ation",
      "▁need s",
      "▁mun icip",
      "st one",
      "▁pro port",
      "▁pl ate",
      "g ar",
      "or al",
      "▁chem istry",
      "▁fail ure",
      "con t",
      "▁cour ts",
      "▁order ed",
      "▁revolution ary",
      "▁respect ively",
      "▁ad apt",
      "▁so vere",
      "▁sovere ign",
      "g reg",
      "▁john son",
      "▁c ow",
      "▁econom ics",
      "▁r ates",
      "▁own ed",
      "▁b ang",
      "▁e ld",
      "un c",
      "▁su ff",
      "▁peop les",
      "▁fem in",
      "▁as ian",
      "▁cr is",
      "▁project s",
      "▁div ine",
      "▁philosoph ical",
      "h ouse",
      "▁ri vers",
      "▁stra ight",
      "▁jac ob",
      "ol is",
      "▁ch ain",
      "▁min utes",
      "▁symbol s",
      "g u",
      "ch ar",
      "ir ing",
      "▁pract ical",
      "▁settle ment",
      "▁fash ion",
      "▁w ides",
      "ful ly",
      "▁crim inal",
      "▁h osp",
      "um in",
      "▁ex hib",
      "ly wood",
      "▁rel ation",
      "▁acc ur",
      "▁med ium",
      "▁se ats",
      "et ics",
      "▁supp osed",
      "▁represent ation",
      "▁cover ed",
      "▁award ed",
      "▁laun ched",
      "re l",
      "ig er",
      "▁ne ither",
      "int on",
      "in ity",
      "▁m es",
      "▁re ven",
      "▁car ol",
      "▁fin n",
      "▁nav al",
      "▁chron ic",
      "▁sol ar",
      "▁hin du",
      "▁s ail",
      "▁c row",
      "▁ref used",
      "▁c m",
      "▁m ist",
      "ct s",
      "▁fe at",
      "▁f ro",
      "▁and rew",
      "▁comp r",
      "▁eas y",
      "▁wal es",
      "▁t enn",
      "▁a h",
      "▁c ine",
      "▁d oug",
      "▁en ds",
      "▁where as",
      "▁conc er",
      "▁describ es",
      "▁nar row",
      "▁ ion",
      "▁har m",
      "▁princip al",
      "itz er",
      "c op",
      "le m",
      "os l",
      "▁ar rest",
      "▁inst all",
      "▁har mon",
      "▁der iv",
      "▁def end",
      "▁academ ic",
      "▁kore a",
      "▁satell ite",
      "▁d j",
      "ce ived",
      "▁ph on",
      "▁m ental",
      "▁dar win",
      "▁jord an",
      "▁f asc",
      "▁b ann",
      "▁ind ones",
      "▁process ing",
      "▁n oun",
      "▁com ing",
      "▁com edy",
      "▁su fficient",
      "▁ma h",
      "▁elect ro",
      "▁my ster",
      "▁mult i",
      "▁batt les",
      "▁lab el",
      "▁mix ed",
      "▁drug s",
      "▁pie ces",
      "▁juris d",
      "▁ ille",
      "cl usion",
      "▁produ cer",
      "▁fel t",
      "▁streng th",
      "▁occasion ally",
      "▁stor age",
      "▁c ou",
      "▁purp oses",
      "omp an",
      "ak h",
      "▁reg ister",
      "▁sn ow",
      "▁math b",
      "▁e in",
      "ut ation",
      "▁un c",
      "▁le on",
      "▁any thing",
      "om an",
      "▁k en",
      "▁new ton",
      "▁repe ated",
      "is her",
      "▁b ron",
      "▁vict im",
      "▁occup ied",
      "▁acc ompan",
      "u ous",
      "▁pat ri",
      "ipp ed",
      "▁inde x",
      "▁electr ical",
      "▁say ing",
      "▁interp re",
      "▁pict ures",
      "▁b inary",
      "▁d ict",
      "▁pl ans",
      "▁trans ition",
      "▁enem y",
      "▁inhabit ants",
      "▁is ol",
      "▁rad ical",
      "▁b w",
      "ose xual",
      "▁expl or",
      "▁vill age",
      "▁b ure",
      "ou red",
      "▁r ational",
      "▁gr anted",
      "▁pers ons",
      "▁lay er",
      "▁h uge",
      "▁l ot",
      "▁sc and",
      "▁deg rees",
      "▁fif th",
      "▁dialect s",
      "▁gr ant",
      "▁mich igan",
      "▁wee ks",
      "▁chall en",
      "▁se ctor",
      "▁speak ers",
      "i at",
      "p read",
      "▁select ed",
      "▁art ific",
      "▁desc end",
      "▁magn etic",
      "▁fest ival",
      "▁wides pread",
      "▁ ie",
      "▁g ay",
      "▁c av",
      "▁p ian",
      "it arian",
      "et te",
      "▁all iance",
      "▁jo int",
      "▁common we",
      "▁bab yl",
      "en a",
      "al ing",
      "og ue",
      "▁pe ak",
      "▁ap ost",
      "▁tra in",
      "▁legisl ative",
      "▁commonwe alth",
      "r as",
      "▁d ensity",
      "▁k g",
      "▁un us",
      "▁influ ential",
      "▁plat form",
      "or der",
      "▁sw ord",
      "▁similar ly",
      "▁vis ual",
      "▁aff ect",
      "▁determ ine",
      "t es",
      "▁is a",
      "▁some one",
      "▁partic les",
      "▁fre der",
      "▁hit ler",
      "▁achie ved",
      "▁rand om",
      "▁tra ffic",
      "ad ing",
      "▁ad vert",
      "▁col umn",
      "▁disp ute",
      "▁newspap er",
      "▁eliz abeth",
      "▁supp orters",
      "▁hom osexual",
      "g i",
      "p ed",
      "▁te ach",
      "▁ent ertain",
      "▁expl an",
      "▁se vent",
      "ter y",
      "ell ow",
      "▁sal v",
      "▁ord ers",
      "▁hous es",
      "▁a wards",
      "▁world wide",
      "▁deli ver",
      "l ers",
      "an i",
      "▁h oc",
      "▁gosp el",
      "▁h our",
      "▁g ulf",
      "▁te aching",
      "av ia",
      "ag on",
      "▁apparent ly",
      "▁d iet",
      "th y",
      "se y",
      "▁ide al",
      "▁tit les",
      "▁hung arian",
      "▁fe ar",
      "▁trans m",
      "▁univers ities",
      "▁imp oss",
      "▁prov iding",
      "▁det ect",
      "▁clear ly",
      "▁manufact ur",
      "▁f ine",
      "▁infin ite",
      "c ers",
      "ic ide",
      "▁ex erc",
      "▁public ation",
      "▁electric ity",
      "▁suffer ed",
      "▁j on",
      "▁ch art",
      "▁ser b",
      "▁colon ial"
    ]
  }
}