{
  "version": "1.0",
  "truncation": null,
  "padding": null,
  "added_tokens": [],
  "normalizer": null,
  "pre_tokenizer": {
    "type": "Metaspace",
    "replacement": "▁",
    "add_prefix_space": true
  },
  "post_processor": null,
  "decoder": null,
  "model": {
    "type": "WordPiece",
    "unk_token": "[UNK]",
    "continuing_subword_prefix": "##",
    "max_input_chars_per_word": 1000,
    "vocab": {
      "a": 0,
      "b": 1,
      "c": 2,
      "d": 3,
      "e": 4,
      "f": 5,
      "g": 6,
      "h": 7,
      "i": 8,
      "j": 9,
      "k": 10,
      "l": 11,
      "m": 12,
      "n": 13,
      "o": 14,
      "p": 15,
      "q": 16,
      "r": 17,
      "s": 18,
      "t": 19,
      "u": 20,
      "v": 21,
      "w": 22,
      "x": 23,
      "y": 24,
      "z": 25,
      "▁": 26,
      "##s": 27,
      "##p": 28,
      "##e": 29,
      "##d": 30,
      "##w": 31,
      "##l": 32,
      "##b": 33,
      "##i": 34,
      "##o": 35,
      "##f": 36,
      "##a": 37,
      "##c": 38,
      "##k": 39,
      "##n": 40,
      "##t": 41,
      "##u": 42,
      "##r": 43,
      "##g": 44,
      "##h": 45,
      "##m": 46,
      "##x": 47,
      "##j": 48,
      "##y": 49,
      "##v": 50,
      "##z": 51,
      "##q": 52,
      "▁t": 53,
      "▁a": 54,
      "##in": 55,
      "##he": 56,
      "▁o": 57,
      "##er": 58,
      "▁s": 59,
      "▁the": 60,
      "##re": 61,
      "▁c": 62,
      "##on": 63,
      "▁f": 64,
      "##en": 65,
      "##is": 66,
      "##at": 67,
      "##an": 68,
      "▁b": 69,
      "▁w": 70,
      "▁p": 71,
      "##it": 72,
      "▁m": 73,
      "##ed": 74,
      "▁of": 75,
      "##es": 76,
      "##or": 77,
      "##al": 78,
      "▁in": 79,
      "▁n": 80,
      "##ar": 81,
      "▁an": 82,
      "▁on": 83,
      "##ic": 84,
      "▁d": 85,
      "▁e": 86,
      "##ou": 87,
      "▁and": 88,
      "▁h": 89,
      "##ion": 90,
      "▁l": 91,
      "▁one": 92,
      "##ing": 93,
      "##as": 94,
      "▁th": 95,
      "▁to": 96,
      "##ro": 97,
      "##ine": 98,
      "##le": 99,
      "##ve": 100,
      "▁g": 101,
      "##ent": 102,
      "▁z": 103,
      "##ig": 104,
      "▁re": 105,
      "##ero": 106,
      "▁zero": 107,
      "##om": 108,
      "▁nine": 109,
      "##ly": 110,
      "##us": 111,
      "##ct": 112,
      "##il": 113,
      "▁se": 114,
      "▁is": 115,
      "▁be": 116,
      "##ol": 117,
      "##am": 118,
      "▁tw": 119,
      "##st": 120,
      "▁two": 121,
      "##ht": 122,
      "##un": 123,
      "##im": 124,
      "##ive": 125,
      "##ation": 126,
      "##ce": 127,
      "##ra": 128,
      "▁st": 129,
      "##ight": 130,
      "▁for": 131,
      "##ch": 132,
      "##id": 133,
      "##ver": 134,
      "▁as": 135,
      "##ot": 136,
      "##ut": 137,
      "##ur": 138,
      "##et": 139,
      "##our": 140,
      "▁al": 141,
      "##ir": 142,
      "##ist": 143,
      "##el": 144,
      "##ow": 145,
      "##ree": 146,
      "▁con": 147,
      "##ad": 148,
      "##ul": 149,
      "##ven": 150,
      "▁eight": 151,
      "▁he": 152,
      "##ter": 153,
      "##ith": 154,
      "▁k": 155,
      "▁wh": 156,
      "▁was": 157,
      "▁de": 158,
      "▁j": 159,
      "▁five": 160,
      "▁r": 161,
      "▁three": 162,
      "▁it": 163,
      "▁by": 164,
      "##ix": 165,
      "##ay": 166,
      "▁or": 167,
      "##os": 168,
      "▁four": 169,
      "▁that": 170,
      "▁com": 171,
      "▁with": 172,
      "##her": 173,
      "▁pro": 174,
      "▁v": 175,
      "▁six": 176,
      "▁ch": 177,
      "##and": 178,
      "##um": 179,
      "▁mo": 180,
      "▁seven": 181,
      "▁un": 182,
      "##ers": 183,
      "##ge": 184,
      "##if": 185,
      "##op": 186,
      "▁ex": 187,
      "##ri": 188,
      "##rom": 189,
      "##em": 190,
      "▁are": 191,
      "##th": 192,
      "▁su": 193,
      "##est": 194,
      "##oun": 195,
      "▁at": 196,
      "##res": 197,
      "##ac": 198,
      "##ain": 199,
      "##ate": 200,
      "##ab": 201,
      "##ity": 202,
      "##qu": 203,
      "##ian": 204,
      "##ies": 205,
      "##pe": 206,
      "##od": 207,
      "▁from": 208,
      "##se": 209,
      "▁us": 210,
      "▁ne": 211,
      "##ment": 212,
      "##ich": 213,
      "##ld": 214,
      "▁ar": 215,
      "##oc": 216,
      "##ess": 217,
      "##ical": 218,
      "▁en": 219,
      "##iv": 220,
      "##art": 221,
      "##ill": 222,
      "##ant": 223,
      "▁his": 224,
      "##ia": 225,
      "▁y": 226,
      "##ort": 227,
      "##ial": 228,
      "##ud": 229,
      "▁le": 230,
      "##all": 231,
      "##og": 232,
      "▁not": 233,
      "▁this": 234,
      "##ap": 235,
      "##ard": 236,
      "▁which": 237,
      "##ish": 238,
      "##ak": 239,
      "##ag": 240,
      "▁wor": 241,
      "##ther": 242,
      "##pp": 243,
      "##ber": 244,
      "##der": 245,
      "▁sh": 246,
      "▁pl": 247,
      "▁ha": 248,
      "▁comp": 249,
      "▁am": 250,
      "##ction": 251,
      "##ure": 252,
      "##ated": 253,
      "##so": 254,
      "##ary": 255,
      "##ie": 256,
      "##pt": 257,
      "##ame": 258,
      "##ip": 259,
      "▁man": 260,
      "##ome": 261,
      "##ous": 262,
      "##ast": 263,
      "▁cl": 264,
      "▁also": 265,
      "##oug": 266,
      "▁ad": 267,
      "##rit": 268,
      "##ere": 269,
      "▁cont": 270,
      "##cl": 271,
      "▁ab": 272,
      "##ire": 273,
      "##per": 274,
      "##ong": 275,
      "##age": 276,
      "##ust": 277,
      "▁can": 278,
      "##ran": 279,
      "▁int": 280,
      "##ell": 281,
      "▁sp": 282,
      "▁have": 283,
      "##ect": 284,
      "##cc": 285,
      "##ks": 286,
      "▁has": 287,
      "▁were": 288,
      "▁whe": 289,
      "▁other": 290,
      "##ition": 291,
      "▁all": 292,
      "##ore": 293,
      "##end": 294,
      "##ally": 295,
      "##iz": 296,
      "▁im": 297,
      "##ound": 298,
      "##ence": 299,
      "##ib": 300,
      "▁af": 301,
      "▁part": 302,
      "▁u": 303,
      "##ations": 304,
      "##ry": 305,
      "▁ro": 306,
      "▁but": 307,
      "▁comm": 308,
      "##ory": 309,
      "##ide": 310,
      "##fer": 311,
      "##tern": 312,
      "##ult": 313,
      "##erm": 314,
      "##du": 315,
      "▁sc": 316,
      "##ub": 317,
      "##ass": 318,
      "##ough": 319,
      "▁te": 320,
      "##ren": 321,
      "##ign": 322,
      "▁its": 323,
      "▁dis": 324,
      "##ang": 325,
      "##av": 326,
      "▁ind": 327,
      "##ru": 328,
      "##ph": 329,
      "##act": 330,
      "▁sy": 331,
      "▁i": 332,
      "##pl": 333,
      "##ould": 334,
      "##ars": 335,
      "##vers": 336,
      "▁their": 337,
      "▁res": 338,
      "▁new": 339,
      "▁some": 340,
      "▁go": 341,
      "##ke": 342,
      "▁ra": 343,
      "▁fir": 344,
      "▁me": 345,
      "##ord": 346,
      "##out": 347,
      "##land": 348,
      "▁no": 349,
      "▁bec": 350,
      "▁mar": 351,
      "▁col": 352,
      "##ime": 353,
      "##ican": 354,
      "##ount": 355,
      "▁co": 356,
      "▁had": 357,
      "##ates": 358,
      "▁first": 359,
      "##vel": 360,
      "▁so": 361,
      "##orm": 362,
      "▁form": 363,
      "▁they": 364,
      "##ism": 365,
      "▁gen": 366,
      "▁ph": 367,
      "▁most": 368,
      "##are": 369,
      "##ces": 370,
      "▁ag": 371,
      "##own": 372,
      "▁bo": 373,
      "##ue": 374,
      "##ice": 375,
      "##ress": 376,
      "##able": 377,
      "##ater": 378,
      "▁po": 379,
      "##ack": 380,
      "▁more": 381,
      "▁per": 382,
      "▁there": 383,
      "▁pr": 384,
      "▁amer": 385,
      "##ions": 386,
      "▁tra": 387,
      "▁who": 388,
      "▁des": 389,
      "##ose": 390,
      "▁gr": 391,
      "##ach": 392,
      "##ict": 393,
      "▁we": 394,
      "▁ye": 395,
      "##ics": 396,
      "##con": 397,
      "▁cent": 398,
      "▁cons": 399,
      "▁spe": 400,
      "▁been": 401,
      "▁ser": 402,
      "##ite": 403,
      "##ile": 404,
      "▁rel": 405,
      "##ff": 406,
      "##ens": 407,
      "##ace": 408,
      "▁em": 409,
      "▁ele": 410,
      "▁pe": 411,
      "▁such": 412,
      "▁qu": 413,
      "##olog": 414,
      "▁pre": 415,
      "▁eng": 416,
      "##ok": 417,
      "▁many": 418,
      "▁kn": 419,
      "##clud": 420,
      "▁rec": 421,
      "##ors": 422,
      "##ath": 423,
      "▁act": 424,
      "##ance": 425,
      "##ational": 426,
      "##te": 427,
      "▁fe": 428,
      "##ited": 429,
      "▁pol": 430,
      "▁used": 431,
      "▁after": 432,
      "##ase": 433,
      "##one": 434,
      "##les": 435,
      "##ular": 436,
      "##port": 437,
      "##ts": 438,
      "▁includ": 439,
      "▁bl": 440,
      "▁how": 441,
      "##hed": 442,
      "▁over": 443,
      "▁american": 444,
      "##ubl": 445,
      "▁li": 446,
      "▁inf": 447,
      "##we": 448,
      "▁ear": 449,
      "▁see": 450,
      "▁may": 451,
      "▁app": 452,
      "▁ma": 453,
      "##ced": 454,
      "▁when": 455,
      "▁do": 456,
      "▁la": 457,
      "##amp": 458,
      "▁out": 459,
      "##ten": 460,
      "##wn": 461,
      "▁time": 462,
      "##low": 463,
      "▁into": 464,
      "##reat": 465,
      "##ans": 466,
      "▁pres": 467,
      "##ual": 468,
      "##ious": 469,
      "▁play": 470,
      "▁these": 471,
      "##ft": 472,
      "##ind": 473,
      "▁hist": 474,
      "##stem": 475,
      "▁jo": 476,
      "##ents": 477,
      "▁war": 478,
      "▁inter": 479,
      "▁up": 480,
      "▁world": 481,
      "▁only": 482,
      "▁than": 483,
      "##aus": 484,
      "##ied": 485,
      "##ug": 486,
      "▁bet": 487,
      "##ved": 488,
      "▁mus": 489,
      "▁acc": 490,
      "▁system": 491,
      "▁under": 492,
      "▁reg": 493,
      "##ings": 494,
      "▁off": 495,
      "▁char": 496,
      "▁pop": 497,
      "▁gener": 498,
      "##ative": 499,
      "▁sub": 500,
      "▁ass": 501,
      "▁att": 502,
      "▁num": 503,
      "##int": 504,
      "▁ap": 505,
      "▁ev": 506,
      "##very": 507,
      "▁will": 508,
      "▁count": 509,
      "▁call": 510,
      "##uring": 511,
      "▁ed": 512,
      "▁mon": 513,
      "▁ac": 514,
      "▁would": 515,
      "▁car": 516,
      "▁def": 517,
      "##rib": 518,
      "##ys": 519,
      "▁fl": 520,
      "##rans": 521,
      "▁bas": 522,
      "▁uni": 523,
      "▁hig": 524,
      "##ll": 525,
      "▁rep": 526,
      "▁lar": 527,
      "##ific": 528,
      "##vern": 529,
      "▁trans": 530,
      "##ons": 531,
      "▁met": 532,
      "##dition": 533,
      "▁min": 534,
      "▁dif": 535,
      "▁produ": 536,
      "##ds": 537,
      "##ade": 538,
      "##ever": 539,
      "##ck": 540,
      "##ution": 541,
      "##ject": 542,
      "##oth": 543,
      "▁her": 544,
      "▁art": 545,
      "▁lin": 546,
      "▁govern": 547,
      "##ric": 548,
      "##ists": 549,
      "▁par": 550,
      "▁them": 551,
      "##iet": 552,
      "▁however": 553,
      "▁inst": 554,
      "##ween": 555,
      "▁lo": 556,
      "▁between": 557,
      "##iss": 558,
      "▁peop": 559,
      "##ident": 560,
      "##ep": 561,
      "##gr": 562,
      "##red": 563,
      "▁about": 564,
      "##gan": 565,
      "▁ob": 566,
      "▁use": 567,
      "▁states": 568,
      "▁inc": 569,
      "▁work": 570,
      "##ake": 571,
      "▁x": 572,
      "▁sim": 573,
      "▁lang": 574,
      "##erman": 575,
      "▁mem": 576,
      "▁publ": 577,
      "##ays": 578,
      "▁if": 579,
      "##ron": 580,
      "##oup": 581,
      "▁years": 582,
      "▁eu": 583,
      "##orn": 584,
      "##ient": 585,
      "▁him": 586,
      "▁writ": 587,
      "▁thr": 588,
      "##ood": 589,
      "▁people": 590,
      "▁pos": 591,
      "##io": 592,
      "##cial": 593,
      "##ail": 594,
      "▁during": 595,
      "##ince": 596,
      "▁langu": 597,
      "##als": 598,
      "##ities": 599,
      "##ild": 600,
      "##ually": 601,
      "▁united": 602,
      "##ily": 603,
      "▁known": 604,
      "▁rem": 605,
      "▁fol": 606,
      "##lish": 607,
      "▁inv": 608,
      "▁called": 609,
      "▁any": 610,
      "##cept": 611,
      "##ower": 612,
      "▁fil": 613,
      "▁where": 614,
      "##cy": 615,
      "##ral": 616,
      "##ert": 617,
      "▁sm": 618,
      "##urn": 619,
      "##ury": 620,
      "##old": 621,
      "▁fin": 622,
      "▁aut": 623,
      "##hes": 624,
      "▁univers": 625,
      "##ife": 626,
      "▁gu": 627,
      "##ond": 628,
      "▁br": 629,
      "▁bel": 630,
      "##ology": 631,
      "▁brit": 632,
      "▁german": 633,
      "▁sch": 634,
      "▁var": 635,
      "##ause": 636,
      "▁sa": 637,
      "▁supp": 638,
      "▁through": 639,
      "##ating": 640,
      "##ne": 641,
      "▁state": 642,
      "##ward": 643,
      "▁sou": 644,
      "▁dist": 645,
      "▁ent": 646,
      "##ures": 647,
      "▁often": 648,
      "▁pers": 649,
      "▁cap": 650,
      "##li": 651,
      "▁ext": 652,
      "##ible": 653,
      "▁term": 654,
      "▁est": 655,
      "##hem": 656,
      "##ments": 657,
      "##ale": 658,
      "▁const": 659,
      "▁fran": 660,
      "▁main": 661,
      "##ames": 662,
      "▁group": 663,
      "▁fam": 664,
      "▁history": 665,
      "##velop": 666,
      "▁mat": 667,
      "##cess": 668,
      "##raph": 669,
      "▁bro": 670,
      "##ick": 671,
      "##imes": 672,
      "##ise": 673,
      "##ically": 674,
      "##uc": 675,
      "▁ge": 676,
      "▁differ": 677,
      "▁elect": 678,
      "▁euro": 679,
      "##rist": 680,
      "##form": 681,
      "▁king": 682,
      "##ins": 683,
      "▁intern": 684,
      "▁while": 685,
      "▁soc": 686,
      "▁city": 687,
      "▁set": 688,
      "▁high": 689,
      "▁develop": 690,
      "▁nor": 691,
      "▁well": 692,
      "▁like": 693,
      "▁refer": 694,
      "▁med": 695,
      "▁orig": 696,
      "▁follow": 697,
      "▁again": 698,
      "▁found": 699,
      "▁fun": 700,
      "##ah": 701,
      "▁exp": 702,
      "▁english": 703,
      "▁she": 704,
      "▁being": 705,
      "▁then": 706,
      "▁number": 707,
      "▁ty": 708,
      "##tle": 709,
      "##ages": 710,
      "▁made": 711,
      "##man": 712,
      "▁end": 713,
      "▁both": 714,
      "##ble": 715,
      "##ost": 716,
      "##ished": 717,
      "##uss": 718,
      "▁imp": 719,
      "▁air": 720,
      "##hip": 721,
      "##fore": 722,
      "##ctions": 723,
      "##ider": 724,
      "▁bu": 725,
      "▁joh": 726,
      "▁disc": 727,
      "▁mil": 728,
      "▁government": 729,
      "##iel": 730,
      "▁rom": 731,
      "▁hum": 732,
      "##ines": 733,
      "▁christ": 734,
      "▁law": 735,
      "##ians": 736,
      "##ather": 737,
      "▁stud": 738,
      "▁common": 739,
      "##ted": 740,
      "▁prov": 741,
      "▁europe": 742,
      "▁polit": 743,
      "▁long": 744,
      "▁eff": 745,
      "▁later": 746,
      "##its": 747,
      "##ract": 748,
      "▁film": 749,
      "##ature": 750,
      "▁dire": 751,
      "▁cur": 752,
      "▁sur": 753,
      "▁dep": 754,
      "##other": 755,
      "##ton": 756,
      "▁mu": 757,
      "▁loc": 758,
      "##bers": 759,
      "##ized": 760,
      "▁cre": 761,
      "▁name": 762,
      "##ural": 763,
      "▁origin": 764,
      "▁arm": 765,
      "▁national": 766,
      "##omet": 767,
      "▁sign": 768,
      "▁commun": 769,
      "▁john": 770,
      "▁since": 771,
      "▁class": 772,
      "▁sever": 773,
      "▁dec": 774,
      "▁str": 775,
      "##ful": 776,
      "▁maj": 777,
      "▁je": 778,
      "▁century": 779,
      "##iew": 780,
      "▁cor": 781,
      "▁ret": 782,
      "##ty": 783,
      "▁dem": 784,
      "▁cal": 785,
      "▁because": 786,
      "▁music": 787,
      "##ving": 788,
      "▁lead": 789,
      "##az": 790,
      "▁colle": 791,
      "##rent": 792,
      "##ision": 793,
      "▁ke": 794,
      "▁leg": 795,
      "▁life": 796,
      "▁great": 797,
      "▁university": 798,
      "▁early": 799,
      "##row": 800,
      "##ork": 801,
      "##ined": 802,
      "##ann": 803,
      "##conom": 804,
      "▁contro": 805,
      "##ample": 806,
      "▁british": 807,
      "▁major": 808,
      "▁year": 809,
      "▁partic": 810,
      "▁mod": 811,
      "▁day": 812,
      "▁large": 813,
      "##arch": 814,
      "▁even": 815,
      "▁sing": 816,
      "##led": 817,
      "▁power": 818,
      "▁right": 819,
      "▁econom": 820,
      "▁consider": 821,
      "▁own": 822,
      "▁same": 823,
      "##chn": 824,
      "▁list": 825,
      "##ros": 826,
      "▁lit": 827,
      "##ograph": 828,
      "##ility": 829,
      "##ues": 830,
      "▁comple": 831,
      "▁secon": 832,
      "▁including": 833,
      "##gram": 834,
      "▁charact": 835,
      "##ger": 836,
      "##xt": 837,
      "▁became": 838,
      "▁equ": 839,
      "▁ir": 840,
      "▁contin": 841,
      "▁gre": 842,
      "▁op": 843,
      "▁example": 844,
      "▁es": 845,
      "▁each": 846,
      "▁el": 847,
      "▁val": 848,
      "▁comput": 849,
      "▁god": 850,
      "##ium": 851,
      "▁oper": 852,
      "▁language": 853,
      "▁desc": 854,
      "▁occ": 855,
      "##ulation": 856,
      "##ier": 857,
      "▁alth": 858,
      "##elf": 859,
      "▁death": 860,
      "##ves": 861,
      "##ives": 862,
      "##ences": 863,
      "▁general": 864,
      "▁although": 865,
      "##ik": 866,
      "▁sl": 867,
      "▁spec": 868,
      "▁island": 869,
      "▁direct": 870,
      "▁moder": 871,
      "▁several": 872,
      "▁pri": 873,
      "▁second": 874,
      "▁import": 875,
      "##ters": 876,
      "▁different": 877,
      "▁det": 878,
      "##ange": 879,
      "##pect": 880,
      "▁fre": 881,
      "▁appe": 882,
      "##ning": 883,
      "▁stand": 884,
      "▁techn": 885,
      "##rench": 886,
      "▁organ": 887,
      "▁ant": 888,
      "▁small": 889,
      "▁very": 890,
      "▁bat": 891,
      "▁phil": 892,
      "▁much": 893,
      "▁har": 894,
      "▁french": 895,
      "▁sw": 896,
      "▁before": 897,
      "▁result": 898,
      "▁south": 899,
      "▁ins": 900,
      "▁offic": 901,
      "▁program": 902,
      "##ience": 903,
      "##urch": 904,
      "▁what": 905,
      "▁now": 906,
      "##atic": 907,
      "▁conf": 908,
      "▁gl": 909,
      "##gy": 910,
      "##ock": 911,
      "▁north": 912,
      "▁ii": 913,
      "▁design": 914,
      "▁er": 915,
      "##ool": 916,
      "##hen": 917,
      "##vent": 918,
      "▁aust": 919,
      "▁public": 920,
      "▁cult": 921,
      "▁old": 922,
      "##de": 923,
      "▁pa": 924,
      "##els": 925,
      "##ica": 926,
      "##ought": 927,
      "▁could": 928,
      "▁land": 929,
      "▁rev": 930,
      "▁against": 931,
      "##ants": 932,
      "▁modern": 933,
      "##ital": 934,
      "▁my": 935,
      "##ternal": 936,
      "▁gra": 937,
      "▁dr": 938,
      "▁links": 939,
      "▁fact": 940,
      "##ruct": 941,
      "##rop": 942,
      "##ains": 943,
      "▁belie": 944,
      "▁cour": 945,
      "▁bar": 946,
      "▁based": 947,
      "##ional": 948,
      "▁those": 949,
      "##gest": 950,
      "▁back": 951,
      "##ouse": 952,
      "▁port": 953,
      "▁order": 954,
      "##aim": 955,
      "▁person": 956,
      "##ained": 957,
      "##ov": 958,
      "▁mark": 959,
      "##ob": 960,
      "##ute": 961,
      "##ina": 962,
      "##aking": 963,
      "▁cr": 964,
      "▁unt": 965,
      "##ave": 966,
      "▁president": 967,
      "##osed": 968,
      "▁hand": 969,
      "##up": 970,
      "▁div": 971,
      "▁another": 972,
      "##ived": 973,
      "##olution": 974,
      "▁external": 975,
      "##ries": 976,
      "▁poss": 977,
      "##way": 978,
      "##ull": 979,
      "▁record": 980,
      "▁lat": 981,
      "##ting": 982,
      "▁game": 983,
      "▁show": 984,
      "▁human": 985,
      "▁auth": 986,
      "▁non": 987,
      "▁popular": 988,
      "▁country": 989,
      "▁somet": 990,
      "##oy": 991,
      "▁ref": 992,
      "##ode": 993,
      "##ccess": 994,
      "▁pat": 995,
      "##get": 996,
      "▁series": 997,
      "▁hy": 998,
      "▁mag": 999,
      "▁you": 1000,
      "##ield": 1001,
      "▁expl": 1002,
      "▁free": 1003,
      "▁av": 1004,
      "▁support": 1005,
      "▁still": 1006,
      "##ament": 1007,
      "▁requ": 1008,
      "▁book": 1009,
      "▁tradition": 1010,
      "##ared": 1011,
      "▁effect": 1012,
      "▁international": 1013,
      "▁until": 1014,
      "▁ter": 1015,
      "▁conc": 1016,
      "##ged": 1017,
      "▁milit": 1018,
      "▁vers": 1019,
      "##enn": 1020,
      "▁prot": 1021,
      "##ased": 1022,
      "▁serv": 1023,
      "▁did": 1024,
      "##bert": 1025,
      "▁run": 1026,
      "▁sec": 1027,
      "##ense": 1028,
      "▁mid": 1029,
      "##oph": 1030,
      "##ired": 1031,
      "▁rad": 1032,
      "▁line": 1033,
      "▁mill": 1034,
      "##ason": 1035,
      "▁just": 1036,
      "▁infl": 1037,
      "▁tr": 1038,
      "▁stat": 1039,
      "▁church": 1040,
      "##que": 1041,
      "##iod": 1042,
      "##min": 1043,
      "▁success": 1044,
      "##ently": 1045,
      "▁dom": 1046,
      "▁inform": 1047,
      "▁add": 1048,
      "▁process": 1049,
      "▁compan": 1050,
      "##ization": 1051,
      "▁net": 1052,
      "##ret": 1053,
      "▁artic": 1054,
      "▁school": 1055,
      "##ley": 1056,
      "▁fo": 1057,
      "▁way": 1058,
      "▁jew": 1059,
      "##ided": 1060,
      "##ius": 1061,
      "▁political": 1062,
      "##ner": 1063,
      "▁opp": 1064,
      "▁party": 1065,
      "▁pass": 1066,
      "▁arg": 1067,
      "▁sk": 1068,
      "▁character": 1069,
      "▁west": 1070,
      "##air": 1071,
      "▁rele": 1072,
      "▁point": 1073,
      "##ories": 1074,
      "▁real": 1075,
      "▁prop": 1076,
      "▁allow": 1077,
      "▁relig": 1078,
      "▁usually": 1079,
      "▁incre": 1080,
      "##ank": 1081,
      "▁bir": 1082,
      "▁di": 1083,
      "▁roman": 1084,
      "▁bre": 1085,
      "▁down": 1086,
      "▁crit": 1087,
      "▁among": 1088,
      "##ices": 1089,
      "##ised": 1090,
      "▁phys": 1091,
      "▁typ": 1092,
      "##mber": 1093,
      "##co": 1094,
      "##ene": 1095,
      "##por": 1096,
      "▁adv": 1097,
      "##ness": 1098,
      "▁bi": 1099,
      "##ister": 1100,
      "▁eas": 1101,
      "▁open": 1102,
      "▁gree": 1103,
      "##iation": 1104,
      "##ms": 1105,
      "▁histor": 1106,
      "##bo": 1107,
      "▁last": 1108,
      "##ides": 1109,
      "##ator": 1110,
      "##au": 1111,
      "##ross": 1112,
      "▁official": 1113,
      "▁theory": 1114,
      "##ified": 1115,
      "▁area": 1116,
      "▁near": 1117,
      "▁around": 1118,
      "▁fore": 1119,
      "##ark": 1120,
      "##day": 1121,
      "▁every": 1122,
      "▁nat": 1123,
      "▁arch": 1124,
      "▁include": 1125,
      "▁short": 1126,
      "▁period": 1127,
      "##yn": 1128,
      "##ata": 1129,
      "##me": 1130,
      "##ilar": 1131,
      "▁coun": 1132,
      "▁author": 1133,
      "##dom": 1134,
      "▁view": 1135,
      "##ases": 1136,
      "▁claim": 1137,
      "##bs": 1138,
      "▁child": 1139,
      "▁left": 1140,
      "▁tri": 1141,
      "##ball": 1142,
      "▁let": 1143,
      "▁repres": 1144,
      "▁sol": 1145,
      "▁move": 1146,
      "▁military": 1147,
      "▁members": 1148,
      "##inc": 1149,
      "▁far": 1150,
      "▁population": 1151,
      "▁similar": 1152,
      "▁head": 1153,
      "##ash": 1154,
      "▁exper": 1155,
      "▁using": 1156,
      "▁though": 1157,
      "##ese": 1158,
      "▁gi": 1159,
      "▁russ": 1160,
      "##amed": 1161,
      "##ets": 1162,
      "##ably": 1163,
      "▁jap": 1164,
      "##ware": 1165,
      "▁ep": 1166,
      "##iety": 1167,
      "▁mean": 1168,
      "▁particular": 1169,
      "▁press": 1170,
      "▁east": 1171,
      "▁ide": 1172,
      "##ze": 1173,
      "▁following": 1174,
      "▁dra": 1175,
      "▁ri": 1176,
      "##son": 1177,
      "▁japan": 1178,
      "##yl": 1179,
      "▁vol": 1180,
      "▁within": 1181,
      "▁ang": 1182,
      "▁current": 1183,
      "▁bod": 1184,
      "▁tele": 1185,
      "▁bra": 1186,
      "##iving": 1187,
      "▁prof": 1188,
      "##ued": 1189,
      "▁mic": 1190,
      "##imate": 1191,
      "##ec": 1192,
      "▁house": 1193,
      "▁canad": 1194,
      "▁rest": 1195,
      "▁tem": 1196,
      "▁bus": 1197,
      "▁lab": 1198,
      "▁ste": 1199,
      "##ize": 1200,
      "##ax": 1201,
      "▁hol": 1202,
      "▁influ": 1203,
      "▁hel": 1204,
      "▁standard": 1205,
      "##erv": 1206,
      "▁due": 1207,
      "##iction": 1208,
      "▁ve": 1209,
      "▁hun": 1210,
      "▁beg": 1211,
      "▁important": 1212,
      "▁appro": 1213,
      "▁light": 1214,
      "##ript": 1215,
      "▁del": 1216,
      "▁christian": 1217,
      "▁perform": 1218,
      "▁mac": 1219,
      "▁less": 1220,
      "▁considered": 1221,
      "##ane": 1222,
      "▁alb": 1223,
      "▁social": 1224,
      "▁mal": 1225,
      "▁vi": 1226,
      "▁civ": 1227,
      "▁exist": 1228,
      "▁computer": 1229,
      "▁water": 1230,
      "##amm": 1231,
      "▁cir": 1232,
      "▁accord": 1233,
      "▁pract": 1234,
      "▁home": 1235,
      "▁sour": 1236,
      "##ertain": 1237,
      "▁family": 1238,
      "▁start": 1239,
      "##rodu": 1240,
      "▁jud": 1241,
      "▁word": 1242,
      "##ths": 1243,
      "▁information": 1244,
      "##ended": 1245,
      "▁philos": 1246,
      "##ony": 1247,
      "▁european": 1248,
      "##epend": 1249,
      "##akes": 1250,
      "▁wes": 1251,
      "▁independ": 1252,
      "▁ann": 1253,
      "▁sometimes": 1254,
      "▁win": 1255,
      "##ument": 1256,
      "▁does": 1257,
      "▁assoc": 1258,
      "▁dev": 1259,
      "▁civil": 1260,
      "▁republ": 1261,
      "▁meth": 1262,
      "▁mor": 1263,
      "▁sym": 1264,
      "▁times": 1265,
      "▁cy": 1266,
      "▁control": 1267,
      "▁miss": 1268,
      "▁without": 1269,
      "##ography": 1270,
      "▁make": 1271,
      "##hing": 1272,
      "##ler": 1273,
      "▁ber": 1274,
      "▁given": 1275,
      "▁present": 1276,
      "##par": 1277,
      "▁represent": 1278,
      "▁place": 1279,
      "▁lim": 1280,
      "▁read": 1281,
      "▁estab": 1282,
      "▁proble": 1283,
      "▁ital": 1284,
      "##ster": 1285,
      "▁cle": 1286,
      "▁born": 1287,
      "##tal": 1288,
      "▁appl": 1289,
      "▁fur": 1290,
      "▁thir": 1291,
      "▁addition": 1292,
      "▁describ": 1293,
      "▁top": 1294,
      "▁good": 1295,
      "##na": 1296,
      "▁level": 1297,
      "▁few": 1298,
      "▁emp": 1299,
      "##ither": 1300,
      "▁space": 1301,
      "▁hal": 1302,
      "▁austral": 1303,
      "▁should": 1304,
      "▁mass": 1305,
      "▁black": 1306,
      "▁case": 1307,
      "▁team": 1308,
      "▁union": 1309,
      "▁cat": 1310,
      "▁red": 1311,
      "▁age": 1312,
      "▁central": 1313,
      "##che": 1314,
      "▁pur": 1315,
      "##oss": 1316,
      "▁vis": 1317,
      "##empt": 1318,
      "▁rul": 1319,
      "##lect": 1320,
      "▁york": 1321,
      "##amb": 1322,
      "##oks": 1323,
      "▁led": 1324,
      "##ison": 1325,
      "▁circ": 1326,
      "##bn": 1327,
      "##eng": 1328,
      "##read": 1329,
      "##ological": 1330,
      "▁thus": 1331,
      "▁various": 1332,
      "▁wom": 1333,
      "##une": 1334,
      "▁science": 1335,
      "▁earth": 1336,
      "##ential": 1337,
      "##ency": 1338,
      "##ration": 1339,
      "▁aff": 1340,
      "▁become": 1341,
      "▁systems": 1342,
      "##ps": 1343,
      "##less": 1344,
      "▁ho": 1345,
      "▁isbn": 1346,
      "▁countries": 1347,
      "▁mot": 1348,
      "▁super": 1349,
      "##istic": 1350,
      "##ination": 1351,
      "▁ca": 1352,
      "▁comb": 1353,
      "▁western": 1354,
      "▁da": 1355,
      "▁must": 1356,
      "▁best": 1357,
      "▁mult": 1358,
      "▁others": 1359,
      "▁ver": 1360,
      "▁return": 1361,
      "▁according": 1362,
      "▁article": 1363,
      "▁men": 1364,
      "▁mer": 1365,
      "▁chang": 1366,
      "▁rece": 1367,
      "▁player": 1368,
      "▁special": 1369,
      "▁tit": 1370,
      "##ried": 1371,
      "▁languages": 1372,
      "▁hen": 1373,
      "▁treat": 1374,
      "##cing": 1375,
      "▁resp": 1376,
      "##ling": 1377,
      "▁der": 1378,
      "▁du": 1379,
      "▁never": 1380,
      "##ple": 1381,
      "▁indust": 1382,
      "##tic": 1383,
      "▁song": 1384,
      "##ats": 1385,
      "▁object": 1386,
      "▁began": 1387,
      "##ots": 1388,
      "▁camp": 1389,
      "▁foot": 1390,
      "▁former": 1391,
      "▁proper": 1392,
      "▁method": 1393,
      "▁test": 1394,
      "▁kill": 1395,
      "▁generally": 1396,
      "▁cop": 1397,
      "▁original": 1398,
      "##urg": 1399,
      "▁anim": 1400,
      "▁need": 1401,
      "##ways": 1402,
      "##ink": 1403,
      "▁iss": 1404,
      "▁struct": 1405,
      "##iam": 1406,
      "▁sum": 1407,
      "▁written": 1408,
      "##over": 1409,
      "▁den": 1410,
      "▁works": 1411,
      "▁sal": 1412,
      "##ones": 1413,
      "▁development": 1414,
      "▁force": 1415,
      "##ivid": 1416,
      "▁imm": 1417,
      "##lo": 1418,
      "##ott": 1419,
      "▁eth": 1420,
      "▁turn": 1421,
      "##ae": 1422,
      "▁geor": 1423,
      "▁introdu": 1424,
      "▁attempt": 1425,
      "##gress": 1426,
      "▁post": 1427,
      "▁single": 1428,
      "##eder": 1429,
      "▁prim": 1430,
      "▁constit": 1431,
      "▁france": 1432,
      "▁further": 1433,
      "##ality": 1434,
      "▁low": 1435,
      "##ai": 1436,
      "▁know": 1437,
      "##ior": 1438,
      "▁anc": 1439,
      "▁che": 1440,
      "##uted": 1441,
      "##aced": 1442,
      "▁band": 1443,
      "▁individ": 1444,
      "##ming": 1445,
      "▁km": 1446,
      "▁log": 1447,
      "▁pet": 1448,
      "▁vir": 1449,
      "##line": 1450,
      "▁groups": 1451,
      "▁relations": 1452,
      "▁wide": 1453,
      "▁ident": 1454,
      "##ring": 1455,
      "▁event": 1456,
      "▁late": 1457,
      "▁report": 1458,
      "▁cell": 1459,
      "##ove": 1460,
      "▁obs": 1461,
      "▁dav": 1462,
      "▁et": 1463,
      "▁kingdom": 1464,
      "##alth": 1465,
      "▁liter": 1466,
      "##lex": 1467,
      "▁along": 1468,
      "▁engine": 1469,
      "▁england": 1470,
      "▁jan": 1471,
      "▁son": 1472,
      "▁fa": 1473,
      "▁build": 1474,
      "##self": 1475,
      "▁repl": 1476,
      "▁aug": 1477,
      "▁body": 1478,
      "▁mathem": 1479,
      "##ively": 1480,
      "▁rather": 1481,
      "▁function": 1482,
      "##ival": 1483,
      "▁data": 1484,
      "▁position": 1485,
      "▁individual": 1486,
      "##ances": 1487,
      "▁greek": 1488,
      "##yle": 1489,
      "##olic": 1490,
      "▁invol": 1491,
      "▁court": 1492,
      "##cially": 1493,
      "▁games": 1494,
      "▁base": 1495,
      "##wards": 1496,
      "▁named": 1497,
      "▁field": 1498,
      "▁germany": 1499,
      "##ges": 1500,
      "▁beh": 1501,
      "##tt": 1502,
      "▁lond": 1503,
      "▁scient": 1504,
      "▁soft": 1505,
      "▁liber": 1506,
      "▁ara": 1507,
      "▁anal": 1508,
      "▁sea": 1509,
      "▁star": 1510,
      "▁said": 1511,
      "▁ju": 1512,
      "##ague": 1513,
      "▁battle": 1514,
      "▁version": 1515,
      "▁london": 1516,
      "▁million": 1517,
      "▁decl": 1518,
      "##ches": 1519,
      "▁nort": 1520,
      "▁company": 1521,
      "▁natural": 1522,
      "▁capital": 1523,
      "▁economic": 1524,
      "##app": 1525,
      "##cul": 1526,
      "▁published": 1527,
      "▁army": 1528,
      "▁project": 1529,
      "##rael": 1530,
      "▁strong": 1531,
      "##aster": 1532,
      "▁bal": 1533,
      "▁rese": 1534,
      "▁occur": 1535,
      "▁fem": 1536,
      "▁certain": 1537,
      "##by": 1538,
      "##ma": 1539,
      "▁pal": 1540,
      "##ote": 1541,
      "##ites": 1542,
      "▁interest": 1543,
      "▁sun": 1544,
      "##ogn": 1545,
      "▁caus": 1546,
      "▁news": 1547,
      "▁hard": 1548,
      "▁product": 1549,
      "▁mater": 1550,
      "▁either": 1551,
      "▁sov": 1552,
      "▁take": 1553,
      "▁fr": 1554,
      "▁empire": 1555,
      "▁grow": 1556,
      "##cil": 1557,
      "##work": 1558,
      "##ention": 1559,
      "▁soviet": 1560,
      "▁bill": 1561,
      "##aining": 1562,
      "##han": 1563,
      "▁service": 1564,
      "##ends": 1565,
      "##ern": 1566,
      "▁care": 1567,
      "▁developed": 1568,
      "▁israel": 1569,
      "▁syn": 1570,
      "▁wal": 1571,
      "##raft": 1572,
      "▁republic": 1573,
      "▁college": 1574,
      "▁full": 1575,
      "▁cath": 1576,
      "▁william": 1577,
      "▁total": 1578,
      "##most": 1579,
      "##ilt": 1580,
      "##mer": 1581,
      "▁youn": 1582,
      "##aps": 1583,
      "▁educ": 1584,
      "##ipp": 1585,
      "▁today": 1586,
      "▁held": 1587,
      "▁america": 1588,
      "▁local": 1589,
      "##ule": 1590,
      "▁ill": 1591,
      "▁river": 1592,
      "##ification": 1593,
      "▁means": 1594,
      "##aw": 1595,
      "▁sat": 1596,
      "▁espe": 1597,
      "##ured": 1598,
      "▁separ": 1599,
      "▁father": 1600,
      "▁norm": 1601,
      "##ctor": 1602,
      "▁third": 1603,
      "##aken": 1604,
      "▁august": 1605,
      "▁sug": 1606,
      "##itive": 1607,
      "##etic": 1608,
      "##ids": 1609,
      "##dle": 1610,
      "▁white": 1611,
      "##idence": 1612,
      "▁chem": 1613,
      "▁ce": 1614,
      "▁especially": 1615,
      "▁forces": 1616,
      "##lin": 1617,
      "▁ps": 1618,
      "▁town": 1619,
      "##gen": 1620,
      "▁hom": 1621,
      "▁concept": 1622,
      "▁material": 1623,
      "▁rock": 1624,
      "▁mount": 1625,
      "##ication": 1626,
      "▁dest": 1627,
      "▁prev": 1628,
      "▁society": 1629,
      "▁sound": 1630,
      "##ruction": 1631,
      "##arian": 1632,
      "▁books": 1633,
      "##anish": 1634,
      "▁subject": 1635,
      "▁possible": 1636,
      "▁side": 1637,
      "##be": 1638,
      "▁center": 1639,
      "▁frequ": 1640,
      "##rew": 1641,
      "▁philosoph": 1642,
      "▁enc": 1643,
      "▁famous": 1644,
      "##ught": 1645,
      "▁text": 1646,
      "▁instit": 1647,
      "▁took": 1648,
      "▁ast": 1649,
      "▁tru": 1650,
      "▁democ": 1651,
      "▁lib": 1652,
      "▁deb": 1653,
      "▁meas": 1654,
      "##osition": 1655,
      "##iated": 1656,
      "##yal": 1657,
      "▁novel": 1658,
      "▁mach": 1659,
      "##uary": 1660,
      "▁oct": 1661,
      "▁transl": 1662,
      "▁bor": 1663,
      "▁children": 1664,
      "▁regard": 1665,
      "▁having": 1666,
      "▁complete": 1667,
      "▁defin": 1668,
      "▁activ": 1669,
      "▁plan": 1670,
      "▁ball": 1671,
      "▁appear": 1672,
      "##verse": 1673,
      "##ergy": 1674,
      "▁begin": 1675,
      "##ox": 1676,
      "▁story": 1677,
      "▁princ": 1678,
      "▁came": 1679,
      "▁diff": 1680,
      "##idge": 1681,
      "▁himself": 1682,
      "▁princip": 1683,
      "##ember": 1684,
      "##iness": 1685,
      "▁islands": 1686,
      "▁broad": 1687,
      "##ability": 1688,
      "▁sex": 1689,
      "▁wind": 1690,
      "▁don": 1691,
      "##vision": 1692,
      "▁days": 1693,
      "▁card": 1694,
      "▁anti": 1695,
      "▁q": 1696,
      "▁tro": 1697,
      "##emb": 1698,
      "▁fall": 1699,
      "▁itself": 1700,
      "▁little": 1701,
      "▁seen": 1702,
      "▁uk": 1703,
      "▁avail": 1704,
      "▁vict": 1705,
      "▁culture": 1706,
      "##ander": 1707,
      "##ops": 1708,
      "▁council": 1709,
      "▁words": 1710,
      "▁dece": 1711,
      "▁tre": 1712,
      "▁express": 1713,
      "▁accept": 1714,
      "##reme": 1715,
      "▁above": 1716,
      "▁emper": 1717,
      "▁fra": 1718,
      "##ored": 1719,
      "▁type": 1720,
      "▁key": 1721,
      "▁largest": 1722,
      "▁find": 1723,
      "▁upon": 1724,
      "▁region": 1725,
      "▁software": 1726,
      "##mit": 1727,
      "▁created": 1728,
      "▁final": 1729,
      "▁prom": 1730,
      "▁role": 1731,
      "▁references": 1732,
      "▁init": 1733,
      "▁rich": 1734,
      "##ications": 1735,
      "▁foreign": 1736,
      "##und": 1737,
      "▁march": 1738,
      "▁profess": 1739,
      "▁almost": 1740,
      "▁image": 1741,
      "##ising": 1742,
      "##hern": 1743,
      "▁territ": 1744,
      "▁code": 1745,
      "##yr": 1746,
      "▁sel": 1747,
      "▁mov": 1748,
      "##ission": 1749,
      "##osp": 1750,
      "▁once": 1751,
      "▁album": 1752,
      "▁nav": 1753,
      "##craft": 1754,
      "▁james": 1755,
      "▁jewish": 1756,
      "▁help": 1757,
      "##ief": 1758,
      "▁ren": 1759,
      "▁league": 1760,
      "▁study": 1761,
      "▁religious": 1762,
      "▁gold": 1763,
      "▁january": 1764,
      "▁site": 1765,
      "##val": 1766,
      "▁cross": 1767,
      "##acks": 1768,
      "##sequ": 1769,
      "##ille": 1770,
      "▁numbers": 1771,
      "▁member": 1772,
      "▁thought": 1773,
      "▁mart": 1774,
      "##inal": 1775,
      "▁areas": 1776,
      "▁minister": 1777,
      "▁tur": 1778,
      "##ensive": 1779,
      "▁movement": 1780,
      "▁living": 1781,
      "▁exam": 1782,
      "##aces": 1783,
      "##ino": 1784,
      "▁community": 1785,
      "##cer": 1786,
      "▁bc": 1787,
      "▁hit": 1788,
      "▁tour": 1789,
      "▁played": 1790,
      "▁source": 1791,
      "▁production": 1792,
      "▁fire": 1793,
      "▁david": 1794,
      "▁close": 1795,
      "▁tal": 1796,
      "##iate": 1797,
      "▁released": 1798,
      "▁dou": 1799,
      "▁cost": 1800,
      "▁rights": 1801,
      "##rict": 1802,
      "▁related": 1803,
      "▁ess": 1804,
      "##umb": 1805,
      "##ators": 1806,
      "##sel": 1807,
      "##go": 1808,
      "▁stre": 1809,
      "▁dig": 1810,
      "##oms": 1811,
      "▁meaning": 1812,
      "▁quest": 1813,
      "▁ancient": 1814,
      "##ril": 1815,
      "▁terms": 1816,
      "▁alex": 1817,
      "▁change": 1818,
      "▁northern": 1819,
      "##here": 1820,
      "##rian": 1821,
      "##ending": 1822,
      "▁research": 1823,
      "▁pain": 1824,
      "▁won": 1825,
      "▁admin": 1826,
      "▁market": 1827,
      "▁establ": 1828,
      "▁becom": 1829,
      "##cle": 1830,
      "▁fri": 1831,
      "▁exec": 1832,
      "▁middle": 1833,
      "##inese": 1834,
      "##side": 1835,
      "▁redu": 1836,
      "▁radio": 1837,
      "##bol": 1838,
      "▁sent": 1839,
      "▁os": 1840,
      "##ploy": 1841,
      "▁energy": 1842,
      "▁priv": 1843,
      "##let": 1844,
      "▁making": 1845,
      "▁actor": 1846,
      "▁style": 1847,
      "##ca": 1848,
      "▁produced": 1849,
      "##rug": 1850,
      "▁next": 1851,
      "▁december": 1852,
      "##ows": 1853,
      "▁women": 1854,
      "##asing": 1855,
      "▁died": 1856,
      "▁polic": 1857,
      "▁japanese": 1858,
      "▁feder": 1859,
      "##ify": 1860,
      "▁available": 1861,
      "##ingu": 1862,
      "▁model": 1863,
      "##ead": 1864,
      "▁forms": 1865,
      "▁canada": 1866,
      "▁chinese": 1867,
      "##ificant": 1868,
      "▁complex": 1869,
      "##ray": 1870,
      "▁might": 1871,
      "▁conn": 1872,
      "▁parli": 1873,
      "##ald": 1874,
      "##aries": 1875,
      "##ford": 1876,
      "▁pap": 1877,
      "▁recogn": 1878,
      "▁earli": 1879,
      "▁prob": 1880,
      "##hers": 1881,
      "##ples": 1882,
      "##atures": 1883,
      "▁television": 1884,
      "##ints": 1885,
      "▁sept": 1886,
      "▁latin": 1887,
      "▁cover": 1888,
      "▁lou": 1889,
      "▁say": 1890,
      "##ected": 1891,
      "##ude": 1892,
      "##to": 1893,
      "▁china": 1894,
      "▁half": 1895,
      "▁constitution": 1896,
      "▁hor": 1897,
      "##oint": 1898,
      "▁established": 1899,
      "▁mathemat": 1900,
      "##ham": 1901,
      "▁doc": 1902,
      "▁significant": 1903,
      "▁domin": 1904,
      "▁ship": 1905,
      "▁eastern": 1906,
      "▁env": 1907,
      "▁arab": 1908,
      "▁parliament": 1909,
      "▁july": 1910,
      "##ining": 1911,
      "##put": 1912,
      "▁toget": 1913,
      "##chan": 1914,
      "##ria": 1915,
      "▁george": 1916,
      "▁micro": 1917,
      "▁built": 1918,
      "▁inte": 1919,
      "▁together": 1920,
      "▁note": 1921,
      "▁green": 1922,
      "##thern": 1923,
      "▁get": 1924,
      "▁abs": 1925,
      "▁ur": 1926,
      "▁suggest": 1927,
      "▁ox": 1928,
      "▁cann": 1929,
      "▁paul": 1930,
      "▁bur": 1931,
      "##arily": 1932,
      "▁except": 1933,
      "▁viol": 1934,
      "▁condition": 1935,
      "▁charles": 1936,
      "▁que": 1937,
      "▁compet": 1938,
      "▁catholic": 1939,
      "##ych": 1940,
      "▁parts": 1941,
      "▁instead": 1942,
      "▁indian": 1943,
      "▁pot": 1944,
      "##lam": 1945,
      "▁business": 1946,
      "▁football": 1947,
      "▁subst": 1948,
      "▁heav": 1949,
      "▁trade": 1950,
      "▁neg": 1951,
      "▁india": 1952,
      "▁account": 1953,
      "##face": 1954,
      "▁deg": 1955,
      "▁fail": 1956,
      "##iron": 1957,
      "▁june": 1958,
      "▁traditional": 1959,
      "▁underst": 1960,
      "##ka": 1961,
      "▁included": 1962,
      "##uel": 1963,
      "##mon": 1964,
      "▁big": 1965,
      "##rican": 1966,
      "##orts": 1967,
      "##used": 1968,
      "▁revolution": 1969,
      "▁live": 1970,
      "▁least": 1971,
      "▁attack": 1972,
      "▁nove": 1973,
      "▁aud": 1974,
      "▁fight": 1975,
      "▁young": 1976,
      "▁stri": 1977,
      "▁altern": 1978,
      "▁cast": 1979,
      "▁capt": 1980,
      "▁dut": 1981,
      "##utions": 1982,
      "▁prime": 1983,
      "▁commit": 1984,
      "##ems": 1985,
      "##br": 1986,
      "##ering": 1987,
      "##omb": 1988,
      "▁coast": 1989,
      "▁dan": 1990,
      "▁economy": 1991,
      "▁love": 1992,
      "▁range": 1993,
      "▁entire": 1994,
      "▁mich": 1995,
      "##ched": 1996,
      "▁put": 1997,
      "▁always": 1998,
      "▁sit": 1999,
      "▁sold": 2000,
      "▁november": 2001,
      "▁emperor": 2002,
      "▁pen": 2003,
      "▁italian": 2004,
      "▁food": 2005,
      "▁environ": 2006,
      "▁past": 2007,
      "##edia": 2008,
      "▁cro": 2009,
      "▁determ": 2010,
      "##rote": 2011,
      "▁players": 2012,
      "▁cit": 2013,
      "▁spir": 2014,
      "##apt": 2015,
      "▁trib": 2016,
      "▁april": 2017,
      "▁access": 2018,
      "▁secret": 2019,
      "▁ben": 2020,
      "##ental": 2021,
      "▁san": 2022,
      "##ront": 2023,
      "▁nature": 2024,
      "##uth": 2025,
      "▁sain": 2026,
      "▁september": 2027,
      "▁creat": 2028,
      "▁cho": 2029,
      "##icult": 2030,
      "▁taken": 2031,
      "##ban": 2032,
      "▁lost": 2033,
      "##ror": 2034,
      "▁previous": 2035,
      "##ama": 2036,
      "▁southern": 2037,
      "▁self": 2038,
      "##ober": 2039,
      "▁jour": 2040,
      "▁ic": 2041,
      "##com": 2042,
      "▁season": 2043,
      "▁technology": 2044,
      "##ta": 2045,
      "##rie": 2046,
      "▁spanish": 2047,
      "##burg": 2048,
      "▁rate": 2049,
      "##ateg": 2050,
      "▁desp": 2051,
      "▁october": 2052,
      "▁commer": 2053,
      "▁recent": 2054,
      "##ara": 2055,
      "##rica": 2056,
      "▁fig": 2057,
      "▁grand": 2058,
      "▁relative": 2059,
      "##ery": 2060,
      "▁ach": 2061,
      "##ked": 2062,
      "##rary": 2063,
      "▁constant": 2064,
      "▁our": 2065,
      "##ana": 2066,
      "▁sen": 2067,
      "▁squ": 2068,
      "▁royal": 2069,
      "▁network": 2070,
      "▁true": 2071,
      "▁reform": 2072,
      "▁lower": 2073,
      "▁feb": 2074,
      "▁value": 2075,
      "▁russian": 2076,
      "##ered": 2077,
      "▁uses": 2078,
      "##ffic": 2079,
      "▁ta": 2080,
      "##selves": 2081,
      "##ux": 2082,
      "##ira": 2083,
      "▁interp": 2084,
      "▁invest": 2085,
      "▁bud": 2086,
      "▁coll": 2087,
      "▁problem": 2088,
      "##eth": 2089,
      "▁impro": 2090,
      "▁africa": 2091,
      "▁mur": 2092,
      "▁mechan": 2093,
      "##oney": 2094,
      "▁lord": 2095,
      "▁wrote": 2096,
      "##uf": 2097,
      "▁administ": 2098,
      "▁vide": 2099,
      "▁temper": 2100,
      "▁names": 2101,
      "▁ever": 2102,
      "▁whose": 2103,
      "▁gal": 2104,
      "▁rule": 2105,
      "▁fund": 2106,
      "▁sam": 2107,
      "▁feature": 2108,
      "▁historical": 2109,
      "▁come": 2110,
      "▁prote": 2111,
      "▁psych": 2112,
      "▁difficult": 2113,
      "##pr": 2114,
      "▁distin": 2115,
      "▁distrib": 2116,
      "▁australia": 2117,
      "▁hon": 2118,
      "##ien": 2119,
      "▁dam": 2120,
      "▁respect": 2121,
      "▁minor": 2122,
      "▁structure": 2123,
      "▁particularly": 2124,
      "##ii": 2125,
      "▁frank": 2126,
      "▁thom": 2127,
      "##ption": 2128,
      "▁african": 2129,
      "▁sil": 2130,
      "##acy": 2131,
      "▁hold": 2132,
      "▁evidence": 2133,
      "▁symbol": 2134,
      "##arn": 2135,
      "▁techni": 2136,
      "▁robert": 2137,
      "▁brother": 2138,
      "▁hyd": 2139,
      "▁themselves": 2140,
      "▁fut": 2141,
      "▁cases": 2142,
      "▁reason": 2143,
      "##ceed": 2144,
      "▁adop": 2145,
      "▁influence": 2146,
      "##ume": 2147,
      "##ael": 2148,
      "▁phot": 2149,
      "▁referred": 2150,
      "##af": 2151,
      "▁convent": 2152,
      "▁done": 2153,
      "▁too": 2154,
      "##ucle": 2155,
      "▁multip": 2156,
      "▁rail": 2157,
      "▁continued": 2158,
      "▁nations": 2159,
      "##uments": 2160,
      "▁ten": 2161,
      "▁below": 2162,
      "##ney": 2163,
      "▁color": 2164,
      "▁host": 2165,
      "▁here": 2166,
      "##gypt": 2167,
      "▁colon": 2168,
      "##ky": 2169,
      "▁office": 2170,
      "▁throughout": 2171,
      "▁title": 2172,
      "▁hop": 2173,
      "▁egypt": 2174,
      "▁female": 2175,
      "▁therefore": 2176,
      "▁travel": 2177,
      "▁speed": 2178,
      "▁step": 2179,
      "▁magn": 2180,
      "▁febru": 2181,
      "▁bit": 2182,
      "▁independent": 2183,
      "##key": 2184,
      "▁environment": 2185,
      "▁cities": 2186,
      "▁peace": 2187,
      "▁instr": 2188,
      "▁definition": 2189,
      "▁february": 2190,
      "▁ec": 2191,
      "▁night": 2192,
      "▁critic": 2193,
      "▁species": 2194,
      "▁education": 2195,
      "▁fav": 2196,
      "▁ground": 2197,
      "▁electron": 2198,
      "▁irish": 2199,
      "▁philosophy": 2200,
      "▁democr": 2201,
      "##bit": 2202,
      "▁park": 2203,
      "##rad": 2204,
      "▁command": 2205,
      "▁higher": 2206,
      "▁originally": 2207,
      "▁award": 2208,
      "▁legal": 2209,
      "▁internet": 2210,
      "▁ut": 2211,
      "▁bank": 2212,
      "▁sn": 2213,
      "##ques": 2214,
      "##ym": 2215,
      "▁wee": 2216,
      "▁laws": 2217,
      "▁successful": 2218,
      "▁acad": 2219,
      "▁amount": 2220,
      "##asc": 2221,
      "▁vo": 2222,
      "▁clear": 2223,
      "▁writer": 2224,
      "##ula": 2225,
      "▁films": 2226,
      "##lim": 2227,
      "▁nucle": 2228,
      "▁elements": 2229,
      "▁male": 2230,
      "▁specific": 2231,
      "▁whether": 2232,
      "▁islam": 2233,
      "##ledge": 2234,
      "▁despite": 2235,
      "▁tar": 2236,
      "▁eventually": 2237,
      "▁agree": 2238,
      "▁action": 2239,
      "##ially": 2240,
      "##den": 2241,
      "##bon": 2242,
      "##istics": 2243,
      "▁ire": 2244,
      "▁discuss": 2245,
      "▁described": 2246,
      "▁practice": 2247,
      "##erous": 2248,
      "▁characters": 2249,
      "##itz": 2250,
      "##ached": 2251,
      "##of": 2252,
      "▁chief": 2253,
      "▁mother": 2254,
      "▁max": 2255,
      "▁necess": 2256,
      "▁events": 2257,
      "▁web": 2258,
      "▁purp": 2259,
      "▁formed": 2260,
      "▁wat": 2261,
      "▁cry": 2262,
      "▁commonly": 2263,
      "▁bul": 2264,
      "##gor": 2265,
      "▁able": 2266,
      "##ania": 2267,
      "▁maint": 2268,
      "▁problems": 2269,
      "▁received": 2270,
      "##ires": 2271,
      "##ply": 2272,
      "##oll": 2273,
      "▁disp": 2274,
      "▁jews": 2275,
      "##king": 2276,
      "▁speak": 2277,
      "▁schol": 2278,
      "##usion": 2279,
      "##isc": 2280,
      "▁discover": 2281,
      "▁compos": 2282,
      "▁belief": 2283,
      "▁typically": 2284,
      "▁lay": 2285,
      "▁indic": 2286,
      "▁types": 2287,
      "▁club": 2288,
      "▁ze": 2289,
      "▁includes": 2290,
      "▁outside": 2291,
      "##duct": 2292,
      "▁look": 2293,
      "##ounced": 2294,
      "##rick": 2295,
      "▁contrib": 2296,
      "▁personal": 2297,
      "##uation": 2298,
      "▁physical": 2299,
      "▁page": 2300,
      "##imately": 2301,
      "##iding": 2302,
      "▁actually": 2303,
      "##lands": 2304,
      "##ari": 2305,
      "▁fiction": 2306,
      "▁transport": 2307,
      "##asion": 2308,
      "##istan": 2309,
      "##aves": 2310,
      "▁deaths": 2311,
      "▁followed": 2312,
      "▁dri": 2313,
      "▁blood": 2314,
      "▁fac": 2315,
      "▁henry": 2316,
      "##aring": 2317,
      "▁dial": 2318,
      "▁basic": 2319,
      "▁leader": 2320,
      "##ards": 2321,
      "▁widely": 2322,
      "▁went": 2323,
      "##ours": 2324,
      "##atives": 2325,
      "▁controvers": 2326,
      "▁ord": 2327,
      "▁academ": 2328,
      "▁conserv": 2329,
      "##rap": 2330,
      "▁nob": 2331,
      "▁relationship": 2332,
      "##ams": 2333,
      "##aged": 2334,
      "##isl": 2335,
      "▁front": 2336,
      "##nal": 2337,
      "▁quant": 2338,
      "▁mind": 2339,
      "##ston": 2340,
      "##ste": 2341,
      "##ung": 2342,
      "▁champ": 2343,
      "▁inde": 2344,
      "▁leaders": 2345,
      "▁wall": 2346,
      "##itect": 2347,
      "▁beginning": 2348,
      "##inary": 2349,
      "##oses": 2350,
      "##anted": 2351,
      "▁offer": 2352,
      "▁defe": 2353,
      "▁elected": 2354,
      "▁mess": 2355,
      "##lement": 2356,
      "##itor": 2357,
      "▁tex": 2358,
      "▁ven": 2359,
      "▁movie": 2360,
      "▁building": 2361,
      "▁alph": 2362,
      "▁flow": 2363,
      "▁detail": 2364,
      "▁ib": 2365,
      "▁emb": 2366,
      "▁independence": 2367,
      "##wor": 2368,
      "##igh": 2369,
      "▁pow": 2370,
      "▁canadian": 2371,
      "▁aircraft": 2372,
      "▁blue": 2373,
      "▁spirit": 2374,
      "##ades": 2375,
      "▁future": 2376,
      "▁hall": 2377,
      "▁orth": 2378,
      "▁occup": 2379,
      "▁architect": 2380,
      "▁surv": 2381,
      "▁births": 2382,
      "##oted": 2383,
      "▁louis": 2384,
      "▁video": 2385,
      "▁birth": 2386,
      "▁consist": 2387,
      "▁electric": 2388,
      "▁wood": 2389,
      "▁mary": 2390,
      "▁dyn": 2391,
      "##utes": 2392,
      "▁scientific": 2393,
      "▁simply": 2394,
      "▁size": 2395,
      "▁jes": 2396,
      "##ha": 2397,
      "▁defined": 2398,
      "▁bran": 2399,
      "▁calif": 2400,
      "##uck": 2401,
      "▁webs": 2402,
      "▁extreme": 2403,
      "▁experim": 2404,
      "▁industry": 2405,
      "##ties": 2406,
      "▁cause": 2407,
      "▁edition": 2408,
      "▁examples": 2409,
      "▁approx": 2410,
      "##the": 2411,
      "##rial": 2412,
      "▁californ": 2413,
      "##urity": 2414,
      "▁dead": 2415,
      "▁increasing": 2416,
      "▁myth": 2417,
      "▁mis": 2418,
      "▁employ": 2419,
      "▁leng": 2420,
      "##hib": 2421,
      "▁believe": 2422,
      "▁respons": 2423,
      "▁stra": 2424,
      "▁your": 2425,
      "##cript": 2426,
      "▁health": 2427,
      "▁services": 2428,
      "▁road": 2429,
      "▁idea": 2430,
      "▁tim": 2431,
      "▁soon": 2432,
      "##iers": 2433,
      "##ands": 2434,
      "##bc": 2435,
      "##ago": 2436,
      "▁points": 2437,
      "▁introduced": 2438,
      "▁cut": 2439,
      "▁manuf": 2440,
      "▁intell": 2441,
      "##ression": 2442,
      "▁letter": 2443,
      "▁gun": 2444,
      "▁manufact": 2445,
      "▁deal": 2446,
      "▁britain": 2447,
      "▁achie": 2448,
      "▁federal": 2449,
      "▁features": 2450,
      "▁dim": 2451,
      "▁majority": 2452,
      "▁organization": 2453,
      "▁separate": 2454,
      "▁cannot": 2455,
      "▁ireland": 2456,
      "▁bab": 2457,
      "▁designed": 2458,
      "▁sense": 2459,
      "▁classical": 2460,
      "▁pun": 2461,
      "▁media": 2462,
      "##ico": 2463,
      "▁collect": 2464,
      "##hol": 2465,
      "▁writing": 2466,
      "▁franc": 2467,
      "##atory": 2468,
      "▁required": 2469,
      "▁associated": 2470,
      "▁hydro": 2471,
      "▁address": 2472,
      "##ump": 2473,
      "##odes": 2474,
      "▁mix": 2475,
      "▁cam": 2476,
      "▁foc": 2477,
      "▁knowledge": 2478,
      "▁private": 2479,
      "▁yet": 2480,
      "##roy": 2481,
      "▁located": 2482,
      "▁california": 2483,
      "▁changes": 2484,
      "▁mel": 2485,
      "##aut": 2486,
      "##ement": 2487,
      "##ibility": 2488,
      "##ises": 2489,
      "▁unit": 2490,
      "▁religion": 2491,
      "##wer": 2492,
      "▁rh": 2493,
      "▁liberal": 2494,
      "▁believed": 2495,
      "▁sequ": 2496,
      "▁resour": 2497,
      "▁away": 2498,
      "▁started": 2499,
      "▁chemical": 2500,
      "▁reb": 2501,
      "▁aver": 2502,
      "▁integr": 2503,
      "▁fle": 2504,
      "▁meet": 2505,
      "▁nation": 2506,
      "▁assemb": 2507,
      "▁poet": 2508,
      "▁county": 2509,
      "▁poly": 2510,
      "##ysis": 2511,
      "▁rob": 2512,
      "▁element": 2513,
      "▁rules": 2514,
      "▁studies": 2515,
      "▁understand": 2516,
      "▁congress": 2517,
      "▁mole": 2518,
      "▁gas": 2519,
      "▁intellig": 2520,
      "▁depart": 2521,
      "▁jose": 2522,
      "▁policy": 2523,
      "▁chann": 2524,
      "▁corn": 2525,
      "▁working": 2526,
      "▁sem": 2527,
      "▁founded": 2528,
      "##itch": 2529,
      "▁currently": 2530,
      "##cent": 2531,
      "##iff": 2532,
      "▁saw": 2533,
      "▁hung": 2534,
      "▁election": 2535,
      "##berg": 2536,
      "▁provide": 2537,
      "▁brought": 2538,
      "▁thomas": 2539,
      "##ole": 2540,
      "▁weap": 2541,
      "##hab": 2542,
      "▁corpor": 2543,
      "▁australian": 2544,
      "▁cart": 2545,
      "▁muse": 2546,
      "▁labor": 2547,
      "##uit": 2548,
      "##ols": 2549,
      "▁alle": 2550,
      "##ension": 2551,
      "##wh": 2552,
      "▁sus": 2553,
      "▁russia": 2554,
      "▁sup": 2555,
      "▁continu": 2556,
      "▁allowed": 2557,
      "##omp": 2558,
      "▁greater": 2559,
      "▁earlier": 2560,
      "▁limited": 2561,
      "##hel": 2562,
      "▁tax": 2563,
      "▁online": 2564,
      "##istry": 2565,
      "▁quick": 2566,
      "▁kind": 2567,
      "▁pict": 2568,
      "▁ban": 2569,
      "▁association": 2570,
      "▁mi": 2571,
      "▁iv": 2572,
      "▁nar": 2573,
      "##rated": 2574,
      "▁autom": 2575,
      "▁document": 2576,
      "▁mostly": 2577,
      "##ilities": 2578,
      "▁displ": 2579,
      "▁evolution": 2580,
      "▁citiz": 2581,
      "##cast": 2582,
      "▁across": 2583,
      "##uk": 2584,
      "##action": 2585,
      "##vin": 2586,
      "▁emer": 2587,
      "▁prec": 2588,
      "▁added": 2589,
      "▁things": 2590,
      "▁atl": 2591,
      "##med": 2592,
      "▁simple": 2593,
      "▁mc": 2594,
      "▁ham": 2595,
      "▁question": 2596,
      "▁chap": 2597,
      "▁require": 2598,
      "##cies": 2599,
      "▁commercial": 2600,
      "▁saint": 2601,
      "##rest": 2602,
      "▁singer": 2603,
      "▁effects": 2604,
      "▁sources": 2605,
      "▁growth": 2606,
      "##sh": 2607,
      "▁legisl": 2608,
      "▁remains": 2609,
      "▁bound": 2610,
      "▁vari": 2611,
      "▁protest": 2612,
      "▁probably": 2613,
      "▁swed": 2614,
      "▁gar": 2615,
      "▁gave": 2616,
      "▁longer": 2617,
      "▁freed": 2618,
      "▁richard": 2619,
      "▁reference": 2620,
      "▁break": 2621,
      "▁oil": 2622,
      "▁pron": 2623,
      "▁drug": 2624,
      "▁dise": 2625,
      "▁map": 2626,
      "▁appoint": 2627,
      "▁killed": 2628,
      "▁career": 2629,
      "##ened": 2630,
      "▁tom": 2631,
      "▁hyp": 2632,
      "▁round": 2633,
      "##enced": 2634,
      "▁museum": 2635,
      "▁division": 2636,
      "▁cub": 2637,
      "##cles": 2638,
      "##ulf": 2639,
      "▁musical": 2640,
      "▁prince": 2641,
      "▁nom": 2642,
      "##ey": 2643,
      "##bor": 2644,
      "▁give": 2645,
      "▁etc": 2646,
      "▁security": 2647,
      "▁counter": 2648,
      "▁obser": 2649,
      "##ishing": 2650,
      "▁length": 2651,
      "▁behav": 2652,
      "##use": 2653,
      "##isms": 2654,
      "▁better": 2655,
      "▁confl": 2656,
      "▁prevent": 2657,
      "▁machine": 2658,
      "▁expect": 2659,
      "▁stories": 2660,
      "▁rat": 2661,
      "▁keep": 2662,
      "▁imper": 2663,
      "▁epis": 2664,
      "▁money": 2665,
      "##ician": 2666,
      "##ctr": 2667,
      "▁holy": 2668,
      "##ij": 2669,
      "▁ethn": 2670,
      "▁id": 2671,
      "▁actress": 2672,
      "▁lake": 2673,
      "##ga": 2674,
      "##ls": 2675,
      "▁theore": 2676,
      "▁spain": 2677,
      "▁larger": 2678,
      "▁leading": 2679,
      "▁becomes": 2680,
      "▁rout": 2681,
      "▁opt": 2682,
      "##isions": 2683,
      "▁prize": 2684,
      "▁parties": 2685,
      "▁scott": 2686,
      "▁products": 2687,
      "▁muslim": 2688,
      "▁pred": 2689,
      "▁website": 2690,
      "##ground": 2691,
      "▁remained": 2692,
      "▁fort": 2693,
      "▁cultural": 2694,
      "##ffer": 2695,
      "##ulated": 2696,
      "▁months": 2697,
      "▁territory": 2698,
      "▁lines": 2699,
      "##hest": 2700,
      "▁wife": 2701,
      "▁hill": 2702,
      "▁moved": 2703,
      "▁pie": 2704,
      "▁politics": 2705,
      "##ready": 2706,
      "##iting": 2707,
      "▁largely": 2708,
      "▁cust": 2709,
      "▁categ": 2710,
      "▁fell": 2711,
      "▁dutch": 2712,
      "▁tor": 2713,
      "▁oce": 2714,
      "▁makes": 2715,
      "▁famil": 2716,
      "▁companies": 2717,
      "▁contains": 2718,
      "##ference": 2719,
      "▁destroy": 2720,
      "##rast": 2721,
      "▁kar": 2722,
      "##haps": 2723,
      "▁perhaps": 2724,
      "▁lack": 2725,
      "##ights": 2726,
      "▁establish": 2727,
      "▁na": 2728,
      "##stein": 2729,
      "▁already": 2730,
      "▁iii": 2731,
      "▁library": 2732,
      "▁mars": 2733,
      "▁rap": 2734,
      "▁corre": 2735,
      "▁agric": 2736,
      "▁ey": 2737,
      "▁mex": 2738,
      "▁appeared": 2739,
      "##antic": 2740,
      "▁mas": 2741,
      "▁happ": 2742,
      "▁matter": 2743,
      "▁era": 2744,
      "▁graph": 2745,
      "##onic": 2746,
      "▁bene": 2747,
      "▁subsequ": 2748,
      "##wood": 2749,
      "##aign": 2750,
      "▁letters": 2751,
      "▁italy": 2752,
      "▁whole": 2753,
      "▁results": 2754,
      "▁wil": 2755,
      "▁fair": 2756,
      "▁pan": 2757,
      "▁jer": 2758,
      "▁laun": 2759,
      "▁particip": 2760,
      "▁produce": 2761,
      "▁bow": 2762,
      "▁journal": 2763,
      "▁fif": 2764,
      "##men": 2765,
      "▁pay": 2766,
      "▁hot": 2767,
      "▁guit": 2768,
      "▁calcul": 2769,
      "▁subs": 2770,
      "▁directly": 2771,
      "▁latter": 2772,
      "##odox": 2773,
      "▁loss": 2774,
      "▁board": 2775,
      "▁surface": 2776,
      "▁van": 2777,
      "▁status": 2778,
      "▁highly": 2779,
      "▁glob": 2780,
      "##ura": 2781,
      "▁fer": 2782,
      "▁ult": 2783,
      "▁ax": 2784,
      "▁district": 2785,
      "▁caused": 2786,
      "##itude": 2787,
      "▁measure": 2788,
      "##reg": 2789,
      "##ables": 2790,
      "▁campaign": 2791,
      "▁native": 2792,
      "##aching": 2793,
      "▁director": 2794,
      "▁michael": 2795,
      "▁release": 2796,
      "##lying": 2797,
      "▁metal": 2798,
      "▁treaty": 2799,
      "▁authority": 2800,
      "▁ww": 2801,
      "▁lic": 2802,
      "##urs": 2803,
      "▁virt": 2804,
      "▁double": 2805,
      "▁tv": 2806,
      "▁conver": 2807,
      "▁consum": 2808,
      "##va": 2809,
      "▁scot": 2810,
      "##like": 2811,
      "▁asia": 2812,
      "##ris": 2813,
      "▁implement": 2814,
      "▁washing": 2815,
      "##kn": 2816,
      "##win": 2817,
      "▁concern": 2818,
      "##da": 2819,
      "▁anth": 2820,
      "▁portug": 2821,
      "▁moon": 2822,
      "▁programming": 2823,
      "##ya": 2824,
      "▁date": 2825,
      "##ift": 2826,
      "▁faith": 2827,
      "▁brown": 2828,
      "##ips": 2829,
      "▁regular": 2830,
      "▁invent": 2831,
      "▁magaz": 2832,
      "##otes": 2833,
      "▁whom": 2834,
      "▁creation": 2835,
      "▁playing": 2836,
      "▁agricult": 2837,
      "▁wik": 2838,
      "▁mad": 2839,
      "▁conflict": 2840,
      "##view": 2841,
      "##col": 2842,
      "##resp": 2843,
      "##ini": 2844,
      "▁married": 2845,
      "▁towards": 2846,
      "▁memory": 2847,
      "▁course": 2848,
      "▁orthodox": 2849,
      "##asons": 2850,
      "##onents": 2851,
      "▁sha": 2852,
      "▁issues": 2853,
      "▁cand": 2854,
      "▁heart": 2855,
      "##ores": 2856,
      "##ithm": 2857,
      "▁basis": 2858,
      "▁cele": 2859,
      "##ging": 2860,
      "▁queen": 2861,
      "▁enough": 2862,
      "▁primary": 2863,
      "▁alexander": 2864,
      "▁rare": 2865,
      "▁remain": 2866,
      "▁sac": 2867,
      "▁dark": 2868,
      "▁kh": 2869,
      "##ream": 2870,
      "▁digital": 2871,
      "▁rome": 2872,
      "##icated": 2873,
      "▁functions": 2874,
      "▁provided": 2875,
      "##uries": 2876,
      "▁cd": 2877,
      "▁demon": 2878,
      "##can": 2879,
      "▁analysis": 2880,
      "▁hero": 2881,
      "##aff": 2882,
      "▁think": 2883,
      "▁claims": 2884,
      "▁literature": 2885,
      "▁replaced": 2886,
      "▁peter": 2887,
      "▁joseph": 2888,
      "##ee": 2889,
      "▁divided": 2890,
      "##ding": 2891,
      "▁likely": 2892,
      "▁average": 2893,
      "▁medical": 2894,
      "▁property": 2895,
      "▁vill": 2896,
      "##ivity": 2897,
      "▁smith": 2898,
      "▁students": 2899,
      "##iles": 2900,
      "▁street": 2901,
      "▁wars": 2902,
      "▁los": 2903,
      "▁smaller": 2904,
      "##oura": 2905,
      "▁degree": 2906,
      "▁elections": 2907,
      "##oid": 2908,
      "##het": 2909,
      "▁claimed": 2910,
      "▁performance": 2911,
      "▁alternative": 2912,
      "▁progress": 2913,
      "▁draw": 2914,
      "##wise": 2915,
      "▁camb": 2916,
      "▁washington": 2917,
      "▁slow": 2918,
      "▁user": 2919,
      "▁controll": 2920,
      "▁carbon": 2921,
      "##itation": 2922,
      "▁columb": 2923,
      "▁flag": 2924,
      "##bi": 2925,
      "▁fal": 2926,
      "##ection": 2927,
      "##ously": 2928,
      "▁nearly": 2929,
      "##for": 2930,
      "▁schools": 2931,
      "▁paris": 2932,
      "▁saf": 2933,
      "▁jesus": 2934,
      "▁gradu": 2935,
      "▁baseball": 2936,
      "##utive": 2937,
      "▁industrial": 2938,
      "▁collection": 2939,
      "##edy": 2940,
      "##porary": 2941,
      "▁thous": 2942,
      "▁corresp": 2943,
      "##fl": 2944,
      "▁daught": 2945,
      "##riage": 2946,
      "▁finan": 2947,
      "▁commission": 2948,
      "▁quar": 2949,
      "▁review": 2950,
      "▁contem": 2951,
      "▁ideas": 2952,
      "▁changed": 2953,
      "▁section": 2954,
      "▁programs": 2955,
      "▁distinct": 2956,
      "##ush": 2957,
      "▁records": 2958,
      "▁station": 2959,
      "##ope": 2960,
      "##izations": 2961,
      "▁frequently": 2962,
      "▁increase": 2963,
      "##izing": 2964,
      "▁highest": 2965,
      "▁pac": 2966,
      "▁finally": 2967,
      "▁ira": 2968,
      "▁notable": 2969,
      "▁dog": 2970,
      "▁methods": 2971,
      "▁table": 2972,
      "▁recently": 2973,
      "##uge": 2974,
      "▁paper": 2975,
      "▁heavy": 2976,
      "##fect": 2977,
      "▁assum": 2978,
      "##cks": 2979,
      "▁heb": 2980,
      "##cycl": 2981,
      "▁border": 2982,
      "▁democratic": 2983,
      "▁bay": 2984,
      "▁variety": 2985,
      "▁involved": 2986,
      "▁intel": 2987,
      "▁mun": 2988,
      "▁served": 2989,
      "▁observ": 2990,
      "▁kore": 2991,
      "▁cred": 2992,
      "##field": 2993,
      "##arent": 2994,
      "▁bon": 2995,
      "▁inn": 2996,
      "##thing": 2997,
      "▁sexual": 2998,
      "▁ple": 2999,
      "##pper": 3000,
      "▁nuclear": 3001,
      "##cher": 3002,
      "▁operation": 3003,
      "##ields": 3004,
      "▁objects": 3005,
      "▁deli": 3006,
      "##hood": 3007,
      "##mar": 3008,
      "▁increased": 3009,
      "##bra": 3010,
      "▁bish": 3011,
      "▁medic": 3012,
      "##iter": 3013,
      "##iant": 3014,
      "▁windows": 3015,
      "▁die": 3016,
      "▁astron": 3017,
      "▁relatively": 3018,
      "##ech": 3019,
      "##gin": 3020,
      "▁create": 3021,
      "▁returned": 3022,
      "##well": 3023,
      "▁bbc": 3024,
      "▁conditions": 3025,
      "▁sens": 3026,
      "▁mos": 3027,
      "▁ice": 3028,
      "▁takes": 3029,
      "▁mand": 3030,
      "▁adopted": 3031,
      "▁perm": 3032,
      "▁plat": 3033,
      "▁ocean": 3034,
      "▁pack": 3035,
      "▁woman": 3036,
      "▁immed": 3037,
      "▁file": 3038,
      "▁poor": 3039,
      "▁electr": 3040,
      "##olf": 3041,
      "##off": 3042,
      "▁dialect": 3043,
      "##onia": 3044,
      "▁appears": 3045,
      "##ners": 3046,
      "▁gn": 3047,
      "▁committe": 3048,
      "##ont": 3049,
      "##omy": 3050,
      "##agement": 3051,
      "▁ans": 3052,
      "▁guitar": 3053,
      "▁burn": 3054,
      "▁animals": 3055,
      "▁existence": 3056,
      "▁units": 3057,
      "##cell": 3058,
      "▁discovered": 3059,
      "▁assembly": 3060,
      "▁immediate": 3061,
      "▁philosop": 3062,
      "▁incor": 3063,
      "▁prior": 3064,
      "▁reported": 3065,
      "▁box": 3066,
      "▁active": 3067,
      "▁assist": 3068,
      "▁mention": 3069,
      "▁deep": 3070,
      "▁chic": 3071,
      "##ying": 3072,
      "▁universe": 3073,
      "▁htt": 3074,
      "▁encycl": 3075,
      "▁angel": 3076,
      "▁behind": 3077,
      "▁normal": 3078,
      "▁algor": 3079,
      "▁numerous": 3080,
      "▁construction": 3081,
      "▁scale": 3082,
      "▁diss": 3083,
      "▁professional": 3084,
      "▁lad": 3085,
      "▁operating": 3086,
      "▁wa": 3087,
      "▁tend": 3088,
      "▁dar": 3089,
      "▁unlike": 3090,
      "##ridge": 3091,
      "▁airport": 3092,
      "▁institute": 3093,
      "▁iron": 3094,
      "▁taking": 3095,
      "▁naz": 3096,
      "▁pressure": 3097,
      "▁centre": 3098,
      "▁experience": 3099,
      "▁week": 3100,
      "▁amb": 3101,
      "##oe": 3102,
      "▁od": 3103,
      "▁ros": 3104,
      "▁sett": 3105,
      "▁estim": 3106,
      "▁concent": 3107,
      "▁stage": 3108,
      "▁conte": 3109,
      "▁monarch": 3110,
      "▁issue": 3111,
      "▁troops": 3112,
      "▁recorded": 3113,
      "▁resist": 3114,
      "▁primarily": 3115,
      "▁math": 3116,
      "▁hebrew": 3117,
      "##iance": 3118,
      "▁notes": 3119,
      "▁org": 3120,
      "▁tun": 3121,
      "▁bad": 3122,
      "▁exch": 3123,
      "▁neigh": 3124,
      "▁pope": 3125,
      "##ibly": 3126,
      "▁something": 3127,
      "▁square": 3128,
      "▁print": 3129,
      "▁descript": 3130,
      "▁encyclop": 3131,
      "▁defense": 3132,
      "▁aspect": 3133,
      "▁potential": 3134,
      "▁insp": 3135,
      "▁accepted": 3136,
      "▁powers": 3137,
      "##anced": 3138,
      "▁select": 3139,
      "##illa": 3140,
      "▁mathematics": 3141,
      "##umn": 3142,
      "▁pattern": 3143,
      "▁cel": 3144,
      "▁race": 3145,
      "▁mission": 3146,
      "▁resources": 3147,
      "▁stop": 3148,
      "▁compar": 3149,
      "▁cru": 3150,
      "##oting": 3151,
      "▁kil": 3152,
      "▁essential": 3153,
      "▁gro": 3154,
      "##igned": 3155,
      "▁acqu": 3156,
      "▁running": 3157,
      "▁applied": 3158,
      "▁derived": 3159,
      "##astic": 3160,
      "▁sin": 3161,
      "##ately": 3162,
      "▁calend": 3163,
      "##orial": 3164,
      "▁francis": 3165,
      "▁additional": 3166,
      "▁master": 3167,
      "##idents": 3168,
      "▁formal": 3169,
      "##ken": 3170,
      "▁lived": 3171,
      "▁ens": 3172,
      "▁equival": 3173,
      "▁shows": 3174,
      "▁nobel": 3175,
      "▁freedom": 3176,
      "##inated": 3177,
      "▁conqu": 3178,
      "▁placed": 3179,
      "▁instance": 3180,
      "▁http": 3181,
      "▁roll": 3182,
      "▁impl": 3183,
      "▁bomb": 3184,
      "▁script": 3185,
      "▁purpose": 3186,
      "▁frac": 3187,
      "▁dia": 3188,
      "▁twent": 3189,
      "##ba": 3190,
      "▁jul": 3191,
      "▁broadcast": 3192,
      "▁magazine": 3193,
      "##wa": 3194,
      "▁budd": 3195,
      "▁target": 3196,
      "▁scholars": 3197,
      "▁hab": 3198,
      "▁suffer": 3199,
      "▁equal": 3200,
      "▁gall": 3201,
      "▁serious": 3202,
      "▁boy": 3203,
      "▁respon": 3204,
      "▁channel": 3205,
      "▁scre": 3206,
      "▁governor": 3207,
      "▁engineering": 3208,
      "▁citizens": 3209,
      "##ios": 3210,
      "##orph": 3211,
      "▁rise": 3212,
      "##clus": 3213,
      "##ki": 3214,
      "▁mainly": 3215,
      "▁spread": 3216,
      "##oon": 3217,
      "##round": 3218,
      "##dp": 3219,
      "▁arts": 3220,
      "▁phen": 3221,
      "▁cos": 3222,
      "▁seem": 3223,
      "##ita": 3224,
      "▁mont": 3225,
      "▁threat": 3226,
      "▁versions": 3227,
      "▁ip": 3228,
      "▁operations": 3229,
      "▁interpret": 3230,
      "▁settle": 3231,
      "##att": 3232,
      "##iences": 3233,
      "▁quite": 3234,
      "▁dip": 3235,
      "▁marriage": 3236,
      "▁older": 3237,
      "##gon": 3238,
      "##tered": 3239,
      "▁mut": 3240,
      "▁applications": 3241,
      "▁ethnic": 3242,
      "▁proposed": 3243,
      "▁bible": 3244,
      "▁contain": 3245,
      "▁nd": 3246,
      "▁shown": 3247,
      "▁hund": 3248,
      "▁bass": 3249,
      "▁police": 3250,
      "▁obt": 3251,
      "▁rank": 3252,
      "▁consists": 3253,
      "▁cells": 3254,
      "▁instrument": 3255,
      "▁transform": 3256,
      "▁sir": 3257,
      "▁alge": 3258,
      "▁articles": 3259,
      "##hi": 3260,
      "▁writers": 3261,
      "##rative": 3262,
      "##imum": 3263,
      "▁volume": 3264,
      "▁cens": 3265,
      "▁fast": 3266,
      "▁exact": 3267,
      "▁scotland": 3268,
      "▁arri": 3269,
      "▁ways": 3270,
      "▁lu": 3271,
      "▁hell": 3272,
      "▁apparent": 3273,
      "▁regions": 3274,
      "▁levels": 3275,
      "▁dat": 3276,
      "▁albert": 3277,
      "▁rand": 3278,
      "▁construct": 3279,
      "▁possess": 3280,
      "▁properties": 3281,
      "▁quickly": 3282,
      "▁duke": 3283,
      "▁uns": 3284,
      "▁try": 3285,
      "▁fundament": 3286,
      "▁cas": 3287,
      "▁comment": 3288,
      "▁songs": 3289,
      "▁convention": 3290,
      "▁conne": 3291,
      "▁techniques": 3292,
      "##aria": 3293,
      "##ola": 3294,
      "▁plant": 3295,
      "▁extra": 3296,
      "##ads": 3297,
      "▁dance": 3298,
      "▁ris": 3299,
      "▁ability": 3300,
      "▁communist": 3301,
      "##back": 3302,
      "##omen": 3303,
      "▁passed": 3304,
      "▁introduction": 3305,
      "▁chicago": 3306,
      "##eter": 3307,
      "▁animal": 3308,
      "▁navy": 3309,
      "▁friends": 3310,
      "▁approximately": 3311,
      "##hic": 3312,
      "▁bapt": 3313,
      "▁surround": 3314,
      "▁composer": 3315,
      "▁apple": 3316,
      "▁chron": 3317,
      "##isation": 3318,
      "▁wr": 3319,
      "▁appointed": 3320,
      "##ned": 3321,
      "▁pra": 3322,
      "▁jac": 3323,
      "▁centuries": 3324,
      "▁committee": 3325,
      "▁path": 3326,
      "▁forced": 3327,
      "▁cra": 3328,
      "▁usa": 3329,
      "▁compl": 3330,
      "▁percent": 3331,
      "▁mit": 3332,
      "▁martin": 3333,
      "▁hous": 3334,
      "##rupt": 3335,
      "##ients": 3336,
      "▁places": 3337,
      "▁month": 3338,
      "▁individuals": 3339,
      "▁learn": 3340,
      "##soft": 3341,
      "▁distingu": 3342,
      "▁focus": 3343,
      "▁face": 3344,
      "##ker": 3345,
      "▁refers": 3346,
      "##rief": 3347,
      "▁bib": 3348,
      "▁wit": 3349,
      "▁kings": 3350,
      "##aches": 3351,
      "▁sho": 3352,
      "##ager": 3353,
      "▁values": 3354,
      "▁comes": 3355,
      "▁via": 3356,
      "▁afg": 3357,
      "▁agreement": 3358,
      "▁response": 3359,
      "▁speech": 3360,
      "▁temperature": 3361,
      "##ship": 3362,
      "##mp": 3363,
      "##elling": 3364,
      "▁www": 3365,
      "▁climate": 3366,
      "▁acid": 3367,
      "##erson": 3368,
      "▁jack": 3369,
      "▁bridge": 3370,
      "▁protect": 3371,
      "▁carry": 3372,
      "▁champions": 3373,
      "▁daughter": 3374,
      "▁repe": 3375,
      "▁internal": 3376,
      "▁labour": 3377,
      "▁murder": 3378,
      "▁von": 3379,
      "▁rot": 3380,
      "##omm": 3381,
      "▁demonst": 3382,
      "##anian": 3383,
      "▁reflect": 3384,
      "▁search": 3385,
      "##pped": 3386,
      "▁contract": 3387,
      "▁friend": 3388,
      "##gers": 3389,
      "▁fel": 3390,
      "▁pil": 3391,
      "##abet": 3392,
      "▁branch": 3393,
      "##yth": 3394,
      "▁consequ": 3395,
      "▁cold": 3396,
      "▁motion": 3397,
      "##eral": 3398,
      "▁lie": 3399,
      "▁flight": 3400,
      "▁depend": 3401,
      "▁forest": 3402,
      "▁lingu": 3403,
      "▁sav": 3404,
      "▁fix": 3405,
      "##zz": 3406,
      "▁stars": 3407,
      "▁noted": 3408,
      "▁microsoft": 3409,
      "▁shot": 3410,
      "▁summer": 3411,
      "##igr": 3412,
      "▁unique": 3413,
      "▁voc": 3414,
      "▁content": 3415,
      "▁supported": 3416,
      "▁brain": 3417,
      "▁bey": 3418,
      "▁clos": 3419,
      "▁arth": 3420,
      "▁billion": 3421,
      "▁ful": 3422,
      "▁miles": 3423,
      "▁treatment": 3424,
      "##onent": 3425,
      "▁computers": 3426,
      "▁christianity": 3427,
      "▁rapid": 3428,
      "▁plann": 3429,
      "▁correspond": 3430,
      "##ett": 3431,
      "▁management": 3432,
      "▁promin": 3433,
      "▁direction": 3434,
      "##mark": 3435,
      "▁mob": 3436,
      "##aker": 3437,
      "▁flu": 3438,
      "▁calendar": 3439,
      "##overy": 3440,
      "▁write": 3441,
      "▁remo": 3442,
      "▁lith": 3443,
      "▁performed": 3444,
      "▁necessary": 3445,
      "##ville": 3446,
      "▁spl": 3447,
      "##hens": 3448,
      "▁intended": 3449,
      "##olved": 3450,
      "▁cab": 3451,
      "##aled": 3452,
      "##ales": 3453,
      "▁transfer": 3454,
      "▁benef": 3455,
      "▁fat": 3456,
      "▁affair": 3457,
      "▁conduct": 3458,
      "▁rang": 3459,
      "##anded": 3460,
      "▁diam": 3461,
      "##aur": 3462,
      "▁disease": 3463,
      "▁worked": 3464,
      "▁vehic": 3465,
      "▁recon": 3466,
      "▁imperial": 3467,
      "##nes": 3468,
      "▁sets": 3469,
      "▁users": 3470,
      "▁luc": 3471,
      "▁gene": 3472,
      "▁attrib": 3473,
      "▁atom": 3474,
      "▁acts": 3475,
      "▁lands": 3476,
      "▁physics": 3477,
      "▁reading": 3478,
      "▁multiple": 3479,
      "▁sports": 3480,
      "▁gramm": 3481,
      "▁afghan": 3482,
      "▁figure": 3483,
      "▁fan": 3484,
      "▁speaking": 3485,
      "▁iraq": 3486,
      "▁motor": 3487,
      "▁export": 3488,
      "▁signed": 3489,
      "▁critical": 3490,
      "▁haw": 3491,
      "▁prefer": 3492,
      "##xual": 3493,
      "▁contrast": 3494,
      "▁cer": 3495,
      "▁location": 3496,
      "▁translation": 3497,
      "▁regarded": 3498,
      "▁mathematical": 3499,
      "▁wild": 3500,
      "▁connect": 3501,
      "▁reject": 3502,
      "##zil": 3503,
      "▁gir": 3504,
      "##phas": 3505,
      "▁tree": 3506,
      "▁jean": 3507,
      "##itors": 3508,
      "▁inhab": 3509,
      "▁enem": 3510,
      "▁infin": 3511,
      "▁circum": 3512,
      "##rents": 3513,
      "▁beyond": 3514,
      "▁orient": 3515,
      "▁province": 3516,
      "##ny": 3517,
      "▁arran": 3518,
      "##icted": 3519,
      "▁medicine": 3520,
      "##pap": 3521,
      "##och": 3522,
      "▁alco": 3523,
      "##ws": 3524,
      "▁approach": 3525,
      "##har": 3526,
      "▁spok": 3527,
      "▁polish": 3528,
      "▁skill": 3529,
      "▁reached": 3530,
      "▁stock": 3531,
      "▁brief": 3532,
      "▁lif": 3533,
      "▁fant": 3534,
      "▁remaining": 3535,
      "▁display": 3536,
      "▁financial": 3537,
      "▁why": 3538,
      "▁adm": 3539,
      "▁provides": 3540,
      "▁il": 3541,
      "##la": 3542,
      "▁track": 3543,
      "▁notably": 3544,
      "▁administration": 3545,
      "▁jur": 3546,
      "▁guide": 3547,
      "▁cup": 3548,
      "▁les": 3549,
      "▁feel": 3550,
      "▁mm": 3551,
      "▁candid": 3552,
      "▁inj": 3553,
      "▁actual": 3554,
      "▁opposition": 3555,
      "##outh": 3556,
      "▁distribution": 3557,
      "▁logic": 3558,
      "##icit": 3559,
      "▁alt": 3560,
      "▁block": 3561,
      "▁joined": 3562,
      "▁rain": 3563,
      "▁prison": 3564,
      "▁bring": 3565,
      "▁conservative": 3566,
      "▁theories": 3567,
      "▁bob": 3568,
      "▁prem": 3569,
      "▁catal": 3570,
      "##eria": 3571,
      "##oration": 3572,
      "▁models": 3573,
      "▁coal": 3574,
      "▁custom": 3575,
      "▁mr": 3576,
      "▁aim": 3577,
      "▁distance": 3578,
      "▁influenced": 3579,
      "##ada": 3580,
      "▁format": 3581,
      "▁pit": 3582,
      "▁intelligence": 3583,
      "▁correct": 3584,
      "##osis": 3585,
      "##rane": 3586,
      "▁doctr": 3587,
      "▁victor": 3588,
      "▁greece": 3589,
      "##board": 3590,
      "▁department": 3591,
      "▁context": 3592,
      "▁hands": 3593,
      "▁celebr": 3594,
      "▁stren": 3595,
      "##inian": 3596,
      "▁universal": 3597,
      "▁sell": 3598,
      "▁humans": 3599,
      "▁activity": 3600,
      "▁pacific": 3601,
      "▁algebra": 3602,
      "##isters": 3603,
      "▁global": 3604,
      "▁mom": 3605,
      "▁executive": 3606,
      "##mas": 3607,
      "##gn": 3608,
      "▁previously": 3609,
      "▁powerful": 3610,
      "▁coup": 3611,
      "▁quality": 3612,
      "##otic": 3613,
      "▁ran": 3614,
      "▁brazil": 3615,
      "##ida": 3616,
      "▁restrict": 3617,
      "▁synt": 3618,
      "▁share": 3619,
      "▁abb": 3620,
      "▁needed": 3621,
      "##rison": 3622,
      "▁bond": 3623,
      "▁jim": 3624,
      "##elled": 3625,
      "▁extremely": 3626,
      "▁ell": 3627,
      "##racy": 3628,
      "▁ga": 3629,
      "▁legend": 3630,
      "▁phenomen": 3631,
      "##enth": 3632,
      "▁vote": 3633,
      "▁edward": 3634,
      "▁gard": 3635,
      "▁completely": 3636,
      "##ody": 3637,
      "##aph": 3638,
      "▁string": 3639,
      "▁allows": 3640,
      "▁berlin": 3641,
      "▁virgin": 3642,
      "##uls": 3643,
      "▁investig": 3644,
      "▁contemporary": 3645,
      "▁advent": 3646,
      "▁advanced": 3647,
      "##oke": 3648,
      "##cious": 3649,
      "▁cook": 3650,
      "▁newspap": 3651,
      "▁doub": 3652,
      "▁rab": 3653,
      "##gian": 3654,
      "##osh": 3655,
      "##lor": 3656,
      "##ocol": 3657,
      "##ortun": 3658,
      "▁gives": 3659,
      "##head": 3660,
      "▁shar": 3661,
      "▁stated": 3662,
      "▁poland": 3663,
      "##ona": 3664,
      "▁advant": 3665,
      "▁becoming": 3666,
      "▁tas": 3667,
      "▁regional": 3668,
      "##azz": 3669,
      "▁justice": 3670,
      "▁ign": 3671,
      "▁crown": 3672,
      "▁streng": 3673,
      "▁fourth": 3674,
      "▁guard": 3675,
      "▁enter": 3676,
      "##where": 3677,
      "▁foundation": 3678,
      "▁crim": 3679,
      "▁nether": 3680,
      "▁turned": 3681,
      "▁heat": 3682,
      "▁ott": 3683,
      "▁difference": 3684,
      "▁weapons": 3685,
      "▁episode": 3686,
      "##bour": 3687,
      "▁critics": 3688,
      "▁purch": 3689,
      "▁paral": 3690,
      "▁standards": 3691,
      "▁mountain": 3692,
      "▁kong": 3693,
      "▁chur": 3694,
      "▁electronic": 3695,
      "▁sand": 3696,
      "▁dun": 3697,
      "▁contact": 3698,
      "▁screen": 3699,
      "▁ded": 3700,
      "▁ba": 3701,
      "▁argument": 3702,
      "▁favor": 3703,
      "##ua": 3704,
      "##pg": 3705,
      "▁fans": 3706,
      "▁musician": 3707,
      "▁greatest": 3708,
      "▁usage": 3709,
      "##ounds": 3710,
      "▁featured": 3711,
      "▁fields": 3712,
      "▁vow": 3713,
      "▁training": 3714,
      "##asy": 3715,
      "##gal": 3716,
      "▁hours": 3717,
      "▁link": 3718,
      "▁inside": 3719,
      "▁application": 3720,
      "▁exchange": 3721,
      "▁useful": 3722,
      "▁else": 3723,
      "▁initial": 3724,
      "▁ships": 3725,
      "▁domest": 3726,
      "▁moving": 3727,
      "▁describe": 3728,
      "##fficient": 3729,
      "▁wing": 3730,
      "▁rough": 3731,
      "##mann": 3732,
      "▁resulting": 3733,
      "▁oxford": 3734,
      "▁behavior": 3735,
      "▁suc": 3736,
      "▁honor": 3737,
      "▁churches": 3738,
      "▁effic": 3739,
      "▁arabic": 3740,
      "▁fundamental": 3741,
      "▁urban": 3742,
      "▁slight": 3743,
      "▁netherlands": 3744,
      "##ias": 3745,
      "##isp": 3746,
      "▁pair": 3747,
      "▁quarter": 3748,
      "▁theat": 3749,
      "▁supreme": 3750,
      "##oo": 3751,
      "▁fest": 3752,
      "▁diction": 3753,
      "▁spring": 3754,
      "▁weight": 3755,
      "▁horse": 3756,
      "▁impact": 3757,
      "▁artist": 3758,
      "▁failed": 3759,
      "▁arthur": 3760,
      "▁reasons": 3761,
      "▁carried": 3762,
      "▁folk": 3763,
      "▁upper": 3764,
      "##ieties": 3765,
      "▁molec": 3766,
      "▁reve": 3767,
      "▁continue": 3768,
      "▁unf": 3769,
      "▁cp": 3770,
      "▁dro": 3771,
      "▁rd": 3772,
      "##oca": 3773,
      "▁going": 3774,
      "▁emphas": 3775,
      "##usal": 3776,
      "▁competition": 3777,
      "▁responsible": 3778,
      "▁compil": 3779,
      "▁occasion": 3780,
      "▁opposed": 3781,
      "▁perman": 3782,
      "▁stone": 3783,
      "▁decision": 3784,
      "▁islamic": 3785,
      "##tical": 3786,
      "##rich": 3787,
      "##erve": 3788,
      "▁voice": 3789,
      "▁technical": 3790,
      "▁planet": 3791,
      "▁architecture": 3792,
      "##what": 3793,
      "▁mexico": 3794,
      "▁incorpor": 3795,
      "▁scottish": 3796,
      "▁nap": 3797,
      "▁beat": 3798,
      "▁starting": 3799,
      "##imal": 3800,
      "▁somewhat": 3801,
      "▁negative": 3802,
      "##mitted": 3803,
      "▁equip": 3804,
      "##my": 3805,
      "##ml": 3806,
      "▁oly": 3807,
      "▁dang": 3808,
      "▁swe": 3809,
      "▁views": 3810,
      "▁materials": 3811,
      "▁activities": 3812,
      "▁spoken": 3813,
      "▁biography": 3814,
      "▁doll": 3815,
      "▁linear": 3816,
      "##icip": 3817,
      "▁protection": 3818,
      "##log": 3819,
      "##reed": 3820,
      "▁gh": 3821,
      "▁signal": 3822,
      "▁follows": 3823,
      "##west": 3824,
      "▁ones": 3825,
      "▁attempts": 3826,
      "▁generation": 3827,
      "▁indeed": 3828,
      "▁vary": 3829,
      "##aving": 3830,
      "▁charge": 3831,
      "▁declared": 3832,
      "▁winter": 3833,
      "▁cambridge": 3834,
      "##vert": 3835,
      "▁decided": 3836,
      "▁olymp": 3837,
      "##ram": 3838,
      "▁chall": 3839,
      "▁ended": 3840,
      "▁composed": 3841,
      "##ressed": 3842,
      "##ulations": 3843,
      "▁growing": 3844,
      "▁appearance": 3845,
      "##lom": 3846,
      "▁specif": 3847,
      "##rate": 3848,
      "▁ly": 3849,
      "▁succeed": 3850,
      "▁lut": 3851,
      "▁ring": 3852,
      "##sec": 3853,
      "▁geography": 3854,
      "▁represented": 3855,
      "▁anarch": 3856,
      "▁grav": 3857,
      "▁oppos": 3858,
      "▁juda": 3859,
      "##writ": 3860,
      "##rm": 3861,
      "##ests": 3862,
      "▁encyclopedia": 3863,
      "▁possibly": 3864,
      "▁bell": 3865,
      "##hesis": 3866,
      "▁pure": 3867,
      "▁goal": 3868,
      "▁families": 3869,
      "▁seems": 3870,
      "▁cham": 3871,
      "▁dna": 3872,
      "▁christians": 3873,
      "##met": 3874,
      "##ati": 3875,
      "▁zeal": 3876,
      "##lines": 3877,
      "##za": 3878,
      "##encies": 3879,
      "▁jun": 3880,
      "▁classic": 3881,
      "▁dynast": 3882,
      "▁fuel": 3883,
      "▁adj": 3884,
      "##ographic": 3885,
      "▁ku": 3886,
      "▁pick": 3887,
      "▁discip": 3888,
      "▁terror": 3889,
      "▁stations": 3890,
      "▁palest": 3891,
      "▁improve": 3892,
      "▁easily": 3893,
      "▁identity": 3894,
      "▁academy": 3895,
      "▁bah": 3896,
      "▁assass": 3897,
      "▁principle": 3898,
      "▁alphabet": 3899,
      "▁equipment": 3900,
      "##erc": 3901,
      "▁giving": 3902,
      "▁comic": 3903,
      "▁marx": 3904,
      "▁phr": 3905,
      "▁armed": 3906,
      "▁tell": 3907,
      "##vey": 3908,
      "▁und": 3909,
      "▁ak": 3910,
      "##aging": 3911,
      "▁extended": 3912,
      "▁golden": 3913,
      "▁tou": 3914,
      "▁doctor": 3915,
      "▁announced": 3916,
      "##sp": 3917,
      "▁got": 3918,
      "▁compared": 3919,
      "##ils": 3920,
      "▁kenn": 3921,
      "▁positive": 3922,
      "▁causes": 3923,
      "▁unkn": 3924,
      "▁income": 3925,
      "▁expans": 3926,
      "##izes": 3927,
      "▁choice": 3928,
      "▁reign": 3929,
      "▁simpl": 3930,
      "▁technique": 3931,
      "▁fish": 3932,
      "▁nick": 3933,
      "▁medie": 3934,
      "▁advoc": 3935,
      "▁apart": 3936,
      "▁mathematic": 3937,
      "▁medieval": 3938,
      "▁pier": 3939,
      "▁attacks": 3940,
      "▁drive": 3941,
      "##inate": 3942,
      "▁stan": 3943,
      "▁immediately": 3944,
      "##eds": 3945,
      "▁directed": 3946,
      "##iah": 3947,
      "▁feet": 3948,
      "##tar": 3949,
      "▁flo": 3950,
      "▁championship": 3951,
      "##era": 3952,
      "▁belong": 3953,
      "▁capac": 3954,
      "▁efforts": 3955,
      "▁fully": 3956,
      "▁truth": 3957,
      "▁initially": 3958,
      "▁composition": 3959,
      "▁perfect": 3960,
      "▁alf": 3961,
      "##oper": 3962,
      "▁exists": 3963,
      "▁organizations": 3964,
      "▁nic": 3965,
      "##aded": 3966,
      "▁traditionally": 3967,
      "▁extensive": 3968,
      "▁conv": 3969,
      "▁presence": 3970,
      "##inet": 3971,
      "▁plants": 3972,
      "▁equivalent": 3973,
      "▁provin": 3974,
      "##book": 3975,
      "▁illust": 3976,
      "▁chance": 3977,
      "##rees": 3978,
      "##agan": 3979,
      "##kes": 3980,
      "##gment": 3981,
      "▁argued": 3982,
      "▁austria": 3983,
      "▁reaction": 3984,
      "▁valley": 3985,
      "▁background": 3986,
      "▁holid": 3987,
      "▁frame": 3988,
      "▁encoura": 3989,
      "▁combat": 3990,
      "▁combined": 3991,
      "▁achieve": 3992,
      "▁alone": 3993,
      "▁serve": 3994,
      "▁occurs": 3995,
      "▁controlled": 3996,
      "▁hin": 3997,
      "▁proved": 3998,
      "▁audio": 3999,
      "▁hus": 4000,
      "▁neut": 4001,
      "▁student": 4002,
      "▁atm": 4003,
      "▁understanding": 4004,
      "##don": 4005,
      "▁aid": 4006,
      "▁situation": 4007,
      "##ex": 4008,
      "##nel": 4009,
      "##bed": 4010,
      "▁az": 4011,
      "▁fit": 4012,
      "▁ford": 4013,
      "▁cod": 4014,
      "##onian": 4015,
      "##rier": 4016,
      "▁differences": 4017,
      "▁nothing": 4018,
      "▁brand": 4019,
      "▁glass": 4020,
      "##ologist": 4021,
      "▁pu": 4022,
      "##ching": 4023,
      "##ulate": 4024,
      "##gra": 4025,
      "▁enj": 4026,
      "##iar": 4027,
      "##claim": 4028,
      "▁paralle": 4029,
      "##iform": 4030,
      "▁pc": 4031,
      "##anta": 4032,
      "▁meant": 4033,
      "▁solution": 4034,
      "##lection": 4035,
      "▁effective": 4036,
      "▁allowing": 4037,
      "▁seat": 4038,
      "▁limit": 4039,
      "▁mentioned": 4040,
      "▁replace": 4041,
      "▁expected": 4042,
      "▁device": 4043,
      "▁portugues": 4044,
      "▁fict": 4045,
      "▁secretary": 4046,
      "▁prin": 4047,
      "▁actions": 4048,
      "▁jacks": 4049,
      "##ava": 4050,
      "▁lincol": 4051,
      "▁debate": 4052,
      "##ensity": 4053,
      "▁classes": 4054,
      "▁lincoln": 4055,
      "##teen": 4056,
      "▁communities": 4057,
      "▁victory": 4058,
      "▁unknown": 4059,
      "##inations": 4060,
      "▁unp": 4061,
      "▁curren": 4062,
      "▁portuguese": 4063,
      "▁eg": 4064,
      "▁ko": 4065,
      "▁finland": 4066,
      "##ador": 4067,
      "▁chrom": 4068,
      "▁artists": 4069,
      "▁gained": 4070,
      "▁sport": 4071,
      "▁poll": 4072,
      "▁mere": 4073,
      "▁turk": 4074,
      "▁sort": 4075,
      "##cape": 4076,
      "▁recognized": 4077,
      "▁judaism": 4078,
      "▁oh": 4079,
      "▁cla": 4080,
      "▁batt": 4081,
      "▁entirely": 4082,
      "▁conference": 4083,
      "##anda": 4084,
      "▁ath": 4085,
      "▁teams": 4086,
      "▁connected": 4087,
      "▁ht": 4088,
      "▁laure": 4089,
      "▁environmental": 4090,
      "▁domestic": 4091,
      "▁carl": 4092,
      "▁dram": 4093,
      "▁prep": 4094,
      "▁writings": 4095,
      "▁politician": 4096,
      "▁begins": 4097,
      "▁ll": 4098,
      "▁gdp": 4099,
      "▁geomet": 4100,
      "▁completed": 4101,
      "▁drum": 4102,
      "▁vel": 4103,
      "▁ts": 4104,
      "▁otherwise": 4105,
      "▁wealth": 4106,
      "▁bulg": 4107,
      "##nam": 4108,
      "▁apol": 4109,
      "▁convers": 4110,
      "▁bishop": 4111,
      "▁bol": 4112,
      "▁asc": 4113,
      "▁ruled": 4114,
      "##vi": 4115,
      "▁copyr": 4116,
      "##mers": 4117,
      "##more": 4118,
      "▁sites": 4119,
      "▁cards": 4120,
      "▁fill": 4121,
      "▁datab": 4122,
      "##wan": 4123,
      "▁stor": 4124,
      "▁attract": 4125,
      "▁arms": 4126,
      "▁trial": 4127,
      "##ologists": 4128,
      "▁controversy": 4129,
      "▁earliest": 4130,
      "▁experiment": 4131,
      "##usalem": 4132,
      "▁containing": 4133,
      "▁attention": 4134,
      "▁suggested": 4135,
      "##ique": 4136,
      "▁workers": 4137,
      "▁output": 4138,
      "▁alcohol": 4139,
      "▁esc": 4140,
      "▁physic": 4141,
      "▁solid": 4142,
      "▁cycle": 4143,
      "▁sequence": 4144,
      "▁jerusalem": 4145,
      "▁penn": 4146,
      "▁hong": 4147,
      "▁leban": 4148,
      "▁temple": 4149,
      "▁principles": 4150,
      "▁anne": 4151,
      "▁han": 4152,
      "▁literary": 4153,
      "▁interview": 4154,
      "▁scientists": 4155,
      "▁reduced": 4156,
      "##wide": 4157,
      "▁hug": 4158,
      "▁americans": 4159,
      "▁officially": 4160,
      "▁figures": 4161,
      "##aven": 4162,
      "##ala": 4163,
      "▁popularity": 4164,
      "▁fighting": 4165,
      "▁prominent": 4166,
      "▁typical": 4167,
      "▁instruments": 4168,
      "▁cu": 4169,
      "▁scene": 4170,
      "##mun": 4171,
      "▁jackson": 4172,
      "##hold": 4173,
      "▁argent": 4174,
      "▁winning": 4175,
      "##igan": 4176,
      "▁structures": 4177,
      "▁increasingly": 4178,
      "##actions": 4179,
      "▁entry": 4180,
      "▁requires": 4181,
      "##igration": 4182,
      "▁intellect": 4183,
      "▁liqu": 4184,
      "▁israeli": 4185,
      "▁cond": 4186,
      "##acher": 4187,
      "▁statement": 4188,
      "##ota": 4189,
      "▁sax": 4190,
      "▁avoid": 4191,
      "##ns": 4192,
      "▁says": 4193,
      "▁algorithm": 4194,
      "▁jazz": 4195,
      "▁daily": 4196,
      "▁moment": 4197,
      "▁bott": 4198,
      "▁lives": 4199,
      "▁barb": 4200,
      "▁frequency": 4201,
      "▁flat": 4202,
      "▁images": 4203,
      "▁buddh": 4204,
      "##ded": 4205,
      "##iders": 4206,
      "▁exc": 4207,
      "▁satell": 4208,
      "▁specifically": 4209,
      "▁zealand": 4210,
      "▁discussion": 4211,
      "▁split": 4212,
      "▁atlantic": 4213,
      "##itable": 4214,
      "▁gib": 4215,
      "##ception": 4216,
      "▁confeder": 4217,
      "▁domain": 4218,
      "▁texas": 4219,
      "▁adult": 4220,
      "▁expansion": 4221,
      "##rim": 4222,
      "##inger": 4223,
      "▁mountains": 4224,
      "##ione": 4225,
      "▁harv": 4226,
      "▁dynasty": 4227,
      "▁ft": 4228,
      "##unt": 4229,
      "▁jones": 4230,
      "▁genetic": 4231,
      "▁price": 4232,
      "▁depending": 4233,
      "▁senate": 4234,
      "▁description": 4235,
      "▁importance": 4236,
      "▁georg": 4237,
      "▁criticism": 4238,
      "▁pray": 4239,
      "▁las": 4240,
      "▁severe": 4241,
      "▁gosp": 4242,
      "▁elev": 4243,
      "▁wave": 4244,
      "▁lear": 4245,
      "▁qual": 4246,
      "▁destroyed": 4247,
      "▁inspired": 4248,
      "▁opin": 4249,
      "▁staff": 4250,
      "▁sweden": 4251,
      "##iro": 4252,
      "▁lun": 4253,
      "▁analog": 4254,
      "##abor": 4255,
      "▁closed": 4256,
      "▁boston": 4257,
      "▁invasion": 4258,
      "▁entered": 4259,
      "▁devices": 4260,
      "▁closely": 4261,
      "▁anthrop": 4262,
      "##light": 4263,
      "▁texts": 4264,
      "##works": 4265,
      "▁hydrogen": 4266,
      "▁fru": 4267,
      "▁pp": 4268,
      "▁bush": 4269,
      "▁mythology": 4270,
      "▁wid": 4271,
      "##iced": 4272,
      "▁toward": 4273,
      "▁dimens": 4274,
      "##arc": 4275,
      "▁hur": 4276,
      "▁beaut": 4277,
      "▁diplom": 4278,
      "▁removed": 4279,
      "▁afghanistan": 4280,
      "##atically": 4281,
      "▁marked": 4282,
      "▁bern": 4283,
      "▁killing": 4284,
      "▁corporation": 4285,
      "▁juris": 4286,
      "▁fu": 4287,
      "##orter": 4288,
      "▁conscious": 4289,
      "▁apollo": 4290,
      "▁ages": 4291,
      "▁cha": 4292,
      "##ogen": 4293,
      "▁helped": 4294,
      "##dr": 4295,
      "▁runs": 4296,
      "▁quantum": 4297,
      "▁recip": 4298,
      "▁infant": 4299,
      "▁hence": 4300,
      "▁slightly": 4301,
      "▁presidential": 4302,
      "▁wikip": 4303,
      "▁fixed": 4304,
      "▁flor": 4305,
      "▁judge": 4306,
      "▁attempted": 4307,
      "▁plays": 4308,
      "▁kept": 4309,
      "▁asked": 4310,
      "▁dictionary": 4311,
      "##icate": 4312,
      "▁agreed": 4313,
      "▁connection": 4314,
      "##gs": 4315,
      "▁cooper": 4316,
      "▁republican": 4317,
      "▁determined": 4318,
      "##war": 4319,
      "##ening": 4320,
      "##ansas": 4321,
      "##itan": 4322,
      "▁proced": 4323,
      "##ested": 4324,
      "##rence": 4325,
      "▁dynam": 4326,
      "▁protestant": 4327,
      "▁lee": 4328,
      "▁phase": 4329,
      "▁communications": 4330,
      "▁traditions": 4331,
      "▁buildings": 4332,
      "▁absol": 4333,
      "▁copyright": 4334,
      "##ounder": 4335,
      "▁controversial": 4336,
      "▁lithu": 4337,
      "▁luther": 4338,
      "▁none": 4339,
      "▁existing": 4340,
      "▁substant": 4341,
      "▁wis": 4342,
      "▁violence": 4343,
      "▁authors": 4344,
      "▁concert": 4345,
      "▁spiritual": 4346,
      "##erved": 4347,
      "▁purs": 4348,
      "▁marsh": 4349,
      "##ancy": 4350,
      "▁formation": 4351,
      "##hamm": 4352,
      "▁cant": 4353,
      "▁twenty": 4354,
      "▁thousands": 4355,
      "▁din": 4356,
      "▁resulted": 4357,
      "▁merc": 4358,
      "▁agriculture": 4359,
      "##ih": 4360,
      "▁crus": 4361,
      "▁movies": 4362,
      "▁ol": 4363,
      "##vere": 4364,
      "▁occurred": 4365,
      "▁offered": 4366,
      "##band": 4367,
      "▁weak": 4368,
      "▁discovery": 4369,
      "▁estimated": 4370,
      "▁heavily": 4371,
      "▁mir": 4372,
      "▁zone": 4373,
      "▁comics": 4374,
      "▁moral": 4375,
      "▁cryst": 4376,
      "##iny": 4377,
      "▁argue": 4378,
      "##zech": 4379,
      "##onym": 4380,
      "▁aspects": 4381,
      "▁cosm": 4382,
      "▁ancest": 4383,
      "▁damage": 4384,
      "▁governments": 4385,
      "▁austrian": 4386,
      "▁crime": 4387,
      "##rugg": 4388,
      "▁leadership": 4389,
      "▁ibm": 4390,
      "▁chair": 4391,
      "##orders": 4392,
      "##osphere": 4393,
      "##iana": 4394,
      "▁eliz": 4395,
      "▁factors": 4396,
      "▁caes": 4397,
      "▁combination": 4398,
      "##cules": 4399,
      "▁ram": 4400,
      "▁shall": 4401,
      "▁room": 4402,
      "▁advantage": 4403,
      "▁forward": 4404,
      "▁manner": 4405,
      "##active": 4406,
      "▁novels": 4407,
      "▁fictional": 4408,
      "##aming": 4409,
      "▁disk": 4410,
      "▁affairs": 4411,
      "##inn": 4412,
      "▁viet": 4413,
      "▁mail": 4414,
      "▁effort": 4415,
      "▁doctrine": 4416,
      "▁cars": 4417,
      "▁stal": 4418,
      "##box": 4419,
      "▁crick": 4420,
      "▁stay": 4421,
      "##andon": 4422,
      "▁hungary": 4423,
      "##arm": 4424,
      "▁category": 4425,
      "▁strugg": 4426,
      "▁withd": 4427,
      "▁coord": 4428,
      "▁holds": 4429,
      "▁maced": 4430,
      "▁soldiers": 4431,
      "▁leaving": 4432,
      "▁imag": 4433,
      "▁opened": 4434,
      "▁czech": 4435,
      "▁reports": 4436,
      "▁census": 4437,
      "▁reach": 4438,
      "##ropri": 4439,
      "▁territories": 4440,
      "▁ru": 4441,
      "▁cool": 4442,
      "▁situ": 4443,
      "##vant": 4444,
      "▁towns": 4445,
      "##ault": 4446,
      "▁schem": 4447,
      "▁formula": 4448,
      "##via": 4449,
      "▁abst": 4450,
      "▁reality": 4451,
      "▁theorem": 4452,
      "##kins": 4453,
      "▁pak": 4454,
      "##omorph": 4455,
      "▁desert": 4456,
      "▁manif": 4457,
      "▁origins": 4458,
      "▁gods": 4459,
      "▁anton": 4460,
      "▁factor": 4461,
      "▁annual": 4462,
      "▁defeated": 4463,
      "▁tan": 4464,
      "##bal": 4465,
      "▁lew": 4466,
      "▁maintain": 4467,
      "▁picture": 4468,
      "▁told": 4469,
      "▁chos": 4470,
      "▁concepts": 4471,
      "▁constitutional": 4472,
      "▁strip": 4473,
      "▁permanent": 4474,
      "▁core": 4475,
      "▁teleph": 4476,
      "▁democracy": 4477,
      "▁explos": 4478,
      "▁nazi": 4479,
      "##orters": 4480,
      "##roll": 4481,
      "▁professor": 4482,
      "##ato": 4483,
      "▁jord": 4484,
      "▁abandon": 4485,
      "▁protocol": 4486,
      "▁topics": 4487,
      "▁testament": 4488,
      "▁tried": 4489,
      "▁wikipedia": 4490,
      "##las": 4491,
      "▁fried": 4492,
      "##ado": 4493,
      "▁exclus": 4494,
      "##quar": 4495,
      "▁christmas": 4496,
      "##ella": 4497,
      "▁ray": 4498,
      "▁evil": 4499,
      "▁communication": 4500,
      "▁enjoy": 4501,
      "##iber": 4502,
      "▁vac": 4503,
      "▁owners": 4504,
      "▁statistics": 4505,
      "▁presented": 4506,
      "▁subsequent": 4507,
      "##uts": 4508,
      "▁spent": 4509,
      "▁opening": 4510,
      "▁normally": 4511,
      "▁ash": 4512,
      "▁beliefs": 4513,
      "▁supply": 4514,
      "▁sky": 4515,
      "▁identified": 4516,
      "▁false": 4517,
      "▁risk": 4518,
      "▁inhabit": 4519,
      "▁bact": 4520,
      "▁ger": 4521,
      "▁continues": 4522,
      "▁grew": 4523,
      "▁details": 4524,
      "▁columbia": 4525,
      "▁clock": 4526,
      "▁defeat": 4527,
      "▁shap": 4528,
      "▁actors": 4529,
      "▁drink": 4530,
      "▁goods": 4531,
      "▁institutions": 4532,
      "▁negot": 4533,
      "▁alexand": 4534,
      "▁currency": 4535,
      "▁wanted": 4536,
      "▁parad": 4537,
      "▁hardware": 4538,
      "▁expression": 4539,
      "▁pronounced": 4540,
      "▁learning": 4541,
      "##heast": 4542,
      "▁thing": 4543,
      "##ctors": 4544,
      "##imb": 4545,
      "▁spect": 4546,
      "##ifying": 4547,
      "▁administrative": 4548,
      "▁kl": 4549,
      "▁creating": 4550,
      "▁iran": 4551,
      "▁involve": 4552,
      "##iations": 4553,
      "▁kur": 4554,
      "▁arist": 4555,
      "▁leave": 4556,
      "▁lists": 4557,
      "▁indo": 4558,
      "▁subsequently": 4559,
      "##bury": 4560,
      "▁hypot": 4561,
      "▁plot": 4562,
      "▁goes": 4563,
      "##cons": 4564,
      "▁vice": 4565,
      "▁forum": 4566,
      "▁heaven": 4567,
      "▁match": 4568,
      "▁semi": 4569,
      "##ocks": 4570,
      "▁decades": 4571,
      "▁processes": 4572,
      "▁bodies": 4573,
      "▁machines": 4574,
      "▁expressed": 4575,
      "▁message": 4576,
      "▁linux": 4577,
      "##ket": 4578,
      "▁dv": 4579,
      "▁goth": 4580,
      "▁tribes": 4581,
      "▁meeting": 4582,
      "▁sides": 4583,
      "##icial": 4584,
      "##igen": 4585,
      "▁commod": 4586,
      "▁organized": 4587,
      "▁hyper": 4588,
      "▁movements": 4589,
      "▁angeles": 4590,
      "▁fash": 4591,
      "▁bil": 4592,
      "▁pages": 4593,
      "▁dry": 4594,
      "##oud": 4595,
      "▁fantasy": 4596,
      "##zo": 4597,
      "▁stad": 4598,
      "▁ka": 4599,
      "▁veget": 4600,
      "▁founder": 4601,
      "▁editor": 4602,
      "▁cultures": 4603,
      "▁eye": 4604,
      "▁roughly": 4605,
      "##iary": 4606,
      "▁proof": 4607,
      "##anding": 4608,
      "##ologies": 4609,
      "##icks": 4610,
      "▁pros": 4611,
      "▁interpretation": 4612,
      "▁alleged": 4613,
      "▁nas": 4614,
      "▁arc": 4615,
      "▁sacr": 4616,
      "##isf": 4617,
      "▁mode": 4618,
      "▁piece": 4619,
      "▁vast": 4620,
      "##agn": 4621,
      "▁historians": 4622,
      "##car": 4623,
      "▁sle": 4624,
      "▁hay": 4625,
      "▁gain": 4626,
      "▁orbit": 4627,
      "##abeth": 4628,
      "##oren": 4629,
      "▁questions": 4630,
      "▁policies": 4631,
      "##eland": 4632,
      "▁canon": 4633,
      "▁intellectual": 4634,
      "▁absolute": 4635,
      "▁fame": 4636,
      "▁input": 4637,
      "##zy": 4638,
      "▁jpg": 4639,
      "▁server": 4640,
      "▁positions": 4641,
      "▁mort": 4642,
      "▁len": 4643,
      "▁steel": 4644,
      "##ograp": 4645,
      "▁ari": 4646,
      "##rey": 4647,
      "##uses": 4648,
      "##stream": 4649,
      "▁confir": 4650,
      "▁swedish": 4651,
      "▁parallel": 4652,
      "▁chosen": 4653,
      "▁sty": 4654,
      "▁crypt": 4655,
      "##oty": 4656,
      "▁observed": 4657,
      "▁bru": 4658,
      "##opp": 4659,
      "▁atoms": 4660,
      "▁raised": 4661,
      "▁philosopher": 4662,
      "▁kilomet": 4663,
      "▁formerly": 4664,
      "▁susp": 4665,
      "▁astronom": 4666,
      "▁extin": 4667,
      "▁elim": 4668,
      "▁shortly": 4669,
      "▁receive": 4670,
      "▁brothers": 4671,
      "▁resistance": 4672,
      "▁database": 4673,
      "▁pakistan": 4674,
      "##ano": 4675,
      "▁shape": 4676,
      "▁plane": 4677,
      "▁crew": 4678,
      "▁translated": 4679,
      "▁chapter": 4680,
      "▁tower": 4681,
      "▁bear": 4682,
      "##ety": 4683,
      "▁parents": 4684,
      "▁analy": 4685,
      "▁files": 4686,
      "▁extent": 4687,
      "▁archae": 4688,
      "▁tub": 4689,
      "▁sud": 4690,
      "▁considerable": 4691,
      "▁mobile": 4692,
      "▁want": 4693,
      "▁strict": 4694,
      "▁regarding": 4695,
      "▁captain": 4696,
      "##rid": 4697,
      "▁clar": 4698,
      "▁greatly": 4699,
      "▁studied": 4700,
      "▁sister": 4701,
      "▁rum": 4702,
      "▁proceed": 4703,
      "▁marg": 4704,
      "▁ion": 4705,
      "▁transportation": 4706,
      "▁sab": 4707,
      "▁rub": 4708,
      "▁genes": 4709,
      "▁mcc": 4710,
      "▁blues": 4711,
      "▁equation": 4712,
      "▁railway": 4713,
      "##ees": 4714,
      "▁bos": 4715,
      "▁persian": 4716,
      "▁characteristics": 4717,
      "▁municip": 4718,
      "▁proport": 4719,
      "##ache": 4720,
      "##stone": 4721,
      "▁plate": 4722,
      "▁needs": 4723,
      "▁failure": 4724,
      "##oral": 4725,
      "##cont": 4726,
      "▁courts": 4727,
      "▁ordered": 4728,
      "▁chemistry": 4729,
      "▁revolutionary": 4730,
      "▁sovere": 4731,
      "▁respectively": 4732,
      "▁sovereign": 4733,
      "##greg": 4734,
      "▁adapt": 4735,
      "▁johnson": 4736,
      "▁economics": 4737,
      "▁cow": 4738,
      "▁eld": 4739,
      "▁rates": 4740,
      "▁suff": 4741,
      "▁owned": 4742,
      "▁bang": 4743,
      "##unc": 4744,
      "▁asian": 4745,
      "▁cris": 4746,
      "▁projects": 4747,
      "▁femin": 4748,
      "▁philosophical": 4749,
      "##house": 4750,
      "▁peoples": 4751,
      "▁straight": 4752,
      "##olis": 4753,
      "▁chain": 4754,
      "▁minutes": 4755,
      "▁divine": 4756,
      "▁rivers": 4757,
      "▁symbols": 4758,
      "▁jacob": 4759,
      "▁fro": 4760,
      "##char": 4761,
      "▁settlement": 4762,
      "▁fashion": 4763,
      "▁wides": 4764,
      "##iring": 4765,
      "##fully": 4766,
      "▁practical": 4767,
      "▁criminal": 4768,
      "▁mes": 4769,
      "▁hosp": 4770,
      "▁exhib": 4771,
      "▁relation": 4772,
      "##lywood": 4773,
      "▁accur": 4774,
      "##etics": 4775,
      "##umin": 4776,
      "▁medium": 4777,
      "▁covered": 4778,
      "▁seats": 4779,
      "▁neither": 4780,
      "▁supposed": 4781,
      "▁awarded": 4782,
      "▁launched": 4783,
      "##inity": 4784,
      "##rel": 4785,
      "##iger": 4786,
      "▁reven": 4787,
      "##inton": 4788,
      "▁finn": 4789,
      "▁representation": 4790,
      "▁chronic": 4791,
      "##cts": 4792,
      "▁carol": 4793,
      "▁solar": 4794,
      "▁naval": 4795,
      "▁hindu": 4796,
      "▁sail": 4797,
      "▁crow": 4798,
      "▁refused": 4799,
      "##gar": 4800,
      "▁cm": 4801,
      "▁feat": 4802,
      "▁cine": 4803,
      "▁andrew": 4804,
      "▁easy": 4805,
      "▁ah": 4806,
      "▁mist": 4807,
      "▁compr": 4808,
      "▁whereas": 4809,
      "▁concer": 4810,
      "▁wales": 4811,
      "▁narrow": 4812,
      "▁tenn": 4813,
      "▁ends": 4814,
      "▁harm": 4815,
      "▁describes": 4816,
      "▁deriv": 4817,
      "##cop": 4818,
      "▁doug": 4819,
      "##lem": 4820,
      "▁install": 4821,
      "▁principal": 4822,
      "##itzer": 4823,
      "##ceived": 4824,
      "##osl": 4825,
      "▁arrest": 4826,
      "▁harmon": 4827,
      "▁korea": 4828,
      "▁defend": 4829,
      "▁satellite": 4830,
      "▁dj": 4831,
      "▁darwin": 4832,
      "▁jordan": 4833,
      "▁fasc": 4834,
      "▁bann": 4835,
      "▁mental": 4836,
      "▁phon": 4837,
      "▁academic": 4838,
      "▁noun": 4839,
      "▁coming": 4840,
      "▁indones": 4841,
      "▁mah": 4842,
      "▁comedy": 4843,
      "▁sufficient": 4844,
      "▁multi": 4845,
      "▁battles": 4846,
      "▁electro": 4847,
      "▁myster": 4848,
      "▁processing": 4849,
      "▁mixed": 4850,
      "▁drugs": 4851,
      "▁pieces": 4852,
      "▁jurisd": 4853,
      "▁label": 4854,
      "▁ille": 4855,
      "▁felt": 4856,
      "▁strength": 4857,
      "▁cou": 4858,
      "▁ken": 4859,
      "▁producer": 4860,
      "▁purposes": 4861,
      "▁occasionally": 4862,
      "▁storage": 4863,
      "##akh": 4864,
      "##clusion": 4865,
      "▁register": 4866,
      "▁snow": 4867,
      "▁mathb": 4868,
      "▁ein": 4869,
      "▁unc": 4870,
      "##ompan": 4871,
      "##oman": 4872,
      "##utation": 4873,
      "▁leon": 4874,
      "▁anything": 4875,
      "##isher": 4876,
      "▁bron": 4877,
      "▁newton": 4878,
      "▁victim": 4879,
      "▁occupied": 4880,
      "▁repeated": 4881,
      "▁patri": 4882,
      "##uous": 4883,
      "▁index": 4884,
      "▁electrical": 4885,
      "▁accompan": 4886,
      "▁saying": 4887,
      "▁interpre": 4888,
      "▁pictures": 4889,
      "▁binary": 4890,
      "▁dict": 4891,
      "▁plans": 4892,
      "##ipped": 4893,
      "▁enemy": 4894,
      "▁isol": 4895,
      "▁transition": 4896,
      "▁inhabitants": 4897,
      "▁bw": 4898,
      "▁radical": 4899,
      "▁explor": 4900,
      "▁village": 4901,
      "▁rational": 4902,
      "##osexual": 4903,
      "▁granted": 4904,
      "▁persons": 4905,
      "▁layer": 4906,
      "##oured": 4907,
      "▁huge": 4908,
      "▁lot": 4909,
      "▁scand": 4910,
      "▁degrees": 4911,
      "▁fifth": 4912,
      "▁dialects": 4913,
      "##iat": 4914,
      "▁bure": 4915,
      "▁grant": 4916,
      "▁michigan": 4917,
      "▁challen": 4918,
      "▁weeks": 4919,
      "▁speakers": 4920,
      "##pread": 4921,
      "▁sector": 4922,
      "▁ie": 4923,
      "▁artific": 4924,
      "▁descend": 4925,
      "▁magnetic": 4926,
      "▁selected": 4927,
      "▁festival": 4928,
      "▁widespread": 4929,
      "▁gay": 4930,
      "▁cav": 4931,
      "##ena": 4932,
      "▁pian": 4933,
      "##ette": 4934,
      "▁alliance": 4935,
      "▁joint": 4936,
      "▁commonwe": 4937,
      "##itarian": 4938,
      "▁train": 4939,
      "▁apost": 4940,
      "▁babyl": 4941,
      "##gu": 4942,
      "##aling": 4943,
      "▁unus": 4944,
      "##ogue": 4945,
      "▁peak": 4946,
      "▁legislative": 4947,
      "▁commonwealth": 4948,
      "▁density": 4949,
      "▁kg": 4950,
      "##ras": 4951,
      "##order": 4952,
      "▁influential": 4953,
      "▁affect": 4954,
      "▁determine": 4955,
      "▁platform": 4956,
      "▁someone": 4957,
      "▁freder": 4958,
      "▁sword": 4959,
      "▁similarly": 4960,
      "▁hitler": 4961,
      "▁achieved": 4962,
      "▁traffic": 4963,
      "▁particles": 4964,
      "▁visual": 4965,
      "▁random": 4966,
      "##tes": 4967,
      "##ading": 4968,
      "▁isa": 4969,
      "▁column": 4970,
      "▁dispute": 4971,
      "▁elizabeth": 4972,
      "##ped": 4973,
      "##gi": 4974,
      "▁ine": 4975,
      "▁teach": 4976,
      "▁supporters": 4977,
      "▁entertain": 4978,
      "▁homosexual": 4979,
      "▁newspaper": 4980,
      "▁advert": 4981,
      "▁explan": 4982,
      "##tery": 4983,
      "##ellow": 4984,
      "▁salv": 4985,
      "▁awards": 4986,
      "▁om": 4987,
      "▁sevent": 4988,
      "▁houses": 4989,
      "##lers": 4990,
      "##ani": 4991,
      "▁hoc": 4992,
      "▁deliver": 4993,
      "▁gospel": 4994,
      "▁hat": 4995,
      "▁hour": 4996,
      "▁gulf": 4997,
      "▁teaching": 4998,
      "▁worldwide": 4999,
      "▁orders": 5000,
      "##agon": 5001,
      "##avia": 5002,
      "▁diet": 5003,
      "▁fear": 5004,
      "▁transm": 5005,
      "▁titles": 5006,
      "▁manufactur": 5007,
      "▁hungarian": 5008,
      "▁apparently": 5009,
      "##thy": 5010,
      "##sey": 5011,
      "▁imposs": 5012,
      "▁detect": 5013,
      "▁ideal": 5014,
      "▁ow": 5015,
      "▁fine": 5016,
      "▁clearly": 5017,
      "##cers": 5018,
      "▁universities": 5019,
      "▁electricity": 5020,
      "▁infinite": 5021,
      "##icide": 5022,
      "▁jon": 5023,
      "▁chart": 5024,
      "▁exerc": 5025,
      "▁serb": 5026,
      "▁providing": 5027,
      "▁colonial": 5028,
      "▁weapon": 5029,
      "▁suffered": 5030,
      "▁publication": 5031,
      "▁appropri": 5032,
      "##uro": 5033,
      "▁adam": 5034,
      "▁marine": 5035,
      "▁circle": 5036,
      "▁check": 5037,
      "▁crisis": 5038,
      "##rete": 5039,
      "▁conson": 5040,
      "▁doing": 5041,
      "▁interface": 5042,
      "▁strateg": 5043,
      "▁issued": 5044,
      "##yan": 5045,
      "##zant": 5046,
      "▁nfl": 5047,
      "##iment": 5048,
      "▁hair": 5049,
      "▁root": 5050,
      "▁agricultural": 5051,
      "▁dor": 5052,
      "▁store": 5053,
      "▁kent": 5054,
      "▁bed": 5055,
      "▁recomm": 5056,
      "▁denmark": 5057,
      "##theless": 5058,
      "▁liquid": 5059,
      "##fc": 5060,
      "▁contained": 5061,
      "▁opportun": 5062,
      "▁ultimately": 5063,
      "▁fres": 5064,
      "▁throne": 5065,
      "▁nevertheless": 5066,
      "▁kir": 5067,
      "▁prohib": 5068,
      "▁plus": 5069,
      "▁setting": 5070,
      "▁cable": 5071,
      "##idden": 5072,
      "▁byzant": 5073,
      "▁commander": 5074,
      "▁standing": 5075,
      "▁oldest": 5076,
      "▁fox": 5077,
      "▁danish": 5078,
      "##raction": 5079,
      "▁jr": 5080,
      "##iants": 5081,
      "▁safety": 5082,
      "▁surrounding": 5083,
      "▁tel": 5084,
      "▁scen": 5085,
      "▁celtic": 5086,
      "##eless": 5087,
      "▁uniform": 5088,
      "▁param": 5089,
      "▁measures": 5090,
      "▁maximum": 5091,
      "##mes": 5092,
      "▁pi": 5093,
      "▁practices": 5094,
      "▁hundred": 5095,
      "▁pione": 5096,
      "▁showing": 5097,
      "##iable": 5098,
      "##ng": 5099,
      "▁maps": 5100,
      "##rain": 5101,
      "▁recording": 5102,
      "##road": 5103,
      "▁athe": 5104,
      "##acing": 5105,
      "▁exception": 5106,
      "▁daniel": 5107,
      "▁sons": 5108,
      "##eros": 5109,
      "▁termin": 5110,
      "▁distinction": 5111,
      "▁atomic": 5112,
      "▁lies": 5113,
      "▁lyn": 5114,
      "##lete": 5115,
      "▁advance": 5116,
      "##uration": 5117,
      "▁abd": 5118,
      "▁valid": 5119,
      "##enh": 5120,
      "##ez": 5121,
      "▁everything": 5122,
      "▁reduce": 5123,
      "▁bottom": 5124,
      "##tion": 5125,
      "▁genre": 5126,
      "▁linked": 5127,
      "▁secondary": 5128,
      "##hr": 5129,
      "▁sar": 5130,
      "▁pruss": 5131,
      "▁ministers": 5132,
      "▁virginia": 5133,
      "▁mong": 5134,
      "##urally": 5135,
      "▁mechanics": 5136,
      "##lig": 5137,
      "▁rose": 5138,
      "▁producing": 5139,
      "▁taught": 5140,
      "▁emerg": 5141,
      "▁precise": 5142,
      "▁license": 5143,
      "▁neighbor": 5144,
      "▁enfor": 5145,
      "▁shared": 5146,
      "▁engines": 5147,
      "##chester": 5148,
      "▁fleet": 5149,
      "▁bwv": 5150,
      "▁sought": 5151,
      "▁castle": 5152,
      "▁kid": 5153,
      "▁agency": 5154,
      "▁charl": 5155,
      "▁religions": 5156,
      "▁historic": 5157,
      "▁strongly": 5158,
      "▁accounts": 5159,
      "##cription": 5160,
      "▁opposite": 5161,
      "▁tact": 5162,
      "▁manager": 5163,
      "▁capable": 5164,
      "▁palace": 5165,
      "▁absor": 5166,
      "▁egyptian": 5167,
      "▁hind": 5168,
      "▁resolution": 5169,
      "▁constructed": 5170,
      "##rec": 5171,
      "▁bac": 5172,
      "▁ms": 5173,
      "##vis": 5174,
      "▁unable": 5175,
      "▁guine": 5176,
      "▁shell": 5177,
      "▁oxy": 5178,
      "▁classification": 5179,
      "▁philip": 5180,
      "▁showed": 5181,
      "▁angl": 5182,
      "##inois": 5183,
      "▁muslims": 5184,
      "▁stadium": 5185,
      "▁components": 5186,
      "▁massive": 5187,
      "▁chamber": 5188,
      "##iop": 5189,
      "▁ped": 5190,
      "▁rein": 5191,
      "▁sciences": 5192,
      "▁ending": 5193,
      "▁radiation": 5194,
      "▁molecules": 5195,
      "▁arrange": 5196,
      "▁bes": 5197,
      "▁pul": 5198,
      "▁arbit": 5199,
      "▁feed": 5200,
      "▁historically": 5201,
      "▁continuous": 5202,
      "▁permit": 5203,
      "▁caesar": 5204,
      "##iga": 5205,
      "▁uss": 5206,
      "▁stephen": 5207,
      "▁detailed": 5208,
      "▁phrase": 5209,
      "##uing": 5210,
      "##angel": 5211,
      "▁consp": 5212,
      "▁magic": 5213,
      "▁biology": 5214,
      "▁sad": 5215,
      "▁involves": 5216,
      "##sen": 5217,
      "▁mamm": 5218,
      "▁represents": 5219,
      "▁invented": 5220,
      "▁therm": 5221,
      "▁computing": 5222,
      "▁circuit": 5223,
      "##enses": 5224,
      "▁suppl": 5225,
      "▁expanded": 5226,
      "▁jeff": 5227,
      "▁silver": 5228,
      "▁lady": 5229,
      "▁cerem": 5230,
      "▁girl": 5231,
      "##urb": 5232,
      "▁rarely": 5233,
      "▁rejected": 5234,
      "##ares": 5235,
      "▁conclud": 5236,
      "▁abol": 5237,
      "▁metaph": 5238,
      "▁civilization": 5239,
      "▁declar": 5240,
      "▁succeeded": 5241,
      "▁lewis": 5242,
      "##oven": 5243,
      "##ja": 5244,
      "▁tools": 5245,
      "▁revol": 5246,
      "▁biological": 5247,
      "▁interesting": 5248,
      "▁illinois": 5249,
      "▁alpha": 5250,
      "▁theatre": 5251,
      "▁capacity": 5252,
      "▁godd": 5253,
      "▁impossible": 5254,
      "##onds": 5255,
      "▁dates": 5256,
      "##etary": 5257,
      "▁render": 5258,
      "▁planned": 5259,
      "##ements": 5260,
      "##ession": 5261,
      "▁destruction": 5262,
      "▁documents": 5263,
      "▁ale": 5264,
      "##inth": 5265,
      "##icon": 5266,
      "▁emot": 5267,
      "▁networks": 5268,
      "##iled": 5269,
      "▁yellow": 5270,
      "▁indicate": 5271,
      "▁francisco": 5272,
      "▁molecular": 5273,
      "▁provinces": 5274,
      "▁kab": 5275,
      "▁chile": 5276,
      "▁job": 5277,
      "▁galax": 5278,
      "▁ratio": 5279,
      "▁wrong": 5280,
      "##itled": 5281,
      "▁germ": 5282,
      "▁paid": 5283,
      "▁route": 5284,
      "##amin": 5285,
      "▁edge": 5286,
      "▁hollywood": 5287,
      "▁superior": 5288,
      "▁trees": 5289,
      "##oly": 5290,
      "▁dual": 5291,
      "▁decre": 5292,
      "▁budget": 5293,
      "▁safe": 5294,
      "▁mol": 5295,
      "##kh": 5296,
      "▁societies": 5297,
      "▁visit": 5298,
      "##rations": 5299,
      "▁theme": 5300,
      "▁belg": 5301,
      "▁continental": 5302,
      "▁synd": 5303,
      "▁essentially": 5304,
      "##iti": 5305,
      "▁managed": 5306,
      "▁johann": 5307,
      "▁prophe": 5308,
      "▁witness": 5309,
      "▁dism": 5310,
      "▁turkey": 5311,
      "##set": 5312,
      "▁pd": 5313,
      "##chest": 5314,
      "▁poetry": 5315,
      "▁settled": 5316,
      "▁indu": 5317,
      "▁gor": 5318,
      "▁auton": 5319,
      "▁harvard": 5320,
      "▁dream": 5321,
      "##achus": 5322,
      "▁viewed": 5323,
      "▁institution": 5324,
      "▁ali": 5325,
      "▁hem": 5326,
      "▁portra": 5327,
      "▁merely": 5328,
      "▁fly": 5329,
      "▁kaz": 5330,
      "▁authorities": 5331,
      "▁ske": 5332,
      "▁stran": 5333,
      "▁captured": 5334,
      "▁investment": 5335,
      "▁turkish": 5336,
      "▁plain": 5337,
      "▁html": 5338,
      "##ictions": 5339,
      "▁studio": 5340,
      "▁vector": 5341,
      "▁understood": 5342,
      "##wal": 5343,
      "▁developing": 5344,
      "▁fought": 5345,
      "▁twel": 5346,
      "▁depression": 5347,
      "▁colonies": 5348,
      "▁induct": 5349,
      "▁exports": 5350,
      "▁candidate": 5351,
      "▁assert": 5352,
      "▁exactly": 5353,
      "▁refuge": 5354,
      "▁interests": 5355,
      "▁portion": 5356,
      "▁visible": 5357,
      "▁assumed": 5358,
      "▁coalition": 5359,
      "##ois": 5360,
      "▁dub": 5361,
      "▁croat": 5362,
      "##dy": 5363,
      "▁orchest": 5364,
      "▁comed": 5365,
      "▁bag": 5366,
      "▁iso": 5367,
      "▁jers": 5368,
      "##ek": 5369,
      "##ivers": 5370,
      "##hy": 5371,
      "▁really": 5372,
      "▁publishing": 5373,
      "▁surpr": 5374,
      "▁lebanon": 5375,
      "▁oxygen": 5376,
      "▁cogn": 5377,
      "▁strate": 5378,
      "▁directory": 5379,
      "▁explicit": 5380,
      "▁trust": 5381,
      "▁cycl": 5382,
      "▁bom": 5383,
      "▁twelve": 5384,
      "##time": 5385,
      "▁sie": 5386,
      "▁dc": 5387,
      "▁abra": 5388,
      "▁dedicated": 5389,
      "▁stalin": 5390,
      "▁demand": 5391,
      "▁youth": 5392,
      "▁significantly": 5393,
      "▁artificial": 5394,
      "▁aw": 5395,
      "##heim": 5396,
      "▁java": 5397,
      "▁clinton": 5398,
      "##rat": 5399,
      "▁ss": 5400,
      "▁eug": 5401,
      "##ante": 5402,
      "▁soul": 5403,
      "▁penal": 5404,
      "##pa": 5405,
      "##town": 5406,
      "▁nit": 5407,
      "▁sole": 5408,
      "▁calvin": 5409,
      "▁admir": 5410,
      "▁pin": 5411,
      "▁priest": 5412,
      "▁obtained": 5413,
      "▁florida": 5414,
      "▁strategy": 5415,
      "▁height": 5416,
      "▁score": 5417,
      "▁equations": 5418,
      "▁thousand": 5419,
      "▁alfred": 5420,
      "▁horn": 5421,
      "▁bright": 5422,
      "▁germanic": 5423,
      "▁variations": 5424,
      "▁hub": 5425,
      "##ructions": 5426,
      "▁liver": 5427,
      "▁drawn": 5428,
      "▁tu": 5429,
      "##real": 5430,
      "▁eat": 5431,
      "▁overall": 5432,
      "▁maur": 5433,
      "▁obv": 5434,
      "▁sla": 5435,
      "▁designs": 5436,
      "▁lect": 5437,
      "▁metrop": 5438,
      "▁finite": 5439,
      "▁switch": 5440,
      "##iology": 5441,
      "▁tall": 5442,
      "▁eyes": 5443,
      "▁hu": 5444,
      "##etts": 5445,
      "▁instruction": 5446,
      "▁socialist": 5447,
      "##unk": 5448,
      "▁extens": 5449,
      "▁mechanical": 5450,
      "▁arrived": 5451,
      "▁representatives": 5452,
      "▁talk": 5453,
      "▁dominant": 5454,
      "▁goddess": 5455,
      "▁dol": 5456,
      "▁items": 5457,
      "##dule": 5458,
      "▁logical": 5459,
      "▁encoun": 5460,
      "▁maintained": 5461,
      "▁cia": 5462,
      "##ito": 5463,
      "▁virtual": 5464,
      "▁philosophers": 5465,
      "##rix": 5466,
      "▁ches": 5467,
      "▁bind": 5468,
      "▁compat": 5469,
      "▁cancer": 5470,
      "▁merch": 5471,
      "▁portugal": 5472,
      "▁innov": 5473,
      "▁withdra": 5474,
      "▁guinea": 5475,
      "▁trop": 5476,
      "##cel": 5477,
      "▁musicians": 5478,
      "▁modified": 5479,
      "##pective": 5480,
      "▁featuring": 5481,
      "##come": 5482,
      "##ko": 5483,
      "▁si": 5484,
      "▁sout": 5485,
      "▁ron": 5486,
      "▁acting": 5487,
      "▁reprodu": 5488,
      "▁sales": 5489,
      "▁causing": 5490,
      "▁improved": 5491,
      "##iful": 5492,
      "▁rod": 5493,
      "▁vietnam": 5494,
      "##reds": 5495,
      "▁ruth": 5496,
      "▁membership": 5497,
      "##tz": 5498,
      "▁mouth": 5499,
      "▁officer": 5500,
      "▁trou": 5501,
      "▁penins": 5502,
      "▁protein": 5503,
      "▁champion": 5504,
      "▁korean": 5505,
      "##icism": 5506,
      "##teenth": 5507,
      "▁propos": 5508,
      "▁mathbf": 5509,
      "▁obvious": 5510,
      "▁tai": 5511,
      "▁amaz": 5512,
      "▁explo": 5513,
      "▁saints": 5514,
      "▁minority": 5515,
      "▁tam": 5516,
      "▁lyr": 5517,
      "▁occupation": 5518,
      "▁grammar": 5519,
      "▁hamm": 5520,
      "▁defence": 5521,
      "▁storm": 5522,
      "▁rapidly": 5523,
      "▁revealed": 5524,
      "##akers": 5525,
      "▁trig": 5526,
      "##fare": 5527,
      "▁kansas": 5528,
      "▁ago": 5529,
      "▁carib": 5530,
      "▁define": 5531,
      "▁recognition": 5532,
      "##yer": 5533,
      "▁gate": 5534,
      "▁preced": 5535,
      "##ographical": 5536,
      "##claimed": 5537,
      "▁twice": 5538,
      "▁coach": 5539,
      "▁psychology": 5540,
      "##uits": 5541,
      "▁mt": 5542,
      "##rates": 5543,
      "▁experien": 5544,
      "▁holding": 5545,
      "##hammad": 5546,
      "##right": 5547,
      "▁semit": 5548,
      "▁agent": 5549,
      "▁flying": 5550,
      "▁lan": 5551,
      "▁react": 5552,
      "##ilbert": 5553,
      "▁firm": 5554,
      "▁massachus": 5555,
      "▁satisf": 5556,
      "▁distributed": 5557,
      "▁physicist": 5558,
      "##antly": 5559,
      "▁partners": 5560,
      "▁apply": 5561,
      "▁listed": 5562,
      "▁davis": 5563,
      "▁napole": 5564,
      "▁stable": 5565,
      "▁cabinet": 5566,
      "▁ment": 5567,
      "▁males": 5568,
      "▁husband": 5569,
      "▁inher": 5570,
      "▁colony": 5571,
      "▁extension": 5572,
      "▁skin": 5573,
      "▁opinion": 5574,
      "▁massachusetts": 5575,
      "▁ae": 5576,
      "##onso": 5577,
      "▁verb": 5578,
      "▁separated": 5579,
      "▁drop": 5580,
      "▁accident": 5581,
      "▁dominated": 5582,
      "▁suggests": 5583,
      "▁employed": 5584,
      "##ss": 5585,
      "▁spin": 5586,
      "▁periods": 5587,
      "▁selection": 5588,
      "##oles": 5589,
      "▁row": 5590,
      "▁relat": 5591,
      "▁reputation": 5592,
      "▁literally": 5593,
      "▁looking": 5594,
      "▁som": 5595,
      "▁bull": 5596,
      "##appe": 5597,
      "▁upd": 5598,
      "▁mainstream": 5599,
      "▁existed": 5600,
      "▁jersey": 5601,
      "▁fab": 5602,
      "▁entitled": 5603,
      "▁sounds": 5604,
      "▁throw": 5605,
      "▁rif": 5606,
      "▁moore": 5607,
      "▁changing": 5608,
      "▁petro": 5609,
      "▁subjects": 5610,
      "##rehens": 5611,
      "▁tool": 5612,
      "▁attend": 5613,
      "▁navig": 5614,
      "▁tourism": 5615,
      "##ranean": 5616,
      "##fall": 5617,
      "▁howard": 5618,
      "▁expensive": 5619,
      "▁younger": 5620,
      "▁bibl": 5621,
      "▁nickn": 5622,
      "##do": 5623,
      "▁bits": 5624,
      "##uten": 5625,
      "▁trad": 5626,
      "▁calls": 5627,
      "##aneous": 5628,
      "##othe": 5629,
      "▁audience": 5630,
      "▁neutral": 5631,
      "##iency": 5632,
      "##uster": 5633,
      "▁rig": 5634,
      "▁romans": 5635,
      "▁publications": 5636,
      "▁bands": 5637,
      "▁decline": 5638,
      "▁franklin": 5639,
      "▁efficient": 5640,
      "▁lakes": 5641,
      "▁ampl": 5642,
      "▁effectively": 5643,
      "▁necessarily": 5644,
      "▁cuba": 5645,
      "▁anat": 5646,
      "▁kick": 5647,
      "##celer": 5648,
      "▁adams": 5649,
      "▁blind": 5650,
      "▁opera": 5651,
      "▁strike": 5652,
      "▁contributed": 5653,
      "▁fert": 5654,
      "##enger": 5655,
      "▁hope": 5656,
      "##ishes": 5657,
      "▁lex": 5658,
      "▁concerning": 5659,
      "▁shel": 5660,
      "▁cape": 5661,
      "▁painter": 5662,
      "▁reconst": 5663,
      "▁dangerous": 5664,
      "▁choose": 5665,
      "▁circumst": 5666,
      "▁abraham": 5667,
      "▁tren": 5668,
      "▁rit": 5669,
      "▁vision": 5670,
      "▁allied": 5671,
      "##hal": 5672,
      "▁inqu": 5673,
      "▁acceler": 5674,
      "▁remark": 5675,
      "▁signs": 5676,
      "▁historian": 5677,
      "▁vehicle": 5678,
      "##yst": 5679,
      "▁lind": 5680,
      "▁affected": 5681,
      "▁mathematician": 5682,
      "##olitan": 5683,
      "▁kos": 5684,
      "▁rival": 5685,
      "▁ark": 5686,
      "▁manus": 5687,
      "▁gender": 5688,
      "▁error": 5689,
      "▁executed": 5690,
      "▁samuel": 5691,
      "▁aqu": 5692,
      "##asts": 5693,
      "▁slav": 5694,
      "▁ethiop": 5695,
      "▁albums": 5696,
      "▁hockey": 5697,
      "▁roots": 5698,
      "▁respond": 5699,
      "▁scholar": 5700,
      "▁atmosphere": 5701,
      "▁dick": 5702,
      "##ople": 5703,
      "▁worship": 5704,
      "▁formally": 5705,
      "##inson": 5706,
      "▁patent": 5707,
      "##ylv": 5708,
      "▁vehicles": 5709,
      "▁federation": 5710,
      "▁axi": 5711,
      "▁kennedy": 5712,
      "▁belgium": 5713,
      "##down": 5714,
      "▁evolved": 5715,
      "▁clean": 5716,
      "▁committed": 5717,
      "▁multipl": 5718,
      "▁hundreds": 5719,
      "▁trying": 5720,
      "▁ton": 5721,
      "▁pse": 5722,
      "▁join": 5723,
      "▁ministry": 5724,
      "▁dvd": 5725,
      "▁ul": 5726,
      "##xide": 5727,
      "▁wire": 5728,
      "##oring": 5729,
      "▁dies": 5730,
      "▁compounds": 5731,
      "▁matters": 5732,
      "##ova": 5733,
      "▁concerned": 5734,
      "▁fruit": 5735,
      "▁heard": 5736,
      "##anto": 5737,
      "▁earl": 5738,
      "▁numer": 5739,
      "▁broke": 5740,
      "▁stands": 5741,
      "▁georgia": 5742,
      "##crib": 5743,
      "▁weather": 5744,
      "##leg": 5745,
      "##uting": 5746,
      "▁vs": 5747,
      "▁graphics": 5748,
      "▁attributed": 5749,
      "##je": 5750,
      "▁inner": 5751,
      "▁underground": 5752,
      "▁broken": 5753,
      "▁officials": 5754,
      "▁temperatures": 5755,
      "▁beer": 5756,
      "▁alc": 5757,
      "▁prices": 5758,
      "▁overse": 5759,
      "▁pseud": 5760,
      "##ef": 5761,
      "▁wed": 5762,
      "▁ric": 5763,
      "▁rebell": 5764,
      "▁bot": 5765,
      "▁occas": 5766,
      "▁ern": 5767,
      "▁nearby": 5768,
      "▁copy": 5769,
      "▁treated": 5770,
      "▁horiz": 5771,
      "▁banks": 5772,
      "▁answer": 5773,
      "▁consciousness": 5774,
      "##ture": 5775,
      "▁faster": 5776,
      "##oter": 5777,
      "▁residents": 5778,
      "▁draft": 5779,
      "▁alleg": 5780,
      "▁foss": 5781,
      "▁kal": 5782,
      "▁uncle": 5783,
      "▁identical": 5784,
      "▁patterns": 5785,
      "▁veloc": 5786,
      "##water": 5787,
      "▁leads": 5788,
      "▁behavi": 5789,
      "▁mediter": 5790,
      "▁supporting": 5791,
      "##rapy": 5792,
      "▁relationships": 5793,
      "▁establishment": 5794,
      "##eline": 5795,
      "▁manuscript": 5796,
      "▁asp": 5797,
      "##aved": 5798,
      "▁renamed": 5799,
      "▁amounts": 5800,
      "▁styles": 5801,
      "▁hospital": 5802,
      "▁hors": 5803,
      "##aska": 5804,
      "##rose": 5805,
      "▁poem": 5806,
      "▁serving": 5807,
      "▁warfare": 5808,
      "▁remember": 5809,
      "▁brig": 5810,
      "▁russell": 5811,
      "▁incorporated": 5812,
      "##oen": 5813,
      "##hard": 5814,
      "##ithms": 5815,
      "▁ottoman": 5816,
      "▁pitch": 5817,
      "##ima": 5818,
      "▁successor": 5819,
      "▁involving": 5820,
      "##burgh": 5821,
      "▁conventional": 5822,
      "▁cuis": 5823,
      "▁excess": 5824,
      "▁basket": 5825,
      "▁officers": 5826,
      "▁propag": 5827,
      "▁donald": 5828,
      "▁favour": 5829,
      "▁mediterranean": 5830,
      "▁accom": 5831,
      "▁variable": 5832,
      "##pan": 5833,
      "▁gang": 5834,
      "▁orb": 5835,
      "▁hawai": 5836,
      "▁lunar": 5837,
      "▁wel": 5838,
      "##adel": 5839,
      "##chen": 5840,
      "▁lux": 5841,
      "▁kit": 5842,
      "▁leaves": 5843,
      "▁predom": 5844,
      "▁appeal": 5845,
      "▁logo": 5846,
      "▁indiana": 5847,
      "##ew": 5848,
      "▁coca": 5849,
      "▁regime": 5850,
      "▁decade": 5851,
      "▁headquar": 5852,
      "▁judicial": 5853,
      "▁functional": 5854,
      "▁ordinary": 5855,
      "▁garden": 5856,
      "▁biblical": 5857,
      "##ylvania": 5858,
      "##oul": 5859,
      "##jection": 5860,
      "▁sed": 5861,
      "▁norway": 5862,
      "▁particle": 5863,
      "▁williams": 5864,
      "▁costs": 5865,
      "▁dimensional": 5866,
      "▁unusual": 5867,
      "▁vic": 5868,
      "▁unless": 5869,
      "▁partly": 5870,
      "▁knight": 5871,
      "▁loyal": 5872,
      "▁abbre": 5873,
      "▁accompl": 5874,
      "▁spaces": 5875,
      "▁newly": 5876,
      "▁parliamentary": 5877,
      "▁episodes": 5878,
      "▁karl": 5879,
      "##ooth": 5880,
      "##arus": 5881,
      "▁gent": 5882,
      "▁notion": 5883,
      "▁err": 5884,
      "▁frequent": 5885,
      "▁tail": 5886,
      "##rome": 5887,
      "▁component": 5888,
      "▁trading": 5889,
      "▁request": 5890,
      "##commun": 5891,
      "▁gradually": 5892,
      "▁prepar": 5893,
      "▁door": 5894,
      "▁finished": 5895,
      "▁rulers": 5896,
      "▁substit": 5897,
      "▁declaration": 5898,
      "▁hier": 5899,
      "▁meters": 5900,
      "▁educational": 5901,
      "▁legislation": 5902,
      "▁concentration": 5903,
      "▁mike": 5904,
      "▁tank": 5905,
      "▁thin": 5906,
      "▁plural": 5907,
      "▁mayor": 5908,
      "▁joe": 5909,
      "▁harry": 5910,
      "▁bibli": 5911,
      "##eing": 5912,
      "▁hang": 5913,
      "▁monop": 5914,
      "##bean": 5915,
      "▁astro": 5916,
      "▁consumption": 5917,
      "▁comparison": 5918,
      "▁acquired": 5919,
      "▁jump": 5920,
      "▁vess": 5921,
      "##agu": 5922,
      "##issance": 5923,
      "▁adding": 5924,
      "▁salt": 5925,
      "##jo": 5926,
      "▁wolf": 5927,
      "##under": 5928,
      "▁rural": 5929,
      "▁adap": 5930,
      "▁scul": 5931,
      "▁demograph": 5932,
      "▁opponents": 5933,
      "▁epist": 5934,
      "▁moroc": 5935,
      "▁punish": 5936,
      "▁racing": 5937,
      "▁reforms": 5938,
      "▁categories": 5939,
      "▁peninsula": 5940,
      "▁herit": 5941,
      "▁simon": 5942,
      "▁parent": 5943,
      "▁anglo": 5944,
      "▁substance": 5945,
      "▁distinguished": 5946,
      "▁prayer": 5947,
      "▁finnish": 5948,
      "▁einstein": 5949,
      "▁byzantine": 5950,
      "▁suicide": 5951,
      "▁anyone": 5952,
      "▁consisting": 5953,
      "▁cartoon": 5954,
      "▁vowel": 5955,
      "▁mold": 5956,
      "▁memorial": 5957,
      "▁markets": 5958,
      "▁birds": 5959,
      "▁paint": 5960,
      "▁guns": 5961,
      "▁intelligent": 5962,
      "▁bic": 5963,
      "##ilton": 5964,
      "▁vent": 5965,
      "▁calc": 5966,
      "▁succession": 5967,
      "▁balance": 5968,
      "▁manufacturing": 5969,
      "▁codes": 5970,
      "▁gab": 5971,
      "▁sections": 5972,
      "▁successfully": 5973,
      "▁task": 5974,
      "▁fresh": 5975,
      "##ni": 5976,
      "##umes": 5977,
      "▁syll": 5978,
      "▁knights": 5979,
      "▁walls": 5980,
      "▁corresponding": 5981,
      "▁abstract": 5982,
      "##iser": 5983,
      "▁exped": 5984,
      "##naissance": 5985,
      "▁abandoned": 5986,
      "▁nan": 5987,
      "▁alan": 5988,
      "▁inflation": 5989,
      "▁characteristic": 5990,
      "▁sympt": 5991,
      "▁collected": 5992,
      "▁demographics": 5993,
      "##wers": 5994,
      "##ilit": 5995,
      "▁vul": 5996,
      "▁heads": 5997,
      "▁converted": 5998,
      "##unciation": 5999,
      "▁cs": 6000,
      "▁pent": 6001,
      "▁shad": 6002,
      "▁branches": 6003,
      "▁concerns": 6004,
      "▁selling": 6005,
      "##di": 6006,
      "▁theology": 6007,
      "##iling": 6008,
      "▁stress": 6009,
      "▁marc": 6010,
      "▁telephone": 6011,
      "##mo": 6012,
      "▁dos": 6013,
      "▁conversion": 6014,
      "▁tab": 6015,
      "▁hob": 6016,
      "▁notation": 6017,
      "▁indigen": 6018,
      "▁mexican": 6019,
      "▁lt": 6020,
      "▁exclud": 6021,
      "▁excell": 6022,
      "▁survey": 6023,
      "▁escape": 6024,
      "▁alternate": 6025,
      "▁drawing": 6026,
      "▁substantial": 6027,
      "▁forth": 6028,
      "▁het": 6029,
      "▁learned": 6030,
      "▁phenomenon": 6031,
      "▁stored": 6032,
      "▁wheel": 6033,
      "▁guy": 6034,
      "▁leap": 6035,
      "▁resemb": 6036,
      "▁boys": 6037,
      "▁edited": 6038,
      "▁incident": 6039,
      "▁swiss": 6040,
      "▁steve": 6041,
      "▁onto": 6042,
      "##udes": 6043,
      "##ifications": 6044,
      "▁humor": 6045,
      "▁classified": 6046,
      "▁patients": 6047,
      "▁morph": 6048,
      "▁indigenous": 6049,
      "##sis": 6050,
      "##hu": 6051,
      "▁bce": 6052,
      "▁mp": 6053,
      "##urance": 6054,
      "▁possibility": 6055,
      "▁lowest": 6056,
      "▁comprehens": 6057,
      "##enna": 6058,
      "▁accurate": 6059,
      "##kan": 6060,
      "▁mouse": 6061,
      "▁giant": 6062,
      "▁forb": 6063,
      "▁clin": 6064,
      "##keley": 6065,
      "▁consult": 6066,
      "▁stim": 6067,
      "▁ker": 6068,
      "▁kat": 6069,
      "▁moz": 6070,
      "▁recover": 6071,
      "▁save": 6072,
      "▁greg": 6073,
      "▁lem": 6074,
      "▁kra": 6075,
      "▁atari": 6076,
      "▁ethics": 6077,
      "▁morm": 6078,
      "▁ng": 6079,
      "▁divisions": 6080,
      "▁olympic": 6081,
      "##ji": 6082,
      "▁hack": 6083,
      "▁conj": 6084,
      "▁measured": 6085,
      "▁caribbean": 6086,
      "▁sculpt": 6087,
      "▁spot": 6088,
      "▁immigr": 6089,
      "##ippi": 6090,
      "▁emperors": 6091,
      "##rus": 6092,
      "▁png": 6093,
      "##itions": 6094,
      "▁allies": 6095,
      "▁conducted": 6096,
      "▁dollar": 6097,
      "▁soph": 6098,
      "▁hear": 6099,
      "▁attended": 6100,
      "▁portray": 6101,
      "▁limits": 6102,
      "▁probability": 6103,
      "##lets": 6104,
      "▁teacher": 6105,
      "▁spectr": 6106,
      "▁mississ": 6107,
      "##apping": 6108,
      "▁axis": 6109,
      "▁morn": 6110,
      "##ela": 6111,
      "▁meg": 6112,
      "▁essay": 6113,
      "##bl": 6114,
      "▁lev": 6115,
      "▁disney": 6116,
      "##oked": 6117,
      "▁offensive": 6118,
      "▁brun": 6119,
      "▁operated": 6120,
      "▁breed": 6121,
      "▁summ": 6122,
      "▁capture": 6123,
      "▁holiday": 6124,
      "▁cinema": 6125,
      "▁experienced": 6126,
      "##sd": 6127,
      "##ho": 6128,
      "▁compact": 6129,
      "▁flav": 6130,
      "▁organisms": 6131,
      "▁explain": 6132,
      "▁passing": 6133,
      "▁denom": 6134,
      "▁infantry": 6135,
      "▁struggle": 6136,
      "▁spectrum": 6137,
      "##ethe": 6138,
      "▁empt": 6139,
      "▁eval": 6140,
      "▁volcan": 6141,
      "▁martial": 6142,
      "##dam": 6143,
      "▁dod": 6144,
      "▁switzer": 6145,
      "▁berkeley": 6146,
      "▁complexity": 6147,
      "▁violent": 6148,
      "▁doubt": 6149,
      "▁appropriate": 6150,
      "▁minimum": 6151,
      "▁ports": 6152,
      "▁oriented": 6153,
      "▁hip": 6154,
      "▁interior": 6155,
      "▁bird": 6156,
      "▁lords": 6157,
      "▁ghost": 6158,
      "▁norwe": 6159,
      "▁facts": 6160,
      "▁arguments": 6161,
      "▁trip": 6162,
      "▁chess": 6163,
      "▁pig": 6164,
      "▁genus": 6165,
      "▁solo": 6166,
      "▁constantin": 6167,
      "▁stu": 6168,
      "▁util": 6169,
      "▁implementation": 6170,
      "▁penns": 6171,
      "##zen": 6172,
      "##roe": 6173,
      "▁compression": 6174,
      "▁meat": 6175,
      "▁capitalism": 6176,
      "▁experiments": 6177,
      "▁geometry": 6178,
      "▁indonesia": 6179,
      "▁worth": 6180,
      "▁explained": 6181,
      "▁campus": 6182,
      "▁mechanism": 6183,
      "##fo": 6184,
      "▁accused": 6185,
      "▁evangel": 6186,
      "▁painting": 6187,
      "##oa": 6188,
      "▁aber": 6189,
      "▁aids": 6190,
      "##ctic": 6191,
      "▁disappe": 6192,
      "▁calling": 6193,
      "▁muhammad": 6194,
      "▁furthermore": 6195,
      "▁walter": 6196,
      "▁libr": 6197,
      "▁dependent": 6198,
      "▁tone": 6199,
      "▁sid": 6200,
      "▁ing": 6201,
      "##ila": 6202,
      "▁keyboard": 6203,
      "##inus": 6204,
      "##oto": 6205,
      "##ovak": 6206,
      "▁profit": 6207,
      "▁switzerland": 6208,
      "##opher": 6209,
      "▁themes": 6210,
      "▁industries": 6211,
      "▁familiar": 6212,
      "##cow": 6213,
      "▁colour": 6214,
      "##hedral": 6215,
      "▁charged": 6216,
      "▁strings": 6217,
      "##bish": 6218,
      "▁alien": 6219,
      "##aya": 6220,
      "▁fellow": 6221,
      "▁diamond": 6222,
      "##jan": 6223,
      "▁lyrics": 6224,
      "▁voy": 6225,
      "▁walk": 6226,
      "▁falls": 6227,
      "▁cul": 6228,
      "▁brian": 6229,
      "▁ny": 6230,
      "▁colors": 6231,
      "##kt": 6232,
      "##ulating": 6233,
      "##agen": 6234,
      "##pping": 6235,
      "▁perceived": 6236,
      "▁missour": 6237,
      "▁buried": 6238,
      "▁corporate": 6239,
      "▁circumstances": 6240,
      "▁pennsylvania": 6241,
      "▁flash": 6242,
      "▁encod": 6243,
      "▁proteins": 6244,
      "##hus": 6245,
      "##any": 6246,
      "##alo": 6247,
      "##ipher": 6248,
      "##athan": 6249,
      "▁instructions": 6250,
      "▁cuisine": 6251,
      "##point": 6252,
      "##wick": 6253,
      "##uch": 6254,
      "▁hans": 6255,
      "##apse": 6256,
      "▁shock": 6257,
      "▁haz": 6258,
      "##velt": 6259,
      "▁generated": 6260,
      "▁carrier": 6261,
      "▁organic": 6262,
      "▁visited": 6263,
      "▁baltic": 6264,
      "▁launch": 6265,
      "▁preferred": 6266,
      "##bell": 6267,
      "▁bin": 6268,
      "##icians": 6269,
      "##osa": 6270,
      "##aka": 6271,
      "##pton": 6272,
      "▁manchester": 6273,
      "▁begun": 6274,
      "▁approved": 6275,
      "▁wilson": 6276,
      "▁fairly": 6277,
      "▁predomin": 6278,
      "▁tag": 6279,
      "▁coff": 6280,
      "▁quad": 6281,
      "▁assigned": 6282,
      "▁batman": 6283,
      "▁millenn": 6284,
      "▁scientist": 6285,
      "▁integrated": 6286,
      "▁dropped": 6287,
      "▁hera": 6288,
      "▁desire": 6289,
      "▁pref": 6290,
      "▁oblig": 6291,
      "▁statist": 6292,
      "▁divers": 6293,
      "▁gnu": 6294,
      "▁laureate": 6295,
      "▁municipal": 6296,
      "▁pdf": 6297,
      "##ingly": 6298,
      "▁medal": 6299,
      "▁finding": 6300,
      "##lan": 6301,
      "##nia": 6302,
      "▁sight": 6303,
      "▁nut": 6304,
      "▁kr": 6305,
      "▁flood": 6306,
      "▁colleges": 6307,
      "▁bruce": 6308,
      "▁gather": 6309,
      "▁roose": 6310,
      "▁amongst": 6311,
      "▁malays": 6312,
      "▁coastal": 6313,
      "▁diseases": 6314,
      "▁hierarch": 6315,
      "▁mississippi": 6316,
      "##rot": 6317,
      "▁cloth": 6318,
      "▁seek": 6319,
      "▁experimental": 6320,
      "▁argentina": 6321,
      "▁douglas": 6322,
      "▁pus": 6323,
      "▁dre": 6324,
      "▁lud": 6325,
      "▁moves": 6326,
      "▁intent": 6327,
      "▁gregor": 6328,
      "▁insert": 6329,
      "▁pleas": 6330,
      "▁skills": 6331,
      "▁ohio": 6332,
      "##archers": 6333,
      "▁alexandria": 6334,
      "##stan": 6335,
      "▁roles": 6336,
      "▁maria": 6337,
      "▁forming": 6338,
      "▁greeks": 6339,
      "▁announ": 6340,
      "▁iceland": 6341,
      "▁pilot": 6342,
      "▁chairman": 6343,
      "▁transmission": 6344,
      "▁heritage": 6345,
      "▁crop": 6346,
      "##olar": 6347,
      "▁statements": 6348,
      "▁watch": 6349,
      "▁illegal": 6350,
      "▁canal": 6351,
      "▁syria": 6352,
      "▁retired": 6353,
      "▁norwegian": 6354,
      "▁voting": 6355,
      "##intosh": 6356,
      "▁franch": 6357,
      "▁increases": 6358,
      "▁moscow": 6359,
      "▁velocity": 6360,
      "▁beings": 6361,
      "▁rid": 6362,
      "▁disorder": 6363,
      "▁soil": 6364,
      "▁bonds": 6365,
      "▁influences": 6366,
      "▁execution": 6367,
      "▁hamilton": 6368,
      "▁thinking": 6369,
      "▁roosevelt": 6370,
      "##oir": 6371,
      "▁votes": 6372,
      "▁sche": 6373,
      "▁founding": 6374,
      "▁grey": 6375,
      "▁philipp": 6376,
      "▁characterized": 6377,
      "▁missile": 6378,
      "##going": 6379,
      "▁mongol": 6380,
      "▁gary": 6381,
      "▁tracks": 6382,
      "▁buff": 6383,
      "▁virtually": 6384,
      "▁missouri": 6385,
      "##arians": 6386,
      "▁ecl": 6387,
      "▁gran": 6388,
      "▁farm": 6389,
      "▁profile": 6390,
      "▁sleep": 6391,
      "##sa": 6392,
      "▁sig": 6393,
      "▁poems": 6394,
      "▁libert": 6395,
      "▁charges": 6396,
      "▁steps": 6397,
      "▁explanation": 6398,
      "##aly": 6399,
      "##acc": 6400,
      "##athe": 6401,
      "▁partial": 6402,
      "▁agents": 6403,
      "▁monster": 6404,
      "▁expos": 6405,
      "▁airlines": 6406,
      "▁ruler": 6407,
      "▁consumer": 6408,
      "▁assistance": 6409,
      "▁touch": 6410,
      "##gments": 6411,
      "▁lamb": 6412,
      "▁passage": 6413,
      "▁delta": 6414,
      "▁hole": 6415,
      "▁testing": 6416,
      "▁researchers": 6417,
      "▁diagn": 6418,
      "▁beautiful": 6419,
      "▁bacteria": 6420,
      "▁presid": 6421,
      "▁documentary": 6422,
      "▁theoretical": 6423,
      "▁columbus": 6424,
      "▁tropical": 6425,
      "▁beng": 6426,
      "▁anch": 6427,
      "▁stret": 6428,
      "##eters": 6429,
      "▁phoen": 6430,
      "▁milk": 6431,
      "▁constantine": 6432,
      "▁closer": 6433,
      "▁pierre": 6434,
      "▁waves": 6435,
      "▁gy": 6436,
      "▁stro": 6437,
      "▁orange": 6438,
      "▁depth": 6439,
      "▁legacy": 6440,
      "▁northwest": 6441,
      "▁definitions": 6442,
      "▁piano": 6443,
      "##herent": 6444,
      "▁ok": 6445,
      "▁rud": 6446,
      "##ogy": 6447,
      "##aret": 6448,
      "▁fled": 6449,
      "▁clubs": 6450,
      "▁tens": 6451,
      "▁spelling": 6452,
      "▁preserved": 6453,
      "▁buck": 6454,
      "▁depends": 6455,
      "▁archbish": 6456,
      "▁boundaries": 6457,
      "▁ensure": 6458,
      "▁elsewhere": 6459,
      "▁annex": 6460,
      "##pson": 6461,
      "##omes": 6462,
      "▁prove": 6463,
      "▁resource": 6464,
      "▁requirements": 6465,
      "▁distinguish": 6466,
      "▁anglican": 6467,
      "##een": 6468,
      "▁borders": 6469,
      "▁rising": 6470,
      "▁engineer": 6471,
      "▁facilities": 6472,
      "▁algorithms": 6473,
      "▁hits": 6474,
      "▁gem": 6475,
      "▁kim": 6476,
      "▁perspective": 6477,
      "▁downtown": 6478,
      "▁motiv": 6479,
      "##roit": 6480,
      "▁jar": 6481,
      "▁attached": 6482,
      "▁glac": 6483,
      "▁sugar": 6484,
      "▁rhyth": 6485,
      "▁benefit": 6486,
      "▁floor": 6487,
      "▁fm": 6488,
      "##iration": 6489,
      "##romagn": 6490,
      "▁yes": 6491,
      "▁partner": 6492,
      "##ublin": 6493,
      "▁aero": 6494,
      "##rem": 6495,
      "▁bears": 6496,
      "▁shift": 6497,
      "▁produces": 6498,
      "▁electrons": 6499,
      "▁prepared": 6500,
      "▁node": 6501,
      "▁dale": 6502,
      "▁tot": 6503,
      "▁yug": 6504,
      "##ortion": 6505,
      "▁reserve": 6506,
      "▁variant": 6507,
      "▁depos": 6508,
      "▁signals": 6509,
      "▁driven": 6510,
      "▁symptoms": 6511,
      "##osph": 6512,
      "▁chlor": 6513,
      "▁metropolitan": 6514,
      "▁jam": 6515,
      "▁contrad": 6516,
      "▁attacked": 6517,
      "▁marshall": 6518,
      "▁usual": 6519,
      "▁shut": 6520,
      "▁metall": 6521,
      "▁continent": 6522,
      "▁imports": 6523,
      "▁technologies": 6524,
      "▁journey": 6525,
      "##contin": 6526,
      "▁entertainment": 6527,
      "▁ace": 6528,
      "▁rice": 6529,
      "▁mainland": 6530,
      "▁ritual": 6531,
      "▁cash": 6532,
      "▁lisp": 6533,
      "##uras": 6534,
      "▁retrie": 6535,
      "▁winner": 6536,
      "▁additionally": 6537,
      "▁hills": 6538,
      "▁bowl": 6539,
      "##chy": 6540,
      "##ords": 6541,
      "▁singular": 6542,
      "▁emerged": 6543,
      "▁morning": 6544,
      "▁um": 6545,
      "▁tast": 6546,
      "##ali": 6547,
      "##abilities": 6548,
      "▁arithm": 6549,
      "##illes": 6550,
      "▁roy": 6551,
      "▁overview": 6552,
      "▁restaur": 6553,
      "▁galile": 6554,
      "▁waters": 6555,
      "▁laboratory": 6556,
      "▁admiral": 6557,
      "##rance": 6558,
      "##play": 6559,
      "▁populations": 6560,
      "▁surf": 6561,
      "##ambig": 6562,
      "##awa": 6563,
      "▁fluid": 6564,
      "▁cpu": 6565,
      "##iac": 6566,
      "▁gand": 6567,
      "▁rene": 6568,
      "▁compound": 6569,
      "▁contest": 6570,
      "▁detroit": 6571,
      "▁tests": 6572,
      "▁tales": 6573,
      "▁manifest": 6574,
      "▁germans": 6575,
      "##bre": 6576,
      "▁dio": 6577,
      "##ami": 6578,
      "▁esp": 6579,
      "▁micros": 6580,
      "▁grown": 6581,
      "▁gravity": 6582,
      "##mat": 6583,
      "##mouth": 6584,
      "▁cert": 6585,
      "▁hiv": 6586,
      "▁opponent": 6587,
      "▁evolutionary": 6588,
      "##hum": 6589,
      "▁cad": 6590,
      "▁simult": 6591,
      "▁followers": 6592,
      "▁esper": 6593,
      "▁calculus": 6594,
      "▁printed": 6595,
      "▁emphasis": 6596,
      "##writer": 6597,
      "▁cass": 6598,
      "##ployment": 6599,
      "▁planning": 6600,
      "▁shaped": 6601,
      "▁frederick": 6602,
      "▁laid": 6603,
      "▁descent": 6604,
      "▁starring": 6605,
      "▁boundary": 6606,
      "▁lithuania": 6607,
      "▁scheme": 6608,
      "▁basketball": 6609,
      "▁constantinople": 6610,
      "▁ky": 6611,
      "##ylan": 6612,
      "▁soldier": 6613,
      "▁grounds": 6614,
      "▁habit": 6615,
      "▁bug": 6616,
      "▁wine": 6617,
      "▁mile": 6618,
      "##ieth": 6619,
      "▁treas": 6620,
      "▁ross": 6621,
      "▁palestinian": 6622,
      "▁jurisdiction": 6623,
      "▁napoleon": 6624,
      "▁pas": 6625,
      "▁dating": 6626,
      "▁thor": 6627,
      "▁khan": 6628,
      "##hips": 6629,
      "▁maxim": 6630,
      "▁bishops": 6631,
      "▁chromos": 6632,
      "▁aristot": 6633,
      "##omer": 6634,
      "##isted": 6635,
      "##ruption": 6636,
      "▁brows": 6637,
      "▁identify": 6638,
      "▁certainly": 6639,
      "▁keeping": 6640,
      "▁gif": 6641,
      "▁polar": 6642,
      "▁decisions": 6643,
      "▁judges": 6644,
      "▁survived": 6645,
      "##shire": 6646,
      "▁hypothesis": 6647,
      "▁headquarters": 6648,
      "##fort": 6649,
      "▁hond": 6650,
      "▁amend": 6651,
      "▁driver": 6652,
      "▁channels": 6653,
      "▁dublin": 6654,
      "▁hou": 6655,
      "▁revel": 6656,
      "##idae": 6657,
      "▁longest": 6658,
      "▁corps": 6659,
      "▁angle": 6660,
      "▁integral": 6661,
      "▁kinds": 6662,
      "▁conquest": 6663,
      "▁inse": 6664,
      "##oters": 6665,
      "▁notice": 6666,
      "▁macintosh": 6667,
      "▁enterpr": 6668,
      "▁residence": 6669,
      "▁charter": 6670,
      "▁acids": 6671,
      "▁minute": 6672,
      "▁referring": 6673,
      "▁armen": 6674,
      "▁debt": 6675,
      "▁kilometers": 6676,
      "##oh": 6677,
      "▁pyth": 6678,
      "▁exile": 6679,
      "▁pover": 6680,
      "▁organisation": 6681,
      "▁crimes": 6682,
      "▁nig": 6683,
      "▁goals": 6684,
      "▁solutions": 6685,
      "▁representing": 6686,
      "▁ukra": 6687,
      "▁responsibility": 6688,
      "▁predict": 6689,
      "▁vocal": 6690,
      "▁horizon": 6691,
      "▁yugosl": 6692,
      "##life": 6693,
      "##oys": 6694,
      "##cope": 6695,
      "▁theod": 6696,
      "▁athens": 6697,
      "▁yah": 6698,
      "▁partially": 6699,
      "▁joy": 6700,
      "▁owner": 6701,
      "▁directors": 6702,
      "▁dragon": 6703,
      "▁angels": 6704,
      "▁pronunciation": 6705,
      "▁districts": 6706,
      "▁rabb": 6707,
      "▁filled": 6708,
      "▁pel": 6709,
      "▁unix": 6710,
      "▁variants": 6711,
      "▁triang": 6712,
      "▁monarchy": 6713,
      "▁baptism": 6714,
      "▁diplomatic": 6715,
      "▁poverty": 6716,
      "##iative": 6717,
      "##cs": 6718,
      "▁theolog": 6719,
      "▁align": 6720,
      "▁perp": 6721,
      "▁matrix": 6722,
      "▁locations": 6723,
      "▁copies": 6724,
      "##kin": 6725,
      "##gel": 6726,
      "▁cited": 6727,
      "▁beach": 6728,
      "▁covers": 6729,
      "▁boat": 6730,
      "▁meanings": 6731,
      "##hire": 6732,
      "▁lam": 6733,
      "▁roger": 6734,
      "▁variation": 6735,
      "▁eric": 6736,
      "▁didn": 6737,
      "▁headed": 6738,
      "▁procedure": 6739,
      "▁inducted": 6740,
      "▁burg": 6741,
      "▁dylan": 6742,
      "▁prol": 6743,
      "▁knew": 6744,
      "▁warri": 6745,
      "▁originated": 6746,
      "▁legit": 6747,
      "▁operate": 6748,
      "##ructure": 6749,
      "▁naturally": 6750,
      "▁representative": 6751,
      "▁roads": 6752,
      "▁celebrated": 6753,
      "##kee": 6754,
      "▁victoria": 6755,
      "▁relativity": 6756,
      "##cal": 6757,
      "▁tiss": 6758,
      "##emble": 6759,
      "##aneously": 6760,
      "▁seemed": 6761,
      "▁percentage": 6762,
      "▁sharp": 6763,
      "##fe": 6764,
      "##inder": 6765,
      "▁dur": 6766,
      "▁gone": 6767,
      "▁warm": 6768,
      "▁protected": 6769,
      "▁easier": 6770,
      "▁animated": 6771,
      "▁sunday": 6772,
      "▁suspect": 6773,
      "▁automatic": 6774,
      "▁ultimate": 6775,
      "▁condem": 6776,
      "##rint": 6777,
      "▁rib": 6778,
      "▁confused": 6779,
      "▁volt": 6780,
      "##know": 6781,
      "▁carrying": 6782,
      "▁rebellion": 6783,
      "##bes": 6784,
      "▁sq": 6785,
      "##rep": 6786,
      "▁fen": 6787,
      "▁exceed": 6788,
      "▁matthe": 6789,
      "▁listing": 6790,
      "▁thirty": 6791,
      "▁liberty": 6792,
      "▁getting": 6793,
      "▁senator": 6794,
      "▁composers": 6795,
      "▁gibral": 6796,
      "##born": 6797,
      "▁tong": 6798,
      "▁commentary": 6799,
      "▁briefly": 6800,
      "▁descendants": 6801,
      "▁comprehensive": 6802,
      "▁aven": 6803,
      "▁bub": 6804,
      "▁varies": 6805,
      "##iracy": 6806,
      "▁holidays": 6807,
      "▁recipient": 6808,
      "▁extinct": 6809,
      "▁prosec": 6810,
      "▁abuse": 6811,
      "▁wear": 6812,
      "▁photos": 6813,
      "▁premier": 6814,
      "▁caval": 6815,
      "▁presidency": 6816,
      "▁tay": 6817,
      "▁ontar": 6818,
      "▁kel": 6819,
      "▁remove": 6820,
      "▁armies": 6821,
      "##ikh": 6822,
      "▁sult": 6823,
      "▁honey": 6824,
      "▁rear": 6825,
      "##idel": 6826,
      "▁whit": 6827,
      "▁colomb": 6828,
      "##ika": 6829,
      "▁landing": 6830,
      "▁structural": 6831,
      "##ographer": 6832,
      "##net": 6833,
      "▁bog": 6834,
      "▁dal": 6835,
      "▁tol": 6836,
      "▁sched": 6837,
      "▁interaction": 6838,
      "▁expert": 6839,
      "▁papers": 6840,
      "▁gibraltar": 6841,
      "▁jet": 6842,
      "##irect": 6843,
      "▁defensive": 6844,
      "##issions": 6845,
      "▁obtain": 6846,
      "▁assassination": 6847,
      "▁dismiss": 6848,
      "▁ontario": 6849,
      "##wald": 6850,
      "##oric": 6851,
      "▁heli": 6852,
      "▁offers": 6853,
      "▁citizen": 6854,
      "▁opportunity": 6855,
      "##wart": 6856,
      "▁tut": 6857,
      "▁sic": 6858,
      "▁send": 6859,
      "▁tox": 6860,
      "▁alg": 6861,
      "##aked": 6862,
      "▁slave": 6863,
      "▁performing": 6864,
      "▁absence": 6865,
      "▁photograph": 6866,
      "▁enforce": 6867,
      "▁memb": 6868,
      "▁earthqu": 6869,
      "▁copper": 6870,
      "▁senior": 6871,
      "▁licens": 6872,
      "▁friedrich": 6873,
      "▁nasa": 6874,
      "▁bun": 6875,
      "▁pad": 6876,
      "▁lis": 6877,
      "▁liv": 6878,
      "##ourse": 6879,
      "▁conven": 6880,
      "▁carter": 6881,
      "▁processor": 6882,
      "▁finalist": 6883,
      "▁sentence": 6884,
      "▁collapse": 6885,
      "▁confirmed": 6886,
      "▁interpreted": 6887,
      "▁abbrev": 6888,
      "▁au": 6889,
      "##iner": 6890,
      "▁wels": 6891,
      "▁chip": 6892,
      "▁assault": 6893,
      "▁surren": 6894,
      "▁encouraged": 6895,
      "▁bulgaria": 6896,
      "▁crystal": 6897,
      "▁horses": 6898,
      "##pes": 6899,
      "##rog": 6900,
      "▁highway": 6901,
      "▁deput": 6902,
      "##ucky": 6903,
      "▁enemies": 6904,
      "▁vowels": 6905,
      "▁victims": 6906,
      "##enstein": 6907,
      "▁pir": 6908,
      "▁renaissance": 6909,
      "##cho": 6910,
      "▁serves": 6911,
      "▁afterwards": 6912,
      "▁acknow": 6913,
      "▁cathedral": 6914,
      "▁tape": 6915,
      "▁contributions": 6916,
      "▁ranked": 6917,
      "▁macedonia": 6918,
      "▁southeast": 6919,
      "##din": 6920,
      "##bar": 6921,
      "##erves": 6922,
      "##icas": 6923,
      "▁congreg": 6924,
      "▁unic": 6925,
      "▁arn": 6926,
      "▁config": 6927,
      "▁personality": 6928,
      "▁benj": 6929,
      "▁difficulty": 6930,
      "▁indicates": 6931,
      "▁emergency": 6932,
      "▁taiwan": 6933,
      "▁faced": 6934,
      "▁bav": 6935,
      "##oma": 6936,
      "▁vit": 6937,
      "##aga": 6938,
      "▁nato": 6939,
      "▁constitu": 6940,
      "▁credited": 6941,
      "▁bart": 6942,
      "▁thick": 6943,
      "▁agave": 6944,
      "▁relief": 6945,
      "▁equator": 6946,
      "▁sacred": 6947,
      "▁stages": 6948,
      "▁suit": 6949,
      "▁client": 6950,
      "▁basque": 6951,
      "▁guar": 6952,
      "▁household": 6953,
      "▁promote": 6954,
      "##hl": 6955,
      "##ye": 6956,
      "▁mira": 6957,
      "▁vik": 6958,
      "▁administer": 6959,
      "##rator": 6960,
      "##unte": 6961,
      "▁consec": 6962,
      "##opes": 6963,
      "##abil": 6964,
      "▁goog": 6965,
      "▁xx": 6966,
      "##cessor": 6967,
      "▁secular": 6968,
      "##ynam": 6969,
      "▁mormon": 6970,
      "▁sod": 6971,
      "##owa": 6972,
      "▁unity": 6973,
      "##phal": 6974,
      "▁keys": 6975,
      "▁myst": 6976,
      "▁bibliography": 6977,
      "##eur": 6978,
      "##dor": 6979,
      "▁sor": 6980,
      "##anth": 6981,
      "##omial": 6982,
      "▁cleve": 6983,
      "▁lenin": 6984,
      "▁tony": 6985,
      "▁aar": 6986,
      "▁cave": 6987,
      "▁wound": 6988,
      "▁inch": 6989,
      "▁southwest": 6990,
      "▁affil": 6991,
      "##load": 6992,
      "▁survive": 6993,
      "▁phenomena": 6994,
      "▁claud": 6995,
      "▁schedul": 6996,
      "▁bach": 6997,
      "##riers": 6998,
      "▁presidents": 6999,
      "▁buy": 7000,
      "▁vienna": 7001,
      "▁losing": 7002,
      "▁credit": 7003,
      "▁forests": 7004,
      "##bec": 7005,
      "##iot": 7006,
      "▁sher": 7007,
      "▁dir": 7008,
      "▁reactions": 7009,
      "▁clim": 7010,
      "▁cypr": 7011,
      "▁territorial": 7012,
      "##world": 7013,
      "▁focused": 7014,
      "▁continuing": 7015,
      "▁possession": 7016,
      "▁unsu": 7017,
      "▁bernard": 7018,
      "▁sust": 7019,
      "▁reaching": 7020,
      "##unction": 7021,
      "▁nov": 7022,
      "▁camps": 7023,
      "▁substances": 7024,
      "▁bh": 7025,
      "▁ety": 7026,
      "▁revers": 7027,
      "▁kern": 7028,
      "▁chose": 7029,
      "▁intervent": 7030,
      "▁funds": 7031,
      "▁passenger": 7032,
      "▁diverse": 7033,
      "▁titled": 7034,
      "▁discussed": 7035,
      "##rig": 7036,
      "▁ni": 7037,
      "##ifer": 7038,
      "▁eleph": 7039,
      "▁volunte": 7040,
      "▁antiqu": 7041,
      "▁fug": 7042,
      "▁hann": 7043,
      "▁hes": 7044,
      "##ivals": 7045,
      "▁earn": 7046,
      "▁communism": 7047,
      "▁epic": 7048,
      "▁symp": 7049,
      "▁automob": 7050,
      "▁linguistic": 7051,
      "▁transferred": 7052,
      "▁benjamin": 7053,
      "##ystem": 7054,
      "▁seasons": 7055,
      "##sters": 7056,
      "▁hein": 7057,
      "▁jos": 7058,
      "▁clark": 7059,
      "▁artistic": 7060,
      "▁lesser": 7061,
      "▁hotel": 7062,
      "▁challenge": 7063,
      "▁behaviour": 7064,
      "##ratic": 7065,
      "##rect": 7066,
      "##ido": 7067,
      "▁proven": 7068,
      "##iph": 7069,
      "▁disput": 7070,
      "▁electoral": 7071,
      "▁breaking": 7072,
      "▁engineers": 7073,
      "▁profession": 7074,
      "▁happened": 7075,
      "▁deliber": 7076,
      "##gue": 7077,
      "##ora": 7078,
      "##cha": 7079,
      "##ifies": 7080,
      "##ptic": 7081,
      "▁electromagn": 7082,
      "▁curt": 7083,
      "▁kuwa": 7084,
      "▁gregorian": 7085,
      "▁welsh": 7086,
      "▁marit": 7087,
      "▁blow": 7088,
      "##elson": 7089,
      "▁prophet": 7090,
      "▁reduction": 7091,
      "▁sudden": 7092,
      "▁carolina": 7093,
      "▁etym": 7094,
      "▁manip": 7095,
      "▁aggress": 7096,
      "▁bases": 7097,
      "▁metric": 7098,
      "▁romantic": 7099,
      "##ropy": 7100,
      "▁regardless": 7101,
      "▁baptist": 7102,
      "##aug": 7103,
      "▁gord": 7104,
      "##ented": 7105,
      "▁christopher": 7106,
      "▁humanity": 7107,
      "▁everyone": 7108,
      "##worth": 7109,
      "▁twentieth": 7110,
      "▁santa": 7111,
      "▁candidates": 7112,
      "▁cot": 7113,
      "▁wish": 7114,
      "##athy": 7115,
      "▁archive": 7116,
      "▁horror": 7117,
      "▁consistent": 7118,
      "▁progressive": 7119,
      "##stant": 7120,
      "##tering": 7121,
      "▁ownership": 7122,
      "▁commodore": 7123,
      "▁cleveland": 7124,
      "▁tap": 7125,
      "▁array": 7126,
      "▁marks": 7127,
      "▁constell": 7128,
      "▁steam": 7129,
      "▁gallery": 7130,
      "▁statistical": 7131,
      "▁hipp": 7132,
      "▁rug": 7133,
      "▁shif": 7134,
      "▁shah": 7135,
      "▁sox": 7136,
      "▁trained": 7137,
      "▁operator": 7138,
      "▁slaves": 7139,
      "##ovo": 7140,
      "▁hunting": 7141,
      "▁integer": 7142,
      "▁advertising": 7143,
      "▁cf": 7144,
      "▁toler": 7145,
      "▁hex": 7146,
      "▁persec": 7147,
      "▁massac": 7148,
      "▁illness": 7149,
      "▁translations": 7150,
      "▁diagram": 7151,
      "▁uncertain": 7152,
      "▁bureau": 7153,
      "▁esperanto": 7154,
      "▁jama": 7155,
      "▁infrast": 7156,
      "▁imprison": 7157,
      "▁avo": 7158,
      "▁campbell": 7159,
      "▁disputed": 7160,
      "▁rebu": 7161,
      "▁implemented": 7162,
      "▁anthony": 7163,
      "▁restricted": 7164,
      "▁empty": 7165,
      "##alism": 7166,
      "▁chad": 7167,
      "##agues": 7168,
      "▁borrow": 7169,
      "▁restrictions": 7170,
      "▁adjust": 7171,
      "▁tang": 7172,
      "▁moses": 7173,
      "▁nich": 7174,
      "▁eli": 7175,
      "▁isot": 7176,
      "▁outer": 7177,
      "▁psychological": 7178,
      "▁criticized": 7179,
      "##bb": 7180,
      "▁resol": 7181,
      "▁presum": 7182,
      "▁apoc": 7183,
      "▁loose": 7184,
      "▁provision": 7185,
      "▁stead": 7186,
      "▁specialized": 7187,
      "▁virus": 7188,
      "▁icon": 7189,
      "▁squad": 7190,
      "▁variables": 7191,
      "▁lose": 7192,
      "▁gau": 7193,
      "##acent": 7194,
      "▁resident": 7195,
      "▁divor": 7196,
      "▁describing": 7197,
      "▁princess": 7198,
      "▁adapted": 7199,
      "▁libraries": 7200,
      "▁archbishop": 7201,
      "▁arrow": 7202,
      "▁offices": 7203,
      "▁patient": 7204,
      "▁females": 7205,
      "▁couple": 7206,
      "##po": 7207,
      "▁gly": 7208,
      "▁reverse": 7209,
      "##unct": 7210,
      "▁enab": 7211,
      "##aki": 7212,
      "##ductor": 7213,
      "▁poison": 7214,
      "▁submar": 7215,
      "▁belarus": 7216,
      "▁seconds": 7217,
      "▁ruling": 7218,
      "▁verse": 7219,
      "▁thro": 7220,
      "▁unem": 7221,
      "▁rocks": 7222,
      "▁noble": 7223,
      "##obi": 7224,
      "▁isaac": 7225,
      "▁slavery": 7226,
      "▁trigger": 7227,
      "▁shr": 7228,
      "##aza": 7229,
      "▁civilian": 7230,
      "▁streets": 7231,
      "▁biggest": 7232,
      "▁duty": 7233,
      "▁colorado": 7234,
      "▁conquered": 7235,
      "▁escap": 7236,
      "##onymous": 7237,
      "##ders": 7238,
      "##wig": 7239,
      "##ilst": 7240,
      "▁contrary": 7241,
      "▁cole": 7242,
      "▁depicted": 7243,
      "▁duck": 7244,
      "▁syndrome": 7245,
      "▁fib": 7246,
      "##organ": 7247,
      "##leum": 7248,
      "▁situations": 7249,
      "▁twin": 7250,
      "▁engaged": 7251,
      "▁sket": 7252,
      "▁ethical": 7253,
      "##wes": 7254,
      "▁chal": 7255,
      "▁leo": 7256,
      "▁amate": 7257,
      "▁races": 7258,
      "▁retained": 7259,
      "▁laser": 7260,
      "##wall": 7261,
      "##zer": 7262,
      "▁beta": 7263,
      "▁fighter": 7264,
      "▁approxim": 7265,
      "▁distinctive": 7266,
      "▁varying": 7267,
      "▁isolated": 7268,
      "▁arithmetic": 7269,
      "##pool": 7270,
      "▁cous": 7271,
      "▁lion": 7272,
      "▁disambig": 7273,
      "▁resc": 7274,
      "▁herbert": 7275,
      "▁herself": 7276,
      "▁confusion": 7277,
      "▁drag": 7278,
      "▁turning": 7279,
      "▁compatible": 7280,
      "▁morocco": 7281,
      "▁surrender": 7282,
      "▁theor": 7283,
      "▁pip": 7284,
      "▁neck": 7285,
      "▁disag": 7286,
      "▁minnes": 7287,
      "▁declined": 7288,
      "▁planets": 7289,
      "▁electronics": 7290,
      "▁speaker": 7291,
      "▁lifet": 7292,
      "▁manufacturers": 7293,
      "##uable": 7294,
      "▁dress": 7295,
      "▁grass": 7296,
      "▁secure": 7297,
      "▁starts": 7298,
      "▁turns": 7299,
      "▁liberation": 7300,
      "▁baby": 7301,
      "▁corner": 7302,
      "▁investigation": 7303,
      "▁chancell": 7304,
      "▁bronze": 7305,
      "▁cavalry": 7306,
      "##rical": 7307,
      "▁sans": 7308,
      "▁enl": 7309,
      "▁spacecraft": 7310,
      "▁messages": 7311,
      "▁demonstrated": 7312,
      "▁buddhism": 7313,
      "##adelph": 7314,
      "##bolic": 7315,
      "▁flex": 7316,
      "▁wins": 7317,
      "▁phosph": 7318,
      "▁reducing": 7319,
      "▁observations": 7320,
      "▁airports": 7321,
      "▁comparative": 7322,
      "▁sweet": 7323,
      "▁petroleum": 7324,
      "▁cum": 7325,
      "▁drew": 7326,
      "▁subt": 7327,
      "▁loop": 7328,
      "▁extract": 7329,
      "▁delay": 7330,
      "▁interested": 7331,
      "▁cricket": 7332,
      "▁sovereignty": 7333,
      "▁hetero": 7334,
      "▁houston": 7335,
      "▁cyprus": 7336,
      "##olas": 7337,
      "▁jok": 7338,
      "▁commons": 7339,
      "▁carn": 7340,
      "▁invention": 7341,
      "▁veter": 7342,
      "▁animation": 7343,
      "▁expedition": 7344,
      "▁sample": 7345,
      "▁migration": 7346,
      "##standing": 7347,
      "▁mining": 7348,
      "▁lawrence": 7349,
      "▁insurance": 7350,
      "▁steven": 7351,
      "▁symmet": 7352,
      "▁educated": 7353,
      "▁creator": 7354,
      "▁camera": 7355,
      "▁montreal": 7356,
      "▁exclusively": 7357,
      "▁alk": 7358,
      "▁peas": 7359,
      "▁tribe": 7360,
      "▁molecule": 7361,
      "▁replacement": 7362,
      "▁strategic": 7363,
      "▁scenes": 7364,
      "##dish": 7365,
      "▁tight": 7366,
      "▁hart": 7367,
      "##veness": 7368,
      "▁coin": 7369,
      "▁phi": 7370,
      "▁assign": 7371,
      "▁remov": 7372,
      "▁claiming": 7373,
      "##ipping": 7374,
      "▁fred": 7375,
      "▁gol": 7376,
      "▁congo": 7377,
      "▁contra": 7378,
      "▁disaster": 7379,
      "▁guer": 7380,
      "▁antar": 7381,
      "▁eccles": 7382,
      "▁integration": 7383,
      "##while": 7384,
      "▁galaxy": 7385,
      "▁py": 7386,
      "▁infer": 7387,
      "▁shore": 7388,
      "##ruck": 7389,
      "##phy": 7390,
      "▁feud": 7391,
      "▁guil": 7392,
      "▁brid": 7393,
      "▁democrats": 7394,
      "##ocaust": 7395,
      "▁banned": 7396,
      "▁arrangement": 7397,
      "##ington": 7398,
      "▁ster": 7399,
      "▁intention": 7400,
      "##ressive": 7401,
      "▁estate": 7402,
      "▁specified": 7403,
      "▁designated": 7404,
      "▁publicly": 7405,
      "▁holocaust": 7406,
      "▁receiving": 7407,
      "▁cardinal": 7408,
      "▁regularly": 7409,
      "▁celeb": 7410,
      "▁dramatic": 7411,
      "▁matthew": 7412,
      "##asm": 7413,
      "##uter": 7414,
      "▁corp": 7415,
      "▁homer": 7416,
      "▁falling": 7417,
      "▁exclusive": 7418,
      "▁gothic": 7419,
      "▁penalty": 7420,
      "▁rhythm": 7421,
      "##nament": 7422,
      "##tra": 7423,
      "▁tort": 7424,
      "▁gates": 7425,
      "##osing": 7426,
      "▁geographic": 7427,
      "▁stream": 7428,
      "▁benz": 7429,
      "▁commerce": 7430,
      "▁accompanied": 7431,
      "▁conspiracy": 7432,
      "▁infrastructure": 7433,
      "▁pull": 7434,
      "▁mood": 7435,
      "##place": 7436,
      "▁raw": 7437,
      "▁balt": 7438,
      "▁cathol": 7439,
      "▁surviving": 7440,
      "▁elder": 7441,
      "▁coffee": 7442,
      "▁wy": 7443,
      "▁sixth": 7444,
      "▁plastic": 7445,
      "##avian": 7446,
      "▁boeing": 7447,
      "▁playoff": 7448,
      "▁differential": 7449,
      "▁separation": 7450,
      "▁quebec": 7451,
      "▁collabor": 7452,
      "▁atlanta": 7453,
      "▁connections": 7454,
      "▁sale": 7455,
      "##icity": 7456,
      "▁alumin": 7457,
      "▁jane": 7458,
      "▁varieties": 7459,
      "▁handed": 7460,
      "▁statue": 7461,
      "▁missions": 7462,
      "▁ibn": 7463,
      "▁dimension": 7464,
      "▁disambiguation": 7465,
      "##fel": 7466,
      "##cock": 7467,
      "▁enorm": 7468,
      "▁hash": 7469,
      "▁earned": 7470,
      "▁supports": 7471,
      "▁experiences": 7472,
      "▁slowly": 7473,
      "▁newspapers": 7474,
      "▁pollution": 7475,
      "▁cooperation": 7476,
      "▁strictly": 7477,
      "##hn": 7478,
      "##iang": 7479,
      "▁nep": 7480,
      "▁indians": 7481,
      "▁powered": 7482,
      "▁millions": 7483,
      "▁passes": 7484,
      "▁benefits": 7485,
      "▁coordin": 7486,
      "##power": 7487,
      "##cht": 7488,
      "##kel": 7489,
      "▁tale": 7490,
      "##erals": 7491,
      "▁duc": 7492,
      "▁ask": 7493,
      "▁deck": 7494,
      "▁manual": 7495,
      "▁capit": 7496,
      "▁diver": 7497,
      "▁doesn": 7498,
      "▁winds": 7499,
      "▁purchase": 7500,
      "▁arrested": 7501,
      "▁unsuccess": 7502,
      "▁minnesota": 7503,
      "##cill": 7504,
      "▁ay": 7505,
      "▁gamm": 7506,
      "▁alaska": 7507,
      "##udi": 7508,
      "▁essays": 7509,
      "▁supers": 7510,
      "▁siege": 7511,
      "▁overseas": 7512,
      "▁excellent": 7513,
      "▁dioxide": 7514,
      "##wing": 7515,
      "▁whate": 7516,
      "▁uncom": 7517,
      "▁allen": 7518,
      "▁monetary": 7519,
      "##group": 7520,
      "▁wonder": 7521,
      "▁estimates": 7522,
      "▁prisoners": 7523,
      "▁synthesis": 7524,
      "▁bulgarian": 7525,
      "▁permitted": 7526,
      "##oust": 7527,
      "▁moreover": 7528,
      "▁grace": 7529,
      "▁personnel": 7530,
      "▁latvia": 7531,
      "▁cheap": 7532,
      "▁prompt": 7533,
      "▁oxid": 7534,
      "▁mixture": 7535,
      "▁torah": 7536,
      "▁unfortun": 7537,
      "▁explorer": 7538,
      "▁whatever": 7539,
      "▁miller": 7540,
      "▁tells": 7541,
      "▁franchise": 7542,
      "##sm": 7543,
      "##str": 7544,
      "▁chick": 7545,
      "▁racial": 7546,
      "▁mineral": 7547,
      "▁considerably": 7548,
      "▁confederate": 7549,
      "▁delivered": 7550,
      "▁monopoly": 7551,
      "##ses": 7552,
      "##enburg": 7553,
      "▁dot": 7554,
      "▁elabor": 7555,
      "▁quantity": 7556,
      "▁optical": 7557,
      "▁inventor": 7558,
      "▁wiki": 7559,
      "▁involvement": 7560,
      "▁teachings": 7561,
      "▁tet": 7562,
      "▁option": 7563,
      "##room": 7564,
      "▁heir": 7565,
      "▁adject": 7566,
      "▁accus": 7567,
      "▁photo": 7568,
      "▁measurement": 7569,
      "▁framework": 7570,
      "▁kazakh": 7571,
      "▁lifetime": 7572,
      "##die": 7573,
      "##atra": 7574,
      "▁migr": 7575,
      "##lyn": 7576,
      "##owed": 7577,
      "▁conclusion": 7578,
      "##ello": 7579,
      "▁crash": 7580,
      "▁broadcasting": 7581,
      "▁arranged": 7582,
      "▁taylor": 7583,
      "##sk": 7584,
      "▁theater": 7585,
      "▁whilst": 7586,
      "▁chi": 7587,
      "##ardo": 7588,
      "▁abc": 7589,
      "▁cultiv": 7590,
      "##ennon": 7591,
      "▁discipline": 7592,
      "▁catholics": 7593,
      "▁ere": 7594,
      "##part": 7595,
      "▁nam": 7596,
      "▁anime": 7597,
      "##eman": 7598,
      "▁sure": 7599,
      "▁serial": 7600,
      "▁blade": 7601,
      "▁retire": 7602,
      "▁insul": 7603,
      "▁winners": 7604,
      "▁neighbour": 7605,
      "▁consequently": 7606,
      "##fish": 7607,
      "▁pagan": 7608,
      "▁stability": 7609,
      "##see": 7610,
      "▁assess": 7611,
      "▁developments": 7612,
      "▁duties": 7613,
      "##helm": 7614,
      "▁journalist": 7615,
      "##ea": 7616,
      "▁pist": 7617,
      "##itative": 7618,
      "##itudes": 7619,
      "▁curve": 7620,
      "▁devil": 7621,
      "▁ethiopia": 7622,
      "▁intervention": 7623,
      "▁recept": 7624,
      "##ili": 7625,
      "▁isle": 7626,
      "▁kon": 7627,
      "##aca": 7628,
      "▁irre": 7629,
      "▁symph": 7630,
      "▁ariz": 7631,
      "▁punishment": 7632,
      "▁disputes": 7633,
      "▁nik": 7634,
      "▁dave": 7635,
      "▁voted": 7636,
      "▁scar": 7637,
      "▁tempor": 7638,
      "▁temporary": 7639,
      "▁controls": 7640,
      "▁observation": 7641,
      "▁enjoyed": 7642,
      "▁aristotle": 7643,
      "▁wings": 7644,
      "##emen": 7645,
      "▁amiga": 7646,
      "▁floren": 7647,
      "▁recordings": 7648,
      "▁returning": 7649,
      "▁properly": 7650,
      "▁footballer": 7651,
      "▁circumc": 7652,
      "##bu": 7653,
      "▁hi": 7654,
      "▁stick": 7655,
      "▁neuro": 7656,
      "▁resign": 7657,
      "▁prede": 7658,
      "▁subur": 7659,
      "▁monaster": 7660,
      "▁mystery": 7661,
      "▁explicitly": 7662,
      "▁cord": 7663,
      "▁gamb": 7664,
      "▁admitted": 7665,
      "▁spell": 7666,
      "▁coven": 7667,
      "▁seeking": 7668,
      "##aux": 7669,
      "▁devoted": 7670,
      "▁appearances": 7671,
      "▁participation": 7672,
      "▁ranges": 7673,
      "▁pairs": 7674,
      "▁buddhist": 7675,
      "▁patriarch": 7676,
      "▁bicy": 7677,
      "▁sultan": 7678,
      "##eg": 7679,
      "##div": 7680,
      "▁pars": 7681,
      "▁hidden": 7682,
      "##ista": 7683,
      "▁kash": 7684,
      "▁vl": 7685,
      "▁vinc": 7686,
      "##tsky": 7687,
      "▁handle": 7688,
      "▁linguistics": 7689,
      "▁bringing": 7690,
      "##sky": 7691,
      "##iest": 7692,
      "##rant": 7693,
      "##atus": 7694,
      "##omon": 7695,
      "▁worst": 7696,
      "▁pear": 7697,
      "▁autobi": 7698,
      "▁terminal": 7699,
      "▁depict": 7700,
      "▁revised": 7701,
      "▁volumes": 7702,
      "▁window": 7703,
      "▁robinson": 7704,
      "▁routes": 7705,
      "▁citizenship": 7706,
      "##page": 7707,
      "##bard": 7708,
      "▁ot": 7709,
      "▁uno": 7710,
      "▁shorter": 7711,
      "▁centers": 7712,
      "▁politicians": 7713,
      "▁childhood": 7714,
      "▁immigration": 7715,
      "▁negotiations": 7716,
      "▁vern": 7717,
      "##una": 7718,
      "▁suitable": 7719,
      "▁spr": 7720,
      "▁mete": 7721,
      "▁enthus": 7722,
      "▁approval": 7723,
      "▁rocket": 7724,
      "▁indicated": 7725,
      "▁immigrants": 7726,
      "##uct": 7727,
      "##inals": 7728,
      "▁alger": 7729,
      "##achers": 7730,
      "##illed": 7731,
      "▁marvel": 7732,
      "▁mao": 7733,
      "▁iranian": 7734,
      "▁missiles": 7735,
      "▁creative": 7736,
      "▁tunnel": 7737,
      "▁julian": 7738,
      "▁purchased": 7739,
      "▁efficiency": 7740,
      "▁dollars": 7741,
      "▁portrait": 7742,
      "▁comedian": 7743,
      "▁pale": 7744,
      "▁eve": 7745,
      "▁kam": 7746,
      "##esty": 7747,
      "▁obso": 7748,
      "##ostic": 7749,
      "▁singing": 7750,
      "▁finds": 7751,
      "▁agreements": 7752,
      "▁establishing": 7753,
      "▁legendary": 7754,
      "▁fishing": 7755,
      "▁vib": 7756,
      "##peg": 7757,
      "▁concrete": 7758,
      "▁prefix": 7759,
      "##endo": 7760,
      "▁scat": 7761,
      "▁recre": 7762,
      "▁metals": 7763,
      "▁finance": 7764,
      "##oster": 7765,
      "▁romania": 7766,
      "▁empir": 7767,
      "▁superman": 7768,
      "▁northeast": 7769,
      "▁implies": 7770,
      "▁paradox": 7771,
      "▁google": 7772,
      "▁lod": 7773,
      "▁gest": 7774,
      "##ochem": 7775,
      "▁consens": 7776,
      "▁belt": 7777,
      "▁termed": 7778,
      "▁restored": 7779,
      "▁covering": 7780,
      "▁tube": 7781,
      "▁orchestra": 7782,
      "##cribed": 7783,
      "▁arizona": 7784,
      "##oque": 7785,
      "##mond": 7786,
      "▁cyl": 7787,
      "▁wet": 7788,
      "▁gets": 7789,
      "▁vertical": 7790,
      "▁consonant": 7791,
      "▁kuwait": 7792,
      "▁fisc": 7793,
      "▁gren": 7794,
      "▁yan": 7795,
      "▁perception": 7796,
      "▁overl": 7797,
      "##rage": 7798,
      "▁stere": 7799,
      "▁peer": 7800,
      "▁recall": 7801,
      "##uracy": 7802,
      "▁prosper": 7803,
      "##uv": 7804,
      "##adi": 7805,
      "▁smooth": 7806,
      "▁exposed": 7807,
      "▁philadelph": 7808,
      "▁drives": 7809,
      "▁guitarist": 7810,
      "▁consequences": 7811,
      "▁genesis": 7812,
      "▁proposal": 7813,
      "▁mud": 7814,
      "▁stamp": 7815,
      "▁seeing": 7816,
      "▁assume": 7817,
      "▁eucl": 7818,
      "▁signif": 7819,
      "▁equally": 7820,
      "▁promoted": 7821,
      "▁vacu": 7822,
      "▁maritime": 7823,
      "##apolis": 7824,
      "▁mounted": 7825,
      "▁beauty": 7826,
      "▁situated": 7827,
      "▁proportion": 7828,
      "▁concluded": 7829,
      "##sch": 7830,
      "▁turing": 7831,
      "▁theological": 7832,
      "##esian": 7833,
      "▁athen": 7834,
      "▁caught": 7835,
      "▁adventure": 7836,
      "▁gordon": 7837,
      "▁oak": 7838,
      "▁pill": 7839,
      "▁oral": 7840,
      "▁interrupt": 7841,
      "▁franco": 7842,
      "▁grain": 7843,
      "▁returns": 7844,
      "##equ": 7845,
      "▁sant": 7846,
      "▁cn": 7847,
      "##isition": 7848,
      "▁bip": 7849,
      "▁andre": 7850,
      "▁neo": 7851,
      "▁nova": 7852,
      "##orship": 7853,
      "▁doom": 7854,
      "▁harrison": 7855,
      "▁concentrated": 7856,
      "▁terminology": 7857,
      "▁prussia": 7858,
      "▁fired": 7859,
      "▁bert": 7860,
      "##rogen": 7861,
      "▁ammon": 7862,
      "▁monitor": 7863,
      "▁incom": 7864,
      "▁releases": 7865,
      "▁ready": 7866,
      "▁obsc": 7867,
      "▁astero": 7868,
      "▁collective": 7869,
      "▁stopped": 7870,
      "▁babylon": 7871,
      "▁maurit": 7872,
      "▁removal": 7873,
      "▁ted": 7874,
      "▁fulf": 7875,
      "▁pant": 7876,
      "▁counties": 7877,
      "▁metab": 7878,
      "▁valuable": 7879,
      "▁vii": 7880,
      "▁magnet": 7881,
      "▁burning": 7882,
      "▁algebraic": 7883,
      "▁dynamic": 7884,
      "##omorphism": 7885,
      "▁millennium": 7886,
      "▁aware": 7887,
      "##imon": 7888,
      "▁johnny": 7889,
      "▁physician": 7890,
      "▁width": 7891,
      "##otype": 7892,
      "##western": 7893,
      "▁gamma": 7894,
      "##bow": 7895,
      "▁fusion": 7896,
      "▁lb": 7897,
      "##urt": 7898,
      "##agers": 7899,
      "▁intense": 7900,
      "▁varied": 7901,
      "▁adjacent": 7902,
      "▁margaret": 7903,
      "▁autonom": 7904,
      "▁tat": 7905,
      "▁pock": 7906,
      "▁enlight": 7907,
      "▁jobs": 7908,
      "▁singles": 7909,
      "▁wayne": 7910,
      "▁bread": 7911,
      "▁brad": 7912,
      "▁recognize": 7913,
      "▁jacques": 7914,
      "▁consequence": 7915,
      "▁philadelphia": 7916,
      "##esh": 7917,
      "##illing": 7918,
      "▁expend": 7919,
      "▁queens": 7920,
      "▁funding": 7921,
      "▁difficulties": 7922,
      "▁scandin": 7923,
      "▁voltage": 7924,
      "▁amateur": 7925,
      "##wed": 7926,
      "▁anderson": 7927,
      "▁reich": 7928,
      "▁iowa": 7929,
      "##icance": 7930,
      "▁phone": 7931,
      "▁remote": 7932,
      "▁collections": 7933,
      "▁triple": 7934,
      "▁circuits": 7935,
      "▁portrayed": 7936,
      "▁revelation": 7937,
      "▁obsolete": 7938,
      "##lock": 7939,
      "##cp": 7940,
      "▁therapy": 7941,
      "▁bund": 7942,
      "▁lac": 7943,
      "##eller": 7944,
      "▁servers": 7945,
      "▁railroad": 7946,
      "▁driving": 7947,
      "▁louisiana": 7948,
      "▁astronomy": 7949,
      "▁ceremony": 7950,
      "##aine": 7951,
      "▁oz": 7952,
      "##onto": 7953,
      "▁bm": 7954,
      "▁bak": 7955,
      "▁recovery": 7956,
      "▁interactive": 7957,
      "▁fewer": 7958,
      "##ijing": 7959,
      "▁instrumental": 7960,
      "▁housing": 7961,
      "▁rotation": 7962,
      "▁synthes": 7963,
      "##lah": 7964,
      "##rating": 7965,
      "▁dru": 7966,
      "▁deleg": 7967,
      "▁bless": 7968,
      "▁capita": 7969,
      "▁lock": 7970,
      "▁norman": 7971,
      "▁magnitude": 7972,
      "##iscop": 7973,
      "▁pronoun": 7974,
      "▁complicated": 7975,
      "▁chancellor": 7976,
      "##erb": 7977,
      "▁fbi": 7978,
      "▁bought": 7979,
      "▁pm": 7980,
      "▁mig": 7981,
      "▁proclaimed": 7982,
      "##ibilities": 7983,
      "▁ug": 7984,
      "▁quot": 7985,
      "▁extend": 7986,
      "▁cyber": 7987,
      "##chel": 7988,
      "▁trotsky": 7989,
      "▁tourist": 7990,
      "▁transformation": 7991,
      "▁arrival": 7992,
      "▁gravit": 7993,
      "▁strange": 7994,
      "▁anchor": 7995,
      "▁gauge": 7996,
      "##bles": 7997,
      "▁bone": 7998,
      "##orious": 7999,
      "▁gur": 8000,
      "##imore": 8001,
      "▁clergy": 8002,
      "▁minimal": 8003,
      "▁gluc": 8004,
      "▁bald": 8005,
      "▁subsid": 8006,
      "▁unoffic": 8007,
      "▁awa": 8008,
      "▁bour": 8009,
      "▁inhib": 8010,
      "▁nelson": 8011,
      "▁coinc": 8012,
      "▁looks": 8013,
      "▁subset": 8014,
      "▁reflected": 8015,
      "▁seventh": 8016,
      "▁cognitive": 8017,
      "▁tends": 8018,
      "▁gri": 8019,
      "##umps": 8020,
      "##acts": 8021,
      "▁editions": 8022,
      "▁buffalo": 8023,
      "▁cort": 8024,
      "##anol": 8025,
      "▁lig": 8026,
      "▁jup": 8027,
      "##ube": 8028,
      "▁info": 8029,
      "▁governing": 8030,
      "▁advis": 8031,
      "▁michel": 8032,
      "▁merged": 8033,
      "▁borough": 8034,
      "▁thompson": 8035,
      "▁dealing": 8036,
      "##logy": 8037,
      "▁ties": 8038,
      "▁wrest": 8039,
      "##eda": 8040,
      "▁dated": 8041,
      "▁gust": 8042,
      "▁consol": 8043,
      "▁muscle": 8044,
      "▁baron": 8045,
      "▁proto": 8046,
      "▁meanwhile": 8047,
      "▁microp": 8048,
      "▁topic": 8049,
      "▁settlements": 8050,
      "▁mercury": 8051,
      "▁dart": 8052,
      "##station": 8053,
      "▁clay": 8054,
      "▁designer": 8055,
      "##minster": 8056,
      "▁customs": 8057,
      "▁suffering": 8058,
      "▁ost": 8059,
      "▁bare": 8060,
      "##itic": 8061,
      "##eded": 8062,
      "▁semin": 8063,
      "▁beijing": 8064,
      "▁coins": 8065,
      "▁thereby": 8066,
      "▁accum": 8067,
      "▁median": 8068,
      "##gery": 8069,
      "▁baroque": 8070,
      "▁pointed": 8071,
      "▁denied": 8072,
      "▁cellular": 8073,
      "▁exceptions": 8074,
      "▁murray": 8075,
      "▁employment": 8076,
      "▁optim": 8077,
      "▁reconstruction": 8078,
      "▁fossil": 8079,
      "##pie": 8080,
      "##erts": 8081,
      "▁raise": 8082,
      "▁interst": 8083,
      "▁intermed": 8084,
      "▁entropy": 8085,
      "▁readers": 8086,
      "▁attempting": 8087,
      "▁luke": 8088,
      "##pass": 8089,
      "##iast": 8090,
      "▁coc": 8091,
      "▁rfc": 8092,
      "▁coat": 8093,
      "▁pregn": 8094,
      "▁auto": 8095,
      "▁authen": 8096,
      "##iki": 8097,
      "▁catch": 8098,
      "▁privile": 8099,
      "▁please": 8100,
      "▁mathematicians": 8101,
      "▁gregory": 8102,
      "▁dh": 8103,
      "▁rus": 8104,
      "##apore": 8105,
      "▁metro": 8106,
      "▁augustus": 8107,
      "▁surrounded": 8108,
      "▁bou": 8109,
      "##ubstant": 8110,
      "▁outl": 8111,
      "▁relevant": 8112,
      "##cover": 8113,
      "▁advice": 8114,
      "▁marketing": 8115,
      "▁tribute": 8116,
      "▁quantities": 8117,
      "▁printing": 8118,
      "▁summary": 8119,
      "▁significance": 8120,
      "##bul": 8121,
      "##iates": 8122,
      "▁fisher": 8123,
      "▁tob": 8124,
      "##aco": 8125,
      "##iva": 8126,
      "▁thanks": 8127,
      "▁belgian": 8128,
      "▁factory": 8129,
      "▁hypn": 8130,
      "▁threatened": 8131,
      "▁ig": 8132,
      "##oons": 8133,
      "▁eis": 8134,
      "▁scots": 8135,
      "▁corruption": 8136,
      "▁maintains": 8137,
      "▁manufactured": 8138,
      "▁liverpool": 8139,
      "▁dee": 8140,
      "▁resur": 8141,
      "▁moderate": 8142,
      "▁independently": 8143,
      "▁convert": 8144,
      "▁hawaii": 8145,
      "##mund": 8146,
      "▁bry": 8147,
      "▁ongoing": 8148,
      "▁conce": 8149,
      "▁poets": 8150,
      "▁singapore": 8151,
      "▁easter": 8152,
      "▁participate": 8153,
      "▁jupiter": 8154,
      "▁cock": 8155,
      "▁mast": 8156,
      "##uma": 8157,
      "▁yield": 8158,
      "▁abund": 8159,
      "▁commem": 8160,
      "▁disorders": 8161,
      "▁quoted": 8162,
      "▁episcop": 8163,
      "▁reader": 8164,
      "▁adoption": 8165,
      "▁taxes": 8166,
      "▁palestine": 8167,
      "▁mirror": 8168,
      "▁neighborhood": 8169,
      "▁refugees": 8170,
      "▁simultaneously": 8171,
      "▁wider": 8172,
      "▁db": 8173,
      "▁dys": 8174,
      "▁eating": 8175,
      "▁reun": 8176,
      "▁rou": 8177,
      "##rium": 8178,
      "▁accuracy": 8179,
      "▁operators": 8180,
      "▁performances": 8181,
      "▁symbolic": 8182,
      "▁satur": 8183,
      "▁oscar": 8184,
      "▁adventures": 8185,
      "▁attracted": 8186,
      "##ovakia": 8187,
      "▁malaysia": 8188,
      "▁session": 8189,
      "##using": 8190,
      "▁stores": 8191,
      "▁kiss": 8192,
      "▁compare": 8193,
      "▁obst": 8194,
      "▁inches": 8195,
      "▁romance": 8196,
      "▁chemist": 8197,
      "▁remainder": 8198,
      "▁aimed": 8199,
      "▁stanley": 8200,
      "▁bosnia": 8201,
      "▁exercise": 8202,
      "▁authentic": 8203,
      "▁bath": 8204,
      "▁struck": 8205,
      "▁alive": 8206,
      "▁indirect": 8207,
      "▁hunt": 8208,
      "▁berg": 8209,
      "▁terrorist": 8210,
      "▁kosovo": 8211,
      "▁phoenix": 8212,
      "▁vacuum": 8213,
      "▁ai": 8214,
      "▁fi": 8215,
      "##izer": 8216,
      "▁blocks": 8217,
      "▁minerals": 8218,
      "▁studios": 8219,
      "▁barry": 8220,
      "▁trem": 8221,
      "▁acceptance": 8222,
      "▁conservation": 8223,
      "▁reviews": 8224,
      "▁sensitive": 8225,
      "▁croatia": 8226,
      "▁gandhi": 8227,
      "##zh": 8228,
      "##odia": 8229,
      "▁beck": 8230,
      "▁overth": 8231,
      "▁drama": 8232,
      "▁legislature": 8233,
      "▁happy": 8234,
      "▁lieuten": 8235,
      "▁extensively": 8236,
      "▁shadow": 8237,
      "▁baltimore": 8238,
      "▁expendit": 8239,
      "##rell": 8240,
      "▁ward": 8241,
      "▁mine": 8242,
      "##omot": 8243,
      "▁bever": 8244,
      "##oli": 8245,
      "▁chris": 8246,
      "▁comprom": 8247,
      "▁genres": 8248,
      "▁entity": 8249,
      "▁swit": 8250,
      "▁employees": 8251,
      "##zilla": 8252,
      "##erial": 8253,
      "##aman": 8254,
      "▁willing": 8255,
      "▁anthem": 8256,
      "▁trivia": 8257,
      "▁homes": 8258,
      "▁cuban": 8259,
      "▁casual": 8260,
      "▁rifle": 8261,
      "##wich": 8262,
      "##krit": 8263,
      "##itt": 8264,
      "##orate": 8265,
      "##ether": 8266,
      "▁conform": 8267,
      "▁kan": 8268,
      "##aceae": 8269,
      "▁coron": 8270,
      "▁cattle": 8271,
      "▁bullet": 8272,
      "▁nickname": 8273,
      "##kind": 8274,
      "▁craft": 8275,
      "▁zo": 8276,
      "▁sphere": 8277,
      "▁resigned": 8278,
      "▁agencies": 8279,
      "▁worlds": 8280,
      "▁europeans": 8281,
      "▁versus": 8282,
      "▁viii": 8283,
      "▁unemployment": 8284,
      "##rill": 8285,
      "▁aka": 8286,
      "▁rings": 8287,
      "▁unions": 8288,
      "▁coined": 8289,
      "▁telecommun": 8290,
      "▁narrative": 8291,
      "▁graduate": 8292,
      "▁girls": 8293,
      "▁ieee": 8294,
      "▁axiom": 8295,
      "▁luxemb": 8296,
      "▁clothing": 8297,
      "▁jay": 8298,
      "▁syd": 8299,
      "▁argu": 8300,
      "▁approaches": 8301,
      "▁fallen": 8302,
      "▁timeline": 8303,
      "▁wilhelm": 8304,
      "▁settlers": 8305,
      "▁enormous": 8306,
      "▁fet": 8307,
      "▁trains": 8308,
      "▁monroe": 8309,
      "▁milan": 8310,
      "▁decay": 8311,
      "▁broadway": 8312,
      "▁offering": 8313,
      "▁embra": 8314,
      "▁serbia": 8315,
      "▁ble": 8316,
      "▁bent": 8317,
      "##itre": 8318,
      "▁lor": 8319,
      "▁alp": 8320,
      "##ules": 8321,
      "▁marie": 8322,
      "▁generate": 8323,
      "▁patron": 8324,
      "▁holes": 8325,
      "▁machin": 8326,
      "##mont": 8327,
      "▁mutual": 8328,
      "▁friendly": 8329,
      "▁drinking": 8330,
      "##iver": 8331,
      "##no": 8332,
      "▁stack": 8333,
      "▁sharing": 8334,
      "▁coverage": 8335,
      "▁honour": 8336,
      "▁toronto": 8337,
      "##bus": 8338,
      "##gl": 8339,
      "##heas": 8340,
      "##isations": 8341,
      "##agle": 8342,
      "▁butt": 8343,
      "▁teen": 8344,
      "##pled": 8345,
      "▁nationalist": 8346,
      "▁swim": 8347,
      "▁studying": 8348,
      "▁addresses": 8349,
      "▁aaron": 8350,
      "##aware": 8351,
      "▁gross": 8352,
      "##abul": 8353,
      "▁edin": 8354,
      "##atherine": 8355,
      "▁communists": 8356,
      "▁priests": 8357,
      "▁requiring": 8358,
      "##apped": 8359,
      "▁ecu": 8360,
      "▁bulk": 8361,
      "▁automatically": 8362,
      "▁geneva": 8363,
      "▁salvador": 8364,
      "▁disagree": 8365,
      "▁surn": 8366,
      "▁finger": 8367,
      "##itary": 8368,
      "▁shield": 8369,
      "▁guest": 8370,
      "▁entering": 8371,
      "▁binding": 8372,
      "▁voyage": 8373,
      "##phem": 8374,
      "▁nm": 8375,
      "▁stones": 8376,
      "▁alab": 8377,
      "▁arsen": 8378,
      "▁afc": 8379,
      "▁marry": 8380,
      "##ugh": 8381,
      "▁monument": 8382,
      "▁load": 8383,
      "▁decimal": 8384,
      "▁objective": 8385,
      "▁dogs": 8386,
      "▁injury": 8387,
      "##untary": 8388,
      "▁errors": 8389,
      "▁taste": 8390,
      "▁membrane": 8391,
      "▁meteor": 8392,
      "▁consensus": 8393,
      "##bro": 8394,
      "##fr": 8395,
      "▁faces": 8396,
      "##itis": 8397,
      "▁mh": 8398,
      "##ocation": 8399,
      "##outs": 8400,
      "▁desired": 8401,
      "▁lasted": 8402,
      "▁defining": 8403,
      "▁fragment": 8404,
      "▁weekly": 8405,
      "▁rolling": 8406,
      "▁besides": 8407,
      "▁dolph": 8408,
      "▁paintings": 8409,
      "▁arguably": 8410,
      "##gie": 8411,
      "##amine": 8412,
      "##ulu": 8413,
      "▁voters": 8414,
      "##ifier": 8415,
      "##emic": 8416,
      "##ologically": 8417,
      "▁feast": 8418,
      "▁matt": 8419,
      "##engers": 8420,
      "▁receives": 8421,
      "▁conventions": 8422,
      "##ulsion": 8423,
      "▁aus": 8424,
      "▁cree": 8425,
      "▁pyr": 8426,
      "##osaur": 8427,
      "▁manga": 8428,
      "▁generations": 8429,
      "▁larry": 8430,
      "▁programme": 8431,
      "▁revival": 8432,
      "▁liberalism": 8433,
      "▁happen": 8434,
      "▁shares": 8435,
      "▁brazilian": 8436,
      "▁saxon": 8437,
      "▁micropro": 8438,
      "##ean": 8439,
      "##ci": 8440,
      "##mud": 8441,
      "##zs": 8442,
      "▁tick": 8443,
      "▁aest": 8444,
      "##eness": 8445,
      "▁plains": 8446,
      "##hana": 8447,
      "▁slavic": 8448,
      "##feld": 8449,
      "##imir": 8450,
      "##emed": 8451,
      "▁shir": 8452,
      "▁boot": 8453,
      "▁overw": 8454,
      "▁austin": 8455,
      "▁natives": 8456,
      "▁peters": 8457,
      "▁painted": 8458,
      "##haust": 8459,
      "▁sequences": 8460,
      "▁counterpart": 8461,
      "▁observer": 8462,
      "▁incorrect": 8463,
      "▁administered": 8464,
      "▁ian": 8465,
      "▁tig": 8466,
      "##alia": 8467,
      "▁leib": 8468,
      "▁metres": 8469,
      "▁britann": 8470,
      "▁retain": 8471,
      "▁complement": 8472,
      "▁exploration": 8473,
      "▁violin": 8474,
      "▁diego": 8475,
      "▁shooting": 8476,
      "▁championships": 8477,
      "▁exposure": 8478,
      "▁autonomous": 8479,
      "##cia": 8480,
      "##ishers": 8481,
      "▁comments": 8482,
      "##aks": 8483,
      "▁funeral": 8484,
      "▁antib": 8485,
      "▁vert": 8486,
      "▁kingdoms": 8487,
      "▁cutting": 8488,
      "▁tendency": 8489,
      "▁hellen": 8490,
      "▁compiler": 8491,
      "▁procedures": 8492,
      "▁lithuanian": 8493,
      "▁colombia": 8494,
      "▁inherent": 8495,
      "▁eternal": 8496,
      "##vet": 8497,
      "##essions": 8498,
      "▁barn": 8499,
      "▁argues": 8500,
      "▁alongside": 8501,
      "▁momentum": 8502,
      "▁elevation": 8503,
      "▁semitic": 8504,
      "▁gm": 8505,
      "▁kant": 8506,
      "##illery": 8507,
      "▁underlying": 8508,
      "▁albania": 8509,
      "▁maryland": 8510,
      "▁tradem": 8511,
      "▁schedule": 8512,
      "▁nt": 8513,
      "##ifice": 8514,
      "▁phill": 8515,
      "▁transmit": 8516,
      "▁cyp": 8517,
      "▁stronger": 8518,
      "▁heroes": 8519,
      "▁inspiration": 8520,
      "▁dimensions": 8521,
      "▁mammals": 8522,
      "▁merchant": 8523,
      "▁lamp": 8524,
      "▁gam": 8525,
      "##illy": 8526,
      "▁enhan": 8527,
      "▁formats": 8528,
      "▁bohem": 8529,
      "##oking": 8530,
      "▁governed": 8531,
      "▁governors": 8532,
      "▁discrim": 8533,
      "▁nationality": 8534,
      "▁latest": 8535,
      "▁truly": 8536,
      "▁costa": 8537,
      "▁ascii": 8538,
      "▁adaptation": 8539,
      "▁revenue": 8540,
      "▁abolished": 8541,
      "▁clinical": 8542,
      "▁sang": 8543,
      "▁mbox": 8544,
      "##orus": 8545,
      "▁va": 8546,
      "▁blu": 8547,
      "▁grade": 8548,
      "▁trinity": 8549,
      "▁digit": 8550,
      "▁competitive": 8551,
      "▁businesses": 8552,
      "▁looked": 8553,
      "▁jimmy": 8554,
      "▁python": 8555,
      "▁lieutenant": 8556,
      "##cd": 8557,
      "##orous": 8558,
      "▁segment": 8559,
      "▁exhaust": 8560,
      "▁geographical": 8561,
      "▁terrain": 8562,
      "▁hoover": 8563,
      "▁juan": 8564,
      "▁activist": 8565,
      "▁trek": 8566,
      "▁assistant": 8567,
      "▁crops": 8568,
      "##father": 8569,
      "▁tables": 8570,
      "▁sap": 8571,
      "▁bid": 8572,
      "▁nag": 8573,
      "##arin": 8574,
      "▁brook": 8575,
      "▁locomot": 8576,
      "▁slang": 8577,
      "▁henri": 8578,
      "▁facult": 8579,
      "▁tasks": 8580,
      "▁stood": 8581,
      "▁ket": 8582,
      "▁shakes": 8583,
      "▁spar": 8584,
      "▁wearing": 8585,
      "▁infection": 8586,
      "▁undert": 8587,
      "▁considering": 8588,
      "▁mickey": 8589,
      "▁hunter": 8590,
      "▁wright": 8591,
      "▁occasions": 8592,
      "▁helium": 8593,
      "▁edinburgh": 8594,
      "▁sri": 8595,
      "##aro": 8596,
      "▁gel": 8597,
      "▁vital": 8598,
      "▁subdiv": 8599,
      "▁evident": 8600,
      "▁flour": 8601,
      "▁publisher": 8602,
      "##anni": 8603,
      "▁annivers": 8604,
      "▁libya": 8605,
      "▁atlas": 8606,
      "▁requirement": 8607,
      "▁interpretations": 8608,
      "▁supplies": 8609,
      "▁metaphys": 8610,
      "▁electromagnetic": 8611,
      "▁florence": 8612,
      "▁arose": 8613,
      "##erg": 8614,
      "▁mild": 8615,
      "▁dust": 8616,
      "▁pool": 8617,
      "▁memor": 8618,
      "▁franz": 8619,
      "▁politically": 8620,
      "▁replacing": 8621,
      "▁bills": 8622,
      "##after": 8623,
      "▁installed": 8624,
      "##lon": 8625,
      "▁cem": 8626,
      "▁golf": 8627,
      "▁tea": 8628,
      "▁consent": 8629,
      "▁interf": 8630,
      "▁regulations": 8631,
      "▁cargo": 8632,
      "▁gray": 8633,
      "▁patrick": 8634,
      "▁trials": 8635,
      "▁farming": 8636,
      "▁mechanisms": 8637,
      "▁tomb": 8638,
      "##bourne": 8639,
      "▁opposing": 8640,
      "▁repeatedly": 8641,
      "▁ceremon": 8642,
      "▁unfortunately": 8643,
      "##abulary": 8644,
      "▁sulf": 8645,
      "▁naming": 8646,
      "▁dian": 8647,
      "▁prose": 8648,
      "▁unw": 8649,
      "##ocent": 8650,
      "##ipse": 8651,
      "▁abbe": 8652,
      "##ateral": 8653,
      "▁persu": 8654,
      "▁opens": 8655,
      "▁applies": 8656,
      "▁centered": 8657,
      "▁nominated": 8658,
      "▁unlikely": 8659,
      "▁bombing": 8660,
      "▁consonants": 8661,
      "##sburg": 8662,
      "##zes": 8663,
      "▁denn": 8664,
      "▁coe": 8665,
      "▁matches": 8666,
      "▁creates": 8667,
      "▁battery": 8668,
      "▁silent": 8669,
      "▁seriously": 8670,
      "▁purely": 8671,
      "▁jonathan": 8672,
      "▁kentucky": 8673,
      "▁pioneer": 8674,
      "▁forg": 8675,
      "▁alumn": 8676,
      "▁cluster": 8677,
      "▁abu": 8678,
      "▁abortion": 8679,
      "▁recru": 8680,
      "▁minim": 8681,
      "▁organism": 8682,
      "▁visitors": 8683,
      "▁liberals": 8684,
      "▁encomp": 8685,
      "▁appearing": 8686,
      "▁provincial": 8687,
      "▁recommended": 8688,
      "▁tactics": 8689,
      "▁hierarchy": 8690,
      "▁acknowled": 8691,
      "▁encompass": 8692,
      "▁tied": 8693,
      "▁aa": 8694,
      "▁fern": 8695,
      "##icing": 8696,
      "▁rever": 8697,
      "##ationally": 8698,
      "##ourg": 8699,
      "▁arama": 8700,
      "##enders": 8701,
      "▁instant": 8702,
      "▁entities": 8703,
      "▁impression": 8704,
      "▁economies": 8705,
      "▁missing": 8706,
      "▁hosts": 8707,
      "▁facilit": 8708,
      "▁embed": 8709,
      "▁complain": 8710,
      "▁diamonds": 8711,
      "▁ussr": 8712,
      "##iy": 8713,
      "▁inaug": 8714,
      "▁horm": 8715,
      "##agne": 8716,
      "▁brass": 8717,
      "▁saudi": 8718,
      "▁demands": 8719,
      "▁kevin": 8720,
      "▁grave": 8721,
      "▁definite": 8722,
      "▁creatures": 8723,
      "▁odd": 8724,
      "▁ranging": 8725,
      "▁philippines": 8726,
      "▁sanskrit": 8727,
      "▁sydney": 8728,
      "▁aramaic": 8729,
      "▁fract": 8730,
      "▁dy": 8731,
      "▁sees": 8732,
      "▁stem": 8733,
      "▁ry": 8734,
      "▁deskt": 8735,
      "▁developers": 8736,
      "▁morris": 8737,
      "##ymes": 8738,
      "▁consisted": 8739,
      "▁cocaine": 8740,
      "▁aluminium": 8741,
      "▁leibn": 8742,
      "##ender": 8743,
      "▁gael": 8744,
      "▁spending": 8745,
      "▁criteria": 8746,
      "▁qur": 8747,
      "▁homosexuality": 8748,
      "##dinand": 8749,
      "##uated": 8750,
      "##yll": 8751,
      "▁aj": 8752,
      "▁sick": 8753,
      "▁mason": 8754,
      "##icut": 8755,
      "▁reaches": 8756,
      "##rac": 8757,
      "▁aside": 8758,
      "▁leaf": 8759,
      "##allas": 8760,
      "▁compens": 8761,
      "▁pret": 8762,
      "▁apprec": 8763,
      "▁reprint": 8764,
      "▁invaded": 8765,
      "▁swing": 8766,
      "▁ski": 8767,
      "▁derives": 8768,
      "▁identification": 8769,
      "▁dominican": 8770,
      "▁arabia": 8771,
      "▁integers": 8772,
      "▁striking": 8773,
      "▁damaged": 8774,
      "▁crack": 8775,
      "▁perpet": 8776,
      "▁etymology": 8777,
      "▁mb": 8778,
      "▁niet": 8779,
      "▁unre": 8780,
      "▁teachers": 8781,
      "▁recur": 8782,
      "▁attorn": 8783,
      "▁writes": 8784,
      "▁decide": 8785,
      "▁microw": 8786,
      "▁reasoning": 8787,
      "▁adopt": 8788,
      "▁ferdinand": 8789,
      "▁feeling": 8790,
      "▁amendment": 8791,
      "▁unofficial": 8792,
      "##rons": 8793,
      "▁fate": 8794,
      "▁bn": 8795,
      "▁loren": 8796,
      "▁comet": 8797,
      "▁canter": 8798,
      "▁spoke": 8799,
      "▁engage": 8800,
      "▁transmitted": 8801,
      "▁norse": 8802,
      "▁elite": 8803,
      "▁freely": 8804,
      "▁realm": 8805,
      "▁solve": 8806,
      "▁cats": 8807,
      "▁circular": 8808,
      "▁hitch": 8809,
      "▁survival": 8810,
      "▁shoot": 8811,
      "▁gravitational": 8812,
      "##heastern": 8813,
      "##db": 8814,
      "##matic": 8815,
      "▁jury": 8816,
      "▁item": 8817,
      "▁abroad": 8818,
      "▁statesman": 8819,
      "▁evening": 8820,
      "▁godzilla": 8821,
      "▁troll": 8822,
      "▁psychiat": 8823,
      "▁conflicts": 8824,
      "▁danger": 8825,
      "▁advocates": 8826,
      "▁encourage": 8827,
      "▁shakespe": 8828,
      "▁leibniz": 8829,
      "##fs": 8830,
      "##rol": 8831,
      "##ird": 8832,
      "▁heret": 8833,
      "▁mans": 8834,
      "▁cancell": 8835,
      "▁doors": 8836,
      "##ails": 8837,
      "▁breath": 8838,
      "▁brah": 8839,
      "▁socialism": 8840,
      "▁arabs": 8841,
      "▁novelist": 8842,
      "▁fifty": 8843,
      "▁explosion": 8844,
      "▁nouns": 8845,
      "▁recommend": 8846,
      "▁sophistic": 8847,
      "##ping": 8848,
      "▁cinc": 8849,
      "▁gore": 8850,
      "##ulates": 8851,
      "▁plague": 8852,
      "▁newer": 8853,
      "▁boom": 8854,
      "▁warner": 8855,
      "▁carries": 8856,
      "##othy": 8857,
      "▁communion": 8858,
      "▁lights": 8859,
      "▁anthropology": 8860,
      "▁wiscons": 8861,
      "▁eugen": 8862,
      "▁alchem": 8863,
      "▁massacre": 8864,
      "##chron": 8865,
      "▁alter": 8866,
      "##elin": 8867,
      "▁hearing": 8868,
      "▁scope": 8869,
      "▁knock": 8870,
      "▁aviation": 8871,
      "▁physiology": 8872,
      "▁judah": 8873,
      "▁graphic": 8874,
      "▁derivative": 8875,
      "▁manufacturer": 8876,
      "▁glucose": 8877,
      "▁wisconsin": 8878,
      "▁till": 8879,
      "##atem": 8880,
      "▁bore": 8881,
      "##heric": 8882,
      "▁genetics": 8883,
      "▁defines": 8884,
      "▁estonia": 8885,
[...]
